{
  "version": "1.0",
  "truncation": null,
  "padding": null,
  "added_tokens": [
    {
      "id": 0,
      "special": true,
      "content": "[PAD]",
      "single_word": false,
      "lstrip": false,
      "rstrip": false,
      "normalized": false
    },
    {
      "id": 1,
      "special": true,
      "content": "[UNK]",
      "single_word": false,
      "lstrip": false,
      "rstrip": false,
      "normalized": false
    },
    {
      "id": 2,
      "special": true,
      "content": "[CLS]",
      "single_word": false,
      "lstrip": false,
      "rstrip": false,
      "normalized": false
    },
    {
      "id": 3,
      "special": true,
      "content": "[SEP]",
      "single_word": false,
      "lstrip": false,
      "rstrip": false,
      "normalized": false
    },
    {
      "id": 4,
      "special": true,
      "content": "[MASK]",
      "single_word": false,
      "lstrip": false,
      "rstrip": false,
      "normalized": false
    }
  ],
  "normalizer": {
    "type": "BertNormalizer",
    "clean_text": true,
    "handle_chinese_chars": true,
    "strip_accents": false,
    "lowercase": false
  },
  "pre_tokenizer": {
    "type": "BertPreTokenizer"
  },
  "post_processor": {
    "type": "TemplateProcessing",
    "single": [
      {
        "SpecialToken": {
          "id": "[CLS]",
          "type_id": 0
        }
      },
      {
        "Sequence": {
          "id": "A",
          "type_id": 0
        }
      },
      {
        "SpecialToken": {
          "id": "[SEP]",
          "type_id": 0
        }
      }
    ],
    "pair": [
      {
        "SpecialToken": {
          "id": "[CLS]",
          "type_id": 0
        }
      },
      {
        "Sequence": {
          "id": "A",
          "type_id": 0
        }
      },
      {
        "SpecialToken": {
          "id": "[SEP]",
          "type_id": 0
        }
      },
      {
        "Sequence": {
          "id": "B",
          "type_id": 1
        }
      },
      {
        "SpecialToken": {
          "id": "[SEP]",
          "type_id": 1
        }
      }
    ],
    "special_tokens": {
      "[CLS]": {
        "id": "[CLS]",
        "ids": [
          2
        ],
        "tokens": [
          "[CLS]"
        ]
      },
      "[SEP]": {
        "id": "[SEP]",
        "ids": [
          3
        ],
        "tokens": [
          "[SEP]"
        ]
      }
    }
  },
  "decoder": {
    "type": "WordPiece",
    "prefix": "##",
    "cleanup": true
  },
  "model": {
    "type": "WordPiece",
    "unk_token": "[UNK]",
    "continuing_subword_prefix": "##",
    "max_input_chars_per_word": 100,
    "vocab": {
      "[PAD]": 0,
      "[UNK]": 1,
      "[CLS]": 2,
      "[SEP]": 3,
      "[MASK]": 4,
      "!": 5,
      "\"": 6,
      "#": 7,
      "$": 8,
      "%": 9,
      "&": 10,
      "'": 11,
      "(": 12,
      ")": 13,
      "*": 14,
      "+": 15,
      ",": 16,
      "-": 17,
      ".": 18,
      "/": 19,
      "0": 20,
      "1": 21,
      "2": 22,
      "3": 23,
      "4": 24,
      "5": 25,
      "6": 26,
      "7": 27,
      "8": 28,
      "9": 29,
      ":": 30,
      ";": 31,
      "<": 32,
      "=": 33,
      ">": 34,
      "?": 35,
      "@": 36,
      "A": 37,
      "B": 38,
      "C": 39,
      "D": 40,
      "E": 41,
      "F": 42,
      "G": 43,
      "H": 44,
      "I": 45,
      "J": 46,
      "K": 47,
      "L": 48,
      "M": 49,
      "N": 50,
      "O": 51,
      "P": 52,
      "Q": 53,
      "R": 54,
      "S": 55,
      "T": 56,
      "U": 57,
      "V": 58,
      "W": 59,
      "X": 60,
      "Y": 61,
      "Z": 62,
      "[": 63,
      "\\": 64,
      "]": 65,
      "^": 66,
      "_": 67,
      "a": 68,
      "b": 69,
      "c": 70,
      "d": 71,
      "e": 72,
      "f": 73,
      "g": 74,
      "h": 75,
      "i": 76,
      "j": 77,
      "k": 78,
      "l": 79,
      "m": 80,
      "n": 81,
      "o": 82,
      "p": 83,
      "q": 84,
      "r": 85,
      "s": 86,
      "t": 87,
      "u": 88,
      "v": 89,
      "w": 90,
      "x": 91,
      "y": 92,
      "z": 93,
      "{": 94,
      "|": 95,
      "}": 96,
      "~": 97,
      "¡": 98,
      "£": 99,
      "¥": 100,
      "§": 101,
      "©": 102,
      "ª": 103,
      "«": 104,
      "¬": 105,
      "®": 106,
      "°": 107,
      "±": 108,
      "´": 109,
      "·": 110,
      "º": 111,
      "»": 112,
      "¼": 113,
      "½": 114,
      "¾": 115,
      "¿": 116,
      "À": 117,
      "Á": 118,
      "Â": 119,
      "Ä": 120,
      "Å": 121,
      "Æ": 122,
      "Ç": 123,
      "È": 124,
      "É": 125,
      "Ê": 126,
      "Ë": 127,
      "Ì": 128,
      "Í": 129,
      "Î": 130,
      "Ï": 131,
      "Ñ": 132,
      "Ò": 133,
      "Ó": 134,
      "Ô": 135,
      "Õ": 136,
      "Ö": 137,
      "Ø": 138,
      "Ù": 139,
      "Ú": 140,
      "Û": 141,
      "Ü": 142,
      "Þ": 143,
      "ß": 144,
      "à": 145,
      "á": 146,
      "â": 147,
      "ä": 148,
      "å": 149,
      "æ": 150,
      "ç": 151,
      "è": 152,
      "é": 153,
      "ê": 154,
      "ë": 155,
      "ì": 156,
      "í": 157,
      "î": 158,
      "ï": 159,
      "ð": 160,
      "ñ": 161,
      "ò": 162,
      "ó": 163,
      "ô": 164,
      "õ": 165,
      "ö": 166,
      "ø": 167,
      "ù": 168,
      "ú": 169,
      "û": 170,
      "ü": 171,
      "ý": 172,
      "þ": 173,
      "ÿ": 174,
      "ă": 175,
      "ė": 176,
      "ĺ": 177,
      "Œ": 178,
      "œ": 179,
      "ś": 180,
      "Š": 181,
      "š": 182,
      "ţ": 183,
      "Ÿ": 184,
      "Ź": 185,
      "Ž": 186,
      "ž": 187,
      "ƒ": 188,
      "ȏ": 189,
      "Ά": 190,
      "Έ": 191,
      "Ή": 192,
      "Ί": 193,
      "Ό": 194,
      "Ύ": 195,
      "Ώ": 196,
      "ΐ": 197,
      "Α": 198,
      "Β": 199,
      "Γ": 200,
      "Δ": 201,
      "Ε": 202,
      "Ζ": 203,
      "Η": 204,
      "Θ": 205,
      "Ι": 206,
      "Κ": 207,
      "Λ": 208,
      "Μ": 209,
      "Ν": 210,
      "Ξ": 211,
      "Ο": 212,
      "Π": 213,
      "Ρ": 214,
      "Σ": 215,
      "Τ": 216,
      "Υ": 217,
      "Φ": 218,
      "Χ": 219,
      "Ψ": 220,
      "Ϊ": 221,
      "ά": 222,
      "έ": 223,
      "ή": 224,
      "ί": 225,
      "ΰ": 226,
      "α": 227,
      "β": 228,
      "γ": 229,
      "δ": 230,
      "ε": 231,
      "ζ": 232,
      "η": 233,
      "θ": 234,
      "ι": 235,
      "κ": 236,
      "λ": 237,
      "μ": 238,
      "ν": 239,
      "ξ": 240,
      "ο": 241,
      "π": 242,
      "ρ": 243,
      "ς": 244,
      "σ": 245,
      "τ": 246,
      "υ": 247,
      "φ": 248,
      "χ": 249,
      "ψ": 250,
      "ω": 251,
      "ϊ": 252,
      "ϋ": 253,
      "ό": 254,
      "ύ": 255,
      "ώ": 256,
      "Ё": 257,
      "І": 258,
      "А": 259,
      "Б": 260,
      "В": 261,
      "Г": 262,
      "Д": 263,
      "Е": 264,
      "Ж": 265,
      "З": 266,
      "И": 267,
      "Й": 268,
      "К": 269,
      "Л": 270,
      "М": 271,
      "Н": 272,
      "О": 273,
      "П": 274,
      "Р": 275,
      "С": 276,
      "Т": 277,
      "У": 278,
      "Ф": 279,
      "Х": 280,
      "Ц": 281,
      "Ч": 282,
      "Ш": 283,
      "Щ": 284,
      "Ъ": 285,
      "Ы": 286,
      "Ь": 287,
      "Э": 288,
      "Ю": 289,
      "Я": 290,
      "а": 291,
      "б": 292,
      "в": 293,
      "г": 294,
      "д": 295,
      "е": 296,
      "ж": 297,
      "з": 298,
      "и": 299,
      "й": 300,
      "к": 301,
      "л": 302,
      "м": 303,
      "н": 304,
      "о": 305,
      "п": 306,
      "р": 307,
      "с": 308,
      "т": 309,
      "у": 310,
      "ф": 311,
      "х": 312,
      "ц": 313,
      "ч": 314,
      "ш": 315,
      "щ": 316,
      "ъ": 317,
      "ы": 318,
      "ь": 319,
      "э": 320,
      "ю": 321,
      "я": 322,
      "ё": 323,
      "і": 324,
      "ѣ": 325,
      "Ѳ": 326,
      "ѳ": 327,
      "Ѵ": 328,
      "ѵ": 329,
      "પ": 330,
      "૪": 331,
      "૮": 332,
      "ಫ": 333,
      "೾": 334,
      "൮": 335,
      "්": 336,
      "ྫྷ": 337,
      "—": 338,
      "‘": 339,
      "’": 340,
      "“": 341,
      "”": 342,
      "„": 343,
      "†": 344,
      "•": 345,
      "₤": 346,
      "€": 347,
      "№": 348,
      "™": 349,
      "■": 350,
      "□": 351,
      "▲": 352,
      "►": 353,
      "▻": 354,
      "▼": 355,
      "◄": 356,
      "○": 357,
      "◦": 358,
      "★": 359,
      "☆": 360,
      "♦": 361,
      "✓": 362,
      "❖": 363,
      "㿪": 364,
      "뫜": 365,
      "뫞": 366,
      "쪬": 367,
      "쮿": 368,
      "﷾": 369,
      "Ｂ": 370,
      "##o": 371,
      "##r": 372,
      "##v": 373,
      "##a": 374,
      "##s": 375,
      "##t": 376,
      "##i": 377,
      "##l": 378,
      "##j": 379,
      "##e": 380,
      "##y": 381,
      "##S": 382,
      "##u": 383,
      "##h": 384,
      "##n": 385,
      "##c": 386,
      "##k": 387,
      "##b": 388,
      "##d": 389,
      "##ö": 390,
      "##ä": 391,
      "##Ä": 392,
      "##x": 393,
      "##p": 394,
      "##w": 395,
      "##V": 396,
      "##z": 397,
      "##m": 398,
      "##g": 399,
      "##M": 400,
      "##4": 401,
      "##1": 402,
      "##D": 403,
      "##0": 404,
      "##f": 405,
      "##K": 406,
      "##ü": 407,
      "##B": 408,
      "##2": 409,
      "##5": 410,
      "##E": 411,
      "##Y": 412,
      "##A": 413,
      "##L": 414,
      "##O": 415,
      "##I": 416,
      "##P": 417,
      "##R": 418,
      "##T": 419,
      "##ç": 420,
      "##ï": 421,
      "##U": 422,
      "##é": 423,
      "##J": 424,
      "##è": 425,
      "##q": 426,
      "##ê": 427,
      "##É": 428,
      "##8": 429,
      "##7": 430,
      "##N": 431,
      "##C": 432,
      "##H": 433,
      "##ô": 434,
      "##©": 435,
      "##6": 436,
      "##å": 437,
      "##ß": 438,
      "##Ï": 439,
      "##р": 440,
      "##у": 441,
      "##в": 442,
      "##е": 443,
      "##ъ": 444,
      "##3": 445,
      "##з": 446,
      "##я": 447,
      "##л": 448,
      "##ш": 449,
      "##й": 450,
      "##W": 451,
      "##î": 452,
      "##ë": 453,
      "##к": 454,
      "##о": 455,
      "##н": 456,
      "##ч": 457,
      "##Z": 458,
      "##°": 459,
      "##ù": 460,
      "##æ": 461,
      "##G": 462,
      "##à": 463,
      "##F": 464,
      "##Ü": 465,
      "##Î": 466,
      "##Ê": 467,
      "##Q": 468,
      "##X": 469,
      "##г": 470,
      "##а": 471,
      "##д": 472,
      "##Û": 473,
      "##с": 474,
      "##щ": 475,
      "##9": 476,
      "##È": 477,
      "##ι": 478,
      "##σ": 479,
      "##α": 480,
      "##λ": 481,
      "##τ": 482,
      "##ί": 483,
      "##ν": 484,
      "##Ç": 485,
      "##â": 486,
      "##Ë": 487,
      "##х": 488,
      "##ы": 489,
      "##ь": 490,
      "##м": 491,
      "##б": 492,
      "##и": 493,
      "##т": 494,
      "##ю": 495,
      "##ж": 496,
      "##û": 497,
      "##œ": 498,
      "##п": 499,
      "##■": 500,
      "##Г": 501,
      "##£": 502,
      "##À": 503,
      "##В": 504,
      "##Ö": 505,
      "##П": 506,
      "##Е": 507,
      "##Р": 508,
      "##А": 509,
      "##Т": 510,
      "##О": 511,
      "##Ь": 512,
      "##Ô": 513,
      "##®": 514,
      "##Æ": 515,
      "##Б": 516,
      "##€": 517,
      "##Å": 518,
      "##Ф": 519,
      "##™": 520,
      "##И": 521,
      "##Ц": 522,
      "##Л": 523,
      "##Н": 524,
      "##Й": 525,
      "##Ъ": 526,
      "##Œ": 527,
      "##Ù": 528,
      "##Â": 529,
      "##Ž": 530,
      "##М": 531,
      "##ц": 532,
      "##ё": 533,
      "##Х": 534,
      "##Ш": 535,
      "##¥": 536,
      "##±": 537,
      "##э": 538,
      "##ф": 539,
      "##ì": 540,
      "##ø": 541,
      "##▼": 542,
      "##í": 543,
      "##á": 544,
      "##ο": 545,
      "##ύ": 546,
      "##ρ": 547,
      "##ω": 548,
      "##κ": 549,
      "##ό": 550,
      "##Д": 551,
      "##С": 552,
      "##Í": 553,
      "##õ": 554,
      "##З": 555,
      "##υ": 556,
      "##ά": 557,
      "##μ": 558,
      "##ς": 559,
      "##Ы": 560,
      "##Щ": 561,
      "##π": 562,
      "##ε": 563,
      "##ΐ": 564,
      "##Ж": 565,
      "##У": 566,
      "##К": 567,
      "##Я": 568,
      "##Ч": 569,
      "##Ё": 570,
      "##ó": 571,
      "##έ": 572,
      "##φ": 573,
      "##♦": 574,
      "##γ": 575,
      "##Ю": 576,
      "##№": 577,
      "##ò": 578,
      "##Ó": 579,
      "##Š": 580,
      "##ξ": 581,
      "##θ": 582,
      "##ή": 583,
      "##η": 584,
      "##Ì": 585,
      "##š": 586,
      "##β": 587,
      "##δ": 588,
      "##ΰ": 589,
      "##Õ": 590,
      "##►": 591,
      "##ð": 592,
      "##χ": 593,
      "##ú": 594,
      "##Э": 595,
      "##ž": 596,
      "##ψ": 597,
      "##ϋ": 598,
      "##Ò": 599,
      "##ώ": 600,
      "##□": 601,
      "##Ί": 602,
      "##ζ": 603,
      "##Á": 604,
      "##ѣ": 605,
      "##Ú": 606,
      "##þ": 607,
      "##ϊ": 608,
      "##і": 609,
      "##❖": 610,
      "##ĺ": 611,
      "##☆": 612,
      "##ñ": 613,
      "##Χ": 614,
      "##І": 615,
      "##ý": 616,
      "##Γ": 617,
      "##¾": 618,
      "##Τ": 619,
      "##▲": 620,
      "##Þ": 621,
      "##★": 622,
      "##✓": 623,
      "##ѳ": 624,
      "##ྫྷ": 625,
      "##Ι": 626,
      "##ÿ": 627,
      "##Κ": 628,
      "##Ε": 629,
      "##ă": 630,
      "##´": 631,
      "##ţ": 632,
      "##﷾": 633,
      "##Ѳ": 634,
      "##½": 635,
      "##Ν": 636,
      "##Ο": 637,
      "##Σ": 638,
      "##Έ": 639,
      "##Ρ": 640,
      "##㿪": 641,
      "##Α": 642,
      "##Υ": 643,
      "##Ό": 644,
      "##▻": 645,
      "##¼": 646,
      "##º": 647,
      "##Ñ": 648,
      "##Ζ": 649,
      "##પ": 650,
      "##්": 651,
      "##Β": 652,
      "##Λ": 653,
      "##Π": 654,
      "##ª": 655,
      "##Ϊ": 656,
      "##ś": 657,
      "##ė": 658,
      "##ȏ": 659,
      "##Μ": 660,
      "##Ύ": 661,
      "##○": 662,
      "##Ź": 663,
      "##ѵ": 664,
      "##Ά": 665,
      "##Ѵ": 666,
      "##◦": 667,
      "##en": 668,
      "##er": 669,
      "##in": 670,
      "##an": 671,
      "##es": 672,
      "##on": 673,
      "##is": 674,
      "##ll": 675,
      "##ar": 676,
      "##ch": 677,
      "##it": 678,
      "##at": 679,
      "##st": 680,
      "##et": 681,
      "##or": 682,
      "th": 683,
      "##ur": 684,
      "##nd": 685,
      "##el": 686,
      "##al": 687,
      "##ed": 688,
      "##ta": 689,
      "##om": 690,
      "the": 691,
      "de": 692,
      "##re": 693,
      "##ou": 694,
      "##as": 695,
      "##un": 696,
      "##ie": 697,
      "in": 698,
      "##ti": 699,
      "##il": 700,
      "##te": 701,
      "##ing": 702,
      "##ig": 703,
      "##am": 704,
      "##ut": 705,
      "##ent": 706,
      "##ir": 707,
      "##us": 708,
      "of": 709,
      "##em": 710,
      "##ill": 711,
      "##tt": 712,
      "##ol": 713,
      "##and": 714,
      "##ra": 715,
      "##ka": 716,
      "##ich": 717,
      "to": 718,
      "##än": 719,
      "##ör": 720,
      "##im": 721,
      "la": 722,
      "##ad": 723,
      "##le": 724,
      "##id": 725,
      "and": 726,
      "en": 727,
      "##ot": 728,
      "##ks": 729,
      "##ag": 730,
      "##os": 731,
      "##ion": 732,
      "##sa": 733,
      "##ter": 734,
      "##ik": 735,
      "##au": 736,
      "##ro": 737,
      "##ne": 738,
      "an": 739,
      "se": 740,
      "be": 741,
      "##ri": 742,
      "le": 743,
      "##ce": 744,
      "##ck": 745,
      "on": 746,
      "qu": 747,
      "der": 748,
      "##ul": 749,
      "##är": 750,
      "##pp": 751,
      "##ten": 752,
      "##he": 753,
      "ja": 754,
      "##ell": 755,
      "et": 756,
      "##all": 757,
      "fr": 758,
      "und": 759,
      "##our": 760,
      "##iv": 761,
      "##ung": 762,
      "##se": 763,
      "##ant": 764,
      "##um": 765,
      "des": 766,
      "den": 767,
      "ma": 768,
      "af": 769,
      "##ist": 770,
      "för": 771,
      "au": 772,
      "och": 773,
      "st": 774,
      "##ia": 775,
      "##ers": 776,
      "##end": 777,
      "##na": 778,
      "##li": 779,
      "un": 780,
      "##ber": 781,
      "##ans": 782,
      "##ast": 783,
      "re": 784,
      "##ver": 785,
      "##ge": 786,
      "##qu": 787,
      "die": 788,
      "sa": 789,
      "##ve": 790,
      "##me": 791,
      "##ien": 792,
      "##est": 793,
      "wh": 794,
      "##de": 795,
      "he": 796,
      "##ais": 797,
      "as": 798,
      "##ere": 799,
      "##ts": 800,
      "par": 801,
      "pr": 802,
      "##ation": 803,
      "su": 804,
      "##ah": 805,
      "##den": 806,
      "con": 807,
      "##ess": 808,
      "##ok": 809,
      "##ic": 810,
      "##ust": 811,
      "##ff": 812,
      "##00": 813,
      "er": 814,
      "for": 815,
      "##ine": 816,
      "##ab": 817,
      "##äm": 818,
      "##ii": 819,
      "till": 820,
      "##ous": 821,
      "##ak": 822,
      "so": 823,
      "##ap": 824,
      "##ens": 825,
      "les": 826,
      "att": 827,
      "##lle": 828,
      "##ain": 829,
      "##aan": 830,
      "ne": 831,
      "##hr": 832,
      "##ai": 833,
      "al": 834,
      "##gen": 835,
      "##th": 836,
      "##ier": 837,
      "##omm": 838,
      "##ow": 839,
      "##ait": 840,
      "10": 841,
      "du": 842,
      "##od": 843,
      "##ning": 844,
      "ar": 845,
      "##tion": 846,
      "il": 847,
      "##ää": 848,
      "##ande": 849,
      "##oh": 850,
      "ch": 851,
      "##ies": 852,
      "##ith": 853,
      "##che": 854,
      "was": 855,
      "##äl": 856,
      "##sk": 857,
      "18": 858,
      "##itt": 859,
      "##ont": 860,
      "##ja": 861,
      "##ann": 862,
      "##ly": 863,
      "is": 864,
      "##ost": 865,
      "pl": 866,
      "##ke": 867,
      "ein": 868,
      "all": 869,
      "or": 870,
      "##ach": 871,
      "##ct": 872,
      "##pr": 873,
      "that": 874,
      "##if": 875,
      "med": 876,
      "##op": 877,
      "##lig": 878,
      "##ett": 879,
      "##ht": 880,
      "##ng": 881,
      "##és": 882,
      "##ort": 883,
      "##ord": 884,
      "som": 885,
      "##are": 886,
      "zu": 887,
      "tr": 888,
      "##lich": 889,
      "##ud": 890,
      "##lo": 891,
      "ett": 892,
      "##ard": 893,
      "##ksi": 894,
      "ver": 895,
      "##ue": 896,
      "##tr": 897,
      "pro": 898,
      "ex": 899,
      "##ät": 900,
      "##ys": 901,
      "##ään": 902,
      "it": 903,
      "ha": 904,
      "om": 905,
      "##ind": 906,
      "##oul": 907,
      "von": 908,
      "with": 909,
      "##oll": 910,
      "Le": 911,
      "##oi": 912,
      "##iss": 913,
      "me": 914,
      "11": 915,
      "dem": 916,
      "##ille": 917,
      "##iin": 918,
      "##und": 919,
      "##ade": 920,
      "im": 921,
      "The": 922,
      "at": 923,
      "##ass": 924,
      "ge": 925,
      "est": 926,
      "St": 927,
      "##av": 928,
      "##ista": 929,
      "##yt": 930,
      "##ement": 931,
      "by": 932,
      "his": 933,
      "12": 934,
      "dé": 935,
      "Fr": 936,
      "da": 937,
      "mu": 938,
      "com": 939,
      "que": 940,
      "##oit": 941,
      "An": 942,
      "man": 943,
      "##els": 944,
      "19": 945,
      "mit": 946,
      "##eu": 947,
      "pu": 948,
      "##ür": 949,
      "no": 950,
      "##ern": 951,
      "##chen": 952,
      "##ft": 953,
      "##inen": 954,
      "##aa": 955,
      "am": 956,
      "##ins": 957,
      "ku": 958,
      "mar": 959,
      "##be": 960,
      "sam": 961,
      "##ån": 962,
      "sk": 963,
      "qui": 964,
      "gr": 965,
      "##icht": 966,
      "##ac": 967,
      "te": 968,
      "##ons": 969,
      "##ée": 970,
      "##ss": 971,
      "##ui": 972,
      "av": 973,
      "##ön": 974,
      "det": 975,
      "##ger": 976,
      "une": 977,
      "her": 978,
      "##ors": 979,
      "##iel": 980,
      "not": 981,
      "##out": 982,
      "my": 983,
      "tu": 984,
      "##ure": 985,
      "##res": 986,
      "##ise": 987,
      "##der": 988,
      "jo": 989,
      "##kt": 990,
      "##äll": 991,
      "50": 992,
      "##unn": 993,
      "##ire": 994,
      "fl": 995,
      "##att": 996,
      "##ér": 997,
      "##pe": 998,
      "##bl": 999,
      "##äh": 1000,
      "Re": 1001,
      "Sch": 1002,
      "##uk": 1003,
      "si": 1004,
      "##ore": 1005,
      "##si": 1006,
      "##ma": 1007,
      "##la": 1008,
      "pour": 1009,
      "##ci": 1010,
      "In": 1011,
      "ut": 1012,
      "##var": 1013,
      "##que": 1014,
      "##ite": 1015,
      "##urs": 1016,
      "##äk": 1017,
      "15": 1018,
      "ab": 1019,
      "Mar": 1020,
      "##ate": 1021,
      "per": 1022,
      "på": 1023,
      "##ang": 1024,
      "lo": 1025,
      "Th": 1026,
      "which": 1027,
      "##änd": 1028,
      "##ina": 1029,
      "##ats": 1030,
      "##ben": 1031,
      "##to": 1032,
      "##ets": 1033,
      "##man": 1034,
      "had": 1035,
      "##uks": 1036,
      "dans": 1037,
      "##age": 1038,
      "sur": 1039,
      "##we": 1040,
      "##ank": 1041,
      "##ug": 1042,
      "##enn": 1043,
      "##ond": 1044,
      "##år": 1045,
      "##fv": 1046,
      "##ki": 1047,
      "##her": 1048,
      "we": 1049,
      "Be": 1050,
      "##sch": 1051,
      "##ois": 1052,
      "Par": 1053,
      "##land": 1054,
      "var": 1055,
      "##ätt": 1056,
      "##cc": 1057,
      "es": 1058,
      "että": 1059,
      "ka": 1060,
      "##ance": 1061,
      "##itä": 1062,
      "br": 1063,
      "do": 1064,
      "##elle": 1065,
      "gen": 1066,
      "ol": 1067,
      "from": 1068,
      "Ch": 1069,
      "##ull": 1070,
      "##ay": 1071,
      "20": 1072,
      "sh": 1073,
      "Ver": 1074,
      "##ele": 1075,
      "##pl": 1076,
      "##tre": 1077,
      "Se": 1078,
      "##oin": 1079,
      "##mer": 1080,
      "##inn": 1081,
      "30": 1082,
      "ta": 1083,
      "kl": 1084,
      "##onn": 1085,
      "##ose": 1086,
      "li": 1087,
      "sen": 1088,
      "##ould": 1089,
      "aus": 1090,
      "##ko": 1091,
      "##err": 1092,
      "##ES": 1093,
      "##br": 1094,
      "25": 1095,
      "ré": 1096,
      "13": 1097,
      "auf": 1098,
      "La": 1099,
      "##gr": 1100,
      "000": 1101,
      "##ux": 1102,
      "upp": 1103,
      "##assa": 1104,
      "##yr": 1105,
      "##art": 1106,
      "##yn": 1107,
      "ad": 1108,
      "##ment": 1109,
      "##kin": 1110,
      "##ale": 1111,
      "ist": 1112,
      "you": 1113,
      "##org": 1114,
      "##utta": 1115,
      "##io": 1116,
      "Ar": 1117,
      "##ity": 1118,
      "##aus": 1119,
      "##ym": 1120,
      "##anc": 1121,
      "har": 1122,
      "##åg": 1123,
      "##isen": 1124,
      "En": 1125,
      "##hd": 1126,
      "sig": 1127,
      "sch": 1128,
      "##äs": 1129,
      "##one": 1130,
      "min": 1131,
      "##uu": 1132,
      "##sta": 1133,
      "but": 1134,
      "##cr": 1135,
      "14": 1136,
      "17": 1137,
      "##té": 1138,
      "##issa": 1139,
      "sich": 1140,
      "##för": 1141,
      "men": 1142,
      "Ge": 1143,
      "Br": 1144,
      "##ès": 1145,
      "##ime": 1146,
      "##ong": 1147,
      "bes": 1148,
      "De": 1149,
      "##ied": 1150,
      "##pt": 1151,
      "##het": 1152,
      "16": 1153,
      "nä": 1154,
      "##ven": 1155,
      "son": 1156,
      "##essa": 1157,
      "hu": 1158,
      "have": 1159,
      "He": 1160,
      "##ère": 1161,
      "##oug": 1162,
      "##alla": 1163,
      "Er": 1164,
      "##hen": 1165,
      "##ert": 1166,
      "Al": 1167,
      "##isi": 1168,
      "pas": 1169,
      "##ze": 1170,
      "##cl": 1171,
      "ser": 1172,
      "bl": 1173,
      "em": 1174,
      "ty": 1175,
      "##kä": 1176,
      "dies": 1177,
      "wir": 1178,
      "ke": 1179,
      "Un": 1180,
      "##uf": 1181,
      "är": 1182,
      "från": 1183,
      "##lä": 1184,
      "oli": 1185,
      "are": 1186,
      "this": 1187,
      "were": 1188,
      "##iet": 1189,
      "das": 1190,
      "him": 1191,
      "Gr": 1192,
      "##men": 1193,
      "under": 1194,
      "##ER": 1195,
      "##ON": 1196,
      "##én": 1197,
      "##da": 1198,
      "##ken": 1199,
      "sp": 1200,
      "##ish": 1201,
      "##cke": 1202,
      "##ble": 1203,
      "##ette": 1204,
      "app": 1205,
      "dis": 1206,
      "tra": 1207,
      "##ip": 1208,
      "##va": 1209,
      "så": 1210,
      "res": 1211,
      "##og": 1212,
      "für": 1213,
      "##tä": 1214,
      "wer": 1215,
      "vi": 1216,
      "Ma": 1217,
      "##aren": 1218,
      "##urch": 1219,
      "##igen": 1220,
      "##ction": 1221,
      "vid": 1222,
      "##ight": 1223,
      "##tig": 1224,
      "##lag": 1225,
      "##ste": 1226,
      "Su": 1227,
      "their": 1228,
      "ce": 1229,
      "##str": 1230,
      "##ions": 1231,
      "comm": 1232,
      "fe": 1233,
      "ei": 1234,
      "##je": 1235,
      "##öm": 1236,
      "##per": 1237,
      "als": 1238,
      "nicht": 1239,
      "Die": 1240,
      "##tam": 1241,
      "daß": 1242,
      "lu": 1243,
      "ra": 1244,
      "##alt": 1245,
      "hän": 1246,
      "mat": 1247,
      "pä": 1248,
      "##ner": 1249,
      "Pr": 1250,
      "##bre": 1251,
      "##its": 1252,
      "##cht": 1253,
      "##ile": 1254,
      "Il": 1255,
      "##vi": 1256,
      "##fl": 1257,
      "##ps": 1258,
      "##iden": 1259,
      "##bur": 1260,
      "##ende": 1261,
      "bet": 1262,
      "ni": 1263,
      "plus": 1264,
      "##min": 1265,
      "tal": 1266,
      "tä": 1267,
      "up": 1268,
      "ob": 1269,
      "##oun": 1270,
      "##tag": 1271,
      "##nen": 1272,
      "##ungen": 1273,
      "##ath": 1274,
      "they": 1275,
      "##tiin": 1276,
      "##etz": 1277,
      "##AN": 1278,
      "##esta": 1279,
      "##ita": 1280,
      "ans": 1281,
      "mo": 1282,
      "40": 1283,
      "##ib": 1284,
      "##ild": 1285,
      "pe": 1286,
      "##ike": 1287,
      "##ours": 1288,
      "ou": 1289,
      "pa": 1290,
      "##ller": 1291,
      "eine": 1292,
      "##ive": 1293,
      "##taa": 1294,
      "##fe": 1295,
      "nu": 1296,
      "kir": 1297,
      "##ian": 1298,
      "kan": 1299,
      "##ound": 1300,
      "land": 1301,
      "##yd": 1302,
      "ih": 1303,
      "ag": 1304,
      "##ations": 1305,
      "##ds": 1306,
      "kr": 1307,
      "##ister": 1308,
      "##sten": 1309,
      "mal": 1310,
      "sta": 1311,
      "##amm": 1312,
      "mk": 1313,
      "##vo": 1314,
      "nach": 1315,
      "##ua": 1316,
      "kun": 1317,
      "##ité": 1318,
      "190": 1319,
      "##illa": 1320,
      "It": 1321,
      "##jan": 1322,
      "##EN": 1323,
      "##lla": 1324,
      "kau": 1325,
      "ave": 1326,
      "##up": 1327,
      "ter": 1328,
      "##nn": 1329,
      "Ber": 1330,
      "##berg": 1331,
      "sin": 1332,
      "vor": 1333,
      "##IS": 1334,
      "##äg": 1335,
      "pre": 1336,
      "##fr": 1337,
      "##ide": 1338,
      "##äst": 1339,
      "##äd": 1340,
      "##öl": 1341,
      "##agen": 1342,
      "##alle": 1343,
      "joka": 1344,
      "##ty": 1345,
      "##arn": 1346,
      "##ame": 1347,
      "##able": 1348,
      "she": 1349,
      "##vil": 1350,
      "##ari": 1351,
      "##rag": 1352,
      "##uh": 1353,
      "##arl": 1354,
      "pal": 1355,
      "hat": 1356,
      "one": 1357,
      "##ischen": 1358,
      "##ition": 1359,
      "##oss": 1360,
      "éta": 1361,
      "##ph": 1362,
      "sie": 1363,
      "21": 1364,
      "##kaan": 1365,
      "##ace": 1366,
      "##old": 1367,
      "pää": 1368,
      "##ely": 1369,
      "##ott": 1370,
      "##ök": 1371,
      "off": 1372,
      "Ab": 1373,
      "22": 1374,
      "hab": 1375,
      "##atan": 1376,
      "pol": 1377,
      "##etta": 1378,
      "##AR": 1379,
      "##mi": 1380,
      "##wn": 1381,
      "wel": 1382,
      "ed": 1383,
      "##amp": 1384,
      "##ings": 1385,
      "klo": 1386,
      "##ov": 1387,
      "We": 1388,
      "über": 1389,
      "##een": 1390,
      "##itu": 1391,
      "been": 1392,
      "##istä": 1393,
      "aut": 1394,
      "##ence": 1395,
      "##jen": 1396,
      "bei": 1397,
      "werden": 1398,
      "tar": 1399,
      "##ossa": 1400,
      "##sel": 1401,
      "je": 1402,
      "Paris": 1403,
      "##orm": 1404,
      "##aux": 1405,
      "ro": 1406,
      "them": 1407,
      "##ella": 1408,
      "##IN": 1409,
      "va": 1410,
      "mer": 1411,
      "##vat": 1412,
      "wird": 1413,
      "And": 1414,
      "##ars": 1415,
      "go": 1416,
      "rem": 1417,
      "##aire": 1418,
      "##ough": 1419,
      "##ku": 1420,
      "##ij": 1421,
      "avec": 1422,
      "val": 1423,
      "icke": 1424,
      "##tem": 1425,
      "##pos": 1426,
      "mon": 1427,
      "##usta": 1428,
      "##par": 1429,
      "di": 1430,
      "##ige": 1431,
      "str": 1432,
      "el": 1433,
      "##igt": 1434,
      "cl": 1435,
      "Les": 1436,
      "Ne": 1437,
      "##ink": 1438,
      "##ign": 1439,
      "##ub": 1440,
      "##tain": 1441,
      "été": 1442,
      "um": 1443,
      "23": 1444,
      "wor": 1445,
      "hand": 1446,
      "##ures": 1447,
      "##ni": 1448,
      "##tim": 1449,
      "who": 1450,
      "ann": 1451,
      "##int": 1452,
      "##ry": 1453,
      "##elt": 1454,
      "24": 1455,
      "ind": 1456,
      "Sta": 1457,
      "##bet": 1458,
      "##ster": 1459,
      "ai": 1460,
      "war": 1461,
      "##reat": 1462,
      "##yl": 1463,
      "On": 1464,
      "##ori": 1465,
      "##ges": 1466,
      "##anz": 1467,
      "##iten": 1468,
      "##ants": 1469,
      "##ligt": 1470,
      "its": 1471,
      "##ouv": 1472,
      "vo": 1473,
      "##une": 1474,
      "op": 1475,
      "##asta": 1476,
      "Hels": 1477,
      "##du": 1478,
      "år": 1479,
      "100": 1480,
      "Herr": 1481,
      "27": 1482,
      "acc": 1483,
      "##cher": 1484,
      "##fver": 1485,
      "pers": 1486,
      "##ih": 1487,
      "kä": 1488,
      "aux": 1489,
      "ges": 1490,
      "##ées": 1491,
      "##isk": 1492,
      "##elm": 1493,
      "hal": 1494,
      "mil": 1495,
      "##ytt": 1496,
      "##oja": 1497,
      "ll": 1498,
      "mot": 1499,
      "samt": 1500,
      "##jän": 1501,
      "Kr": 1502,
      "##af": 1503,
      "Ro": 1504,
      "##ole": 1505,
      "II": 1506,
      "75": 1507,
      "hö": 1508,
      "ont": 1509,
      "bef": 1510,
      "rum": 1511,
      "##enden": 1512,
      "Aus": 1513,
      "Ges": 1514,
      "co": 1515,
      "##ana": 1516,
      "##illä": 1517,
      "##ents": 1518,
      "26": 1519,
      "ti": 1520,
      "there": 1521,
      "##ös": 1522,
      "komm": 1523,
      "kok": 1524,
      "han": 1525,
      "##äng": 1526,
      "28": 1527,
      "Au": 1528,
      "##hå": 1529,
      "sein": 1530,
      "nous": 1531,
      "auch": 1532,
      "##ahr": 1533,
      "ten": 1534,
      "zur": 1535,
      "##pa": 1536,
      "tout": 1537,
      "cons": 1538,
      "Joh": 1539,
      "mö": 1540,
      "##burg": 1541,
      "##ns": 1542,
      "##alais": 1543,
      "##ång": 1544,
      "sy": 1545,
      "kon": 1546,
      "pass": 1547,
      "po": 1548,
      "##gg": 1549,
      "##atu": 1550,
      "will": 1551,
      "##OU": 1552,
      "durch": 1553,
      "##kl": 1554,
      "ord": 1555,
      "##fter": 1556,
      "sekä": 1557,
      "Or": 1558,
      "del": 1559,
      "##anta": 1560,
      "lie": 1561,
      "Es": 1562,
      "Der": 1563,
      "##ater": 1564,
      "##wer": 1565,
      "##ler": 1566,
      "##iä": 1567,
      "toim": 1568,
      "##lic": 1569,
      "##ksen": 1570,
      "##uo": 1571,
      "##ques": 1572,
      "niin": 1573,
      "mä": 1574,
      "##fors": 1575,
      "part": 1576,
      "##oa": 1577,
      "elle": 1578,
      "dr": 1579,
      "cr": 1580,
      "ass": 1581,
      "##fer": 1582,
      "##ult": 1583,
      "na": 1584,
      "##ene": 1585,
      "tw": 1586,
      "sont": 1587,
      "##del": 1588,
      "sel": 1589,
      "hon": 1590,
      "##ick": 1591,
      "45": 1592,
      "Ein": 1593,
      "Me": 1594,
      "##jä": 1595,
      "would": 1596,
      "us": 1597,
      "out": 1598,
      "##uun": 1599,
      "##vis": 1600,
      "fa": 1601,
      "ses": 1602,
      "##gatan": 1603,
      "där": 1604,
      "Mr": 1605,
      "ste": 1606,
      "##ho": 1607,
      "Je": 1608,
      "ber": 1609,
      "ret": 1610,
      "Helsing": 1611,
      "##ssä": 1612,
      "##uli": 1613,
      "hy": 1614,
      "san": 1615,
      "##ther": 1616,
      "##llä": 1617,
      "kaik": 1618,
      "##ahl": 1619,
      "Tr": 1620,
      "##vä": 1621,
      "##ische": 1622,
      "##cn": 1623,
      "ko": 1624,
      "inter": 1625,
      "##erna": 1626,
      "##ese": 1627,
      "##orn": 1628,
      "So": 1629,
      "kn": 1630,
      "bis": 1631,
      "fin": 1632,
      "##kk": 1633,
      "mi": 1634,
      "##ces": 1635,
      "che": 1636,
      "ole": 1637,
      "arm": 1638,
      "##ala": 1639,
      "maan": 1640,
      "pri": 1641,
      "eller": 1642,
      "kes": 1643,
      "lui": 1644,
      "##ück": 1645,
      "##iska": 1646,
      "##osta": 1647,
      "##lichen": 1648,
      "60": 1649,
      "lä": 1650,
      "##ated": 1651,
      "ny": 1652,
      "##ises": 1653,
      "##ique": 1654,
      "##ient": 1655,
      "##liga": 1656,
      "##uch": 1657,
      "has": 1658,
      "31": 1659,
      "some": 1660,
      "##led": 1661,
      "##isten": 1662,
      "##éd": 1663,
      "more": 1664,
      "til": 1665,
      "##emm": 1666,
      "##kaa": 1667,
      "##ingen": 1668,
      "fait": 1669,
      "##olm": 1670,
      "##öd": 1671,
      "Eng": 1672,
      "wur": 1673,
      "said": 1674,
      "Am": 1675,
      "29": 1676,
      "vous": 1677,
      "##uri": 1678,
      "##arna": 1679,
      "ac": 1680,
      "##oth": 1681,
      "##itz": 1682,
      "##TI": 1683,
      "##use": 1684,
      "ins": 1685,
      "pré": 1686,
      "sl": 1687,
      "ru": 1688,
      "puol": 1689,
      "rue": 1690,
      "était": 1691,
      "##ob": 1692,
      "end": 1693,
      "dire": 1694,
      "Wien": 1695,
      "##nad": 1696,
      "##ome": 1697,
      "cour": 1698,
      "##ura": 1699,
      "öfver": 1700,
      "##OR": 1701,
      "main": 1702,
      "##ton": 1703,
      "##lin": 1704,
      "DE": 1705,
      "##ires": 1706,
      "avait": 1707,
      "sm": 1708,
      "tro": 1709,
      "tou": 1710,
      "##omp": 1711,
      "##gl": 1712,
      "##stä": 1713,
      "##iter": 1714,
      "Sa": 1715,
      "sj": 1716,
      "##uß": 1717,
      "##ha": 1718,
      "##ary": 1719,
      "kuin": 1720,
      "##dt": 1721,
      "if": 1722,
      "##HE": 1723,
      "förs": 1724,
      "##ree": 1725,
      "Dr": 1726,
      "hier": 1727,
      "gu": 1728,
      "##ämä": 1729,
      "##ärm": 1730,
      "##etaan": 1731,
      "##ane": 1732,
      "##omen": 1733,
      "nat": 1734,
      "##iga": 1735,
      "##til": 1736,
      "ju": 1737,
      "mais": 1738,
      "ent": 1739,
      "35": 1740,
      "Pet": 1741,
      "##uss": 1742,
      "##uni": 1743,
      "hel": 1744,
      "##lt": 1745,
      "##jo": 1746,
      "sc": 1747,
      "##dr": 1748,
      "Pro": 1749,
      "unter": 1750,
      "80": 1751,
      "##RE": 1752,
      "Her": 1753,
      "cette": 1754,
      "bel": 1755,
      "Nr": 1756,
      "##emp": 1757,
      "into": 1758,
      "when": 1759,
      "##era": 1760,
      "##AL": 1761,
      "ir": 1762,
      "läh": 1763,
      "##unta": 1764,
      "##uksen": 1765,
      "hvil": 1766,
      "##ettu": 1767,
      "##uten": 1768,
      "tid": 1769,
      "tak": 1770,
      "Con": 1771,
      "##val": 1772,
      "hvar": 1773,
      "##ola": 1774,
      "Den": 1775,
      "pi": 1776,
      "gl": 1777,
      "##tes": 1778,
      "ot": 1779,
      "##issä": 1780,
      "##vern": 1781,
      "yh": 1782,
      "Sp": 1783,
      "bo": 1784,
      "joh": 1785,
      "##eral": 1786,
      "##ser": 1787,
      "ilm": 1788,
      "##ice": 1789,
      "ap": 1790,
      "##ata": 1791,
      "##kr": 1792,
      "pres": 1793,
      "Et": 1794,
      "##nt": 1795,
      "##ial": 1796,
      "##ég": 1797,
      "##ante": 1798,
      "##eder": 1799,
      "Ka": 1800,
      "Av": 1801,
      "ve": 1802,
      "##komm": 1803,
      "##hand": 1804,
      "jot": 1805,
      "tor": 1806,
      "deux": 1807,
      "##ark": 1808,
      "great": 1809,
      "##dag": 1810,
      "##igh": 1811,
      "##iz": 1812,
      "##raf": 1813,
      "vom": 1814,
      "##ulle": 1815,
      "##pä": 1816,
      "##uv": 1817,
      "##ningen": 1818,
      "sol": 1819,
      "##isch": 1820,
      "##imm": 1821,
      "dag": 1822,
      "kor": 1823,
      "sou": 1824,
      "fir": 1825,
      "os": 1826,
      "##II": 1827,
      "##ester": 1828,
      "fram": 1829,
      "car": 1830,
      "kans": 1831,
      "##onen": 1832,
      "##tell": 1833,
      "any": 1834,
      "##ident": 1835,
      "##ffe": 1836,
      "ren": 1837,
      "beg": 1838,
      "very": 1839,
      "##net": 1840,
      "##oim": 1841,
      "##ember": 1842,
      "##uis": 1843,
      "##och": 1844,
      "einer": 1845,
      "186": 1846,
      "##uts": 1847,
      "Bl": 1848,
      "##aint": 1849,
      "##ally": 1850,
      "##onne": 1851,
      "rec": 1852,
      "##tin": 1853,
      "Ed": 1854,
      "parti": 1855,
      "Uhr": 1856,
      "##estä": 1857,
      "other": 1858,
      "fol": 1859,
      "ever": 1860,
      "##ock": 1861,
      "comp": 1862,
      "någ": 1863,
      "long": 1864,
      "##liche": 1865,
      "##elef": 1866,
      "Tur": 1867,
      "imp": 1868,
      "ye": 1869,
      "##wa": 1870,
      "kunn": 1871,
      "##own": 1872,
      "##aten": 1873,
      "##essä": 1874,
      "than": 1875,
      "##hal": 1876,
      "ii": 1877,
      "##till": 1878,
      "##atta": 1879,
      "mark": 1880,
      "wie": 1881,
      "##asse": 1882,
      "aff": 1883,
      "time": 1884,
      "upon": 1885,
      "##anut": 1886,
      "##ward": 1887,
      "nom": 1888,
      "##agn": 1889,
      "bien": 1890,
      "dist": 1891,
      "##arm": 1892,
      "##les": 1893,
      "##ikk": 1894,
      "Land": 1895,
      "sind": 1896,
      "prés": 1897,
      "##ves": 1898,
      "Nach": 1899,
      "oder": 1900,
      "vis": 1901,
      "må": 1902,
      "pris": 1903,
      "gar": 1904,
      "##ider": 1905,
      "tre": 1906,
      "kul": 1907,
      "vers": 1908,
      "##eli": 1909,
      "##ute": 1910,
      "##oon": 1911,
      "##TE": 1912,
      "##edan": 1913,
      "gro": 1914,
      "##tra": 1915,
      "##ligen": 1916,
      "nur": 1917,
      "haben": 1918,
      "sv": 1919,
      "Mon": 1920,
      "##ungs": 1921,
      "mê": 1922,
      "##ska": 1923,
      "För": 1924,
      "##aient": 1925,
      "fö": 1926,
      "leur": 1927,
      "ur": 1928,
      "##itten": 1929,
      "ing": 1930,
      "pit": 1931,
      "##else": 1932,
      "##eux": 1933,
      "##bst": 1934,
      "##ved": 1935,
      "##près": 1936,
      "coun": 1937,
      "ihr": 1938,
      "about": 1939,
      "##aste": 1940,
      "ri": 1941,
      "gegen": 1942,
      "##ase": 1943,
      "welche": 1944,
      "##öt": 1945,
      "##ling": 1946,
      "now": 1947,
      "##ili": 1948,
      "Bes": 1949,
      "##ric": 1950,
      "tul": 1951,
      "##ieh": 1952,
      "El": 1953,
      "Man": 1954,
      "our": 1955,
      "##of": 1956,
      "##uus": 1957,
      "##ots": 1958,
      "bar": 1959,
      "post": 1960,
      "##iver": 1961,
      "Fin": 1962,
      "##håll": 1963,
      "ska": 1964,
      "##ep": 1965,
      "kil": 1966,
      "##urn": 1967,
      "##reich": 1968,
      "noch": 1969,
      "187": 1970,
      "##ettiin": 1971,
      "spe": 1972,
      "##ühr": 1973,
      "ly": 1974,
      "Qu": 1975,
      "Gen": 1976,
      "##taan": 1977,
      "##ainen": 1978,
      "All": 1979,
      "ven": 1980,
      "alla": 1981,
      "dess": 1982,
      "##als": 1983,
      "Ad": 1984,
      "gra": 1985,
      "##upp": 1986,
      "cou": 1987,
      "Helsingfors": 1988,
      "por": 1989,
      "##iger": 1990,
      "##ried": 1991,
      "##vin": 1992,
      "##oita": 1993,
      "##LE": 1994,
      "åt": 1995,
      "##ief": 1996,
      "##by": 1997,
      "Sal": 1998,
      "##oir": 1999,
      "after": 2000,
      "could": 2001,
      "hos": 2002,
      "##aft": 2003,
      "33": 2004,
      "Mal": 2005,
      "##ningar": 2006,
      "##ete": 2007,
      "place": 2008,
      "oh": 2009,
      "00": 2010,
      "Em": 2011,
      "##cks": 2012,
      "##red": 2013,
      "##eld": 2014,
      "##fi": 2015,
      "gew": 2016,
      "##cri": 2017,
      "can": 2018,
      "reg": 2019,
      "##ack": 2020,
      "Min": 2021,
      "väl": 2022,
      "##eter": 2023,
      "##ga": 2024,
      "oll": 2025,
      "##isti": 2026,
      "être": 2027,
      "##änä": 2028,
      "##teen": 2029,
      "44": 2030,
      "32": 2031,
      "two": 2032,
      "##ful": 2033,
      "zum": 2034,
      "Ze": 2035,
      "Ham": 2036,
      "går": 2037,
      "##gt": 2038,
      "##rei": 2039,
      "But": 2040,
      "bill": 2041,
      "##änn": 2042,
      "70": 2043,
      "##gif": 2044,
      "Vor": 2045,
      "##hm": 2046,
      "jour": 2047,
      "##yy": 2048,
      "##ellä": 2049,
      "Ale": 2050,
      "200": 2051,
      "##utt": 2052,
      "stor": 2053,
      "##jat": 2054,
      "emp": 2055,
      "jär": 2056,
      "Pl": 2057,
      "franc": 2058,
      "##get": 2059,
      "aber": 2060,
      "90": 2061,
      "hen": 2062,
      "tv": 2063,
      "Hen": 2064,
      "##ange": 2065,
      "##bar": 2066,
      "##hti": 2067,
      "##ils": 2068,
      "No": 2069,
      "##hl": 2070,
      "##des": 2071,
      "tion": 2072,
      "wurde": 2073,
      "ger": 2074,
      "##ße": 2075,
      "only": 2076,
      "fi": 2077,
      "char": 2078,
      "god": 2079,
      "tam": 2080,
      "##ställ": 2081,
      "##öp": 2082,
      "##sl": 2083,
      "Fe": 2084,
      "rel": 2085,
      "##ieb": 2086,
      "##irt": 2087,
      "alle": 2088,
      "##ikt": 2089,
      "repr": 2090,
      "THE": 2091,
      "##ouse": 2092,
      "genom": 2093,
      "form": 2094,
      "fam": 2095,
      "rep": 2096,
      "##mann": 2097,
      "##ilj": 2098,
      "##kan": 2099,
      "##oint": 2100,
      "##sä": 2101,
      "##kom": 2102,
      "Hand": 2103,
      "kaup": 2104,
      "##eten": 2105,
      "miel": 2106,
      "comme": 2107,
      "hade": 2108,
      "41": 2109,
      "Te": 2110,
      "num": 2111,
      "##jär": 2112,
      "sil": 2113,
      "##ife": 2114,
      "##ôt": 2115,
      "occ": 2116,
      "omat": 2117,
      "Jo": 2118,
      "ej": 2119,
      "exp": 2120,
      "vu": 2121,
      "même": 2122,
      "##nr": 2123,
      "sans": 2124,
      "##iste": 2125,
      "over": 2126,
      "37": 2127,
      "##sr": 2128,
      "##ission": 2129,
      "ho": 2130,
      "pos": 2131,
      "##una": 2132,
      "##iset": 2133,
      "##ün": 2134,
      "best": 2135,
      "##fva": 2136,
      "grand": 2137,
      "##ontor": 2138,
      "##imat": 2139,
      "##ker": 2140,
      "suur": 2141,
      "500": 2142,
      "##ches": 2143,
      "inf": 2144,
      "##cted": 2145,
      "einen": 2146,
      "einem": 2147,
      "Kir": 2148,
      "osa": 2149,
      "made": 2150,
      "##åd": 2151,
      "dou": 2152,
      "cer": 2153,
      "Ny": 2154,
      "##RI": 2155,
      "##bo": 2156,
      "##alta": 2157,
      "##ander": 2158,
      "ky": 2159,
      "ces": 2160,
      "gén": 2161,
      "As": 2162,
      "määr": 2163,
      "kom": 2164,
      "Aug": 2165,
      "##asa": 2166,
      "ment": 2167,
      "déc": 2168,
      "##uc": 2169,
      "##ämän": 2170,
      "##ilt": 2171,
      "##ause": 2172,
      "##ession": 2173,
      "##ket": 2174,
      "again": 2175,
      "such": 2176,
      "##ansa": 2177,
      "Ex": 2178,
      "##keit": 2179,
      "Kar": 2180,
      "iv": 2181,
      "Pre": 2182,
      "bek": 2183,
      "Kau": 2184,
      "##ällä": 2185,
      "##aat": 2186,
      "##gs": 2187,
      "##adt": 2188,
      "Saint": 2189,
      "Ger": 2190,
      "prin": 2191,
      "then": 2192,
      "Pri": 2193,
      "mod": 2194,
      "most": 2195,
      "##unt": 2196,
      "ens": 2197,
      "Ha": 2198,
      "Cl": 2199,
      "kirj": 2200,
      "what": 2201,
      "où": 2202,
      "may": 2203,
      "##eme": 2204,
      "mor": 2205,
      "Ste": 2206,
      "här": 2207,
      "cor": 2208,
      "##amme": 2209,
      "jotka": 2210,
      "##zu": 2211,
      "36": 2212,
      "##IL": 2213,
      "##ieder": 2214,
      "your": 2215,
      "##SS": 2216,
      "Bar": 2217,
      "ich": 2218,
      "Wh": 2219,
      "##ld": 2220,
      "##ren": 2221,
      "##nings": 2222,
      "##ought": 2223,
      "sal": 2224,
      "34": 2225,
      "##kon": 2226,
      "##ulla": 2227,
      "tous": 2228,
      "##eln": 2229,
      "these": 2230,
      "heures": 2231,
      "arbet": 2232,
      "Reg": 2233,
      "##bert": 2234,
      "opp": 2235,
      "##rä": 2236,
      "##uer": 2237,
      "Im": 2238,
      "##teur": 2239,
      "##ements": 2240,
      "##ather": 2241,
      "should": 2242,
      "Si": 2243,
      "dep": 2244,
      "dar": 2245,
      "##unnan": 2246,
      "litt": 2247,
      "##ölj": 2248,
      "##ope": 2249,
      "##astaan": 2250,
      "42": 2251,
      "##inä": 2252,
      "cap": 2253,
      "##ikka": 2254,
      "skulle": 2255,
      "##oli": 2256,
      "##onc": 2257,
      "##ino": 2258,
      "dont": 2259,
      "vie": 2260,
      "##aud": 2261,
      "fort": 2262,
      "##ahn": 2263,
      "##ily": 2264,
      "##tions": 2265,
      "kann": 2266,
      "##war": 2267,
      "lör": 2268,
      "tap": 2269,
      "Kl": 2270,
      "##iti": 2271,
      "##oo": 2272,
      "sub": 2273,
      "Tel": 2274,
      "##leich": 2275,
      "tule": 2276,
      "##mä": 2277,
      "##fen": 2278,
      "##ali": 2279,
      "ill": 2280,
      "Sk": 2281,
      "Ja": 2282,
      "tem": 2283,
      "##olag": 2284,
      "##ades": 2285,
      "where": 2286,
      "dit": 2287,
      "##etty": 2288,
      "Per": 2289,
      "##van": 2290,
      "nor": 2291,
      "##hör": 2292,
      "Mme": 2293,
      "48": 2294,
      "Telef": 2295,
      "jon": 2296,
      "efter": 2297,
      "##ères": 2298,
      "##anden": 2299,
      "55": 2300,
      "##ict": 2301,
      "Nor": 2302,
      "##oman": 2303,
      "inc": 2304,
      "##elta": 2305,
      "prof": 2306,
      "##ussa": 2307,
      "quel": 2308,
      "##rat": 2309,
      "##mt": 2310,
      "##hö": 2311,
      "##hin": 2312,
      "full": 2313,
      "##ähr": 2314,
      "##ström": 2315,
      "##hn": 2316,
      "vä": 2317,
      "person": 2318,
      "Mit": 2319,
      "To": 2320,
      "cent": 2321,
      "38": 2322,
      "##esse": 2323,
      "pet": 2324,
      "first": 2325,
      "France": 2326,
      "nyt": 2327,
      "##emme": 2328,
      "Det": 2329,
      "enc": 2330,
      "tri": 2331,
      "##inska": 2332,
      "##vel": 2333,
      "##bes": 2334,
      "detta": 2335,
      "nen": 2336,
      "##OM": 2337,
      "##UR": 2338,
      "##isse": 2339,
      "##oc": 2340,
      "ét": 2341,
      "##zen": 2342,
      "Ku": 2343,
      "pub": 2344,
      "##olon": 2345,
      "Ind": 2346,
      "##sg": 2347,
      "##rik": 2348,
      "##ivat": 2349,
      "being": 2350,
      "##gan": 2351,
      "##ara": 2352,
      "##son": 2353,
      "43": 2354,
      "##isesti": 2355,
      "##él": 2356,
      "fri": 2357,
      "ul": 2358,
      "Men": 2359,
      "##éc": 2360,
      "##gar": 2361,
      "##fven": 2362,
      "##ede": 2363,
      "dép": 2364,
      "supp": 2365,
      "très": 2366,
      "must": 2367,
      "mind": 2368,
      "bre": 2369,
      "zwe": 2370,
      "47": 2371,
      "sä": 2372,
      "##aul": 2373,
      "denna": 2374,
      "##ood": 2375,
      "##ages": 2376,
      "int": 2377,
      "##anç": 2378,
      "syn": 2379,
      "##uta": 2380,
      "Mi": 2381,
      "après": 2382,
      "##itet": 2383,
      "46": 2384,
      "##amn": 2385,
      "##cker": 2386,
      "##tir": 2387,
      "jag": 2388,
      "MM": 2389,
      "##bt": 2390,
      "just": 2391,
      "##unde": 2392,
      "fall": 2393,
      "much": 2394,
      "Auf": 2395,
      "##asti": 2396,
      "conf": 2397,
      "before": 2398,
      "good": 2399,
      "see": 2400,
      "##iip": 2401,
      "For": 2402,
      "##uen": 2403,
      "##ances": 2404,
      "##jest": 2405,
      "då": 2406,
      "Lond": 2407,
      "##män": 2408,
      "##the": 2409,
      "##ving": 2410,
      "mutta": 2411,
      "ils": 2412,
      "ble": 2413,
      "##érie": 2414,
      "inst": 2415,
      "39": 2416,
      "##riks": 2417,
      "dev": 2418,
      "how": 2419,
      "##ptem": 2420,
      "##nes": 2421,
      "Hr": 2422,
      "##ffer": 2423,
      "tt": 2424,
      "bu": 2425,
      "##EL": 2426,
      "kön": 2427,
      "LA": 2428,
      "##acht": 2429,
      "conc": 2430,
      "francs": 2431,
      "day": 2432,
      "##aut": 2433,
      "utan": 2434,
      "like": 2435,
      "##olla": 2436,
      "little": 2437,
      "hä": 2438,
      "dieser": 2439,
      "##tern": 2440,
      "##öra": 2441,
      "##vent": 2442,
      "##hing": 2443,
      "pp": 2444,
      "did": 2445,
      "viel": 2446,
      "arr": 2447,
      "Vi": 2448,
      "Sie": 2449,
      "soll": 2450,
      "##mit": 2451,
      "vill": 2452,
      "offic": 2453,
      "lö": 2454,
      "före": 2455,
      "##otta": 2456,
      "ele": 2457,
      "vär": 2458,
      "##äin": 2459,
      "Alex": 2460,
      "Fra": 2461,
      "fer": 2462,
      "##TA": 2463,
      "än": 2464,
      "py": 2465,
      "lar": 2466,
      "##ål": 2467,
      "##lie": 2468,
      "ry": 2469,
      "thr": 2470,
      "spr": 2471,
      "peu": 2472,
      "ker": 2473,
      "koh": 2474,
      "Sam": 2475,
      "##ald": 2476,
      "mir": 2477,
      "kuul": 2478,
      "päiv": 2479,
      "##eman": 2480,
      "##opp": 2481,
      "##kseen": 2482,
      "sous": 2483,
      "far": 2484,
      "sec": 2485,
      "pat": 2486,
      "##holm": 2487,
      "sitä": 2488,
      "last": 2489,
      "arri": 2490,
      "Kon": 2491,
      "##ines": 2492,
      "##allit": 2493,
      "##vers": 2494,
      "Ang": 2495,
      "##hus": 2496,
      "Fl": 2497,
      "##iers": 2498,
      "##elf": 2499,
      "OF": 2500,
      "bli": 2501,
      "nim": 2502,
      "##unut": 2503,
      "Mais": 2504,
      "##stra": 2505,
      "##ky": 2506,
      "Ke": 2507,
      "##ående": 2508,
      "##ender": 2509,
      "##heit": 2510,
      "##ory": 2511,
      "##ager": 2512,
      "Nord": 2513,
      "faire": 2514,
      "##tal": 2515,
      "##ello": 2516,
      "##iner": 2517,
      "##ente": 2518,
      "##pril": 2519,
      "div": 2520,
      "tah": 2521,
      "##ona": 2522,
      "##ustr": 2523,
      "well": 2524,
      "use": 2525,
      "##jor": 2526,
      "ihm": 2527,
      "##rich": 2528,
      "kos": 2529,
      "Pal": 2530,
      "Com": 2531,
      "ga": 2532,
      "liv": 2533,
      "##ues": 2534,
      "trou": 2535,
      "met": 2536,
      "rép": 2537,
      "##iu": 2538,
      "Hu": 2539,
      "tai": 2540,
      "every": 2541,
      "Sen": 2542,
      "led": 2543,
      "ollut": 2544,
      "Till": 2545,
      "génér": 2546,
      "##try": 2547,
      "lis": 2548,
      "näm": 2549,
      "ehd": 2550,
      "##tien": 2551,
      "seur": 2552,
      "##cip": 2553,
      "andra": 2554,
      "olisi": 2555,
      "##ält": 2556,
      "red": 2557,
      "Unter": 2558,
      "John": 2559,
      "##ital": 2560,
      "##ates": 2561,
      "##elin": 2562,
      "kansa": 2563,
      "cro": 2564,
      "##ius": 2565,
      "##tic": 2566,
      "Hau": 2567,
      "jou": 2568,
      "dro": 2569,
      "sei": 2570,
      "those": 2571,
      "##etzt": 2572,
      "##fin": 2573,
      "diese": 2574,
      "##ule": 2575,
      "##etään": 2576,
      "Zeit": 2577,
      "Bo": 2578,
      "##uden": 2579,
      "ilmoit": 2580,
      "##ohl": 2581,
      "sat": 2582,
      "##endre": 2583,
      "##aise": 2584,
      "aj": 2585,
      "##etter": 2586,
      "port": 2587,
      "Is": 2588,
      "know": 2589,
      "also": 2590,
      "van": 2591,
      "##oire": 2592,
      "189": 2593,
      "##assen": 2594,
      "tur": 2595,
      "##ikä": 2596,
      "##gel": 2597,
      "##ask": 2598,
      "hem": 2599,
      "##ßen": 2600,
      "##fall": 2601,
      "##oud": 2602,
      "##unk": 2603,
      "##iS": 2604,
      "Pa": 2605,
      "Närm": 2606,
      "##älj": 2607,
      "sn": 2608,
      "##off": 2609,
      "##ela": 2610,
      "cir": 2611,
      "ihre": 2612,
      "##vr": 2613,
      "##AU": 2614,
      "found": 2615,
      "##asi": 2616,
      "hus": 2617,
      "CH": 2618,
      "Mat": 2619,
      "##tend": 2620,
      "##sen": 2621,
      "Da": 2622,
      "51": 2623,
      "At": 2624,
      "New": 2625,
      "##uck": 2626,
      "prop": 2627,
      "##dagen": 2628,
      "188": 2629,
      "##mar": 2630,
      "##ious": 2631,
      "tjän": 2632,
      "plats": 2633,
      "fut": 2634,
      "hym": 2635,
      "yle": 2636,
      "åter": 2637,
      "##itta": 2638,
      "old": 2639,
      "own": 2640,
      "##enska": 2641,
      "dom": 2642,
      "##cial": 2643,
      "near": 2644,
      "##går": 2645,
      "PAR": 2646,
      "rak": 2647,
      "##olle": 2648,
      "##okal": 2649,
      "soir": 2650,
      "##elles": 2651,
      "Li": 2652,
      "tiet": 2653,
      "Pe": 2654,
      "uns": 2655,
      "sim": 2656,
      "##vid": 2657,
      "hin": 2658,
      "many": 2659,
      "##ständ": 2660,
      "mehr": 2661,
      "plac": 2662,
      "bro": 2663,
      "##tei": 2664,
      "ön": 2665,
      "ple": 2666,
      "Sc": 2667,
      "sem": 2668,
      "##ress": 2669,
      "##iseksi": 2670,
      "look": 2671,
      "##uksia": 2672,
      "mid": 2673,
      "vol": 2674,
      "Ob": 2675,
      "##oule": 2676,
      "##iseen": 2677,
      "pid": 2678,
      "contre": 2679,
      "##arin": 2680,
      "even": 2681,
      "##cken": 2682,
      "##ichte": 2683,
      "donn": 2684,
      "##hu": 2685,
      "sö": 2686,
      "SS": 2687,
      "saa": 2688,
      "##ollis": 2689,
      "siitä": 2690,
      "same": 2691,
      "Ir": 2692,
      "##atz": 2693,
      "eff": 2694,
      "##other": 2695,
      "##ution": 2696,
      "##ET": 2697,
      "##iens": 2698,
      "call": 2699,
      "##usk": 2700,
      "IS": 2701,
      "##IT": 2702,
      "##OL": 2703,
      "sitt": 2704,
      "##illi": 2705,
      "##mo": 2706,
      "työ": 2707,
      "voi": 2708,
      "mis": 2709,
      "##että": 2710,
      "##ensä": 2711,
      "49": 2712,
      "eng": 2713,
      "This": 2714,
      "##ani": 2715,
      "act": 2716,
      "entre": 2717,
      "##med": 2718,
      "##enen": 2719,
      "##oks": 2720,
      "##anter": 2721,
      "##lles": 2722,
      "läm": 2723,
      "Bez": 2724,
      "##ila": 2725,
      "ip": 2726,
      "Suomen": 2727,
      "fre": 2728,
      "##endant": 2729,
      "Lind": 2730,
      "52": 2731,
      "##gn": 2732,
      "päät": 2733,
      "##som": 2734,
      "##eller": 2735,
      "rés": 2736,
      "town": 2737,
      "rest": 2738,
      "mars": 2739,
      "##AT": 2740,
      "bör": 2741,
      "##eng": 2742,
      "pra": 2743,
      "##ads": 2744,
      "through": 2745,
      "Ter": 2746,
      "##tier": 2747,
      "##ower": 2748,
      "aw": 2749,
      "mom": 2750,
      "August": 2751,
      "Ce": 2752,
      "##annt": 2753,
      "alt": 2754,
      "##ness": 2755,
      "ning": 2756,
      "Pol": 2757,
      "mie": 2758,
      "76": 2759,
      "##cul": 2760,
      "ia": 2761,
      "sent": 2762,
      "point": 2763,
      "##co": 2764,
      "##yska": 2765,
      "##Sta": 2766,
      "Kun": 2767,
      "##10": 2768,
      "dra": 2769,
      "##tik": 2770,
      "gem": 2771,
      "##ical": 2772,
      "följ": 2773,
      "might": 2774,
      "##onna": 2775,
      "ques": 2776,
      "trans": 2777,
      "here": 2778,
      "äfven": 2779,
      "##ln": 2780,
      "find": 2781,
      "eing": 2782,
      "##ENT": 2783,
      "##iii": 2784,
      "kello": 2785,
      "##ête": 2786,
      "##isiin": 2787,
      "Ph": 2788,
      "##nung": 2789,
      "##ånd": 2790,
      "het": 2791,
      "Berlin": 2792,
      "koko": 2793,
      "tulee": 2794,
      "hv": 2795,
      "##ral": 2796,
      "##bour": 2797,
      "##lung": 2798,
      "Comm": 2799,
      "mus": 2800,
      "##agne": 2801,
      "wenn": 2802,
      "Han": 2803,
      "##cket": 2804,
      "##ffen": 2805,
      "bec": 2806,
      "##ama": 2807,
      "när": 2808,
      "oike": 2809,
      "äro": 2810,
      "##fs": 2811,
      "Gu": 2812,
      "##åt": 2813,
      "##St": 2814,
      "##geb": 2815,
      "##geben": 2816,
      "##TION": 2817,
      "Svar": 2818,
      "Stock": 2819,
      "erf": 2820,
      "huom": 2821,
      "##älä": 2822,
      "lit": 2823,
      "Jah": 2824,
      "myö": 2825,
      "##ctions": 2826,
      "Das": 2827,
      "Suom": 2828,
      "succ": 2829,
      "never": 2830,
      "ci": 2831,
      "##sti": 2832,
      "kaupp": 2833,
      "ref": 2834,
      "Hö": 2835,
      "##ima": 2836,
      "##tid": 2837,
      "##gra": 2838,
      "##mes": 2839,
      "##uja": 2840,
      "ki": 2841,
      "Post": 2842,
      "Ett": 2843,
      "##ished": 2844,
      "down": 2845,
      "käs": 2846,
      "Sir": 2847,
      "rah": 2848,
      "moi": 2849,
      "hr": 2850,
      "##ober": 2851,
      "##öör": 2852,
      "53": 2853,
      "##ktion": 2854,
      "stör": 2855,
      "få": 2856,
      "##iman": 2857,
      "hå": 2858,
      "Lou": 2859,
      "Car": 2860,
      "minist": 2861,
      "##ré": 2862,
      "##order": 2863,
      "beau": 2864,
      "##ksam": 2865,
      "##ighet": 2866,
      "##tres": 2867,
      "inne": 2868,
      "jonka": 2869,
      "London": 2870,
      "sis": 2871,
      "##ika": 2872,
      "##ced": 2873,
      "##urg": 2874,
      "##IC": 2875,
      "##omb": 2876,
      "##sam": 2877,
      "##mk": 2878,
      "##auf": 2879,
      "##irk": 2880,
      "##aden": 2881,
      "Cap": 2882,
      "##ls": 2883,
      "län": 2884,
      "##ème": 2885,
      "##lands": 2886,
      "exce": 2887,
      "##imes": 2888,
      "AN": 2889,
      "##äf": 2890,
      "##han": 2891,
      "##akt": 2892,
      "kap": 2893,
      "##erk": 2894,
      "Nov": 2895,
      "##ople": 2896,
      "eu": 2897,
      "Har": 2898,
      "54": 2899,
      "wr": 2900,
      "##ffic": 2901,
      "Fre": 2902,
      "Val": 2903,
      "##änyt": 2904,
      "blo": 2905,
      "mag": 2906,
      "##uut": 2907,
      "##iff": 2908,
      "##vol": 2909,
      "nation": 2910,
      "##amen": 2911,
      "##pi": 2912,
      "mé": 2913,
      "four": 2914,
      "##ünd": 2915,
      "though": 2916,
      "##isin": 2917,
      "##osen": 2918,
      "kesk": 2919,
      "polit": 2920,
      "##rent": 2921,
      "185": 2922,
      "##itte": 2923,
      "bed": 2924,
      "Stadt": 2925,
      "##ätta": 2926,
      "päim": 2927,
      "worden": 2928,
      "##irs": 2929,
      "leurs": 2930,
      "##cs": 2931,
      "Mag": 2932,
      "65": 2933,
      "önsk": 2934,
      "matin": 2935,
      "pen": 2936,
      "sera": 2937,
      "Por": 2938,
      "luk": 2939,
      "##alan": 2940,
      "oc": 2941,
      "##éra": 2942,
      "ang": 2943,
      "fråg": 2944,
      "fru": 2945,
      "mill": 2946,
      "encore": 2947,
      "##atter": 2948,
      "get": 2949,
      "##ira": 2950,
      "##ady": 2951,
      "kök": 2952,
      "##ittel": 2953,
      "sina": 2954,
      "jäl": 2955,
      "##uka": 2956,
      "appe": 2957,
      "##mö": 2958,
      "##chl": 2959,
      "years": 2960,
      "Mor": 2961,
      "General": 2962,
      "##ends": 2963,
      "##rif": 2964,
      "geb": 2965,
      "kum": 2966,
      "##oy": 2967,
      "shall": 2968,
      "Fab": 2969,
      "still": 2970,
      "Gl": 2971,
      "##pre": 2972,
      "Chr": 2973,
      "##RA": 2974,
      "##nä": 2975,
      "Amer": 2976,
      "seem": 2977,
      "Engl": 2978,
      "pur": 2979,
      "##hmen": 2980,
      "##elsen": 2981,
      "##po": 2982,
      "pai": 2983,
      "##ilen": 2984,
      "bor": 2985,
      "##ards": 2986,
      "##dom": 2987,
      "##jet": 2988,
      "##yks": 2989,
      "id": 2990,
      "##tter": 2991,
      "IN": 2992,
      "moment": 2993,
      "avoir": 2994,
      "##ount": 2995,
      "dés": 2996,
      "house": 2997,
      "jos": 2998,
      "##ism": 2999,
      "dessa": 3000,
      "##vit": 3001,
      "asi": 3002,
      "vara": 3003,
      "Cr": 3004,
      "##anger": 3005,
      "hänen": 3006,
      "##ator": 3007,
      "wo": 3008,
      "##kir": 3009,
      "##ärd": 3010,
      "art": 3011,
      "She": 3012,
      "lik": 3013,
      "##self": 3014,
      "##11": 3015,
      "public": 3016,
      "##aine": 3017,
      "half": 3018,
      "##ét": 3019,
      "##iß": 3020,
      "saap": 3021,
      "Du": 3022,
      "##nal": 3023,
      "##ikan": 3024,
      "Str": 3025,
      "sum": 3026,
      "##älle": 3027,
      "England": 3028,
      "##isia": 3029,
      "##tia": 3030,
      "sehr": 3031,
      "lin": 3032,
      "Pf": 3033,
      "sor": 3034,
      "hist": 3035,
      "ph": 3036,
      "85": 3037,
      "LE": 3038,
      "##idän": 3039,
      "##sche": 3040,
      "##ästä": 3041,
      "bra": 3042,
      "nou": 3043,
      "mån": 3044,
      "##éri": 3045,
      "vår": 3046,
      "seine": 3047,
      "Wil": 3048,
      "Georg": 3049,
      "##amat": 3050,
      "yhte": 3051,
      "Jose": 3052,
      "ställ": 3053,
      "##ium": 3054,
      "##ada": 3055,
      "ken": 3056,
      "##pon": 3057,
      "proc": 3058,
      "##NE": 3059,
      "Ty": 3060,
      "juni": 3061,
      "nos": 3062,
      "##keen": 3063,
      "##ommen": 3064,
      "say": 3065,
      "hom": 3066,
      "ennen": 3067,
      "##länd": 3068,
      "Co": 3069,
      "##stell": 3070,
      "##atur": 3071,
      "56": 3072,
      "Ue": 3073,
      "##tigen": 3074,
      "Ur": 3075,
      "Af": 3076,
      "himself": 3077,
      "Karl": 3078,
      "lieu": 3079,
      "##jour": 3080,
      "rece": 3081,
      "Närmare": 3082,
      "autre": 3083,
      "##LA": 3084,
      "##tiv": 3085,
      "300": 3086,
      "tel": 3087,
      "##ands": 3088,
      "##full": 3089,
      "##itions": 3090,
      "##OUR": 3091,
      "olem": 3092,
      "three": 3093,
      "général": 3094,
      "tun": 3095,
      "contin": 3096,
      "Ra": 3097,
      "##chte": 3098,
      "##bel": 3099,
      "dur": 3100,
      "present": 3101,
      "##ains": 3102,
      "##aug": 3103,
      "way": 3104,
      "suom": 3105,
      "Mai": 3106,
      "Tu": 3107,
      "99": 3108,
      "barn": 3109,
      "##ween": 3110,
      "kys": 3111,
      "##kar": 3112,
      "##ames": 3113,
      "without": 3114,
      "Fol": 3115,
      "##oka": 3116,
      "##ida": 3117,
      "Ant": 3118,
      "eines": 3119,
      "##ena": 3120,
      "74": 3121,
      "kontor": 3122,
      "dä": 3123,
      "57": 3124,
      "ner": 3125,
      "##ût": 3126,
      "mast": 3127,
      "wieder": 3128,
      "cond": 3129,
      "Herrn": 3130,
      "##ellan": 3131,
      "Und": 3132,
      "##ords": 3133,
      "hans": 3134,
      "foll": 3135,
      "const": 3136,
      "##ptember": 3137,
      "uts": 3138,
      "##illes": 3139,
      "intr": 3140,
      "##unden": 3141,
      "##AND": 3142,
      "##kn": 3143,
      "kv": 3144,
      "bon": 3145,
      "##tige": 3146,
      "mes": 3147,
      "jan": 3148,
      "##itter": 3149,
      "hum": 3150,
      "mukaan": 3151,
      "##kka": 3152,
      "éc": 3153,
      "My": 3154,
      "##ham": 3155,
      "Kor": 3156,
      "##glich": 3157,
      "Tor": 3158,
      "##ilta": 3159,
      "77": 3160,
      "##len": 3161,
      "hvilka": 3162,
      "##isto": 3163,
      "Grund": 3164,
      "too": 3165,
      "jul": 3166,
      "##hdist": 3167,
      "##andet": 3168,
      "58": 3169,
      "jed": 3170,
      "Wa": 3171,
      "##iser": 3172,
      "##yss": 3173,
      "aik": 3174,
      "ban": 3175,
      "##schaft": 3176,
      "kar": 3177,
      "There": 3178,
      "toute": 3179,
      "produ": 3180,
      "##xt": 3181,
      "came": 3182,
      "Hel": 3183,
      "compl": 3184,
      "##kil": 3185,
      "##IE": 3186,
      "gif": 3187,
      "stre": 3188,
      "temps": 3189,
      "##ßer": 3190,
      "Lu": 3191,
      "##rn": 3192,
      "kol": 3193,
      "##kun": 3194,
      "##ennes": 3195,
      "gel": 3196,
      "##iksi": 3197,
      "##ments": 3198,
      "jäm": 3199,
      "rou": 3200,
      "asia": 3201,
      "country": 3202,
      "##bles": 3203,
      "##üh": 3204,
      "sillä": 3205,
      "Bet": 3206,
      "##selben": 3207,
      "fra": 3208,
      "conse": 3209,
      "tämän": 3210,
      "They": 3211,
      "aur": 3212,
      "hög": 3213,
      "general": 3214,
      "##ament": 3215,
      "make": 3216,
      "bere": 3217,
      "##gent": 3218,
      "##ichts": 3219,
      "situ": 3220,
      "pitä": 3221,
      "ey": 3222,
      "koul": 3223,
      "##mm": 3224,
      "natur": 3225,
      "April": 3226,
      "kaikki": 3227,
      "##iva": 3228,
      "Jan": 3229,
      "##tif": 3230,
      "peut": 3231,
      "life": 3232,
      "##führ": 3233,
      "vän": 3234,
      "Gra": 3235,
      "Bau": 3236,
      "people": 3237,
      "såsom": 3238,
      "maks": 3239,
      "##ynyt": 3240,
      "seura": 3241,
      "Ans": 3242,
      "non": 3243,
      "past": 3244,
      "set": 3245,
      "##aht": 3246,
      "ovat": 3247,
      "certain": 3248,
      "##iem": 3249,
      "toutes": 3250,
      "prix": 3251,
      "##vice": 3252,
      "##üt": 3253,
      "##stand": 3254,
      "##hme": 3255,
      "##ek": 3256,
      "trois": 3257,
      "73": 3258,
      "##bru": 3259,
      "sii": 3260,
      "##ited": 3261,
      "##ters": 3262,
      "##gend": 3263,
      "seen": 3264,
      "six": 3265,
      "##ws": 3266,
      "dec": 3267,
      "##US": 3268,
      "fur": 3269,
      "Frank": 3270,
      "Ser": 3271,
      "od": 3272,
      "Um": 3273,
      "mois": 3274,
      "##akin": 3275,
      "ään": 3276,
      "ganz": 3277,
      "kaupung": 3278,
      "##ude": 3279,
      "##istr": 3280,
      "##antes": 3281,
      "hui": 3282,
      "skall": 3283,
      "rätt": 3284,
      "##ingar": 3285,
      "88": 3286,
      "Mo": 3287,
      "##uit": 3288,
      "95": 3289,
      "##mal": 3290,
      "##rait": 3291,
      "pain": 3292,
      "##uud": 3293,
      "run": 3294,
      "##nl": 3295,
      "Ta": 3296,
      "mem": 3297,
      "gou": 3298,
      "##ivi": 3299,
      "##ple": 3300,
      "dre": 3301,
      "Mutta": 3302,
      "Mil": 3303,
      "between": 3304,
      "##kko": 3305,
      "Peters": 3306,
      "Vol": 3307,
      "herr": 3308,
      "Hamburg": 3309,
      "Sl": 3310,
      "##kor": 3311,
      "62": 3312,
      "Fred": 3313,
      "##tl": 3314,
      "seiner": 3315,
      "##ohn": 3316,
      "66": 3317,
      "lig": 3318,
      "##essen": 3319,
      "Gesch": 3320,
      "think": 3321,
      "fast": 3322,
      "pap": 3323,
      "##ärk": 3324,
      "##ojen": 3325,
      "cours": 3326,
      "Med": 3327,
      "tag": 3328,
      "Piet": 3329,
      "yks": 3330,
      "jäs": 3331,
      "##iipur": 3332,
      "abs": 3333,
      "##mat": 3334,
      "ear": 3335,
      "rég": 3336,
      "mel": 3337,
      "tull": 3338,
      "##taire": 3339,
      "Ol": 3340,
      "gre": 3341,
      "##rier": 3342,
      "Reich": 3343,
      "##por": 3344,
      "##rift": 3345,
      "##for": 3346,
      "##insi": 3347,
      "finska": 3348,
      "##tive": 3349,
      "##oup": 3350,
      "##wards": 3351,
      "Pu": 3352,
      "aller": 3353,
      "##iment": 3354,
      "Juli": 3355,
      "72": 3356,
      "wür": 3357,
      "##dens": 3358,
      "##ption": 3359,
      "sé": 3360,
      "follow": 3361,
      "nov": 3362,
      "##ither": 3363,
      "uud": 3364,
      "side": 3365,
      "##alk": 3366,
      "habe": 3367,
      "Mer": 3368,
      "col": 3369,
      "rapp": 3370,
      "##ides": 3371,
      "Von": 3372,
      "##vor": 3373,
      "beh": 3374,
      "come": 3375,
      "Mad": 3376,
      "fo": 3377,
      "##tn": 3378,
      "wid": 3379,
      "##imät": 3380,
      "Bra": 3381,
      "##imä": 3382,
      "Bor": 3383,
      "##ähän": 3384,
      "mak": 3385,
      "sär": 3386,
      "##joit": 3387,
      "##hä": 3388,
      "Lin": 3389,
      "ohne": 3390,
      "kas": 3391,
      "##usi": 3392,
      "Sv": 3393,
      "aussi": 3394,
      "jossa": 3395,
      "81": 3396,
      "premi": 3397,
      "yl": 3398,
      "##nv": 3399,
      "Jahre": 3400,
      "genast": 3401,
      "ensi": 3402,
      "lag": 3403,
      "##QU": 3404,
      "kunna": 3405,
      "##borg": 3406,
      "##ual": 3407,
      "##pect": 3408,
      "Jul": 3409,
      "##ras": 3410,
      "##voir": 3411,
      "maa": 3412,
      "59": 3413,
      "##uld": 3414,
      "Sil": 3415,
      "against": 3416,
      "Wir": 3417,
      "large": 3418,
      "Haus": 3419,
      "##CE": 3420,
      "##ives": 3421,
      "etc": 3422,
      "Vers": 3423,
      "##atte": 3424,
      "ton": 3425,
      "##skin": 3426,
      "##iborg": 3427,
      "##tens": 3428,
      "##antaina": 3429,
      "##kem": 3430,
      "prom": 3431,
      "##fa": 3432,
      "Port": 3433,
      "##pu": 3434,
      "Eur": 3435,
      "Lo": 3436,
      "##reg": 3437,
      "##jon": 3438,
      "400": 3439,
      "high": 3440,
      "vic": 3441,
      "##ison": 3442,
      "87": 3443,
      "##aiser": 3444,
      "##kok": 3445,
      "##erie": 3446,
      "Hy": 3447,
      "mann": 3448,
      "lands": 3449,
      "##pen": 3450,
      "Telefon": 3451,
      "##AS": 3452,
      "##bahn": 3453,
      "##ören": 3454,
      "eh": 3455,
      "miles": 3456,
      "##uth": 3457,
      "##ouks": 3458,
      "notre": 3459,
      "Pers": 3460,
      "##llen": 3461,
      "63": 3462,
      "nombre": 3463,
      "Ru": 3464,
      "##vert": 3465,
      "##position": 3466,
      "inn": 3467,
      "##ork": 3468,
      "meddel": 3469,
      "##rib": 3470,
      "yet": 3471,
      "franç": 3472,
      "##igung": 3473,
      "laus": 3474,
      "Mu": 3475,
      "sell": 3476,
      "having": 3477,
      "vot": 3478,
      "Nous": 3479,
      "atta": 3480,
      "##eri": 3481,
      "##isa": 3482,
      "lif": 3483,
      "kö": 3484,
      "Mont": 3485,
      "##tsch": 3486,
      "Une": 3487,
      "##isiä": 3488,
      "exc": 3489,
      "##eth": 3490,
      "ft": 3491,
      "Jahr": 3492,
      "That": 3493,
      "##ationen": 3494,
      "nouv": 3495,
      "You": 3496,
      "Om": 3497,
      "king": 3498,
      "##ini": 3499,
      "##abl": 3500,
      "honom": 3501,
      "78": 3502,
      "enf": 3503,
      "called": 3504,
      "##CH": 3505,
      "Elle": 3506,
      "work": 3507,
      "##oissa": 3508,
      "##ått": 3509,
      "##ätä": 3510,
      "##plan": 3511,
      "Ho": 3512,
      "##yer": 3513,
      "PARIS": 3514,
      "##aista": 3515,
      "grund": 3516,
      "##cle": 3517,
      "##uel": 3518,
      "import": 3519,
      "##port": 3520,
      "##ilda": 3521,
      "##nda": 3522,
      "wen": 3523,
      "Oh": 3524,
      "##ba": 3525,
      "##varande": 3526,
      "##opul": 3527,
      "##atal": 3528,
      "jours": 3529,
      "##halten": 3530,
      "##istes": 3531,
      "##été": 3532,
      "##iven": 3533,
      "él": 3534,
      "stad": 3535,
      "Wal": 3536,
      "män": 3537,
      "##ati": 3538,
      "fac": 3539,
      "yli": 3540,
      "sag": 3541,
      "Hän": 3542,
      "##ivers": 3543,
      "rik": 3544,
      "By": 3545,
      "selbst": 3546,
      "là": 3547,
      "gesch": 3548,
      "##bli": 3549,
      "quelques": 3550,
      "##isesta": 3551,
      "##arr": 3552,
      "inom": 3553,
      "deS": 3554,
      "##uses": 3555,
      "##abe": 3556,
      "tunn": 3557,
      "##olan": 3558,
      "##ukset": 3559,
      "God": 3560,
      "##dem": 3561,
      "##ote": 3562,
      "Jean": 3563,
      "samma": 3564,
      "##aisia": 3565,
      "Prin": 3566,
      "voll": 3567,
      "##illet": 3568,
      "##ever": 3569,
      "##anska": 3570,
      "##jel": 3571,
      "##ety": 3572,
      "adress": 3573,
      "##OT": 3574,
      "##lr": 3575,
      "hatte": 3576,
      "dam": 3577,
      "organ": 3578,
      "entr": 3579,
      "pan": 3580,
      "left": 3581,
      "allmän": 3582,
      "don": 3583,
      "##cka": 3584,
      "##orit": 3585,
      "wa": 3586,
      "184": 3587,
      "##AM": 3588,
      "name": 3589,
      "Cor": 3590,
      "Not": 3591,
      "##eren": 3592,
      "##öst": 3593,
      "Sh": 3594,
      "##timm": 3595,
      "Ober": 3596,
      "each": 3597,
      "##aisen": 3598,
      "head": 3599,
      "ange": 3600,
      "##tags": 3601,
      "kam": 3602,
      "back": 3603,
      "##ee": 3604,
      "##embre": 3605,
      "mai": 3606,
      "##outh": 3607,
      "ung": 3608,
      "64": 3609,
      "rau": 3610,
      "71": 3611,
      "Des": 3612,
      "lan": 3613,
      "IV": 3614,
      "San": 3615,
      "Paul": 3616,
      "tn": 3617,
      "hund": 3618,
      "Bel": 3619,
      "hur": 3620,
      "öpp": 3621,
      "Mich": 3622,
      "##oista": 3623,
      "##aina": 3624,
      "adm": 3625,
      "Ren": 3626,
      "while": 3627,
      "water": 3628,
      "cin": 3629,
      "diesem": 3630,
      "Was": 3631,
      "vin": 3632,
      "Ju": 3633,
      "##ix": 3634,
      "perust": 3635,
      "put": 3636,
      "thought": 3637,
      "##ucht": 3638,
      "disc": 3639,
      "tod": 3640,
      "Finland": 3641,
      "##allis": 3642,
      "toi": 3643,
      "##pan": 3644,
      "Pour": 3645,
      "small": 3646,
      "##OS": 3647,
      "ie": 3648,
      "letz": 3649,
      "##pf": 3650,
      "vir": 3651,
      "##cteur": 3652,
      "##tigt": 3653,
      "dann": 3654,
      "##uS": 3655,
      "tit": 3656,
      "tav": 3657,
      "##auv": 3658,
      "Rich": 3659,
      "ång": 3660,
      "##koul": 3661,
      "few": 3662,
      "##ensch": 3663,
      "suiv": 3664,
      "##rie": 3665,
      "##nas": 3666,
      "muu": 3667,
      "frän": 3668,
      "##lau": 3669,
      "##aisten": 3670,
      "tää": 3671,
      "##ias": 3672,
      "kur": 3673,
      "##yksen": 3674,
      "Bro": 3675,
      "84": 3676,
      "##amaan": 3677,
      "Ung": 3678,
      "Hang": 3679,
      "määrä": 3680,
      "##inal": 3681,
      "Akt": 3682,
      "lad": 3683,
      "year": 3684,
      "face": 3685,
      "##ites": 3686,
      "82": 3687,
      "ville": 3688,
      "mycket": 3689,
      "##kast": 3690,
      "##stru": 3691,
      "schon": 3692,
      "vast": 3693,
      "##ged": 3694,
      "##alien": 3695,
      "course": 3696,
      "Charl": 3697,
      "Lord": 3698,
      "##ford": 3699,
      "let": 3700,
      "##richt": 3701,
      "##mon": 3702,
      "käyt": 3703,
      "fil": 3704,
      "young": 3705,
      "67": 3706,
      "mur": 3707,
      "##fol": 3708,
      "Kes": 3709,
      "ehdot": 3710,
      "##olog": 3711,
      "själ": 3712,
      "tän": 3713,
      "83": 3714,
      "##ettre": 3715,
      "take": 3716,
      "##lan": 3717,
      "##utsch": 3718,
      "Regier": 3719,
      "Cour": 3720,
      "##amb": 3721,
      "##cts": 3722,
      "##AP": 3723,
      "##uter": 3724,
      "mitä": 3725,
      "sti": 3726,
      "besl": 3727,
      "##RES": 3728,
      "##ikeu": 3729,
      "##auks": 3730,
      "##asion": 3731,
      "taan": 3732,
      "eri": 3733,
      "seul": 3734,
      "Po": 3735,
      "Gar": 3736,
      "Mann": 3737,
      "syy": 3738,
      "##sn": 3739,
      "endast": 3740,
      "sold": 3741,
      "kautta": 3742,
      "##ening": 3743,
      "61": 3744,
      "##inder": 3745,
      "afg": 3746,
      "serv": 3747,
      "rais": 3748,
      "Hal": 3749,
      "rich": 3750,
      "##hte": 3751,
      "autres": 3752,
      "milit": 3753,
      "cal": 3754,
      "poss": 3755,
      "mig": 3756,
      "##ume": 3757,
      "landt": 3758,
      "##atten": 3759,
      "If": 3760,
      "##yi": 3761,
      "##jourd": 3762,
      "aug": 3763,
      "111": 3764,
      "##öj": 3765,
      "##ärs": 3766,
      "können": 3767,
      "kal": 3768,
      "progr": 3769,
      "march": 3770,
      "68": 3771,
      "ainsi": 3772,
      "##oris": 3773,
      "##aiset": 3774,
      "heure": 3775,
      "##itti": 3776,
      "Mrs": 3777,
      "##az": 3778,
      "183": 3779,
      "93": 3780,
      "éle": 3781,
      "rad": 3782,
      "Från": 3783,
      "cha": 3784,
      "appear": 3785,
      "emplo": 3786,
      "AU": 3787,
      "##vere": 3788,
      "##lied": 3789,
      "##ammer": 3790,
      "verk": 3791,
      "wurden": 3792,
      "chez": 3793,
      "##rt": 3794,
      "dah": 3795,
      "muo": 3796,
      "nn": 3797,
      "ach": 3798,
      "ant": 3799,
      "slag": 3800,
      "##nahme": 3801,
      "##mier": 3802,
      "sw": 3803,
      "##uksi": 3804,
      "myön": 3805,
      "##pro": 3806,
      "Mlle": 3807,
      "##unnunta": 3808,
      "sjuk": 3809,
      "maj": 3810,
      "##jud": 3811,
      "Zu": 3812,
      "Hol": 3813,
      "##ville": 3814,
      "##ommes": 3815,
      "Maria": 3816,
      "Neu": 3817,
      "##äkin": 3818,
      "finn": 3819,
      "ze": 3820,
      "någon": 3821,
      "consider": 3822,
      "såd": 3823,
      "service": 3824,
      "##row": 3825,
      "##väl": 3826,
      "##yg": 3827,
      "##DS": 3828,
      "svar": 3829,
      "Va": 3830,
      "##fvud": 3831,
      "saat": 3832,
      "##erre": 3833,
      "05": 3834,
      "näh": 3835,
      "Cent": 3836,
      "##oihin": 3837,
      "##ron": 3838,
      "demand": 3839,
      "sää": 3840,
      "nun": 3841,
      "##fahr": 3842,
      "effe": 3843,
      "nya": 3844,
      "##kommen": 3845,
      "ned": 3846,
      "quar": 3847,
      "##ians": 3848,
      "rn": 3849,
      "##iken": 3850,
      "##zeich": 3851,
      "lään": 3852,
      "allt": 3853,
      "##ms": 3854,
      "##kuun": 3855,
      "pay": 3856,
      "##uuta": 3857,
      "Juni": 3858,
      "##eta": 3859,
      "##TER": 3860,
      "##vät": 3861,
      "86": 3862,
      "möbl": 3863,
      "night": 3864,
      "ost": 3865,
      "among": 3866,
      "kats": 3867,
      "hör": 3868,
      "##tto": 3869,
      "##ihin": 3870,
      "##kö": 3871,
      "##ßt": 3872,
      "##sky": 3873,
      "##licher": 3874,
      "Ac": 3875,
      "##ände": 3876,
      "gleich": 3877,
      "##ently": 3878,
      "kanssa": 3879,
      "##fort": 3880,
      "jota": 3881,
      "once": 3882,
      "aino": 3883,
      "order": 3884,
      "tl": 3885,
      "stud": 3886,
      "obser": 3887,
      "först": 3888,
      "Joseph": 3889,
      "anc": 3890,
      "##yttä": 3891,
      "Bank": 3892,
      "##ischer": 3893,
      "mun": 3894,
      "##ärt": 3895,
      "Comp": 3896,
      "##sible": 3897,
      "ev": 3898,
      "Hä": 3899,
      "##lund": 3900,
      "Kre": 3901,
      "DU": 3902,
      "##ép": 3903,
      "##oke": 3904,
      "rend": 3905,
      "##asser": 3906,
      "princip": 3907,
      "grande": 3908,
      "##edi": 3909,
      "sedan": 3910,
      "##esent": 3911,
      "öf": 3912,
      "siin": 3913,
      "##êt": 3914,
      "##yant": 3915,
      "soit": 3916,
      "##alit": 3917,
      "moins": 3918,
      "Ly": 3919,
      "Åbo": 3920,
      "##hol": 3921,
      "folk": 3922,
      "##ject": 3923,
      "##RO": 3924,
      "His": 3925,
      "johd": 3926,
      "both": 3927,
      "##inta": 3928,
      "depuis": 3929,
      "September": 3930,
      "##ired": 3931,
      "##enten": 3932,
      "Dans": 3933,
      "##lighet": 3934,
      "dock": 3935,
      "##ove": 3936,
      "command": 3937,
      "whom": 3938,
      "##ohj": 3939,
      "rat": 3940,
      "##vist": 3941,
      "sill": 3942,
      "##aps": 3943,
      "Ker": 3944,
      "teh": 3945,
      "Wasa": 3946,
      "##most": 3947,
      "enter": 3948,
      "##heil": 3949,
      "##ieux": 3950,
      "Ii": 3951,
      "##usqu": 3952,
      "##ield": 3953,
      "Viborg": 3954,
      "##jaa": 3955,
      "ons": 3956,
      "Joens": 3957,
      "Dies": 3958,
      "Tal": 3959,
      "##ndag": 3960,
      "##tement": 3961,
      "##nst": 3962,
      "##urned": 3963,
      "##jör": 3964,
      "92": 3965,
      "whole": 3966,
      "mindre": 3967,
      "kuiten": 3968,
      "ler": 3969,
      "question": 3970,
      "tut": 3971,
      "##cy": 3972,
      "##èrent": 3973,
      "##bers": 3974,
      "##änder": 3975,
      "94": 3976,
      "extra": 3977,
      "tis": 3978,
      "kunde": 3979,
      "##essor": 3980,
      "ettei": 3981,
      "varit": 3982,
      "feet": 3983,
      "Tra": 3984,
      "##atre": 3985,
      "Art": 3986,
      "hor": 3987,
      "lokal": 3988,
      "ryska": 3989,
      "##ined": 3990,
      "cont": 3991,
      "bi": 3992,
      "##ämään": 3993,
      "hafva": 3994,
      "tark": 3995,
      "hvilken": 3996,
      "##ula": 3997,
      "allen": 3998,
      "vuo": 3999,
      "Ban": 4000,
      "arb": 4001,
      "##otte": 4002,
      "gång": 4003,
      "##oulev": 4004,
      "##ienne": 4005,
      "away": 4006,
      "soon": 4007,
      "läng": 4008,
      "kind": 4009,
      "##ända": 4010,
      "##esti": 4011,
      "new": 4012,
      "##ience": 4013,
      "Mär": 4014,
      "79": 4015,
      "##orf": 4016,
      "##clar": 4017,
      "Kas": 4018,
      "hela": 4019,
      "##esen": 4020,
      "myöskin": 4021,
      "Vid": 4022,
      "stads": 4023,
      "Rau": 4024,
      "fors": 4025,
      "puis": 4026,
      "May": 4027,
      "right": 4028,
      "olla": 4029,
      "##oma": 4030,
      "Sj": 4031,
      "tehd": 4032,
      "##vé": 4033,
      "##ley": 4034,
      "##über": 4035,
      "werde": 4036,
      "Berg": 4037,
      "##Ssa": 4038,
      "bur": 4039,
      "puh": 4040,
      "Dire": 4041,
      "circ": 4042,
      "soci": 4043,
      "89": 4044,
      "##orna": 4045,
      "##ived": 4046,
      "Ko": 4047,
      "rap": 4048,
      "bad": 4049,
      "mies": 4050,
      "slut": 4051,
      "##nier": 4052,
      "##illiam": 4053,
      "Red": 4054,
      "child": 4055,
      "180": 4056,
      "Dec": 4057,
      "stat": 4058,
      "sym": 4059,
      "Minister": 4060,
      "mellan": 4061,
      "another": 4062,
      "asian": 4063,
      "tämä": 4064,
      "femme": 4065,
      "sing": 4066,
      "Ni": 4067,
      "Marie": 4068,
      "hau": 4069,
      "itse": 4070,
      "ras": 4071,
      "##sin": 4072,
      "##sp": 4073,
      "##nnu": 4074,
      "toimit": 4075,
      "Ou": 4076,
      "samm": 4077,
      "doch": 4078,
      "##ju": 4079,
      "cas": 4080,
      "##innan": 4081,
      "Ul": 4082,
      "##näm": 4083,
      "##ctor": 4084,
      "##kall": 4085,
      "iu": 4086,
      "91": 4087,
      "Kur": 4088,
      "##iat": 4089,
      "sitten": 4090,
      "avant": 4091,
      "##ffent": 4092,
      "Dem": 4093,
      "ask": 4094,
      "##zt": 4095,
      "lii": 4096,
      "myös": 4097,
      "Tage": 4098,
      "##ggnad": 4099,
      "##ales": 4100,
      "bew": 4101,
      "##ake": 4102,
      "konst": 4103,
      "##sh": 4104,
      "##stad": 4105,
      "Ven": 4106,
      "##bil": 4107,
      "Lie": 4108,
      "mm": 4109,
      "aam": 4110,
      "Kaiser": 4111,
      "##vär": 4112,
      "##rätt": 4113,
      "##alen": 4114,
      "##ittu": 4115,
      "##rade": 4116,
      "Gro": 4117,
      "##ingt": 4118,
      "##ava": 4119,
      "président": 4120,
      "ben": 4121,
      "dir": 4122,
      "150": 4123,
      "98": 4124,
      "##bed": 4125,
      "##ument": 4126,
      "oss": 4127,
      "##gren": 4128,
      "November": 4129,
      "lich": 4130,
      "Hon": 4131,
      "Schl": 4132,
      "##kia": 4133,
      "##onder": 4134,
      "##ollen": 4135,
      "asem": 4136,
      "Res": 4137,
      "##ikko": 4138,
      "heart": 4139,
      "##ices": 4140,
      "##ivät": 4141,
      "suite": 4142,
      "##tamaan": 4143,
      "secr": 4144,
      "rien": 4145,
      "Bre": 4146,
      "Kn": 4147,
      "jä": 4148,
      "river": 4149,
      "##tok": 4150,
      "sever": 4151,
      "kysym": 4152,
      "pien": 4153,
      "ersten": 4154,
      "Cham": 4155,
      "##uutta": 4156,
      "Für": 4157,
      "einz": 4158,
      "##essed": 4159,
      "Kön": 4160,
      "derni": 4161,
      "aud": 4162,
      "##OO": 4163,
      "pel": 4164,
      "aset": 4165,
      "##ran": 4166,
      "##öf": 4167,
      "jälkeen": 4168,
      "ihrer": 4169,
      "Louis": 4170,
      "tell": 4171,
      "##ring": 4172,
      "97": 4173,
      "väg": 4174,
      "puhe": 4175,
      "ba": 4176,
      "Nu": 4177,
      "Jag": 4178,
      "piir": 4179,
      "Kok": 4180,
      "bolag": 4181,
      "större": 4182,
      "##ateur": 4183,
      "Kap": 4184,
      "voit": 4185,
      "##onnes": 4186,
      "69": 4187,
      "tom": 4188,
      "siihen": 4189,
      "muut": 4190,
      "Miss": 4191,
      "##enh": 4192,
      "nouve": 4193,
      "##straße": 4194,
      "##lei": 4195,
      "William": 4196,
      "devant": 4197,
      "##tö": 4198,
      "hallit": 4199,
      "##inter": 4200,
      "##emmin": 4201,
      "inh": 4202,
      "lat": 4203,
      "##ivil": 4204,
      "mas": 4205,
      "##ush": 4206,
      "ff": 4207,
      "##ieu": 4208,
      "dieses": 4209,
      "Go": 4210,
      "##änk": 4211,
      "några": 4212,
      "##arbet": 4213,
      "Franz": 4214,
      "utg": 4215,
      "håll": 4216,
      "huone": 4217,
      "Handels": 4218,
      "##inge": 4219,
      "##änner": 4220,
      "tim": 4221,
      "gent": 4222,
      "kilo": 4223,
      "Mill": 4224,
      "förb": 4225,
      "stora": 4226,
      "ET": 4227,
      "stand": 4228,
      "lang": 4229,
      "##resse": 4230,
      "mont": 4231,
      "kiel": 4232,
      "##yed": 4233,
      "puolue": 4234,
      "fond": 4235,
      "fab": 4236,
      "##tains": 4237,
      "##stem": 4238,
      "##alis": 4239,
      "##yä": 4240,
      "##sm": 4241,
      "Arbe": 4242,
      "##öll": 4243,
      "något": 4244,
      "utt": 4245,
      "##gy": 4246,
      "##ître": 4247,
      "zw": 4248,
      "96": 4249,
      "##ader": 4250,
      "room": 4251,
      "##ench": 4252,
      "##ued": 4253,
      "church": 4254,
      "##auer": 4255,
      "fred": 4256,
      "las": 4257,
      "teht": 4258,
      "tes": 4259,
      "##IV": 4260,
      "första": 4261,
      "##fte": 4262,
      "gest": 4263,
      "##orge": 4264,
      "coup": 4265,
      "took": 4266,
      "##iehen": 4267,
      "power": 4268,
      "##äre": 4269,
      "##iis": 4270,
      "Oester": 4271,
      "nyky": 4272,
      "Pap": 4273,
      "Wo": 4274,
      "##vir": 4275,
      "##ways": 4276,
      "##ols": 4277,
      "##bor": 4278,
      "Est": 4279,
      "##ière": 4280,
      "##ittäin": 4281,
      "Sm": 4282,
      "however": 4283,
      "##aneet": 4284,
      "##äff": 4285,
      "Febru": 4286,
      "##lique": 4287,
      "kommer": 4288,
      "##AG": 4289,
      "Ve": 4290,
      "Thom": 4291,
      "mort": 4292,
      "kat": 4293,
      "Oul": 4294,
      "hvarje": 4295,
      "##ellen": 4296,
      "English": 4297,
      "svenska": 4298,
      "##ckt": 4299,
      "Petersburg": 4300,
      "ocb": 4301,
      "préc": 4302,
      "nt": 4303,
      "##ieur": 4304,
      "##quer": 4305,
      "hall": 4306,
      "Prix": 4307,
      "ran": 4308,
      "##ssen": 4309,
      "Stockholm": 4310,
      "##ped": 4311,
      "Soci": 4312,
      "##ason": 4313,
      "##ril": 4314,
      "##iir": 4315,
      "##orts": 4316,
      "fav": 4317,
      "jäsen": 4318,
      "##kasta": 4319,
      "##pris": 4320,
      "##omat": 4321,
      "##jäl": 4322,
      "Frau": 4323,
      "vå": 4324,
      "sort": 4325,
      "##skap": 4326,
      "second": 4327,
      "palk": 4328,
      "yht": 4329,
      "##quis": 4330,
      "##taja": 4331,
      "Jac": 4332,
      "##év": 4333,
      "colon": 4334,
      "##itude": 4335,
      "600": 4336,
      "north": 4337,
      "##olf": 4338,
      "Op": 4339,
      "##cer": 4340,
      "##tellt": 4341,
      "unser": 4342,
      "guerre": 4343,
      "##go": 4344,
      "Sim": 4345,
      "##ora": 4346,
      "##iebolag": 4347,
      "Nä": 4348,
      "taken": 4349,
      "##ieurs": 4350,
      "##pit": 4351,
      "##nell": 4352,
      "dan": 4353,
      "##act": 4354,
      "##ètres": 4355,
      "give": 4356,
      "Char": 4357,
      "tuom": 4358,
      "##MM": 4359,
      "popul": 4360,
      "##elegen": 4361,
      "ihn": 4362,
      "##itut": 4363,
      "statt": 4364,
      "lon": 4365,
      "Sur": 4366,
      "Jos": 4367,
      "welcher": 4368,
      "192": 4369,
      "##ties": 4370,
      "zwei": 4371,
      "##hren": 4372,
      "oblig": 4373,
      "##cess": 4374,
      "##mäl": 4375,
      "Carl": 4376,
      "Os": 4377,
      "Alexand": 4378,
      "rent": 4379,
      "Hein": 4380,
      "##rad": 4381,
      "ännu": 4382,
      "##helm": 4383,
      "light": 4384,
      "tied": 4385,
      "##jours": 4386,
      "redan": 4387,
      "##chten": 4388,
      "##tio": 4389,
      "station": 4390,
      "kons": 4391,
      "Regierung": 4392,
      "##anen": 4393,
      "##under": 4394,
      "##nat": 4395,
      "##form": 4396,
      "sit": 4397,
      "två": 4398,
      "less": 4399,
      "##ktober": 4400,
      "##bs": 4401,
      "Staats": 4402,
      "Borg": 4403,
      "Bed": 4404,
      "Hall": 4405,
      "Johann": 4406,
      "open": 4407,
      "King": 4408,
      "vel": 4409,
      "uti": 4410,
      "tapaht": 4411,
      "fest": 4412,
      "ép": 4413,
      "sept": 4414,
      "kyl": 4415,
      "eyes": 4416,
      "##rs": 4417,
      "senaat": 4418,
      "appro": 4419,
      "father": 4420,
      "homme": 4421,
      "##js": 4422,
      "Sö": 4423,
      "air": 4424,
      "EN": 4425,
      "bez": 4426,
      "##teurs": 4427,
      "##less": 4428,
      "Bon": 4429,
      "wind": 4430,
      "äl": 4431,
      "cle": 4432,
      "##bra": 4433,
      "##uhl": 4434,
      "kirjoit": 4435,
      "häl": 4436,
      "Di": 4437,
      "sow": 4438,
      "ouv": 4439,
      "##let": 4440,
      "muß": 4441,
      "occup": 4442,
      "cet": 4443,
      "lau": 4444,
      "went": 4445,
      "##CI": 4446,
      "Puh": 4447,
      "##ody": 4448,
      "##ERS": 4449,
      "hands": 4450,
      "penn": 4451,
      "fois": 4452,
      "##ength": 4453,
      "esc": 4454,
      "cher": 4455,
      "wegen": 4456,
      "siis": 4457,
      "##cu": 4458,
      "occasion": 4459,
      "##vernement": 4460,
      "##ables": 4461,
      "##eltä": 4462,
      "West": 4463,
      "lop": 4464,
      "voy": 4465,
      "Vo": 4466,
      "##uuden": 4467,
      "waren": 4468,
      "appar": 4469,
      "expr": 4470,
      "nnd": 4471,
      "sche": 4472,
      "##nväg": 4473,
      "représ": 4474,
      "##ING": 4475,
      "193": 4476,
      "##vn": 4477,
      "Pat": 4478,
      "étaient": 4479,
      "##kim": 4480,
      "saada": 4481,
      "##stag": 4482,
      "fit": 4483,
      "ministre": 4484,
      "##alité": 4485,
      "trava": 4486,
      "##ision": 4487,
      "spec": 4488,
      "sett": 4489,
      "cel": 4490,
      "pens": 4491,
      "##RAN": 4492,
      "##idence": 4493,
      "AV": 4494,
      "järjest": 4495,
      "vier": 4496,
      "kont": 4497,
      "##yttää": 4498,
      "inv": 4499,
      "##LES": 4500,
      "keh": 4501,
      "Charles": 4502,
      "särsk": 4503,
      "Ich": 4504,
      "##nade": 4505,
      "Ros": 4506,
      "condu": 4507,
      "##erade": 4508,
      "##nde": 4509,
      "##neet": 4510,
      "billig": 4511,
      "demande": 4512,
      "lim": 4513,
      "Hangö": 4514,
      "whose": 4515,
      "love": 4516,
      "Schw": 4517,
      "zurück": 4518,
      "happ": 4519,
      "Ca": 4520,
      "Ti": 4521,
      "##äksi": 4522,
      "raut": 4523,
      "##IR": 4524,
      "Wer": 4525,
      "kin": 4526,
      "telef": 4527,
      "800": 4528,
      "noin": 4529,
      "lär": 4530,
      "får": 4531,
      "##enth": 4532,
      "Ann": 4533,
      "års": 4534,
      "miss": 4535,
      "pak": 4536,
      "dagen": 4537,
      "Jour": 4538,
      "premier": 4539,
      "nothing": 4540,
      "Col": 4541,
      "accord": 4542,
      "sätt": 4543,
      "beste": 4544,
      "intér": 4545,
      "pleas": 4546,
      "##rå": 4547,
      "##alainen": 4548,
      "änd": 4549,
      "HU": 4550,
      "alk": 4551,
      "ln": 4552,
      "##ibt": 4553,
      "Ut": 4554,
      "opetta": 4555,
      "##ledning": 4556,
      "billigt": 4557,
      "##ytä": 4558,
      "##pel": 4559,
      "##elser": 4560,
      "##nar": 4561,
      "Och": 4562,
      "Do": 4563,
      "tele": 4564,
      "donc": 4565,
      "##wär": 4566,
      "toime": 4567,
      "##issen": 4568,
      "Wahl": 4569,
      "cur": 4570,
      "kein": 4571,
      "kle": 4572,
      "bank": 4573,
      "When": 4574,
      "##any": 4575,
      "LES": 4576,
      "##elleen": 4577,
      "henkil": 4578,
      "Turun": 4579,
      "Bou": 4580,
      "März": 4581,
      "##este": 4582,
      "vastaan": 4583,
      "star": 4584,
      "##uman": 4585,
      "följande": 4586,
      "##jà": 4587,
      "commun": 4588,
      "##emein": 4589,
      "RE": 4590,
      "##ici": 4591,
      "##ceed": 4592,
      "tant": 4593,
      "cause": 4594,
      "##ämät": 4595,
      "förslag": 4596,
      "##bens": 4597,
      "##anst": 4598,
      "mielä": 4599,
      "Haupt": 4600,
      "taa": 4601,
      "##ows": 4602,
      "ég": 4603,
      "Oct": 4604,
      "paik": 4605,
      "mü": 4606,
      "Cast": 4607,
      "##yk": 4608,
      "##ernas": 4609,
      "##llt": 4610,
      "kansan": 4611,
      "above": 4612,
      "förf": 4613,
      "lt": 4614,
      "kost": 4615,
      "Ba": 4616,
      "days": 4617,
      "##ific": 4618,
      "toujours": 4619,
      "##usse": 4620,
      "emot": 4621,
      "##neur": 4622,
      "##ädes": 4623,
      "deuts": 4624,
      "merk": 4625,
      "##ained": 4626,
      "pays": 4627,
      "##rage": 4628,
      "##nin": 4629,
      "##altung": 4630,
      "##bau": 4631,
      "kyr": 4632,
      "Brit": 4633,
      "##ppe": 4634,
      "##ota": 4635,
      "Henry": 4636,
      "sälj": 4637,
      "ast": 4638,
      "##rr": 4639,
      "ca": 4640,
      "##itution": 4641,
      "Ueber": 4642,
      "bild": 4643,
      "Kot": 4644,
      "##lar": 4645,
      "War": 4646,
      "enligt": 4647,
      "diffic": 4648,
      "##DI": 4649,
      "What": 4650,
      "##ogen": 4651,
      "##iit": 4652,
      "eikä": 4653,
      "III": 4654,
      "VI": 4655,
      "##SE": 4656,
      "auc": 4657,
      "trouv": 4658,
      "kah": 4659,
      "DES": 4660,
      "bas": 4661,
      "deren": 4662,
      "##ikin": 4663,
      "##met": 4664,
      "tour": 4665,
      "prot": 4666,
      "##utes": 4667,
      "interest": 4668,
      "##vier": 4669,
      "Björ": 4670,
      "Mus": 4671,
      "##niß": 4672,
      "kontt": 4673,
      "jok": 4674,
      "étr": 4675,
      "Vere": 4676,
      "SO": 4677,
      "bekannt": 4678,
      "##ative": 4679,
      "##kas": 4680,
      "Sand": 4681,
      "Lau": 4682,
      "##uran": 4683,
      "König": 4684,
      "rt": 4685,
      "komma": 4686,
      "south": 4687,
      "death": 4688,
      "Dan": 4689,
      "##maan": 4690,
      "##ury": 4691,
      "##zer": 4692,
      "vient": 4693,
      "##asto": 4694,
      "commer": 4695,
      "##ären": 4696,
      "somet": 4697,
      "##ène": 4698,
      "##inet": 4699,
      "dagar": 4700,
      "Bezir": 4701,
      "MA": 4702,
      "##thy": 4703,
      "##ättä": 4704,
      "heti": 4705,
      "minister": 4706,
      "Var": 4707,
      "With": 4708,
      "jetzt": 4709,
      "mahd": 4710,
      "##heten": 4711,
      "##éâ": 4712,
      "##oilla": 4713,
      "rait": 4714,
      "##ched": 4715,
      "lait": 4716,
      "Gesell": 4717,
      "liber": 4718,
      "Stra": 4719,
      "gemacht": 4720,
      "personer": 4721,
      "stra": 4722,
      "présent": 4723,
      "mets": 4724,
      "versch": 4725,
      "##ässä": 4726,
      "sens": 4727,
      "##aitsi": 4728,
      "##stellung": 4729,
      "##läm": 4730,
      "adv": 4731,
      "##vet": 4732,
      "##joh": 4733,
      "##gé": 4734,
      "##ährend": 4735,
      "neu": 4736,
      "aina": 4737,
      "several": 4738,
      "Don": 4739,
      "priv": 4740,
      "avons": 4741,
      "ao": 4742,
      "##pää": 4743,
      "01": 4744,
      "##ating": 4745,
      "##kur": 4746,
      "##lagen": 4747,
      "reç": 4748,
      "loc": 4749,
      "##ior": 4750,
      "orig": 4751,
      "##styr": 4752,
      "##minister": 4753,
      "Bour": 4754,
      "191": 4755,
      "jeune": 4756,
      "päätt": 4757,
      "##igkeit": 4758,
      "blef": 4759,
      "##ossen": 4760,
      "##attu": 4761,
      "chief": 4762,
      "##åk": 4763,
      "##örande": 4764,
      "feel": 4765,
      "grö": 4766,
      "sea": 4767,
      "##förs": 4768,
      "aujourd": 4769,
      "mitään": 4770,
      "jusqu": 4771,
      "Fried": 4772,
      "##yal": 4773,
      "erst": 4774,
      "##ööri": 4775,
      "Fer": 4776,
      "##erner": 4777,
      "erw": 4778,
      "près": 4779,
      "##biet": 4780,
      "inte": 4781,
      "See": 4782,
      "##racht": 4783,
      "Sy": 4784,
      "ak": 4785,
      "##ém": 4786,
      "##gleich": 4787,
      "immer": 4788,
      "aika": 4789,
      "##urt": 4790,
      "##enne": 4791,
      "möj": 4792,
      "arti": 4793,
      "##gon": 4794,
      "ainoastaan": 4795,
      "verl": 4796,
      "comb": 4797,
      "Juh": 4798,
      "123": 4799,
      "##immer": 4800,
      "esp": 4801,
      "première": 4802,
      "##ierre": 4803,
      "comte": 4804,
      "Ass": 4805,
      "##äj": 4806,
      "Anna": 4807,
      "tarpe": 4808,
      "##ular": 4809,
      "##taga": 4810,
      "Inter": 4811,
      "##ops": 4812,
      "fell": 4813,
      "##fect": 4814,
      "sop": 4815,
      "Herren": 4816,
      "Ei": 4817,
      "kansakoul": 4818,
      "almost": 4819,
      "MAR": 4820,
      "##isl": 4821,
      "prob": 4822,
      "jämte": 4823,
      "Of": 4824,
      "conna": 4825,
      "sir": 4826,
      "piè": 4827,
      "##ru": 4828,
      "déb": 4829,
      "##yhti": 4830,
      "dél": 4831,
      "##osk": 4832,
      "##wend": 4833,
      "tions": 4834,
      "##ikki": 4835,
      "##pes": 4836,
      "faut": 4837,
      "Franc": 4838,
      "sus": 4839,
      "##50": 4840,
      "kunnan": 4841,
      "vil": 4842,
      "##jia": 4843,
      "##bank": 4844,
      "##ppa": 4845,
      "world": 4846,
      "##IST": 4847,
      "Wiener": 4848,
      "déjà": 4849,
      "täyt": 4850,
      "chef": 4851,
      "Sor": 4852,
      "len": 4853,
      "wat": 4854,
      "##raft": 4855,
      "govern": 4856,
      "##pper": 4857,
      "##lll": 4858,
      "tan": 4859,
      "##band": 4860,
      "##teau": 4861,
      "Maan": 4862,
      "saw": 4863,
      "lain": 4864,
      "##ured": 4865,
      "tin": 4866,
      "Hav": 4867,
      "##ié": 4868,
      "eli": 4869,
      "##ended": 4870,
      "Ah": 4871,
      "##isc": 4872,
      "##kalla": 4873,
      "dernier": 4874,
      "Wie": 4875,
      "##ustel": 4876,
      "##kauf": 4877,
      "##stadt": 4878,
      "landet": 4879,
      "round": 4880,
      "##ying": 4881,
      "denn": 4882,
      "Landes": 4883,
      "##kul": 4884,
      "ES": 4885,
      "##vl": 4886,
      "##tas": 4887,
      "##amais": 4888,
      "during": 4889,
      "poor": 4890,
      "Zwe": 4891,
      "vap": 4892,
      "oct": 4893,
      "pois": 4894,
      "Dien": 4895,
      "relig": 4896,
      "kne": 4897,
      "ordre": 4898,
      "tir": 4899,
      "Franç": 4900,
      "Tro": 4901,
      "niitä": 4902,
      "lähet": 4903,
      "fle": 4904,
      "bless": 4905,
      "##arch": 4906,
      "##kee": 4907,
      "##DE": 4908,
      "##oux": 4909,
      "På": 4910,
      "Mas": 4911,
      "Gew": 4912,
      "##ably": 4913,
      "##ret": 4914,
      "Aut": 4915,
      "Ap": 4916,
      "Under": 4917,
      "tors": 4918,
      "sond": 4919,
      "erhå": 4920,
      "##alaisen": 4921,
      "Ben": 4922,
      "city": 4923,
      "réun": 4924,
      "101": 4925,
      "myyd": 4926,
      "##illeurs": 4927,
      "miime": 4928,
      "Pietar": 4929,
      "##ria": 4930,
      "rakenn": 4931,
      "##ieg": 4932,
      "ceux": 4933,
      "Ag": 4934,
      "given": 4935,
      "French": 4936,
      "sun": 4937,
      "cla": 4938,
      "eg": 4939,
      "närm": 4940,
      "##iness": 4941,
      "hundred": 4942,
      "##ст": 4943,
      "enn": 4944,
      "ayant": 4945,
      "siinä": 4946,
      "Kan": 4947,
      "Ec": 4948,
      "##ätz": 4949,
      "viol": 4950,
      "##ätte": 4951,
      "kylä": 4952,
      "Nik": 4953,
      "##äki": 4954,
      "##ift": 4955,
      "Majest": 4956,
      "##lem": 4957,
      "gouvernement": 4958,
      "kg": 4959,
      "gj": 4960,
      "##ictor": 4961,
      "matk": 4962,
      "Bei": 4963,
      "johdosta": 4964,
      "ground": 4965,
      "terr": 4966,
      "Que": 4967,
      "Sel": 4968,
      "##TS": 4969,
      "leg": 4970,
      "former": 4971,
      "Graf": 4972,
      "Spe": 4973,
      "loi": 4974,
      "home": 4975,
      "morg": 4976,
      "förm": 4977,
      "##kau": 4978,
      "##umat": 4979,
      "##inger": 4980,
      "##kuin": 4981,
      "##iiii": 4982,
      "##imin": 4983,
      "hear": 4984,
      "##tee": 4985,
      "##chst": 4986,
      "tie": 4987,
      "tus": 4988,
      "quatre": 4989,
      "##päiv": 4990,
      "##ittää": 4991,
      "##tait": 4992,
      "##lad": 4993,
      "måste": 4994,
      "table": 4995,
      "spir": 4996,
      "##hau": 4997,
      "pil": 4998,
      "##klar": 4999,
      "always": 5000,
      "##kään": 5001,
      "lopp": 5002,
      "dessen": 5003,
      "##samma": 5004,
      "##weg": 5005,
      "##sse": 5006,
      "##ammen": 5007,
      "fix": 5008,
      "##lé": 5009,
      "ingen": 5010,
      "Robert": 5011,
      "##onom": 5012,
      "würde": 5013,
      "IM": 5014,
      "français": 5015,
      "tjänst": 5016,
      "työm": 5017,
      "hvad": 5018,
      "east": 5019,
      "Nation": 5020,
      "##iche": 5021,
      "AND": 5022,
      "##ottaa": 5023,
      "##ema": 5024,
      "##gerichte": 5025,
      "##öken": 5026,
      "viime": 5027,
      "force": 5028,
      "##iller": 5029,
      "lég": 5030,
      "ris": 5031,
      "##alli": 5032,
      "seit": 5033,
      "jat": 5034,
      "##äck": 5035,
      "Kle": 5036,
      "##elbe": 5037,
      "anledning": 5038,
      "Can": 5039,
      "maal": 5040,
      "##utz": 5041,
      "##cent": 5042,
      "state": 5043,
      "yr": 5044,
      "sign": 5045,
      "avaient": 5046,
      "##innen": 5047,
      "sök": 5048,
      "Mö": 5049,
      "##osi": 5050,
      "##huset": 5051,
      "Finska": 5052,
      "Tag": 5053,
      "nöd": 5054,
      "Eisen": 5055,
      "##oren": 5056,
      "Kal": 5057,
      "##fvit": 5058,
      "inde": 5059,
      "##ities": 5060,
      "##cha": 5061,
      "represent": 5062,
      "votre": 5063,
      "commen": 5064,
      "##esser": 5065,
      "Toim": 5066,
      "letter": 5067,
      "göra": 5068,
      "Verl": 5069,
      "sunnunta": 5070,
      "##embl": 5071,
      "cul": 5072,
      "thir": 5073,
      "##imi": 5074,
      "Fors": 5075,
      "##emaan": 5076,
      "##ogra": 5077,
      "##IM": 5078,
      "flo": 5079,
      "##heim": 5080,
      "better": 5081,
      "##quet": 5082,
      "##ittiin": 5083,
      "##ettes": 5084,
      "Hier": 5085,
      "nav": 5086,
      "Osa": 5087,
      "##fore": 5088,
      "##äen": 5089,
      "##kaup": 5090,
      "##sez": 5091,
      "heute": 5092,
      "pendant": 5093,
      "Viipur": 5094,
      "##oten": 5095,
      "blott": 5096,
      "yleis": 5097,
      "Thomas": 5098,
      "120": 5099,
      "##mis": 5100,
      "##thers": 5101,
      "##ottam": 5102,
      "within": 5103,
      "##ye": 5104,
      "disp": 5105,
      "nd": 5106,
      "##jaan": 5107,
      "sid": 5108,
      "brought": 5109,
      "124": 5110,
      "hard": 5111,
      "oi": 5112,
      "##owed": 5113,
      "état": 5114,
      "##din": 5115,
      "cann": 5116,
      "##tak": 5117,
      "number": 5118,
      "uppgif": 5119,
      "read": 5120,
      "midi": 5121,
      "plan": 5122,
      "##pond": 5123,
      "keine": 5124,
      "CON": 5125,
      "sai": 5126,
      "done": 5127,
      "lång": 5128,
      "##olta": 5129,
      "##hof": 5130,
      "##IG": 5131,
      "differ": 5132,
      "##fråg": 5133,
      "opin": 5134,
      "182": 5135,
      "##oe": 5136,
      "##tiga": 5137,
      "##ôtel": 5138,
      "Gre": 5139,
      "gan": 5140,
      "UN": 5141,
      "##osse": 5142,
      "##isf": 5143,
      "liik": 5144,
      "seinen": 5145,
      "##haus": 5146,
      "##see": 5147,
      "pros": 5148,
      "cham": 5149,
      "Rech": 5150,
      "102": 5151,
      "add": 5152,
      "tillf": 5153,
      "remar": 5154,
      "impr": 5155,
      "önskar": 5156,
      "##su": 5157,
      "Oesterreich": 5158,
      "korke": 5159,
      "taas": 5160,
      "vice": 5161,
      "##ildt": 5162,
      "mäl": 5163,
      "kaupungin": 5164,
      "ep": 5165,
      "##unto": 5166,
      "##uttaa": 5167,
      "rev": 5168,
      "##oci": 5169,
      "Obs": 5170,
      "##aita": 5171,
      "Cette": 5172,
      "##lack": 5173,
      "##qué": 5174,
      "jen": 5175,
      "situation": 5176,
      "batt": 5177,
      "##ivid": 5178,
      "seemed": 5179,
      "sak": 5180,
      "förl": 5181,
      "##byr": 5182,
      "belie": 5183,
      "camp": 5184,
      "kär": 5185,
      "trop": 5186,
      "##fc": 5187,
      "behand": 5188,
      "##tesse": 5189,
      "kuitenkin": 5190,
      "Mir": 5191,
      "care": 5192,
      "aura": 5193,
      "Ent": 5194,
      "kapp": 5195,
      "##anch": 5196,
      "##istel": 5197,
      "pou": 5198,
      "##MENT": 5199,
      "until": 5200,
      "Februar": 5201,
      "How": 5202,
      "paljon": 5203,
      "##usti": 5204,
      "##bourg": 5205,
      "##orte": 5206,
      "##juna": 5207,
      "##äjän": 5208,
      "##emin": 5209,
      "affa": 5210,
      "joita": 5211,
      "bou": 5212,
      "##iskt": 5213,
      "bland": 5214,
      "Fa": 5215,
      "super": 5216,
      "samman": 5217,
      "Rou": 5218,
      "themsel": 5219,
      "diesen": 5220,
      "##iston": 5221,
      "##lu": 5222,
      "regard": 5223,
      "known": 5224,
      "bord": 5225,
      "maison": 5226,
      "usk": 5227,
      "##enty": 5228,
      "tö": 5229,
      "##UN": 5230,
      "##jal": 5231,
      "##rop": 5232,
      "déf": 5233,
      "##erran": 5234,
      "social": 5235,
      "Vill": 5236,
      "others": 5237,
      "säk": 5238,
      "Hög": 5239,
      "##emat": 5240,
      "110": 5241,
      "##vered": 5242,
      "##lage": 5243,
      "muod": 5244,
      "vain": 5245,
      "##otel": 5246,
      "250": 5247,
      "ersche": 5248,
      "représent": 5249,
      "Klo": 5250,
      "ihren": 5251,
      "Tre": 5252,
      "##urer": 5253,
      "##QUE": 5254,
      "##utoka": 5255,
      "mär": 5256,
      "##orten": 5257,
      "##vän": 5258,
      "##zeit": 5259,
      "##gether": 5260,
      "##icher": 5261,
      "oppos": 5262,
      "sondern": 5263,
      "##meister": 5264,
      "engag": 5265,
      "hie": 5266,
      "five": 5267,
      "since": 5268,
      "themselves": 5269,
      "skola": 5270,
      "charac": 5271,
      "Sr": 5272,
      "toimeen": 5273,
      "propos": 5274,
      "thing": 5275,
      "##zeu": 5276,
      "Conc": 5277,
      "machen": 5278,
      "jud": 5279,
      "Jär": 5280,
      "ere": 5281,
      "##cep": 5282,
      "jät": 5283,
      "Hof": 5284,
      "sten": 5285,
      "122": 5286,
      "bereits": 5287,
      "##ateurs": 5288,
      "thus": 5289,
      "##ible": 5290,
      "hank": 5291,
      "Cro": 5292,
      "##qvist": 5293,
      "##ikon": 5294,
      "Då": 5295,
      "181": 5296,
      "07": 5297,
      "näyt": 5298,
      "##trä": 5299,
      "Fir": 5300,
      "##onde": 5301,
      "##rer": 5302,
      "##imp": 5303,
      "##sj": 5304,
      "##issement": 5305,
      "##ica": 5306,
      "##elä": 5307,
      "joll": 5308,
      "##tu": 5309,
      "##alten": 5310,
      "lv": 5311,
      "Wi": 5312,
      "Prof": 5313,
      "##mans": 5314,
      "##hat": 5315,
      "stats": 5316,
      "Kol": 5317,
      "celui": 5318,
      "daS": 5319,
      "tässä": 5320,
      "##janta": 5321,
      "##häll": 5322,
      "gave": 5323,
      "imm": 5324,
      "laa": 5325,
      "proch": 5326,
      "kommun": 5327,
      "meet": 5328,
      "##ca": 5329,
      "partie": 5330,
      "silloin": 5331,
      "friend": 5332,
      "engl": 5333,
      "##ché": 5334,
      "allem": 5335,
      "ain": 5336,
      "somm": 5337,
      "tambur": 5338,
      "kiin": 5339,
      "nö": 5340,
      "contra": 5341,
      "Del": 5342,
      "##ités": 5343,
      "##ен": 5344,
      "##oni": 5345,
      "hol": 5346,
      "##usten": 5347,
      "esim": 5348,
      "ausge": 5349,
      "Jy": 5350,
      "##isestä": 5351,
      "##mp": 5352,
      "##rid": 5353,
      "##ksk": 5354,
      "Vir": 5355,
      "Na": 5356,
      "##eden": 5357,
      "##emmän": 5358,
      "##haps": 5359,
      "1903": 5360,
      "##riksg": 5361,
      "Vasa": 5362,
      "talossa": 5363,
      "##bres": 5364,
      "passed": 5365,
      "##éré": 5366,
      "want": 5367,
      "bok": 5368,
      "##usement": 5369,
      "esit": 5370,
      "##itation": 5371,
      "heard": 5372,
      "serait": 5373,
      "##attom": 5374,
      "eben": 5375,
      "öst": 5376,
      "pidetään": 5377,
      "##ustrie": 5378,
      "##rain": 5379,
      "James": 5380,
      "##sson": 5381,
      "##kten": 5382,
      "##ATION": 5383,
      "porte": 5384,
      "##osten": 5385,
      "päi": 5386,
      "Allem": 5387,
      "Rom": 5388,
      "1S": 5389,
      "answer": 5390,
      "##annten": 5391,
      "ss": 5392,
      "quite": 5393,
      "##aston": 5394,
      "##unes": 5395,
      "fig": 5396,
      "gener": 5397,
      "possible": 5398,
      "vielä": 5399,
      "##AIN": 5400,
      "dix": 5401,
      "lors": 5402,
      "vet": 5403,
      "##ünst": 5404,
      "COM": 5405,
      "##zahl": 5406,
      "impos": 5407,
      "Vous": 5408,
      "Wilhelm": 5409,
      "##hor": 5410,
      "##ban": 5411,
      "stä": 5412,
      "##nisse": 5413,
      "##bi": 5414,
      "bort": 5415,
      "Stre": 5416,
      "hufvud": 5417,
      "##ukseen": 5418,
      "pun": 5419,
      "##ilä": 5420,
      "##arbe": 5421,
      "##lö": 5422,
      "##angen": 5423,
      "Läh": 5424,
      "##avat": 5425,
      "gård": 5426,
      "iii": 5427,
      "##oulevard": 5428,
      "enem": 5429,
      "##iren": 5430,
      "laul": 5431,
      "série": 5432,
      "SE": 5433,
      "nouveau": 5434,
      "Victor": 5435,
      "Ill": 5436,
      "York": 5437,
      "nar": 5438,
      "##imme": 5439,
      "try": 5440,
      "Vorm": 5441,
      "SU": 5442,
      "##ionen": 5443,
      "bä": 5444,
      "trav": 5445,
      "Ele": 5446,
      "bå": 5447,
      "pnä": 5448,
      "##alement": 5449,
      "Holm": 5450,
      "##hän": 5451,
      "drei": 5452,
      "daher": 5453,
      "##ckså": 5454,
      "järnväg": 5455,
      "zwischen": 5456,
      "gatan": 5457,
      "arki": 5458,
      "##genommen": 5459,
      "Jn": 5460,
      "admin": 5461,
      "gef": 5462,
      "utför": 5463,
      "beim": 5464,
      "wohl": 5465,
      "bus": 5466,
      "Bal": 5467,
      "##emi": 5468,
      "##ublic": 5469,
      "##ielt": 5470,
      "bil": 5471,
      "##ION": 5472,
      "caus": 5473,
      "##irl": 5474,
      "##ureau": 5475,
      "##éâtre": 5476,
      "compr": 5477,
      "##tained": 5478,
      "voir": 5479,
      "police": 5480,
      "bal": 5481,
      "##obre": 5482,
      "1902": 5483,
      "##ichen": 5484,
      "##bro": 5485,
      "##umm": 5486,
      "moy": 5487,
      "##hip": 5488,
      "##ists": 5489,
      "nature": 5490,
      "aven": 5491,
      "##mäst": 5492,
      "gehör": 5493,
      "##ahd": 5494,
      "prison": 5495,
      "myydään": 5496,
      "cinq": 5497,
      "vra": 5498,
      "George": 5499,
      "##augh": 5500,
      "corps": 5501,
      "Som": 5502,
      "alors": 5503,
      "##dags": 5504,
      "lj": 5505,
      "1901": 5506,
      "rather": 5507,
      "Jap": 5508,
      "##rl": 5509,
      "##etto": 5510,
      "##eksi": 5511,
      "##hält": 5512,
      "yhdist": 5513,
      "##kad": 5514,
      "bem": 5515,
      "kvar": 5516,
      "voul": 5517,
      "enth": 5518,
      "lää": 5519,
      "jord": 5520,
      "Russ": 5521,
      "##amt": 5522,
      "##aiss": 5523,
      "fy": 5524,
      "pitää": 5525,
      "numer": 5526,
      "##way": 5527,
      "##lägg": 5528,
      "Brand": 5529,
      "##ature": 5530,
      "##erv": 5531,
      "##çon": 5532,
      "Til": 5533,
      "##usion": 5534,
      "juli": 5535,
      "action": 5536,
      "particul": 5537,
      "leh": 5538,
      "Seine": 5539,
      "staden": 5540,
      "sul": 5541,
      "02": 5542,
      "03": 5543,
      "chap": 5544,
      "west": 5545,
      "##AV": 5546,
      "##jur": 5547,
      "hak": 5548,
      "##imanche": 5549,
      "ow": 5550,
      "bonne": 5551,
      "##andid": 5552,
      "##gré": 5553,
      "fon": 5554,
      "déclar": 5555,
      "pian": 5556,
      "App": 5557,
      "Cal": 5558,
      "cô": 5559,
      "rö": 5560,
      "Schul": 5561,
      "1907": 5562,
      "Eine": 5563,
      "##ämme": 5564,
      "hill": 5565,
      "class": 5566,
      "sup": 5567,
      "Sar": 5568,
      "##élé": 5569,
      "##amar": 5570,
      "##isation": 5571,
      "journ": 5572,
      "seront": 5573,
      "##öä": 5574,
      "Bill": 5575,
      "##tro": 5576,
      "mand": 5577,
      "##arne": 5578,
      "käy": 5579,
      "Tele": 5580,
      "##via": 5581,
      "Europe": 5582,
      "antaa": 5583,
      "ordin": 5584,
      "Then": 5585,
      "S0": 5586,
      "##ares": 5587,
      "sty": 5588,
      "04": 5589,
      "hi": 5590,
      "##ences": 5591,
      "08": 5592,
      "läänin": 5593,
      "arbete": 5594,
      "next": 5595,
      "fais": 5596,
      "law": 5597,
      "##ash": 5598,
      "Rennes": 5599,
      "öfr": 5600,
      "öster": 5601,
      "monde": 5602,
      "1905": 5603,
      "hope": 5604,
      "lut": 5605,
      "deras": 5606,
      "Hans": 5607,
      "##kehr": 5608,
      "##ultat": 5609,
      "##wä": 5610,
      "Che": 5611,
      "hra": 5612,
      "##oney": 5613,
      "mari": 5614,
      "nam": 5615,
      "##iled": 5616,
      "##opä": 5617,
      "celle": 5618,
      "varten": 5619,
      "requ": 5620,
      "amb": 5621,
      "Etat": 5622,
      "reach": 5623,
      "sään": 5624,
      "##iles": 5625,
      "##ei": 5626,
      "##anten": 5627,
      "suo": 5628,
      "torde": 5629,
      "North": 5630,
      "##cles": 5631,
      "##ME": 5632,
      "Martin": 5633,
      "##quel": 5634,
      "gard": 5635,
      "##üg": 5636,
      "Verw": 5637,
      "moun": 5638,
      "##kter": 5639,
      "##arty": 5640,
      "fat": 5641,
      "strong": 5642,
      "elles": 5643,
      "##etti": 5644,
      "laps": 5645,
      "quand": 5646,
      "##mas": 5647,
      "Gegen": 5648,
      "temp": 5649,
      "råd": 5650,
      "##idge": 5651,
      "##no": 5652,
      "wife": 5653,
      "##istian": 5654,
      "Janu": 5655,
      "gam": 5656,
      "##jähr": 5657,
      "ui": 5658,
      "##kes": 5659,
      "sud": 5660,
      "103": 5661,
      "tbe": 5662,
      "##uma": 5663,
      "##eet": 5664,
      "##kaupp": 5665,
      "position": 5666,
      "dt": 5667,
      "mètres": 5668,
      "Alle": 5669,
      "##rum": 5670,
      "##haft": 5671,
      "Mid": 5672,
      "tär": 5673,
      "incl": 5674,
      "##itted": 5675,
      "morning": 5676,
      "droit": 5677,
      "cela": 5678,
      "rin": 5679,
      "Köp": 5680,
      "nan": 5681,
      "##sto": 5682,
      "ait": 5683,
      "folg": 5684,
      "##hre": 5685,
      "##ensk": 5686,
      "commission": 5687,
      "skol": 5688,
      "assez": 5689,
      "öffent": 5690,
      "##jain": 5691,
      "Pierre": 5692,
      "##berts": 5693,
      "138": 5694,
      "##ided": 5695,
      "während": 5696,
      "##lli": 5697,
      "army": 5698,
      "##ieden": 5699,
      "tuli": 5700,
      "line": 5701,
      "told": 5702,
      "senaste": 5703,
      "weil": 5704,
      "##tade": 5705,
      "doit": 5706,
      "AR": 5707,
      "necess": 5708,
      "assist": 5709,
      "dear": 5710,
      "Kyr": 5711,
      "olle": 5712,
      "skri": 5713,
      "ank": 5714,
      "Will": 5715,
      "août": 5716,
      "fören": 5717,
      "aa": 5718,
      "Off": 5719,
      "##erin": 5720,
      "##itto": 5721,
      "Kuop": 5722,
      "besch": 5723,
      "##akka": 5724,
      "mother": 5725,
      "Sonn": 5726,
      "##pital": 5727,
      "vend": 5728,
      "##moit": 5729,
      "kuten": 5730,
      "dennes": 5731,
      "##ool": 5732,
      "ring": 5733,
      "##ète": 5734,
      "Abo": 5735,
      "December": 5736,
      "mera": 5737,
      "nuit": 5738,
      "##ästi": 5739,
      "##stein": 5740,
      "atten": 5741,
      "##AI": 5742,
      "kaksi": 5743,
      "eux": 5744,
      "också": 5745,
      "##ève": 5746,
      "blifvit": 5747,
      "gare": 5748,
      "##edit": 5749,
      "stort": 5750,
      "räk": 5751,
      "##vänd": 5752,
      "##udi": 5753,
      "großen": 5754,
      "##teck": 5755,
      "rr": 5756,
      "absol": 5757,
      "drag": 5758,
      "spé": 5759,
      "##kurs": 5760,
      "Sin": 5761,
      "band": 5762,
      "év": 5763,
      "fly": 5764,
      "##iok": 5765,
      "##ney": 5766,
      "Nur": 5767,
      "Ital": 5768,
      "rautat": 5769,
      "##gesch": 5770,
      "##ave": 5771,
      "april": 5772,
      "1904": 5773,
      "##zeichnet": 5774,
      "##ankin": 5775,
      "Mitt": 5776,
      "##üd": 5777,
      "##amer": 5778,
      "##erska": 5779,
      "towards": 5780,
      "##ât": 5781,
      "Stück": 5782,
      "ers": 5783,
      "##oms": 5784,
      "held": 5785,
      "##haf": 5786,
      "##ов": 5787,
      "effect": 5788,
      "##empi": 5789,
      "looked": 5790,
      "kall": 5791,
      "Komm": 5792,
      "cannot": 5793,
      "dig": 5794,
      "Grand": 5795,
      "##wi": 5796,
      "Kom": 5797,
      "##umer": 5798,
      "gens": 5799,
      "Bur": 5800,
      "doubt": 5801,
      "Gal": 5802,
      "via": 5803,
      "##erne": 5804,
      "neue": 5805,
      "##tamat": 5806,
      "##fm": 5807,
      "##ksiä": 5808,
      "heidän": 5809,
      "io": 5810,
      "speak": 5811,
      "family": 5812,
      "kort": 5813,
      "bat": 5814,
      "##äns": 5815,
      "tuo": 5816,
      "times": 5817,
      "From": 5818,
      "##kade": 5819,
      "tills": 5820,
      "kai": 5821,
      "##eds": 5822,
      "allg": 5823,
      "success": 5824,
      "effet": 5825,
      "vit": 5826,
      "väh": 5827,
      "##örd": 5828,
      "täällä": 5829,
      "##gu": 5830,
      "näk": 5831,
      "##vill": 5832,
      "##kam": 5833,
      "real": 5834,
      "Bö": 5835,
      "octobre": 5836,
      "##ries": 5837,
      "##ürger": 5838,
      "##mel": 5839,
      "eS": 5840,
      "Union": 5841,
      "Tar": 5842,
      "suuri": 5843,
      "trib": 5844,
      "avril": 5845,
      "Dar": 5846,
      "minä": 5847,
      "##ineen": 5848,
      "short": 5849,
      "Ki": 5850,
      "äm": 5851,
      "130": 5852,
      "ship": 5853,
      "##enl": 5854,
      "##tor": 5855,
      "##katu": 5856,
      "Aktiebolag": 5857,
      "Dom": 5858,
      "##étaire": 5859,
      "heav": 5860,
      "##ony": 5861,
      "lassen": 5862,
      "hw": 5863,
      "Lud": 5864,
      "Så": 5865,
      "##qui": 5866,
      "année": 5867,
      "1906": 5868,
      "1908": 5869,
      "CHAP": 5870,
      "##tenant": 5871,
      "Bu": 5872,
      "along": 5873,
      "nuor": 5874,
      "tz": 5875,
      "##respond": 5876,
      "petit": 5877,
      "große": 5878,
      "##lid": 5879,
      "##ragen": 5880,
      "myy": 5881,
      "Vu": 5882,
      "vr": 5883,
      "bö": 5884,
      "suorit": 5885,
      "##lys": 5886,
      "##utenant": 5887,
      "##uktion": 5888,
      "Deutsch": 5889,
      "##anti": 5890,
      "Pää": 5891,
      "HO": 5892,
      "nouvelle": 5893,
      "##thing": 5894,
      "plusieurs": 5895,
      "139": 5896,
      "attend": 5897,
      "##anne": 5898,
      "##ahti": 5899,
      "##ams": 5900,
      "Vors": 5901,
      "##ystä": 5902,
      "1900": 5903,
      "1909": 5904,
      "viv": 5905,
      "##III": 5906,
      "divers": 5907,
      "##chtig": 5908,
      "infl": 5909,
      "##mist": 5910,
      "puolesta": 5911,
      "Pi": 5912,
      "septem": 5913,
      "##usch": 5914,
      "got": 5915,
      "elä": 5916,
      "##ujen": 5917,
      "character": 5918,
      "nah": 5919,
      "##ktor": 5920,
      "Cons": 5921,
      "##unnit": 5922,
      "##zz": 5923,
      "Esplan": 5924,
      "##cin": 5925,
      "##kki": 5926,
      "excell": 5927,
      "##60": 5928,
      "afs": 5929,
      "##alo": 5930,
      "Sol": 5931,
      "inform": 5932,
      "arbets": 5933,
      "##BS": 5934,
      "Unions": 5935,
      "##ansk": 5936,
      "répond": 5937,
      "weiter": 5938,
      "Ång": 5939,
      "##endet": 5940,
      "voro": 5941,
      "acqu": 5942,
      "##usammen": 5943,
      "##ery": 5944,
      "hommes": 5945,
      "##cil": 5946,
      "def": 5947,
      "mikä": 5948,
      "deep": 5949,
      "fem": 5950,
      "Theil": 5951,
      "revol": 5952,
      "exer": 5953,
      "##anl": 5954,
      "##rar": 5955,
      "##iod": 5956,
      "fact": 5957,
      "accomp": 5958,
      "lou": 5959,
      "##rem": 5960,
      "##burger": 5961,
      "nel": 5962,
      "keep": 5963,
      "nut": 5964,
      "net": 5965,
      "saanut": 5966,
      "fair": 5967,
      "Anne": 5968,
      "major": 5969,
      "##oika": 5970,
      "##ulta": 5971,
      "moit": 5972,
      "##ît": 5973,
      "##ellement": 5974,
      "##elmä": 5975,
      "##uksesta": 5976,
      "##œur": 5977,
      "wi": 5978,
      "olika": 5979,
      "##gi": 5980,
      "reger": 5981,
      "mång": 5982,
      "road": 5983,
      "enough": 5984,
      "##aben": 5985,
      "##oles": 5986,
      "propri": 5987,
      "gå": 5988,
      "##isser": 5989,
      "månad": 5990,
      "tekem": 5991,
      "swe": 5992,
      "Ryss": 5993,
      "##wir": 5994,
      "##omale": 5995,
      "histor": 5996,
      "##hi": 5997,
      "##falls": 5998,
      "jamais": 5999,
      "Petit": 6000,
      "tähän": 6001,
      "Rev": 6002,
      "Osake": 6003,
      "things": 6004,
      "##othe": 6005,
      "##koa": 6006,
      "##keä": 6007,
      "feu": 6008,
      "##maksi": 6009,
      "hein": 6010,
      "lien": 6011,
      "wall": 6012,
      "Sund": 6013,
      "##aman": 6014,
      "##wo": 6015,
      "réc": 6016,
      "Tagen": 6017,
      "##UL": 6018,
      "died": 6019,
      "##ikkona": 6020,
      "joul": 6021,
      "Dep": 6022,
      "thous": 6023,
      "##éné": 6024,
      "##ordnet": 6025,
      "##ittä": 6026,
      "##verk": 6027,
      "often": 6028,
      "cab": 6029,
      "conseil": 6030,
      "##ito": 6031,
      "Anton": 6032,
      "fine": 6033,
      "##itzer": 6034,
      "means": 6035,
      "Sav": 6036,
      "##uin": 6037,
      "rä": 6038,
      "Ils": 6039,
      "juillet": 6040,
      "fär": 6041,
      "anim": 6042,
      "IL": 6043,
      "##lls": 6044,
      "##urant": 6045,
      "josta": 6046,
      "##tet": 6047,
      "##enz": 6048,
      "sion": 6049,
      "erkl": 6050,
      "sek": 6051,
      "nie": 6052,
      "##onsieur": 6053,
      "##well": 6054,
      "nomm": 6055,
      "build": 6056,
      "##edeut": 6057,
      "lum": 6058,
      "Fmk": 6059,
      "equ": 6060,
      "Ak": 6061,
      "##ANT": 6062,
      "##eres": 6063,
      "##dl": 6064,
      "received": 6065,
      "själf": 6066,
      "friends": 6067,
      "hvilket": 6068,
      "##huone": 6069,
      "##ously": 6070,
      "konn": 6071,
      "annat": 6072,
      "Well": 6073,
      "##sst": 6074,
      "sour": 6075,
      "Son": 6076,
      "AL": 6077,
      "contr": 6078,
      "tois": 6079,
      "700": 6080,
      "aikaan": 6081,
      "front": 6082,
      "Bern": 6083,
      "##timmt": 6084,
      "Borgå": 6085,
      "wenig": 6086,
      "Avas": 6087,
      "zwar": 6088,
      "either": 6089,
      "##ounded": 6090,
      "donner": 6091,
      "##gef": 6092,
      "écr": 6093,
      "##wen": 6094,
      "jedoch": 6095,
      "Met": 6096,
      "village": 6097,
      "##nm": 6098,
      "##ouksessa": 6099,
      "mest": 6100,
      "erk": 6101,
      "styr": 6102,
      "grat": 6103,
      "vaan": 6104,
      "##aves": 6105,
      "colle": 6106,
      "ine": 6107,
      "##hy": 6108,
      "annan": 6109,
      "donné": 6110,
      "##nng": 6111,
      "##ano": 6112,
      "Richard": 6113,
      "##édit": 6114,
      "##stant": 6115,
      "##ikeuden": 6116,
      "woman": 6117,
      "##seende": 6118,
      "Att": 6119,
      "court": 6120,
      "mass": 6121,
      "common": 6122,
      "pouv": 6123,
      "Damp": 6124,
      "tahi": 6125,
      "jout": 6126,
      "##ément": 6127,
      "letzten": 6128,
      "talon": 6129,
      "##theil": 6130,
      "places": 6131,
      "##kal": 6132,
      "##ningarna": 6133,
      "Kirj": 6134,
      "Mel": 6135,
      "104": 6136,
      "Asi": 6137,
      "föres": 6138,
      "niiden": 6139,
      "Juho": 6140,
      "Tout": 6141,
      "sammant": 6142,
      "##éon": 6143,
      "help": 6144,
      "##ammlung": 6145,
      "pie": 6146,
      "sowie": 6147,
      "##irm": 6148,
      "kokou": 6149,
      "cast": 6150,
      "##yry": 6151,
      "weit": 6152,
      "omista": 6153,
      "##gång": 6154,
      "##iaan": 6155,
      "Mary": 6156,
      "##opa": 6157,
      "Gesetz": 6158,
      "knew": 6159,
      "einge": 6160,
      "##VE": 6161,
      "vent": 6162,
      "uu": 6163,
      "Société": 6164,
      "neuen": 6165,
      "gut": 6166,
      "##di": 6167,
      "##jes": 6168,
      "words": 6169,
      "direction": 6170,
      "##uksessa": 6171,
      "##på": 6172,
      "Pä": 6173,
      "##ased": 6174,
      "söndag": 6175,
      "plain": 6176,
      "##inkatu": 6177,
      "##kea": 6178,
      "frågan": 6179,
      "ide": 6180,
      "Stell": 6181,
      "##edt": 6182,
      "seinem": 6183,
      "vou": 6184,
      "Tammer": 6185,
      "Alexanders": 6186,
      "erhåll": 6187,
      "felt": 6188,
      "Hil": 6189,
      "##fully": 6190,
      "betyd": 6191,
      "Lehr": 6192,
      "Lapp": 6193,
      "##kais": 6194,
      "##cm": 6195,
      "ents": 6196,
      "satisf": 6197,
      "##AB": 6198,
      "työn": 6199,
      "##vt": 6200,
      "##oses": 6201,
      "##xel": 6202,
      "##euer": 6203,
      "dö": 6204,
      "##ången": 6205,
      "able": 6206,
      "179": 6207,
      "##struction": 6208,
      "mut": 6209,
      "kesäk": 6210,
      "fire": 6211,
      "Emil": 6212,
      "abge": 6213,
      "gör": 6214,
      "prendre": 6215,
      "sair": 6216,
      "Ek": 6217,
      "lämp": 6218,
      "##gat": 6219,
      "fille": 6220,
      "außer": 6221,
      "October": 6222,
      "##allet": 6223,
      "quelque": 6224,
      "##ationer": 6225,
      "publ": 6226,
      "##dagar": 6227,
      "Arm": 6228,
      "##èrement": 6229,
      "Pass": 6230,
      "borg": 6231,
      "##rads": 6232,
      "poin": 6233,
      "dür": 6234,
      "lord": 6235,
      "##itung": 6236,
      "Geld": 6237,
      "dri": 6238,
      "white": 6239,
      "Just": 6240,
      "##jer": 6241,
      "vingt": 6242,
      "actu": 6243,
      "##lemm": 6244,
      "##chs": 6245,
      "kuun": 6246,
      "##inner": 6247,
      "beslut": 6248,
      "Jak": 6249,
      "low": 6250,
      "verm": 6251,
      "##ny": 6252,
      "door": 6253,
      "##uessa": 6254,
      "##anda": 6255,
      "siellä": 6256,
      "vack": 6257,
      "descri": 6258,
      "reven": 6259,
      "ST": 6260,
      "##ndagen": 6261,
      "eimät": 6262,
      "##cient": 6263,
      "schen": 6264,
      "offer": 6265,
      "Baron": 6266,
      "frun": 6267,
      "paikka": 6268,
      "adresser": 6269,
      "mieh": 6270,
      "##ärä": 6271,
      "##ер": 6272,
      "jolloin": 6273,
      "kvinn": 6274,
      "##stånd": 6275,
      "##sak": 6276,
      "##skar": 6277,
      "going": 6278,
      "fröken": 6279,
      "##licka": 6280,
      "forts": 6281,
      "##städes": 6282,
      "1910": 6283,
      "##lak": 6284,
      "Kaupp": 6285,
      "sist": 6286,
      "reste": 6287,
      "##gericht": 6288,
      "##akuut": 6289,
      "##ellis": 6290,
      "Tämä": 6291,
      "civil": 6292,
      "salle": 6293,
      "Preis": 6294,
      "##INE": 6295,
      "arriv": 6296,
      "bring": 6297,
      "##bly": 6298,
      "##ivan": 6299,
      "aurait": 6300,
      "##ums": 6301,
      "Dav": 6302,
      "##yhtiö": 6303,
      "Ré": 6304,
      "försälj": 6305,
      "schw": 6306,
      "##las": 6307,
      "tätä": 6308,
      "TO": 6309,
      "köp": 6310,
      "Bahn": 6311,
      "indeed": 6312,
      "##ouses": 6313,
      "##nu": 6314,
      "##AC": 6315,
      "perm": 6316,
      "sav": 6317,
      "Fam": 6318,
      "lå": 6319,
      "##assung": 6320,
      "##ämp": 6321,
      "nearly": 6322,
      "##jalle": 6323,
      "burg": 6324,
      "maat": 6325,
      "inför": 6326,
      "kuts": 6327,
      "##iltä": 6328,
      "##oinna": 6329,
      "##öff": 6330,
      "Hug": 6331,
      "Eli": 6332,
      "##quent": 6333,
      "Tou": 6334,
      "##cel": 6335,
      "manif": 6336,
      "réf": 6337,
      "perhaps": 6338,
      "##го": 6339,
      "taka": 6340,
      "##uru": 6341,
      "##èv": 6342,
      "105": 6343,
      "Esplanad": 6344,
      "##icip": 6345,
      "mich": 6346,
      "Sten": 6347,
      "##orter": 6348,
      "##igare": 6349,
      "##ski": 6350,
      "##weise": 6351,
      "South": 6352,
      "##zog": 6353,
      "Sw": 6354,
      "##istaina": 6355,
      "ram": 6356,
      "09": 6357,
      "##itants": 6358,
      "hers": 6359,
      "##wig": 6360,
      "##örs": 6361,
      "##TH": 6362,
      "Après": 6363,
      "mall": 6364,
      "##oksen": 6365,
      "##GE": 6366,
      "tarkoit": 6367,
      "km": 6368,
      "##kein": 6369,
      "concl": 6370,
      "##blad": 6371,
      "tend": 6372,
      "travail": 6373,
      "##dig": 6374,
      "tait": 6375,
      "godt": 6376,
      "##culi": 6377,
      "ruots": 6378,
      "chaque": 6379,
      "sait": 6380,
      "##ège": 6381,
      "##lös": 6382,
      "johon": 6383,
      "used": 6384,
      "wollen": 6385,
      "##amies": 6386,
      "##nasta": 6387,
      "Mac": 6388,
      "arrê": 6389,
      "##irte": 6390,
      "##uite": 6391,
      "##koon": 6392,
      "##lick": 6393,
      "kaan": 6394,
      "dark": 6395,
      "Nap": 6396,
      "desc": 6397,
      "Majestät": 6398,
      "##gram": 6399,
      "Buch": 6400,
      "##ettel": 6401,
      "##iko": 6402,
      "##ellertid": 6403,
      "oe": 6404,
      "ott": 6405,
      "##vu": 6406,
      "fore": 6407,
      "ajan": 6408,
      "##oher": 6409,
      "Mitg": 6410,
      "##illon": 6411,
      "danger": 6412,
      "##ardin": 6413,
      "##reff": 6414,
      "manner": 6415,
      "mots": 6416,
      "least": 6417,
      "mean": 6418,
      "##estern": 6419,
      "##igne": 6420,
      "tiden": 6421,
      "Henri": 6422,
      "yhti": 6423,
      "##70": 6424,
      "mad": 6425,
      "ihnen": 6426,
      "##uil": 6427,
      "lug": 6428,
      "septembre": 6429,
      "month": 6430,
      "##tel": 6431,
      "together": 6432,
      "##Sti": 6433,
      "daugh": 6434,
      "##voll": 6435,
      "Dur": 6436,
      "##beck": 6437,
      "##lair": 6438,
      "##sgatan": 6439,
      "Holl": 6440,
      "following": 6441,
      "##ding": 6442,
      "##kel": 6443,
      "koska": 6444,
      "welch": 6445,
      "##kontor": 6446,
      "##amma": 6447,
      "##aster": 6448,
      "muuta": 6449,
      "epä": 6450,
      "rit": 6451,
      "gäll": 6452,
      "huon": 6453,
      "Marse": 6454,
      "##ape": 6455,
      "case": 6456,
      "Py": 6457,
      "##ksamhet": 6458,
      "##uvre": 6459,
      "nog": 6460,
      "sr": 6461,
      "Tri": 6462,
      "ottaa": 6463,
      "därför": 6464,
      "##coup": 6465,
      "##zug": 6466,
      "Church": 6467,
      "twenty": 6468,
      "kot": 6469,
      "##éro": 6470,
      "kirkk": 6471,
      "trä": 6472,
      "##bild": 6473,
      "kuuka": 6474,
      "Niin": 6475,
      "##lott": 6476,
      "derselben": 6477,
      "Jahren": 6478,
      "yksi": 6479,
      "fif": 6480,
      "##ato": 6481,
      "##was": 6482,
      "does": 6483,
      "##llis": 6484,
      "ancien": 6485,
      "##auss": 6486,
      "##75": 6487,
      "hymä": 6488,
      "late": 6489,
      "##entlig": 6490,
      "Gold": 6491,
      "##kst": 6492,
      "##vilj": 6493,
      "hoit": 6494,
      "uh": 6495,
      "GR": 6496,
      "##ples": 6497,
      "Oktober": 6498,
      "kert": 6499,
      "##hem": 6500,
      "train": 6501,
      "##TEL": 6502,
      "Beg": 6503,
      "says": 6504,
      "money": 6505,
      "Gemein": 6506,
      "##iehet": 6507,
      "##agnie": 6508,
      "##ustri": 6509,
      "pys": 6510,
      "Durch": 6511,
      "Johan": 6512,
      "##bb": 6513,
      "account": 6514,
      "vore": 6515,
      "##80": 6516,
      "##illed": 6517,
      "##tique": 6518,
      "provin": 6519,
      "##âteau": 6520,
      "ytt": 6521,
      "bit": 6522,
      "ersch": 6523,
      "##rest": 6524,
      "##ställning": 6525,
      "eigen": 6526,
      "##iell": 6527,
      "Privat": 6528,
      "Fru": 6529,
      "distance": 6530,
      "##LO": 6531,
      "##iljel": 6532,
      "bud": 6533,
      "Näh": 6534,
      "##agar": 6535,
      "hit": 6536,
      "##uom": 6537,
      "appel": 6538,
      "vale": 6539,
      "wäre": 6540,
      "##vs": 6541,
      "##jantaina": 6542,
      "ytter": 6543,
      "##do": 6544,
      "mys": 6545,
      "##bon": 6546,
      "##20": 6547,
      "satt": 6548,
      "##esses": 6549,
      "lähe": 6550,
      "deme": 6551,
      "thy": 6552,
      "140": 6553,
      "##ließ": 6554,
      "mol": 6555,
      "Ml": 6556,
      "##xe": 6557,
      "##onner": 6558,
      "prince": 6559,
      "length": 6560,
      "ilman": 6561,
      "##heter": 6562,
      "##ünf": 6563,
      "cen": 6564,
      "borde": 6565,
      "##wor": 6566,
      "cli": 6567,
      "Auch": 6568,
      "##udes": 6569,
      "päätö": 6570,
      "cit": 6571,
      "puheen": 6572,
      "##pec": 6573,
      "kuol": 6574,
      "##AIS": 6575,
      "##tages": 6576,
      "succès": 6577,
      "vois": 6578,
      "##yé": 6579,
      "##rak": 6580,
      "##umaan": 6581,
      "Bezirks": 6582,
      "tet": 6583,
      "suis": 6584,
      "juhl": 6585,
      "##aisse": 6586,
      "##aga": 6587,
      "06": 6588,
      "##dam": 6589,
      "##uneet": 6590,
      "##osed": 6591,
      "##utom": 6592,
      "##handlung": 6593,
      "suor": 6594,
      "county": 6595,
      "voix": 6596,
      "##rict": 6597,
      "because": 6598,
      "##ätten": 6599,
      "Maj": 6600,
      "route": 6601,
      "deutschen": 6602,
      "##anken": 6603,
      "ik": 6604,
      "Vormit": 6605,
      "Pest": 6606,
      "paitsi": 6607,
      "##ichten": 6608,
      "uus": 6609,
      "##ids": 6610,
      "##ücke": 6611,
      "##arc": 6612,
      "antal": 6613,
      "kokous": 6614,
      "dl": 6615,
      "nes": 6616,
      "enfants": 6617,
      "##gå": 6618,
      "##ump": 6619,
      "anta": 6620,
      "envo": 6621,
      "Groß": 6622,
      "groß": 6623,
      "vue": 6624,
      "sang": 6625,
      "##so": 6626,
      "##quelle": 6627,
      "medel": 6628,
      "##ск": 6629,
      "##okka": 6630,
      "##imer": 6631,
      "##sy": 6632,
      "##ised": 6633,
      "Hj": 6634,
      "##mäk": 6635,
      "consid": 6636,
      "hast": 6637,
      "bear": 6638,
      "sad": 6639,
      "meille": 6640,
      "##UI": 6641,
      "kyllä": 6642,
      "true": 6643,
      "afton": 6644,
      "##iques": 6645,
      "honneur": 6646,
      "##rin": 6647,
      "tent": 6648,
      "Michel": 6649,
      "loka": 6650,
      "136": 6651,
      "Luc": 6652,
      "wal": 6653,
      "##räd": 6654,
      "##fait": 6655,
      "Aff": 6656,
      "décembre": 6657,
      "##ILLE": 6658,
      "##imen": 6659,
      "therefore": 6660,
      "fear": 6661,
      "##hend": 6662,
      "coll": 6663,
      "führ": 6664,
      "poli": 6665,
      "ic": 6666,
      "##chsel": 6667,
      "Esp": 6668,
      "##irj": 6669,
      "respect": 6670,
      "##ättas": 6671,
      "kirje": 6672,
      "##halb": 6673,
      "Central": 6674,
      "olimat": 6675,
      "##jut": 6676,
      "##ennen": 6677,
      "body": 6678,
      "##iker": 6679,
      "dimanche": 6680,
      "Gesellschaft": 6681,
      "##mista": 6682,
      "These": 6683,
      "##jana": 6684,
      "lady": 6685,
      "##lå": 6686,
      "sure": 6687,
      "##uche": 6688,
      "Nya": 6689,
      "Ord": 6690,
      "Frei": 6691,
      "mainit": 6692,
      "sos": 6693,
      "##tage": 6694,
      "meidän": 6695,
      "Sn": 6696,
      "fau": 6697,
      "yhd": 6698,
      "ilmest": 6699,
      "ofthe": 6700,
      "egen": 6701,
      "British": 6702,
      "belle": 6703,
      "ster": 6704,
      "oper": 6705,
      "##alaiset": 6706,
      "cré": 6707,
      "Kä": 6708,
      "tête": 6709,
      "became": 6710,
      "##од": 6711,
      "sunnuntaina": 6712,
      "voyage": 6713,
      "##fatt": 6714,
      "##uudessa": 6715,
      "##ode": 6716,
      "suc": 6717,
      "##sty": 6718,
      "adop": 6719,
      "##gangen": 6720,
      "160": 6721,
      "##bach": 6722,
      "flere": 6723,
      "##uls": 6724,
      "Mika": 6725,
      "Mä": 6726,
      "fro": 6727,
      "##ready": 6728,
      "stood": 6729,
      "Colon": 6730,
      "illalla": 6731,
      "##untaan": 6732,
      "Tammerfors": 6733,
      "Non": 6734,
      "##ji": 6735,
      "##40": 6736,
      "##eleg": 6737,
      "##ähden": 6738,
      "huutoka": 6739,
      "hors": 6740,
      "latter": 6741,
      "##ôle": 6742,
      "ck": 6743,
      "aufge": 6744,
      "##crire": 6745,
      "Kron": 6746,
      "##évrier": 6747,
      "Phil": 6748,
      "One": 6749,
      "##rit": 6750,
      "##orin": 6751,
      "##lichkeit": 6752,
      "##ec": 6753,
      "##istrat": 6754,
      "admir": 6755,
      "word": 6756,
      "Zahl": 6757,
      "Gusta": 6758,
      "prochain": 6759,
      "##amin": 6760,
      "##ics": 6761,
      "foot": 6762,
      "fråga": 6763,
      "Sti": 6764,
      "##drag": 6765,
      "return": 6766,
      "##jaksi": 6767,
      "huol": 6768,
      "Mark": 6769,
      "visit": 6770,
      "té": 6771,
      "FRAN": 6772,
      "125": 6773,
      "sant": 6774,
      "säll": 6775,
      "##pir": 6776,
      "jur": 6777,
      "##yttäm": 6778,
      "Lund": 6779,
      "byggnad": 6780,
      "##igten": 6781,
      "##onta": 6782,
      "##kunn": 6783,
      "##ights": 6784,
      "Chambre": 6785,
      "Vil": 6786,
      "##atern": 6787,
      "opinion": 6788,
      "##athol": 6789,
      "favour": 6790,
      "läg": 6791,
      "Peter": 6792,
      "wood": 6793,
      "säh": 6794,
      "##okat": 6795,
      "bisher": 6796,
      "ligt": 6797,
      "reason": 6798,
      "##aval": 6799,
      "##ämm": 6800,
      "marten": 6801,
      "##erve": 6802,
      "##light": 6803,
      "##iaa": 6804,
      "jal": 6805,
      "Fort": 6806,
      "novembre": 6807,
      "Lady": 6808,
      "##uns": 6809,
      "party": 6810,
      "##staina": 6811,
      "##stan": 6812,
      "envir": 6813,
      "##will": 6814,
      "etwa": 6815,
      "syysk": 6816,
      "period": 6817,
      "##fab": 6818,
      "asked": 6819,
      "##ussion": 6820,
      "salu": 6821,
      "hour": 6822,
      "##edel": 6823,
      "##oki": 6824,
      "clear": 6825,
      "2S": 6826,
      "##cen": 6827,
      "senaten": 6828,
      "##ouver": 6829,
      "##uttu": 6830,
      "thousand": 6831,
      "aikana": 6832,
      "##jö": 6833,
      "sade": 6834,
      "##wort": 6835,
      "ilta": 6836,
      "##ograph": 6837,
      "stånd": 6838,
      "étrang": 6839,
      "Anf": 6840,
      "Hause": 6841,
      "proceed": 6842,
      "andere": 6843,
      "age": 6844,
      "cat": 6845,
      "termin": 6846,
      "chang": 6847,
      "PE": 6848,
      "Hv": 6849,
      "kunta": 6850,
      "matter": 6851,
      "bene": 6852,
      "##ST": 6853,
      "Pas": 6854,
      "wish": 6855,
      "SV": 6856,
      "jun": 6857,
      "##estre": 6858,
      "Ga": 6859,
      "##itel": 6860,
      "tomb": 6861,
      "##äkare": 6862,
      "mention": 6863,
      "ögon": 6864,
      "johtok": 6865,
      "thou": 6866,
      "##log": 6867,
      "##tagas": 6868,
      "##jorde": 6869,
      "sista": 6870,
      "##nehmen": 6871,
      "children": 6872,
      "##irten": 6873,
      "Kos": 6874,
      "coast": 6875,
      "##ütz": 6876,
      "##utus": 6877,
      "##apa": 6878,
      "##table": 6879,
      "Hum": 6880,
      "muka": 6881,
      "kään": 6882,
      "##seign": 6883,
      "##ättöm": 6884,
      "angl": 6885,
      "Trans": 6886,
      "cross": 6887,
      "tehdä": 6888,
      "##weis": 6889,
      "##wick": 6890,
      "##otten": 6891,
      "anderen": 6892,
      "akt": 6893,
      "##IER": 6894,
      "##unkt": 6895,
      "##érieur": 6896,
      "##ådet": 6897,
      "kust": 6898,
      "##vention": 6899,
      "riks": 6900,
      "arms": 6901,
      "compos": 6902,
      "laquelle": 6903,
      "Iv": 6904,
      "##fel": 6905,
      "établ": 6906,
      "turned": 6907,
      "rl": 6908,
      "Now": 6909,
      "oleman": 6910,
      "##ris": 6911,
      "inhab": 6912,
      "gn": 6913,
      "already": 6914,
      "##jou": 6915,
      "##äft": 6916,
      "zweiten": 6917,
      "skild": 6918,
      "onn": 6919,
      "##ityks": 6920,
      "cloth": 6921,
      "##führt": 6922,
      "##alter": 6923,
      "##mach": 6924,
      "began": 6925,
      "Pohj": 6926,
      "loin": 6927,
      "##ennt": 6928,
      "##henden": 6929,
      "subject": 6930,
      "Weise": 6931,
      "SI": 6932,
      "tum": 6933,
      "önskas": 6934,
      "Kö": 6935,
      "##aler": 6936,
      "##atin": 6937,
      "Sum": 6938,
      "##uol": 6939,
      "Mur": 6940,
      "Sitz": 6941,
      "##äis": 6942,
      "hyvä": 6943,
      "jeder": 6944,
      "##mär": 6945,
      "##unter": 6946,
      "leave": 6947,
      "miet": 6948,
      "berg": 6949,
      "utom": 6950,
      "##ittanut": 6951,
      "lund": 6952,
      "juin": 6953,
      "lead": 6954,
      "lem": 6955,
      "kilom": 6956,
      "##ägen": 6957,
      "Jou": 6958,
      "Vin": 6959,
      "##antage": 6960,
      "lost": 6961,
      "##ième": 6962,
      "bos": 6963,
      "compte": 6964,
      "Abend": 6965,
      "##nö": 6966,
      "##tiful": 6967,
      "##nte": 6968,
      "janvier": 6969,
      "##rän": 6970,
      "kän": 6971,
      "Albert": 6972,
      "##ilu": 6973,
      "welches": 6974,
      "OU": 6975,
      "Poli": 6976,
      "##okra": 6977,
      "Van": 6978,
      "##asen": 6979,
      "Edward": 6980,
      "##uté": 6981,
      "earth": 6982,
      "gestern": 6983,
      "ext": 6984,
      "förord": 6985,
      "##ersch": 6986,
      "mine": 6987,
      "Roman": 6988,
      "##iesen": 6989,
      "hop": 6990,
      "##ahden": 6991,
      "refus": 6992,
      "##alaisten": 6993,
      "##ether": 6994,
      "Prag": 6995,
      "ailleurs": 6996,
      "Londres": 6997,
      "ici": 6998,
      "pron": 6999,
      "recht": 7000,
      "##don": 7001,
      "zahl": 7002,
      "henne": 7003,
      "hold": 7004,
      "##ened": 7005,
      "ock": 7006,
      "##etut": 7007,
      "Ouest": 7008,
      "vat": 7009,
      "##mark": 7010,
      "##fle": 7011,
      "Lager": 7012,
      "halu": 7013,
      "maanm": 7014,
      "sau": 7015,
      "alone": 7016,
      "vorg": 7017,
      "different": 7018,
      "Kat": 7019,
      "ts": 7020,
      "##deles": 7021,
      "##ioon": 7022,
      "##asin": 7023,
      "tytt": 7024,
      "mäh": 7025,
      "suff": 7026,
      "ancient": 7027,
      "sais": 7028,
      "beaucoup": 7029,
      "##riers": 7030,
      "säm": 7031,
      "préf": 7032,
      "##alin": 7033,
      "Bi": 7034,
      "##NES": 7035,
      "##ension": 7036,
      "##meen": 7037,
      "Staat": 7038,
      "eas": 7039,
      "въ": 7040,
      "##eseen": 7041,
      "zn": 7042,
      "förhåll": 7043,
      "Bret": 7044,
      "##allen": 7045,
      "syd": 7046,
      "close": 7047,
      "tot": 7048,
      "##bud": 7049,
      "##ität": 7050,
      "joten": 7051,
      "dispos": 7052,
      "Eh": 7053,
      "##tice": 7054,
      "lay": 7055,
      "nais": 7056,
      "##ften": 7057,
      "##ivä": 7058,
      "petite": 7059,
      "Kra": 7060,
      "Coll": 7061,
      "##ounds": 7062,
      "##udessa": 7063,
      "dy": 7064,
      "пр": 7065,
      "sar": 7066,
      "verb": 7067,
      "bour": 7068,
      "mille": 7069,
      "beiden": 7070,
      "eau": 7071,
      "##ücks": 7072,
      "handl": 7073,
      "förklar": 7074,
      "vatten": 7075,
      "helm": 7076,
      "national": 7077,
      "Jyvä": 7078,
      "comtesse": 7079,
      "AM": 7080,
      "tilais": 7081,
      "huit": 7082,
      "After": 7083,
      "opet": 7084,
      "Elis": 7085,
      "##here": 7086,
      "soul": 7087,
      "Max": 7088,
      "##uksella": 7089,
      "diff": 7090,
      "##ylän": 7091,
      "déta": 7092,
      "seulement": 7093,
      "passage": 7094,
      "herself": 7095,
      "establ": 7096,
      "##sehen": 7097,
      "bey": 7098,
      "##esch": 7099,
      "##lunda": 7100,
      "##oph": 7101,
      "##elska": 7102,
      "##omme": 7103,
      "Hotel": 7104,
      "Tamp": 7105,
      "Angl": 7106,
      "##UE": 7107,
      "early": 7108,
      "Geb": 7109,
      "##jelm": 7110,
      "conv": 7111,
      "fils": 7112,
      "myself": 7113,
      "Govern": 7114,
      "##väm": 7115,
      "##gär": 7116,
      "##ussi": 7117,
      "mission": 7118,
      "utr": 7119,
      "Tämän": 7120,
      "March": 7121,
      "##höf": 7122,
      "##30": 7123,
      "fc": 7124,
      "view": 7125,
      "medlemm": 7126,
      "log": 7127,
      "Lö": 7128,
      "##anom": 7129,
      "Christ": 7130,
      "oppil": 7131,
      "kuluessa": 7132,
      "##dor": 7133,
      "mitt": 7134,
      "Stand": 7135,
      "famille": 7136,
      "Kil": 7137,
      "##sit": 7138,
      "##Stä": 7139,
      "##etzen": 7140,
      "expl": 7141,
      "Pres": 7142,
      "##OI": 7143,
      "##isme": 7144,
      "##ston": 7145,
      "lak": 7146,
      "##bek": 7147,
      "Anspr": 7148,
      "##ensom": 7149,
      "##halt": 7150,
      "krig": 7151,
      "tietoja": 7152,
      "squ": 7153,
      "treat": 7154,
      "dernière": 7155,
      "häntä": 7156,
      "sanomale": 7157,
      "nord": 7158,
      "provis": 7159,
      "##öts": 7160,
      "père": 7161,
      "press": 7162,
      "##erei": 7163,
      "blir": 7164,
      "ase": 7165,
      "anom": 7166,
      "jää": 7167,
      "übr": 7168,
      "##yhdist": 7169,
      "enti": 7170,
      "##uste": 7171,
      "##uti": 7172,
      "brother": 7173,
      "##ühl": 7174,
      "##vall": 7175,
      "peace": 7176,
      "pö": 7177,
      "rang": 7178,
      "Präs": 7179,
      "nr": 7180,
      "##мъ": 7181,
      "Lem": 7182,
      "tol": 7183,
      "tarkast": 7184,
      "##entes": 7185,
      "##ican": 7186,
      "Dam": 7187,
      "##tigkeit": 7188,
      "##jöl": 7189,
      "Fest": 7190,
      "dort": 7191,
      "Hi": 7192,
      "anti": 7193,
      "eilen": 7194,
      "##rodu": 7195,
      "##25": 7196,
      "Tour": 7197,
      "éch": 7198,
      "parts": 7199,
      "Avith": 7200,
      "besond": 7201,
      "talo": 7202,
      "kylässä": 7203,
      "TH": 7204,
      "##rique": 7205,
      "author": 7206,
      "Italien": 7207,
      "##avar": 7208,
      "##lock": 7209,
      "note": 7210,
      "Rome": 7211,
      "##rog": 7212,
      "missä": 7213,
      "##sb": 7214,
      "Krie": 7215,
      "inten": 7216,
      "nii": 7217,
      "telefon": 7218,
      "##iges": 7219,
      "##gendom": 7220,
      "många": 7221,
      "modern": 7222,
      "dead": 7223,
      "##mont": 7224,
      "elok": 7225,
      "##dle": 7226,
      "vér": 7227,
      "##pal": 7228,
      "föred": 7229,
      "##jak": 7230,
      "Diese": 7231,
      "eut": 7232,
      "parl": 7233,
      "##ué": 7234,
      "huo": 7235,
      "##ottom": 7236,
      "free": 7237,
      "##issant": 7238,
      "sollen": 7239,
      "osaa": 7240,
      "178": 7241,
      "Far": 7242,
      "##los": 7243,
      "erittäin": 7244,
      "##over": 7245,
      "muoden": 7246,
      "tien": 7247,
      "såväl": 7248,
      "ero": 7249,
      "goda": 7250,
      "sand": 7251,
      "Tä": 7252,
      "##ea": 7253,
      "föret": 7254,
      "lr": 7255,
      "charge": 7256,
      "##asia": 7257,
      "tidigare": 7258,
      "néc": 7259,
      "Jänner": 7260,
      "##isenä": 7261,
      "asti": 7262,
      "##pol": 7263,
      "tat": 7264,
      "voice": 7265,
      "Efter": 7266,
      "cre": 7267,
      "franz": 7268,
      "Kansa": 7269,
      "terre": 7270,
      "##kott": 7271,
      "henkilö": 7272,
      "##erst": 7273,
      "##gew": 7274,
      "Inst": 7275,
      "Lam": 7276,
      "##issance": 7277,
      "boulevard": 7278,
      "edusk": 7279,
      "toista": 7280,
      "121": 7281,
      "##arena": 7282,
      "##achen": 7283,
      "Recht": 7284,
      "##cd": 7285,
      "pla": 7286,
      "Malm": 7287,
      "tiin": 7288,
      "ulkom": 7289,
      "Ost": 7290,
      "erb": 7291,
      "sür": 7292,
      "kirk": 7293,
      "isän": 7294,
      "Fabrik": 7295,
      "Gau": 7296,
      "Here": 7297,
      "##ustaja": 7298,
      "##usm": 7299,
      "island": 7300,
      "alka": 7301,
      "##Av": 7302,
      "affe": 7303,
      "magn": 7304,
      "##pat": 7305,
      "##action": 7306,
      "##90": 7307,
      "##venir": 7308,
      "baron": 7309,
      "##но": 7310,
      "häm": 7311,
      "Antrag": 7312,
      "muutam": 7313,
      "edell": 7314,
      "170": 7315,
      "##onst": 7316,
      "Dé": 7317,
      "##tz": 7318,
      "Marseille": 7319,
      "##ublique": 7320,
      "##ALE": 7321,
      "Rob": 7322,
      "##UM": 7323,
      "klass": 7324,
      "##pet": 7325,
      "kommen": 7326,
      "government": 7327,
      "träd": 7328,
      "Hist": 7329,
      "##ohen": 7330,
      "##eras": 7331,
      "##urin": 7332,
      "ständ": 7333,
      "vidare": 7334,
      "##skt": 7335,
      "Ath": 7336,
      "centre": 7337,
      "##imo": 7338,
      "##esi": 7339,
      "ansök": 7340,
      "mastaan": 7341,
      "arbetare": 7342,
      "vårt": 7343,
      "små": 7344,
      "cu": 7345,
      "##cret": 7346,
      "ryht": 7347,
      "vai": 7348,
      "born": 7349,
      "##PE": 7350,
      "something": 7351,
      "Silber": 7352,
      "ef": 7353,
      "##buch": 7354,
      "human": 7355,
      "sle": 7356,
      "##ор": 7357,
      "erste": 7358,
      "äf": 7359,
      "Schwe": 7360,
      "läs": 7361,
      "##aines": 7362,
      "frü": 7363,
      "gros": 7364,
      "Hell": 7365,
      "Ilmoit": 7366,
      "Milit": 7367,
      "Toi": 7368,
      "puut": 7369,
      "##ammik": 7370,
      "resol": 7371,
      "Mut": 7372,
      "##iving": 7373,
      "##träd": 7374,
      "empf": 7375,
      "konttor": 7376,
      "##förande": 7377,
      "##kte": 7378,
      "rapid": 7379,
      "##omaan": 7380,
      "Ces": 7381,
      "lot": 7382,
      "##abeth": 7383,
      "rid": 7384,
      "Stat": 7385,
      "malti": 7386,
      "##gegen": 7387,
      "National": 7388,
      "Leop": 7389,
      "individ": 7390,
      "glau": 7391,
      "wahr": 7392,
      "##itys": 7393,
      "Cont": 7394,
      "våra": 7395,
      "entend": 7396,
      "##hets": 7397,
      "né": 7398,
      "pmä": 7399,
      "lager": 7400,
      "returned": 7401,
      "Folge": 7402,
      "bestimmt": 7403,
      "Verb": 7404,
      "Bri": 7405,
      "principal": 7406,
      "ign": 7407,
      "univers": 7408,
      "##kär": 7409,
      "##bruk": 7410,
      "##ication": 7411,
      "toinen": 7412,
      "##blick": 7413,
      "Otto": 7414,
      "uttal": 7415,
      "bygg": 7416,
      "assur": 7417,
      "générale": 7418,
      "##styrelsen": 7419,
      "Roberts": 7420,
      "Main": 7421,
      "##gung": 7422,
      "##vaa": 7423,
      "##esh": 7424,
      "neigh": 7425,
      "nichts": 7426,
      "##ingly": 7427,
      "février": 7428,
      "##gin": 7429,
      "##elius": 7430,
      "hies": 7431,
      "atte": 7432,
      "pah": 7433,
      "ham": 7434,
      "kurs": 7435,
      "pitäjän": 7436,
      "##höll": 7437,
      "##hdot": 7438,
      "raison": 7439,
      "##uz": 7440,
      "NE": 7441,
      "Bay": 7442,
      "Mos": 7443,
      "##istö": 7444,
      "kad": 7445,
      "##chlossen": 7446,
      "##tempt": 7447,
      "carried": 7448,
      "Zur": 7449,
      "##ILL": 7450,
      "##chsten": 7451,
      "Heu": 7452,
      "##rath": 7453,
      "##ielä": 7454,
      "esiin": 7455,
      "##akk": 7456,
      "jätt": 7457,
      "Tous": 7458,
      "looking": 7459,
      "Stor": 7460,
      "Kans": 7461,
      "itself": 7462,
      "##iere": 7463,
      "walk": 7464,
      "arch": 7465,
      "Gran": 7466,
      "commerce": 7467,
      "##tikel": 7468,
      "##byrå": 7469,
      "kaikkia": 7470,
      "points": 7471,
      "##prise": 7472,
      "händ": 7473,
      "österreich": 7474,
      "##isar": 7475,
      "##ordnung": 7476,
      "Zimmer": 7477,
      "Jon": 7478,
      "houses": 7479,
      "##ieuse": 7480,
      "lähett": 7481,
      "##ération": 7482,
      "circum": 7483,
      "##éli": 7484,
      "erhalten": 7485,
      "##ettava": 7486,
      "making": 7487,
      "##fois": 7488,
      "Lang": 7489,
      "##erik": 7490,
      "##riff": 7491,
      "##ront": 7492,
      "##zogen": 7493,
      "date": 7494,
      "##édé": 7495,
      "samalla": 7496,
      "projet": 7497,
      "cra": 7498,
      "anmäl": 7499,
      "joista": 7500,
      "##yh": 7501,
      "##från": 7502,
      "rock": 7503,
      "mieux": 7504,
      "##enschaft": 7505,
      "##indre": 7506,
      "formed": 7507,
      "erscheinen": 7508,
      "française": 7509,
      "##stone": 7510,
      "armée": 7511,
      "wild": 7512,
      "Forder": 7513,
      "##esten": 7514,
      "immed": 7515,
      "ern": 7516,
      "##far": 7517,
      "##toa": 7518,
      "größ": 7519,
      "Dor": 7520,
      "Dis": 7521,
      "honour": 7522,
      "daughter": 7523,
      "également": 7524,
      "##FF": 7525,
      "##itus": 7526,
      "Ing": 7527,
      "familj": 7528,
      "business": 7529,
      "Verf": 7530,
      "Aber": 7531,
      "108": 7532,
      "##OC": 7533,
      "vuoden": 7534,
      "Här": 7535,
      "##ORY": 7536,
      "disco": 7537,
      "nl": 7538,
      "##istration": 7539,
      "##uone": 7540,
      "Wenn": 7541,
      "Kop": 7542,
      "##isessä": 7543,
      "##Sl": 7544,
      "municip": 7545,
      "##schaf": 7546,
      "olo": 7547,
      "cn": 7548,
      "lah": 7549,
      "##änen": 7550,
      "retour": 7551,
      "stark": 7552,
      "##terna": 7553,
      "##gestellt": 7554,
      "ah": 7555,
      "Cas": 7556,
      "sammanträ": 7557,
      "##êtes": 7558,
      "uppg": 7559,
      "Früh": 7560,
      "##ilan": 7561,
      "tas": 7562,
      "Feil": 7563,
      "Chap": 7564,
      "mein": 7565,
      "##ättning": 7566,
      "einige": 7567,
      "turn": 7568,
      "change": 7569,
      "malhe": 7570,
      "7S": 7571,
      "##uren": 7572,
      "##tte": 7573,
      "rav": 7574,
      "enemy": 7575,
      "raitti": 7576,
      "flicka": 7577,
      "##oupe": 7578,
      "##mine": 7579,
      "##handl": 7580,
      "##uence": 7581,
      "personne": 7582,
      "tullut": 7583,
      "Hag": 7584,
      "emellertid": 7585,
      "Gul": 7586,
      "##recht": 7587,
      "##za": 7588,
      "hymin": 7589,
      "REN": 7590,
      "Smk": 7591,
      "pièce": 7592,
      "attention": 7593,
      "##licht": 7594,
      "##etzung": 7595,
      "kii": 7596,
      "Kü": 7597,
      "côté": 7598,
      "##asins": 7599,
      "event": 7600,
      "gericht": 7601,
      "Frage": 7602,
      "toukok": 7603,
      "##arnas": 7604,
      "##con": 7605,
      "##iö": 7606,
      "black": 7607,
      "Gef": 7608,
      "Vl": 7609,
      "##orden": 7610,
      "justice": 7611,
      "continued": 7612,
      "Grön": 7613,
      "##itsi": 7614,
      "journal": 7615,
      "##richtung": 7616,
      "##TT": 7617,
      "saam": 7618,
      "##ifs": 7619,
      "doute": 7620,
      "built": 7621,
      "pied": 7622,
      "##too": 7623,
      "115": 7624,
      "kept": 7625,
      "##mål": 7626,
      "##ureux": 7627,
      "markkaa": 7628,
      "kokon": 7629,
      "ori": 7630,
      "ball": 7631,
      "italien": 7632,
      "Ri": 7633,
      "allein": 7634,
      "##asten": 7635,
      "##emn": 7636,
      "Cred": 7637,
      "förest": 7638,
      "juuri": 7639,
      "Cam": 7640,
      "sia": 7641,
      "##uttam": 7642,
      "believe": 7643,
      "horse": 7644,
      "denen": 7645,
      "nämligen": 7646,
      "lika": 7647,
      "##ually": 7648,
      "bir": 7649,
      "laat": 7650,
      "Seite": 7651,
      "##uppen": 7652,
      "teki": 7653,
      "stone": 7654,
      "##elbst": 7655,
      "##ardi": 7656,
      "106": 7657,
      "112": 7658,
      "##usl": 7659,
      "##rieben": 7660,
      "möte": 7661,
      "Pra": 7662,
      "aamulla": 7663,
      "##cre": 7664,
      "central": 7665,
      "Personen": 7666,
      "##koja": 7667,
      "Finlands": 7668,
      "poik": 7669,
      "##bei": 7670,
      "yksity": 7671,
      "##owers": 7672,
      "Fall": 7673,
      "beautiful": 7674,
      "107": 7675,
      "äfv": 7676,
      "ät": 7677,
      "Conse": 7678,
      "ena": 7679,
      "följd": 7680,
      "schön": 7681,
      "##uhr": 7682,
      "annon": 7683,
      "Beau": 7684,
      "##stö": 7685,
      "omkr": 7686,
      "prakt": 7687,
      "##vik": 7688,
      "##aret": 7689,
      "##IEN": 7690,
      "grave": 7691,
      "reçu": 7692,
      "päivänä": 7693,
      "##rig": 7694,
      "capital": 7695,
      "##URS": 7696,
      "lia": 7697,
      "instant": 7698,
      "jung": 7699,
      "Major": 7700,
      "yhä": 7701,
      "Ave": 7702,
      "##anstalt": 7703,
      "ket": 7704,
      "kilos": 7705,
      "lun": 7706,
      "##llll": 7707,
      "Ryssland": 7708,
      "##ätty": 7709,
      "secret": 7710,
      "hervor": 7711,
      "##bart": 7712,
      "175": 7713,
      "##mäß": 7714,
      "täll": 7715,
      "imag": 7716,
      "gal": 7717,
      "wit": 7718,
      "eur": 7719,
      "sammt": 7720,
      "Vormittags": 7721,
      "gau": 7722,
      "##jille": 7723,
      "##annut": 7724,
      "##ÉS": 7725,
      "Kotka": 7726,
      "politique": 7727,
      "##har": 7728,
      "##ktionen": 7729,
      "senti": 7730,
      "Mittel": 7731,
      "Senaat": 7732,
      "##ARD": 7733,
      "essa": 7734,
      "##né": 7735,
      "André": 7736,
      "Puhelin": 7737,
      "##gasse": 7738,
      "Bör": 7739,
      "Od": 7740,
      "théâtre": 7741,
      "förut": 7742,
      "Suo": 7743,
      "kuu": 7744,
      "enemmän": 7745,
      "exper": 7746,
      "mäng": 7747,
      "pyyd": 7748,
      "##eradt": 7749,
      "blad": 7750,
      "Scot": 7751,
      "Nyt": 7752,
      "XX": 7753,
      "Preuß": 7754,
      "böra": 7755,
      "tör": 7756,
      "##üb": 7757,
      "diss": 7758,
      "##ests": 7759,
      "direkt": 7760,
      "vess": 7761,
      "pes": 7762,
      "##ested": 7763,
      "##unen": 7764,
      "aucun": 7765,
      "##ül": 7766,
      "ments": 7767,
      "Fle": 7768,
      "kenra": 7769,
      "Axel": 7770,
      "##innat": 7771,
      "Andr": 7772,
      "##iverse": 7773,
      "Christian": 7774,
      "longue": 7775,
      "säljes": 7776,
      "##OB": 7777,
      "East": 7778,
      "##ancy": 7779,
      "tard": 7780,
      "##nent": 7781,
      "kirkon": 7782,
      "exped": 7783,
      "ok": 7784,
      "concours": 7785,
      "geben": 7786,
      "##though": 7787,
      "Ali": 7788,
      "Brunn": 7789,
      "laid": 7790,
      "müssen": 7791,
      "Georges": 7792,
      "118": 7793,
      "tau": 7794,
      "ls": 7795,
      "ME": 7796,
      "persons": 7797,
      "Pit": 7798,
      "Tampere": 7799,
      "girl": 7800,
      "prote": 7801,
      "1000": 7802,
      "membres": 7803,
      "##alth": 7804,
      "##plac": 7805,
      "ged": 7806,
      "ae": 7807,
      "lev": 7808,
      "pastor": 7809,
      "chambre": 7810,
      "simple": 7811,
      "##orben": 7812,
      "seems": 7813,
      "##dorf": 7814,
      "suffer": 7815,
      "except": 7816,
      "LI": 7817,
      "##ANS": 7818,
      "qualité": 7819,
      "ém": 7820,
      "particular": 7821,
      "Ule": 7822,
      "kron": 7823,
      "Tod": 7824,
      "miten": 7825,
      "dès": 7826,
      "früher": 7827,
      "paper": 7828,
      "##ONS": 7829,
      "##idé": 7830,
      "solche": 7831,
      "belong": 7832,
      "##enter": 7833,
      "##pose": 7834,
      "##jn": 7835,
      "unders": 7836,
      "##rière": 7837,
      "##Sk": 7838,
      "##ival": 7839,
      "Erz": 7840,
      "Hann": 7841,
      "anhåll": 7842,
      "Mäd": 7843,
      "House": 7844,
      "erity": 7845,
      "Japan": 7846,
      "##ims": 7847,
      "uut": 7848,
      "##ankatu": 7849,
      "rom": 7850,
      "Coun": 7851,
      "sudden": 7852,
      "##Ue": 7853,
      "spre": 7854,
      "##itable": 7855,
      "##OND": 7856,
      "tyska": 7857,
      "Mod": 7858,
      "Gemeinde": 7859,
      "##UX": 7860,
      "disk": 7861,
      "allgeme": 7862,
      "När": 7863,
      "gone": 7864,
      "Rép": 7865,
      "##ppar": 7866,
      "heu": 7867,
      "Augen": 7868,
      "ligne": 7869,
      "quant": 7870,
      "##skylä": 7871,
      "##htori": 7872,
      "##KS": 7873,
      "sådan": 7874,
      "demain": 7875,
      "##oto": 7876,
      "personn": 7877,
      "Univers": 7878,
      "vas": 7879,
      "folksk": 7880,
      "Fran": 7881,
      "aikaa": 7882,
      "##ination": 7883,
      "keskustel": 7884,
      "brand": 7885,
      "Must": 7886,
      "##ankki": 7887,
      "##iral": 7888,
      "senare": 7889,
      "##temps": 7890,
      "##käri": 7891,
      "erfol": 7892,
      "##yne": 7893,
      "##cli": 7894,
      "##gabe": 7895,
      "yeux": 7896,
      "tåg": 7897,
      "##rice": 7898,
      "direct": 7899,
      "mans": 7900,
      "##AUX": 7901,
      "##mn": 7902,
      "##ksiin": 7903,
      "##cept": 7904,
      "tk": 7905,
      "##schl": 7906,
      "bureau": 7907,
      "Sedan": 7908,
      "lam": 7909,
      "päivä": 7910,
      "troops": 7911,
      "##user": 7912,
      "Ende": 7913,
      "städ": 7914,
      "##änsä": 7915,
      "oivat": 7916,
      "##ygg": 7917,
      "separ": 7918,
      "ål": 7919,
      "##atti": 7920,
      "##naden": 7921,
      "remain": 7922,
      "parce": 7923,
      "Alfr": 7924,
      "cpt": 7925,
      "sålunda": 7926,
      "##iert": 7927,
      "chose": 7928,
      "hennes": 7929,
      "##ärmed": 7930,
      "##nach": 7931,
      "##very": 7932,
      "##farty": 7933,
      "##okr": 7934,
      "lle": 7935,
      "dut": 7936,
      "##mid": 7937,
      "177": 7938,
      "##lieder": 7939,
      "start": 7940,
      "rande": 7941,
      "##onsa": 7942,
      "##läd": 7943,
      "täyd": 7944,
      "Tie": 7945,
      "Frankreich": 7946,
      "1864": 7947,
      "Ll": 7948,
      "##näs": 7949,
      "helt": 7950,
      "##хъ": 7951,
      "säg": 7952,
      "eight": 7953,
      "##CES": 7954,
      "##gramm": 7955,
      "löyt": 7956,
      "densamma": 7957,
      "##ättig": 7958,
      "Arch": 7959,
      "Karj": 7960,
      "##iil": 7961,
      "rör": 7962,
      "mère": 7963,
      "##eland": 7964,
      "angående": 7965,
      "##rika": 7966,
      "system": 7967,
      "damit": 7968,
      "##osa": 7969,
      "##fvet": 7970,
      "##ufen": 7971,
      "##öörin": 7972,
      "HIST": 7973,
      "mäk": 7974,
      "bästa": 7975,
      "expos": 7976,
      "Bort": 7977,
      "affaire": 7978,
      "dav": 7979,
      "täm": 7980,
      "##unal": 7981,
      "##zü": 7982,
      "##path": 7983,
      "##ktr": 7984,
      "medlemmar": 7985,
      "##otz": 7986,
      "##itik": 7987,
      "Kesk": 7988,
      "luona": 7989,
      "gamla": 7990,
      "##aro": 7991,
      "Avh": 7992,
      "##kset": 7993,
      "##enta": 7994,
      "utf": 7995,
      "champ": 7996,
      "Lov": 7997,
      "##ligare": 7998,
      "##äder": 7999,
      "##cture": 8000,
      "##èle": 8001,
      "##iben": 8002,
      "important": 8003,
      "Espl": 8004,
      "##keiten": 8005,
      "Ist": 8006,
      "taga": 8007,
      "ske": 8008,
      "siten": 8009,
      "##vas": 8010,
      "##VU": 8011,
      "##33": 8012,
      "hyra": 8013,
      "Bürger": 8014,
      "##ет": 8015,
      "Parisien": 8016,
      "Pari": 8017,
      "minutes": 8018,
      "französ": 8019,
      "##kat": 8020,
      "Gustaf": 8021,
      "finnes": 8022,
      "fört": 8023,
      "##ettama": 8024,
      "Svenska": 8025,
      "päimänä": 8026,
      "Nachmit": 8027,
      "Uuden": 8028,
      "stäm": 8029,
      "veck": 8030,
      "##äter": 8031,
      "##nis": 8032,
      "##car": 8033,
      "##bé": 8034,
      "##ishop": 8035,
      "niistä": 8036,
      "Egy": 8037,
      "##pected": 8038,
      "aim": 8039,
      "Theater": 8040,
      "Journal": 8041,
      "extre": 8042,
      "##riage": 8043,
      "château": 8044,
      "såg": 8045,
      "##ppen": 8046,
      "Termin": 8047,
      "##gle": 8048,
      "ganze": 8049,
      "Allemagne": 8050,
      "##erer": 8051,
      "##ppi": 8052,
      "become": 8053,
      "##ail": 8054,
      "svensk": 8055,
      "Oe": 8056,
      "##liament": 8057,
      "instr": 8058,
      "mah": 8059,
      "VV": 8060,
      "mahdoll": 8061,
      "whether": 8062,
      "destin": 8063,
      "##lit": 8064,
      "laug": 8065,
      "office": 8066,
      "##ienen": 8067,
      "Pop": 8068,
      "Woh": 8069,
      "##itsem": 8070,
      "hint": 8071,
      "namn": 8072,
      "play": 8073,
      "cost": 8074,
      "##läub": 8075,
      "##DET": 8076,
      "##ticle": 8077,
      "abord": 8078,
      "##ppä": 8079,
      "need": 8080,
      "woll": 8081,
      "argent": 8082,
      "compar": 8083,
      "##onut": 8084,
      "vik": 8085,
      "Arth": 8086,
      "inner": 8087,
      "Rud": 8088,
      "vuos": 8089,
      "114": 8090,
      "muist": 8091,
      "avez": 8092,
      "ningen": 8093,
      "schwer": 8094,
      "##ellinen": 8095,
      "wait": 8096,
      "##chn": 8097,
      "directeur": 8098,
      "järn": 8099,
      "Aleks": 8100,
      "##okrat": 8101,
      "Söder": 8102,
      "PRO": 8103,
      "surr": 8104,
      "Sat": 8105,
      "Captain": 8106,
      "ende": 8107,
      "tään": 8108,
      "huru": 8109,
      "complet": 8110,
      "Yes": 8111,
      "sonst": 8112,
      "##üsse": 8113,
      "hamn": 8114,
      "Pau": 8115,
      "personnes": 8116,
      "##cont": 8117,
      "lok": 8118,
      "##igent": 8119,
      "##pped": 8120,
      "Fil": 8121,
      "##ores": 8122,
      "##iselle": 8123,
      "bestäm": 8124,
      "##onte": 8125,
      "chr": 8126,
      "further": 8127,
      "lördag": 8128,
      "fabrik": 8129,
      "mää": 8130,
      "##alik": 8131,
      "militaire": 8132,
      "avenue": 8133,
      "##gre": 8134,
      "##alaisia": 8135,
      "talk": 8136,
      "roi": 8137,
      "kaikk": 8138,
      "affaires": 8139,
      "##oster": 8140,
      "lehd": 8141,
      "##fern": 8142,
      "self": 8143,
      "Rück": 8144,
      "Där": 8145,
      "Verein": 8146,
      "längre": 8147,
      "una": 8148,
      "109": 8149,
      "écl": 8150,
      "iron": 8151,
      "nm": 8152,
      "##bergs": 8153,
      "anländ": 8154,
      "show": 8155,
      "vig": 8156,
      "по": 8157,
      "lettre": 8158,
      "Hor": 8159,
      "gär": 8160,
      "Tav": 8161,
      "purpose": 8162,
      "myönt": 8163,
      "Stud": 8164,
      "##omob": 8165,
      "##kauft": 8166,
      "Hoch": 8167,
      "placed": 8168,
      "œuvre": 8169,
      "Wen": 8170,
      "ajat": 8171,
      "##iton": 8172,
      "afdel": 8173,
      "konnte": 8174,
      "Leopold": 8175,
      "hyl": 8176,
      "öl": 8177,
      "##aiseksi": 8178,
      "ober": 8179,
      "##ieben": 8180,
      "##14": 8181,
      "transport": 8182,
      "Dick": 8183,
      "##ède": 8184,
      "laut": 8185,
      "paix": 8186,
      "beaut": 8187,
      "eleg": 8188,
      "##hoit": 8189,
      "fal": 8190,
      "träff": 8191,
      "1870": 8192,
      "##tii": 8193,
      "puo": 8194,
      "##annte": 8195,
      "afterwards": 8196,
      "enfant": 8197,
      "Ernst": 8198,
      "##ielle": 8199,
      "leb": 8200,
      "Fri": 8201,
      "##handel": 8202,
      "luonn": 8203,
      "vall": 8204,
      "équ": 8205,
      "Arme": 8206,
      "##itaan": 8207,
      "Anders": 8208,
      "Oulun": 8209,
      "Preise": 8210,
      "##nden": 8211,
      "##viä": 8212,
      "##tout": 8213,
      "spécial": 8214,
      "evening": 8215,
      "##enp": 8216,
      "temper": 8217,
      "arv": 8218,
      "refer": 8219,
      "vn": 8220,
      "##vänä": 8221,
      "Mikaels": 8222,
      "HOTEL": 8223,
      "##lm": 8224,
      "hwil": 8225,
      "spirit": 8226,
      "##22": 8227,
      "##hall": 8228,
      "verd": 8229,
      "##eur": 8230,
      "sorg": 8231,
      "pyr": 8232,
      "underst": 8233,
      "##itäten": 8234,
      "##itaine": 8235,
      "dor": 8236,
      "Gem": 8237,
      "##dy": 8238,
      "Ville": 8239,
      "##nnä": 8240,
      "meas": 8241,
      "##istaa": 8242,
      "##bord": 8243,
      "##ifi": 8244,
      "millions": 8245,
      "##ault": 8246,
      "nouvelles": 8247,
      "Januar": 8248,
      "CO": 8249,
      "nin": 8250,
      "##eldet": 8251,
      "##arie": 8252,
      "Pan": 8253,
      "##kap": 8254,
      "##jenigen": 8255,
      "resp": 8256,
      "##hallit": 8257,
      "##iviikkona": 8258,
      "peine": 8259,
      "##rach": 8260,
      "##tabl": 8261,
      "master": 8262,
      "obten": 8263,
      "häst": 8264,
      "rac": 8265,
      "ensuite": 8266,
      "##stens": 8267,
      "erhåller": 8268,
      "Cur": 8269,
      "appoint": 8270,
      "Häl": 8271,
      "prov": 8272,
      "various": 8273,
      "nuoris": 8274,
      "##igte": 8275,
      "resta": 8276,
      "iss": 8277,
      "hô": 8278,
      "##kaita": 8279,
      "Deuts": 8280,
      "reich": 8281,
      "befind": 8282,
      "Vom": 8283,
      "publi": 8284,
      "villa": 8285,
      "##olk": 8286,
      "kel": 8287,
      "##nande": 8288,
      "spl": 8289,
      "grands": 8290,
      "##oen": 8291,
      "seuran": 8292,
      "Zust": 8293,
      "##sf": 8294,
      "##auh": 8295,
      "##aude": 8296,
      "Hart": 8297,
      "##ungin": 8298,
      "utgif": 8299,
      "agr": 8300,
      "##PP": 8301,
      "generally": 8302,
      "svår": 8303,
      "ov": 8304,
      "##piel": 8305,
      "##ein": 8306,
      "##uve": 8307,
      "##ksl": 8308,
      "rapport": 8309,
      "replied": 8310,
      "##edom": 8311,
      "största": 8312,
      "Prince": 8313,
      "Als": 8314,
      "etwas": 8315,
      "##éch": 8316,
      "8vo": 8317,
      "##istus": 8318,
      "Abends": 8319,
      "tall": 8320,
      "byrå": 8321,
      "##olt": 8322,
      "tj": 8323,
      "incre": 8324,
      "##ansson": 8325,
      "##érence": 8326,
      "Enligt": 8327,
      "franco": 8328,
      "Matti": 8329,
      "lap": 8330,
      "##äi": 8331,
      "piti": 8332,
      "appr": 8333,
      "Wr": 8334,
      "##eningens": 8335,
      "Alexander": 8336,
      "lätt": 8337,
      "##lois": 8338,
      "##ouss": 8339,
      "##cour": 8340,
      "##öre": 8341,
      "eräs": 8342,
      "Somm": 8343,
      "##IA": 8344,
      "##erg": 8345,
      "necessary": 8346,
      "##glise": 8347,
      "pohj": 8348,
      "##onds": 8349,
      "##uire": 8350,
      "nämnda": 8351,
      "bald": 8352,
      "Zeitung": 8353,
      "Volks": 8354,
      "gjort": 8355,
      "##anche": 8356,
      "##fören": 8357,
      "sanoi": 8358,
      "docteur": 8359,
      "##kiä": 8360,
      "wonder": 8361,
      "##igheter": 8362,
      "hot": 8363,
      "##quence": 8364,
      "##plats": 8365,
      "battle": 8366,
      "para": 8367,
      "Rad": 8368,
      "lyck": 8369,
      "erh": 8370,
      "joukko": 8371,
      "Span": 8372,
      "lai": 8373,
      "organis": 8374,
      "##Ss": 8375,
      "##wing": 8376,
      "##zlich": 8377,
      "Kauf": 8378,
      "##puol": 8379,
      "erin": 8380,
      "september": 8381,
      "edusta": 8382,
      "séance": 8383,
      "kirja": 8384,
      "##arp": 8385,
      "##uksista": 8386,
      "##otti": 8387,
      "Famil": 8388,
      "Earl": 8389,
      "rose": 8390,
      "nommé": 8391,
      "Schiff": 8392,
      "thee": 8393,
      "sho": 8394,
      "Hos": 8395,
      "Ins": 8396,
      "##abor": 8397,
      "Adr": 8398,
      "Detta": 8399,
      "Aktiebolaget": 8400,
      "##furt": 8401,
      "liter": 8402,
      "##tret": 8403,
      "Emp": 8404,
      "##prit": 8405,
      "saken": 8406,
      "##agner": 8407,
      "Ky": 8408,
      "##graph": 8409,
      "eye": 8410,
      "##heen": 8411,
      "##88": 8412,
      "seven": 8413,
      "rie": 8414,
      "trade": 8415,
      "gold": 8416,
      "Bud": 8417,
      "saad": 8418,
      "##pedition": 8419,
      "Deux": 8420,
      "oa": 8421,
      "massa": 8422,
      "##15": 8423,
      "##isy": 8424,
      "##klag": 8425,
      "zusammen": 8426,
      "prepar": 8427,
      "##osti": 8428,
      "Lor": 8429,
      "signal": 8430,
      "Barn": 8431,
      "##ingu": 8432,
      "yhtä": 8433,
      "##iments": 8434,
      "cut": 8435,
      "Bild": 8436,
      "##ulen": 8437,
      "conditions": 8438,
      "##Sr": 8439,
      "région": 8440,
      "Finanz": 8441,
      "tulisi": 8442,
      "##tigung": 8443,
      "officers": 8444,
      "Mun": 8445,
      "Fahr": 8446,
      "##erthe": 8447,
      "##uussa": 8448,
      "språ": 8449,
      "##aria": 8450,
      "Math": 8451,
      "ensk": 8452,
      "Mé": 8453,
      "puoli": 8454,
      "Tuk": 8455,
      "##irn": 8456,
      "##asl": 8457,
      "welchem": 8458,
      "##ately": 8459,
      "Ori": 8460,
      "Musik": 8461,
      "suhte": 8462,
      "##fia": 8463,
      "Rechts": 8464,
      "Dez": 8465,
      "##hard": 8466,
      "kone": 8467,
      "okt": 8468,
      "##stre": 8469,
      "history": 8470,
      "Tem": 8471,
      "Rah": 8472,
      "##anto": 8473,
      "aucune": 8474,
      "##iction": 8475,
      "Tam": 8476,
      "sång": 8477,
      "otetaan": 8478,
      "##olo": 8479,
      "sembl": 8480,
      "Aur": 8481,
      "truth": 8482,
      "probably": 8483,
      "nå": 8484,
      "rendre": 8485,
      "Banque": 8486,
      "fordr": 8487,
      "vere": 8488,
      "luo": 8489,
      "agric": 8490,
      "Frl": 8491,
      "##roos": 8492,
      "##lade": 8493,
      "vah": 8494,
      "päätettiin": 8495,
      "vict": 8496,
      "bound": 8497,
      "Mak": 8498,
      "Lyon": 8499,
      "##gående": 8500,
      "##ules": 8501,
      "Pel": 8502,
      "##ны": 8503,
      "dels": 8504,
      "délég": 8505,
      "Zeu": 8506,
      "Priv": 8507,
      "Dou": 8508,
      "population": 8509,
      "##mor": 8510,
      "##äneet": 8511,
      "gården": 8512,
      "##istra": 8513,
      "Mah": 8514,
      "Joensuu": 8515,
      "sollte": 8516,
      "OBS": 8517,
      "Id": 8518,
      "117": 8519,
      "rii": 8520,
      "##URE": 8521,
      "gewesen": 8522,
      "##reten": 8523,
      "##lc": 8524,
      "bestimm": 8525,
      "break": 8526,
      "demi": 8527,
      "nehmen": 8528,
      "vuod": 8529,
      "osuus": 8530,
      "CHAPTER": 8531,
      "rå": 8532,
      "##väg": 8533,
      "Conseil": 8534,
      "##quently": 8535,
      "Gast": 8536,
      "origin": 8537,
      "osoit": 8538,
      "##ted": 8539,
      "##endra": 8540,
      "Rel": 8541,
      "##heiten": 8542,
      "kuinka": 8543,
      "osan": 8544,
      "##oimik": 8545,
      "Tuom": 8546,
      "enqu": 8547,
      "##elee": 8548,
      "##richten": 8549,
      "##ära": 8550,
      "cm": 8551,
      "##uari": 8552,
      "PRI": 8553,
      "##ousse": 8554,
      "##vient": 8555,
      "##öbl": 8556,
      "ihrem": 8557,
      "darauf": 8558,
      "indi": 8559,
      "##ändt": 8560,
      "Stelle": 8561,
      "##rings": 8562,
      "gegeben": 8563,
      "##aff": 8564,
      "Ball": 8565,
      "##agt": 8566,
      "vos": 8567,
      "##iez": 8568,
      "learn": 8569,
      "##uted": 8570,
      "##ätter": 8571,
      "##onto": 8572,
      "Mün": 8573,
      "avoinna": 8574,
      "appeared": 8575,
      "sij": 8576,
      "seu": 8577,
      "Great": 8578,
      "##scht": 8579,
      "##ufs": 8580,
      "särskilda": 8581,
      "Lose": 8582,
      "bär": 8583,
      "sille": 8584,
      "##andes": 8585,
      "étant": 8586,
      "##issements": 8587,
      "##üch": 8588,
      "männ": 8589,
      "##lly": 8590,
      "ström": 8591,
      "##ror": 8592,
      "##veck": 8593,
      "cad": 8594,
      "##AD": 8595,
      "##ativ": 8596,
      "##gesetz": 8597,
      "##lace": 8598,
      "##ammaren": 8599,
      "finden": 8600,
      "##ödra": 8601,
      "accom": 8602,
      "seka": 8603,
      "möglich": 8604,
      "##satz": 8605,
      "närmare": 8606,
      "##ständig": 8607,
      "deter": 8608,
      "tästä": 8609,
      "hätte": 8610,
      "auS": 8611,
      "##vää": 8612,
      "Provin": 8613,
      "##аго": 8614,
      "##chant": 8615,
      "##ae": 8616,
      "fot": 8617,
      "ehkä": 8618,
      "##cb": 8619,
      "poste": 8620,
      "dépar": 8621,
      "hyvin": 8622,
      "Viipurin": 8623,
      "Mess": 8624,
      "Miipur": 8625,
      "sight": 8626,
      "lask": 8627,
      "Leben": 8628,
      "##anterie": 8629,
      "Kuopio": 8630,
      "Adv": 8631,
      "öfriga": 8632,
      "##haupt": 8633,
      "Wasser": 8634,
      "omkring": 8635,
      "##lii": 8636,
      "entered": 8637,
      "Fredriks": 8638,
      "##olar": 8639,
      "Upp": 8640,
      "sosial": 8641,
      "##rew": 8642,
      "allmänna": 8643,
      "aband": 8644,
      "Gren": 8645,
      "##fficient": 8646,
      "heinäk": 8647,
      "Schätz": 8648,
      "##35": 8649,
      "Kinder": 8650,
      "##elben": 8651,
      "enää": 8652,
      "##paa": 8653,
      "States": 8654,
      "##win": 8655,
      "anz": 8656,
      "donne": 8657,
      "##elier": 8658,
      "##aisiin": 8659,
      "##essions": 8660,
      "##Ul": 8661,
      "135": 8662,
      "##arens": 8663,
      "ynnä": 8664,
      "mettre": 8665,
      "Ep": 8666,
      "edes": 8667,
      "Oblig": 8668,
      "XV": 8669,
      "##rast": 8670,
      "Schr": 8671,
      "däri": 8672,
      "##voc": 8673,
      "##olden": 8674,
      "##ustaa": 8675,
      "##iemi": 8676,
      "manifest": 8677,
      "sidan": 8678,
      "##alia": 8679,
      "married": 8680,
      "obs": 8681,
      "ib": 8682,
      "##BLA": 8683,
      "enten": 8684,
      "Haf": 8685,
      "correspond": 8686,
      "näin": 8687,
      "rän": 8688,
      "article": 8689,
      "milj": 8690,
      "steht": 8691,
      "häll": 8692,
      "tunt": 8693,
      "käsit": 8694,
      "trees": 8695,
      "poliis": 8696,
      "Köpenh": 8697,
      "synner": 8698,
      "Gerichts": 8699,
      "##12": 8700,
      "##tta": 8701,
      "considerable": 8702,
      "137": 8703,
      "##päivinä": 8704,
      "##johtaja": 8705,
      "##usa": 8706,
      "curi": 8707,
      "Welt": 8708,
      "##jälp": 8709,
      "fai": 8710,
      "exéc": 8711,
      "maikka": 8712,
      "mach": 8713,
      "##mehr": 8714,
      "Geschäf": 8715,
      "Friedrich": 8716,
      "##ultur": 8717,
      "Besch": 8718,
      "rub": 8719,
      "kertaa": 8720,
      "##elli": 8721,
      "rs": 8722,
      "##ynä": 8723,
      "Rosen": 8724,
      "##ksia": 8725,
      "women": 8726,
      "lll": 8727,
      "##rible": 8728,
      "##itement": 8729,
      "oktober": 8730,
      "possession": 8731,
      "somme": 8732,
      "gend": 8733,
      "russ": 8734,
      "900": 8735,
      "##kän": 8736,
      "##eti": 8737,
      "support": 8738,
      "Aussch": 8739,
      "##stände": 8740,
      "Wall": 8741,
      "adj": 8742,
      "sed": 8743,
      "##ckn": 8744,
      "##innes": 8745,
      "Arbeit": 8746,
      "##ulture": 8747,
      "départ": 8748,
      "mål": 8749,
      "kerran": 8750,
      "##into": 8751,
      "vl": 8752,
      "ON": 8753,
      "##zig": 8754,
      "##finit": 8755,
      "Salon": 8756,
      "synd": 8757,
      "seule": 8758,
      "State": 8759,
      "sujet": 8760,
      "##konom": 8761,
      "Raut": 8762,
      "verst": 8763,
      "##aught": 8764,
      "##itté": 8765,
      "Mars": 8766,
      "##isted": 8767,
      "##CT": 8768,
      "##oktor": 8769,
      "##ältä": 8770,
      "Josef": 8771,
      "olen": 8772,
      "eld": 8773,
      "##times": 8774,
      "##fullt": 8775,
      "grant": 8776,
      "##cé": 8777,
      "lé": 8778,
      "##jd": 8779,
      "##atze": 8780,
      "116": 8781,
      "Imat": 8782,
      "Credit": 8783,
      "Ahl": 8784,
      "##pail": 8785,
      "##bung": 8786,
      "##ense": 8787,
      "kuuluu": 8788,
      "Opéra": 8789,
      "Pfer": 8790,
      "ami": 8791,
      "HISTORY": 8792,
      "erl": 8793,
      "trouve": 8794,
      "boy": 8795,
      "tac": 8796,
      "tax": 8797,
      "sister": 8798,
      "Alfred": 8799,
      "hymäks": 8800,
      "neiti": 8801,
      "Sept": 8802,
      "haft": 8803,
      "sena": 8804,
      "##UB": 8805,
      "##éric": 8806,
      "Köpenhamn": 8807,
      "##aven": 8808,
      "##laim": 8809,
      "street": 8810,
      "trouver": 8811,
      "##idon": 8812,
      "##irung": 8813,
      "##apain": 8814,
      "hl": 8815,
      "einmal": 8816,
      "##ollinen": 8817,
      "litet": 8818,
      "loss": 8819,
      "##uy": 8820,
      "total": 8821,
      "kna": 8822,
      "kk": 8823,
      "##emment": 8824,
      "school": 8825,
      "hôtel": 8826,
      "##inki": 8827,
      "##ård": 8828,
      "Jakob": 8829,
      "##aisi": 8830,
      "##ught": 8831,
      "din": 8832,
      "June": 8833,
      "##mond": 8834,
      "##ysym": 8835,
      "dipl": 8836,
      "Bas": 8837,
      "glo": 8838,
      "dry": 8839,
      "nähden": 8840,
      "##érieure": 8841,
      "Lar": 8842,
      "sometimes": 8843,
      "skick": 8844,
      "Professor": 8845,
      "##emmes": 8846,
      "coming": 8847,
      "vån": 8848,
      "Ungarn": 8849,
      "128": 8850,
      "##AY": 8851,
      "sjö": 8852,
      "Eins": 8853,
      "##42": 8854,
      "nombreux": 8855,
      "nas": 8856,
      "toisen": 8857,
      "##irr": 8858,
      "tällä": 8859,
      "sota": 8860,
      "attempt": 8861,
      "##oille": 8862,
      "kolme": 8863,
      "1860": 8864,
      "auktion": 8865,
      "huhti": 8866,
      "176": 8867,
      "##komma": 8868,
      "fick": 8869,
      "##jects": 8870,
      "##ppel": 8871,
      "Inn": 8872,
      "maase": 8873,
      "behind": 8874,
      "conne": 8875,
      "##illis": 8876,
      "Ange": 8877,
      "bekväm": 8878,
      "Dienst": 8879,
      "olleet": 8880,
      "Sver": 8881,
      "Handel": 8882,
      "##ysi": 8883,
      "agit": 8884,
      "##ORT": 8885,
      "##aries": 8886,
      "##tagande": 8887,
      "Let": 8888,
      "Arthur": 8889,
      "##cteurs": 8890,
      "exemp": 8891,
      "uusi": 8892,
      "##valla": 8893,
      "##spr": 8894,
      "fein": 8895,
      "hours": 8896,
      "ort": 8897,
      "hatten": 8898,
      "nära": 8899,
      "unserer": 8900,
      "Tom": 8901,
      "##ID": 8902,
      "réunion": 8903,
      "iin": 8904,
      "##leman": 8905,
      "Commission": 8906,
      "##ality": 8907,
      "##bere": 8908,
      "##zei": 8909,
      "host": 8910,
      "##issent": 8911,
      "jolla": 8912,
      "inhabitants": 8913,
      "circumst": 8914,
      "##ox": 8915,
      "##gård": 8916,
      "##END": 8917,
      "##ized": 8918,
      "gamm": 8919,
      "attack": 8920,
      "samedi": 8921,
      "##essaan": 8922,
      "##erry": 8923,
      "främ": 8924,
      "##ynn": 8925,
      "Boden": 8926,
      "blood": 8927,
      "Morgen": 8928,
      "hoch": 8929,
      "intern": 8930,
      "början": 8931,
      "##wal": 8932,
      "komite": 8933,
      "##iler": 8934,
      "storm": 8935,
      "##ettuja": 8936,
      "ali": 8937,
      "täten": 8938,
      "impro": 8939,
      "##fre": 8940,
      "terme": 8941,
      "fé": 8942,
      "Alb": 8943,
      "cold": 8944,
      "Jum": 8945,
      "furent": 8946,
      "Zt": 8947,
      "##uchen": 8948,
      "faith": 8949,
      "##ielen": 8950,
      "surtout": 8951,
      "pict": 8952,
      "Gou": 8953,
      "unsere": 8954,
      "division": 8955,
      "Kunst": 8956,
      "employ": 8957,
      "yö": 8958,
      "commissa": 8959,
      "puolueen": 8960,
      "##liches": 8961,
      "##eless": 8962,
      "kunnat": 8963,
      "##umes": 8964,
      "German": 8965,
      "##maa": 8966,
      "approach": 8967,
      "Eig": 8968,
      "##taires": 8969,
      "tuh": 8970,
      "souff": 8971,
      "##thyres": 8972,
      "##ityksen": 8973,
      "jouluk": 8974,
      "##cross": 8975,
      "beträ": 8976,
      "föredrag": 8977,
      "##oix": 8978,
      "Gab": 8979,
      "selm": 8980,
      "avis": 8981,
      "seuraam": 8982,
      "##gest": 8983,
      "##blik": 8984,
      "betreff": 8985,
      "beyond": 8986,
      "Feilbiet": 8987,
      "##arinna": 8988,
      "Jacob": 8989,
      "influence": 8990,
      "4S": 8991,
      "ress": 8992,
      "##ittäm": 8993,
      "Part": 8994,
      "##blatt": 8995,
      "anything": 8996,
      "bedeut": 8997,
      "Sitzung": 8998,
      "##13": 8999,
      "augusti": 9000,
      "Rh": 9001,
      "Act": 9002,
      "travers": 9003,
      "##punkt": 9004,
      "klar": 9005,
      "suh": 9006,
      "condition": 9007,
      "distin": 9008,
      "Hôtel": 9009,
      "joiden": 9010,
      "##nk": 9011,
      "farm": 9012,
      "##tiä": 9013,
      "Lan": 9014,
      "PR": 9015,
      "Spr": 9016,
      "1866": 9017,
      "hvars": 9018,
      "presque": 9019,
      "garde": 9020,
      "Fabians": 9021,
      "föl": 9022,
      "vente": 9023,
      "Hamburger": 9024,
      "Hed": 9025,
      "##ograf": 9026,
      "##ering": 9027,
      "raken": 9028,
      "##itty": 9029,
      "##allinen": 9030,
      "FR": 9031,
      "1871": 9032,
      "##jord": 9033,
      "erää": 9034,
      "gri": 9035,
      "suos": 9036,
      "Mt": 9037,
      "Long": 9038,
      "##enk": 9039,
      "##gang": 9040,
      "##elled": 9041,
      "Gott": 9042,
      "##INS": 9043,
      "CM": 9044,
      "perfect": 9045,
      "##ouve": 9046,
      "350": 9047,
      "förv": 9048,
      "död": 9049,
      "fran": 9050,
      "##iately": 9051,
      "##häng": 9052,
      "Turussa": 9053,
      "##rella": 9054,
      "##emble": 9055,
      "nings": 9056,
      "aine": 9057,
      "inläm": 9058,
      "Tis": 9059,
      "##öhn": 9060,
      "Namen": 9061,
      "##ollisen": 9062,
      "taking": 9063,
      "anx": 9064,
      "oikeus": 9065,
      "##gift": 9066,
      "gebracht": 9067,
      "##iling": 9068,
      "##ikään": 9069,
      "Eisenbahn": 9070,
      "Huom": 9071,
      "##ray": 9072,
      "##TADS": 9073,
      "##ymä": 9074,
      "erään": 9075,
      "proper": 9076,
      "##reichen": 9077,
      "underr": 9078,
      "ajou": 9079,
      "ollen": 9080,
      "##zel": 9081,
      "greater": 9082,
      "januari": 9083,
      "Inf": 9084,
      "kih": 9085,
      "##iehung": 9086,
      "##lut": 9087,
      "Royal": 9088,
      "environ": 9089,
      "vaat": 9090,
      "MO": 9091,
      "vern": 9092,
      "Dun": 9093,
      "regr": 9094,
      "##ouvent": 9095,
      "carry": 9096,
      "Ih": 9097,
      "näytt": 9098,
      "Hin": 9099,
      "##aving": 9100,
      "Pris": 9101,
      "jeunes": 9102,
      "jeden": 9103,
      "##tended": 9104,
      "Anst": 9105,
      "demselben": 9106,
      "lange": 9107,
      "seurak": 9108,
      "210": 9109,
      "although": 9110,
      "territ": 9111,
      "##44": 9112,
      "dispar": 9113,
      "Borde": 9114,
      "Abge": 9115,
      "book": 9116,
      "Lap": 9117,
      "##erty": 9118,
      "##märk": 9119,
      "Sä": 9120,
      "ready": 9121,
      "##cte": 9122,
      "##följ": 9123,
      "Best": 9124,
      "mant": 9125,
      "gall": 9126,
      "##ods": 9127,
      "Hill": 9128,
      "##amo": 9129,
      "##irie": 9130,
      "oft": 9131,
      "##graf": 9132,
      "parish": 9133,
      "edelleen": 9134,
      "##clam": 9135,
      "maail": 9136,
      "Mauri": 9137,
      "##ettua": 9138,
      "welchen": 9139,
      "kolm": 9140,
      "ruh": 9141,
      "Ai": 9142,
      "##LAND": 9143,
      "##rache": 9144,
      "numera": 9145,
      "##fch": 9146,
      "reached": 9147,
      "Actien": 9148,
      "senaatti": 9149,
      "##herr": 9150,
      "##isième": 9151,
      "##eni": 9152,
      "priser": 9153,
      "tred": 9154,
      "##ttori": 9155,
      "härmed": 9156,
      "norm": 9157,
      "conce": 9158,
      "Ret": 9159,
      "##teil": 9160,
      "Kfm": 9161,
      "##ukk": 9162,
      "followed": 9163,
      "lid": 9164,
      "maanantaina": 9165,
      "##imaan": 9166,
      "République": 9167,
      "##uista": 9168,
      "sound": 9169,
      "Ara": 9170,
      "##bruks": 9171,
      "mess": 9172,
      "Tap": 9173,
      "really": 9174,
      "133": 9175,
      "macht": 9176,
      "förr": 9177,
      "ns": 9178,
      "OR": 9179,
      "finsk": 9180,
      "neuf": 9181,
      "##ahan": 9182,
      "##nel": 9183,
      "##ooni": 9184,
      "spring": 9185,
      "affär": 9186,
      "July": 9187,
      "accep": 9188,
      "patri": 9189,
      "täytyy": 9190,
      "glad": 9191,
      "##hed": 9192,
      "lies": 9193,
      "##idaan": 9194,
      "sida": 9195,
      "intéress": 9196,
      "ouvriers": 9197,
      "##vos": 9198,
      "Dame": 9199,
      "veu": 9200,
      "##pend": 9201,
      "##uoks": 9202,
      "äfvensom": 9203,
      "royal": 9204,
      "uuden": 9205,
      "##imal": 9206,
      "obe": 9207,
      "depart": 9208,
      "façon": 9209,
      "##UU": 9210,
      "##ummer": 9211,
      "1872": 9212,
      "Gö": 9213,
      "Brü": 9214,
      "Us": 9215,
      "verw": 9216,
      "forces": 9217,
      "Pen": 9218,
      "##29": 9219,
      "handels": 9220,
      "Kons": 9221,
      "mains": 9222,
      "##aika": 9223,
      "kaa": 9224,
      "##elegenheit": 9225,
      "Amerika": 9226,
      "##imir": 9227,
      "covered": 9228,
      "dent": 9229,
      "##mu": 9230,
      "verkauf": 9231,
      "##iiu": 9232,
      "lett": 9233,
      "Wechsel": 9234,
      "Gel": 9235,
      "convers": 9236,
      "##érer": 9237,
      "kommit": 9238,
      "##bot": 9239,
      "113": 9240,
      "står": 9241,
      "passer": 9242,
      "##fic": 9243,
      "##ynd": 9244,
      "Léon": 9245,
      "##alon": 9246,
      "toimin": 9247,
      "rar": 9248,
      "öppet": 9249,
      "gele": 9250,
      "habit": 9251,
      "Laur": 9252,
      "Militär": 9253,
      "blads": 9254,
      "##quoi": 9255,
      "##itr": 9256,
      "##fvande": 9257,
      "##üng": 9258,
      "yng": 9259,
      "koet": 9260,
      "cœur": 9261,
      "impossible": 9262,
      "top": 9263,
      "Ken": 9264,
      "sufficient": 9265,
      "agent": 9266,
      "Sak": 9267,
      "années": 9268,
      "nost": 9269,
      "##ав": 9270,
      "tänään": 9271,
      "Hir": 9272,
      "##uments": 9273,
      "thro": 9274,
      "■■": 9275,
      "Montag": 9276,
      "einzel": 9277,
      "##umen": 9278,
      "Verhält": 9279,
      "assembl": 9280,
      "##cious": 9281,
      "quiet": 9282,
      "##bu": 9283,
      "gick": 9284,
      "##VUDS": 9285,
      "natural": 9286,
      "##identen": 9287,
      "Blom": 9288,
      "difficul": 9289,
      "besonders": 9290,
      "purs": 9291,
      "##16": 9292,
      "##fabrik": 9293,
      "sådana": 9294,
      "##fehl": 9295,
      "husband": 9296,
      "introdu": 9297,
      "##ibli": 9298,
      "##zi": 9299,
      "herra": 9300,
      "##kis": 9301,
      "polis": 9302,
      "haut": 9303,
      "##ami": 9304,
      "##aks": 9305,
      "##inm": 9306,
      "manuf": 9307,
      "Wochen": 9308,
      "##bury": 9309,
      "tärke": 9310,
      "Feld": 9311,
      "siel": 9312,
      "##dien": 9313,
      "##ählt": 9314,
      "travaux": 9315,
      "doll": 9316,
      "##tere": 9317,
      "méde": 9318,
      "##kauppa": 9319,
      "send": 9320,
      "##PH": 9321,
      "##igr": 9322,
      "##alm": 9323,
      "##alley": 9324,
      "Sain": 9325,
      "Mex": 9326,
      "##OUS": 9327,
      "mouth": 9328,
      "retr": 9329,
      "##ottu": 9330,
      "##utation": 9331,
      "roll": 9332,
      "##ttu": 9333,
      "##rick": 9334,
      "Kind": 9335,
      "värl": 9336,
      "Kunn": 9337,
      "kapten": 9338,
      "Why": 9339,
      "##iri": 9340,
      "Some": 9341,
      "cried": 9342,
      "skog": 9343,
      "Natur": 9344,
      "services": 9345,
      "würden": 9346,
      "markan": 9347,
      "suu": 9348,
      "##oncé": 9349,
      "ganzen": 9350,
      "Oper": 9351,
      "pari": 9352,
      "ulos": 9353,
      "##étés": 9354,
      "Oskar": 9355,
      "charm": 9356,
      "##stantin": 9357,
      "tänä": 9358,
      "strength": 9359,
      "Cer": 9360,
      "##feld": 9361,
      "EX": 9362,
      "accus": 9363,
      "166": 9364,
      "cep": 9365,
      "##juk": 9366,
      "ilt": 9367,
      "##führung": 9368,
      "lön": 9369,
      "mn": 9370,
      "Zw": 9371,
      "shore": 9372,
      "måndag": 9373,
      "courant": 9374,
      "pot": 9375,
      "##iör": 9376,
      "findet": 9377,
      "paikall": 9378,
      "##êts": 9379,
      "Mädchen": 9380,
      "End": 9381,
      "##mittel": 9382,
      "##lor": 9383,
      "penni": 9384,
      "gas": 9385,
      "lasten": 9386,
      "##iro": 9387,
      "##byggnad": 9388,
      "##drig": 9389,
      "Rem": 9390,
      "tapauks": 9391,
      "на": 9392,
      "1875": 9393,
      "forth": 9394,
      "verschied": 9395,
      "##aded": 9396,
      "iä": 9397,
      "Kaup": 9398,
      "Eken": 9399,
      "Tid": 9400,
      "else": 9401,
      "kast": 9402,
      "använd": 9403,
      "##järvi": 9404,
      "around": 9405,
      "##ttt": 9406,
      "##hood": 9407,
      "##ssch": 9408,
      "Gläub": 9409,
      "##edd": 9410,
      "sweet": 9411,
      "##uttua": 9412,
      "officer": 9413,
      "fun": 9414,
      "begin": 9415,
      "synty": 9416,
      "1873": 9417,
      "##äni": 9418,
      "##nten": 9419,
      "maintenant": 9420,
      "Belg": 9421,
      "lust": 9422,
      "##yö": 9423,
      "##ske": 9424,
      "GRAND": 9425,
      "unver": 9426,
      "kokoont": 9427,
      "##êche": 9428,
      "lös": 9429,
      "##bör": 9430,
      "journée": 9431,
      "##45": 9432,
      "halt": 9433,
      "portion": 9434,
      "##ching": 9435,
      "noble": 9436,
      "alkaa": 9437,
      "##hålla": 9438,
      "tähden": 9439,
      "allekir": 9440,
      "Indian": 9441,
      "##sicht": 9442,
      "145": 9443,
      "##ellisesti": 9444,
      "kass": 9445,
      "ling": 9446,
      "afgår": 9447,
      "##26": 9448,
      "tammik": 9449,
      "gegenwär": 9450,
      "##OG": 9451,
      "plu": 9452,
      "secrétaire": 9453,
      "##yty": 9454,
      "Lä": 9455,
      "##deksi": 9456,
      "##nnn": 9457,
      "alltid": 9458,
      "adr": 9459,
      "Ihr": 9460,
      "##landet": 9461,
      "vag": 9462,
      "##âce": 9463,
      "dress": 9464,
      "##kommande": 9465,
      "faite": 9466,
      "nationale": 9467,
      "hopp": 9468,
      "dos": 9469,
      "liga": 9470,
      "Past": 9471,
      "##andena": 9472,
      "enjo": 9473,
      "Hl": 9474,
      "Winter": 9475,
      "Lt": 9476,
      "##von": 9477,
      "province": 9478,
      "##gress": 9479,
      "##üm": 9480,
      "##acy": 9481,
      "koulun": 9482,
      "save": 9483,
      "company": 9484,
      "soirée": 9485,
      "##äsen": 9486,
      "los": 9487,
      "Ruots": 9488,
      "ell": 9489,
      "##TADSBLA": 9490,
      "kant": 9491,
      "högre": 9492,
      "nebst": 9493,
      "quoi": 9494,
      "##anced": 9495,
      "across": 9496,
      "##iesten": 9497,
      "marsin": 9498,
      "##hta": 9499,
      "vii": 9500,
      "##timmer": 9501,
      "##ат": 9502,
      "##MENTS": 9503,
      "lil": 9504,
      "Eu": 9505,
      "stå": 9506,
      "fått": 9507,
      "##isches": 9508,
      "seines": 9509,
      "fäll": 9510,
      "appearance": 9511,
      "##fense": 9512,
      "kem": 9513,
      "enfin": 9514,
      "##lement": 9515,
      "##kol": 9516,
      "##rages": 9517,
      "ammat": 9518,
      "##wür": 9519,
      "aflid": 9520,
      "Schluß": 9521,
      "hänelle": 9522,
      "##ollisuus": 9523,
      "bois": 9524,
      "puhu": 9525,
      "##uff": 9526,
      "##ael": 9527,
      "socken": 9528,
      "##dä": 9529,
      "Jahres": 9530,
      "dû": 9531,
      "##arf": 9532,
      "Sec": 9533,
      "##ivo": 9534,
      "##hil": 9535,
      "##ettämä": 9536,
      "wirk": 9537,
      "fortune": 9538,
      "Gam": 9539,
      "internation": 9540,
      "##day": 9541,
      "##ago": 9542,
      "##cription": 9543,
      "blifva": 9544,
      "dessus": 9545,
      "tillfälle": 9546,
      "sör": 9547,
      "font": 9548,
      "##lande": 9549,
      "David": 9550,
      "arrang": 9551,
      "##sait": 9552,
      "building": 9553,
      "mist": 9554,
      "äld": 9555,
      "indem": 9556,
      "Ferdin": 9557,
      "matinée": 9558,
      "##äts": 9559,
      "parmi": 9560,
      "Gree": 9561,
      "##CHE": 9562,
      "princi": 9563,
      "seuraa": 9564,
      "Kul": 9565,
      "##omo": 9566,
      "reign": 9567,
      "##eté": 9568,
      "126": 9569,
      "##jäm": 9570,
      "##llerie": 9571,
      "##immt": 9572,
      "##bär": 9573,
      "gegenüber": 9574,
      "nytt": 9575,
      "poh": 9576,
      "##ONT": 9577,
      "Lande": 9578,
      "chem": 9579,
      "Dre": 9580,
      "##jalla": 9581,
      "importance": 9582,
      "confi": 9583,
      "Lak": 9584,
      "##iety": 9585,
      "Win": 9586,
      "sehen": 9587,
      "jouk": 9588,
      "johta": 9589,
      "lån": 9590,
      "colonel": 9591,
      "##ême": 9592,
      "Schne": 9593,
      "Prot": 9594,
      "##fäll": 9595,
      "erz": 9596,
      "##inan": 9597,
      "kokouksessa": 9598,
      "answered": 9599,
      "fan": 9600,
      "lehden": 9601,
      "fen": 9602,
      "##sv": 9603,
      "morgon": 9604,
      "1862": 9605,
      "malt": 9606,
      "##stu": 9607,
      "##ijä": 9608,
      "##rådet": 9609,
      "##dan": 9610,
      "ig": 9611,
      "Helsingin": 9612,
      "tehty": 9613,
      "Uleå": 9614,
      "bin": 9615,
      "##oria": 9616,
      "##wur": 9617,
      "##iemen": 9618,
      "##tific": 9619,
      "Queen": 9620,
      "##dire": 9621,
      "engelska": 9622,
      "Amster": 9623,
      "object": 9624,
      "Bordeaux": 9625,
      "Are": 9626,
      "##erson": 9627,
      "Liv": 9628,
      "##édie": 9629,
      "##ilà": 9630,
      "gentleman": 9631,
      "##volution": 9632,
      "##onti": 9633,
      "helmik": 9634,
      "jene": 9635,
      "Champ": 9636,
      "erhålla": 9637,
      "##kunft": 9638,
      "Antti": 9639,
      "sympath": 9640,
      "ark": 9641,
      "renseign": 9642,
      "succeed": 9643,
      "språk": 9644,
      "ambass": 9645,
      "##yksessä": 9646,
      "##vant": 9647,
      "jol": 9648,
      "domic": 9649,
      "##agné": 9650,
      "##ksa": 9651,
      "tain": 9652,
      "lib": 9653,
      "ij": 9654,
      "niinkuin": 9655,
      "öns": 9656,
      "gauche": 9657,
      "Nieder": 9658,
      "japan": 9659,
      "ställning": 9660,
      "##akenn": 9661,
      "##ero": 9662,
      "slags": 9663,
      "lieutenant": 9664,
      "lähtee": 9665,
[...]
