[PAD]
[UNK]
[CLS]
[SEP]
[MASK]
!
"
#
$
%
&
'
(
)
*
+
,
-
.
/
0
1
2
3
4
5
6
7
8
9
:
;
<
=
>
?
@
A
B
C
D
E
F
G
H
I
J
K
L
M
N
O
P
Q
R
S
T
U
V
W
X
Y
Z
[
\
]
^
_
a
b
c
d
e
f
g
h
i
j
k
l
m
n
o
p
q
r
s
t
u
v
w
x
y
z
{
|
}
~
¡
£
¥
§
©
ª
«
¬
®
°
±
´
·
º
»
¼
½
¾
¿
À
Á
Â
Ä
Å
Æ
Ç
È
É
Ê
Ë
Ì
Í
Î
Ï
Ñ
Ò
Ó
Ô
Õ
Ö
Ø
Ù
Ú
Û
Ü
Þ
ß
à
á
â
ä
å
æ
ç
è
é
ê
ë
ì
í
î
ï
ð
ñ
ò
ó
ô
õ
ö
ø
ù
ú
û
ü
ý
þ
ÿ
ă
ė
ĺ
Œ
œ
ś
Š
š
ţ
Ÿ
Ź
Ž
ž
ƒ
ȏ
Ά
Έ
Ή
Ί
Ό
Ύ
Ώ
ΐ
Α
Β
Γ
Δ
Ε
Ζ
Η
Θ
Ι
Κ
Λ
Μ
Ν
Ξ
Ο
Π
Ρ
Σ
Τ
Υ
Φ
Χ
Ψ
Ϊ
ά
έ
ή
ί
ΰ
α
β
γ
δ
ε
ζ
η
θ
ι
κ
λ
μ
ν
ξ
ο
π
ρ
ς
σ
τ
υ
φ
χ
ψ
ω
ϊ
ϋ
ό
ύ
ώ
Ё
І
А
Б
В
Г
Д
Е
Ж
З
И
Й
К
Л
М
Н
О
П
Р
С
Т
У
Ф
Х
Ц
Ч
Ш
Щ
Ъ
Ы
Ь
Э
Ю
Я
а
б
в
г
д
е
ж
з
и
й
к
л
м
н
о
п
р
с
т
у
ф
х
ц
ч
ш
щ
ъ
ы
ь
э
ю
я
ё
і
ѣ
Ѳ
ѳ
Ѵ
ѵ
પ
૪
૮
ಫ
೾
൮
්
ྫྷ
—
‘
’
“
”
„
†
•
₤
€
№
™
■
□
▲
►
▻
▼
◄
○
◦
★
☆
♦
✓
❖
㿪
뫜
뫞
쪬
쮿
﷾
Ｂ
##o
##r
##v
##a
##s
##t
##i
##l
##j
##e
##y
##S
##u
##h
##n
##c
##k
##b
##d
##ö
##ä
##Ä
##x
##p
##w
##V
##z
##m
##g
##M
##4
##1
##D
##0
##f
##K
##ü
##B
##2
##5
##E
##Y
##A
##L
##O
##I
##P
##R
##T
##ç
##ï
##U
##é
##J
##è
##q
##ê
##É
##8
##7
##N
##C
##H
##ô
##©
##6
##å
##ß
##Ï
##р
##у
##в
##е
##ъ
##3
##з
##я
##л
##ш
##й
##W
##î
##ë
##к
##о
##н
##ч
##Z
##°
##ù
##æ
##G
##à
##F
##Ü
##Î
##Ê
##Q
##X
##г
##а
##д
##Û
##с
##щ
##9
##È
##ι
##σ
##α
##λ
##τ
##ί
##ν
##Ç
##â
##Ë
##х
##ы
##ь
##м
##б
##и
##т
##ю
##ж
##û
##œ
##п
##■
##Г
##£
##À
##В
##Ö
##П
##Е
##Р
##А
##Т
##О
##Ь
##Ô
##®
##Æ
##Б
##€
##Å
##Ф
##™
##И
##Ц
##Л
##Н
##Й
##Ъ
##Œ
##Ù
##Â
##Ž
##М
##ц
##ё
##Х
##Ш
##¥
##±
##э
##ф
##ì
##ø
##▼
##í
##á
##ο
##ύ
##ρ
##ω
##κ
##ό
##Д
##С
##Í
##õ
##З
##υ
##ά
##μ
##ς
##Ы
##Щ
##π
##ε
##ΐ
##Ж
##У
##К
##Я
##Ч
##Ё
##ó
##έ
##φ
##♦
##γ
##Ю
##№
##ò
##Ó
##Š
##ξ
##θ
##ή
##η
##Ì
##š
##β
##δ
##ΰ
##Õ
##►
##ð
##χ
##ú
##Э
##ž
##ψ
##ϋ
##Ò
##ώ
##□
##Ί
##ζ
##Á
##ѣ
##Ú
##þ
##ϊ
##і
##❖
##ĺ
##☆
##ñ
##Χ
##І
##ý
##Γ
##¾
##Τ
##▲
##Þ
##★
##✓
##ѳ
##ྫྷ
##Ι
##ÿ
##Κ
##Ε
##ă
##´
##ţ
##﷾
##Ѳ
##½
##Ν
##Ο
##Σ
##Έ
##Ρ
##㿪
##Α
##Υ
##Ό
##▻
##¼
##º
##Ñ
##Ζ
##પ
##්
##Β
##Λ
##Π
##ª
##Ϊ
##ś
##ė
##ȏ
##Μ
##Ύ
##○
##Ź
##ѵ
##Ά
##Ѵ
##◦
##en
##er
##in
##an
##es
##on
##is
##ll
##ar
##ch
##it
##at
##st
##et
##or
th
##ur
##nd
##el
##al
##ed
##ta
##om
the
de
##re
##ou
##as
##un
##ie
in
##ti
##il
##te
##ing
##ig
##am
##ut
##ent
##ir
##us
of
##em
##ill
##tt
##ol
##and
##ra
##ka
##ich
to
##än
##ör
##im
la
##ad
##le
##id
and
en
##ot
##ks
##ag
##os
##ion
##sa
##ter
##ik
##au
##ro
##ne
an
se
be
##ri
le
##ce
##ck
on
qu
der
##ul
##är
##pp
##ten
##he
ja
##ell
et
##all
fr
und
##our
##iv
##ung
##se
##ant
##um
des
den
ma
af
##ist
för
au
och
st
##ia
##ers
##end
##na
##li
un
##ber
##ans
##ast
re
##ver
##ge
##qu
die
sa
##ve
##me
##ien
##est
wh
##de
he
##ais
as
##ere
##ts
par
pr
##ation
su
##ah
##den
con
##ess
##ok
##ic
##ust
##ff
##00
er
for
##ine
##ab
##äm
##ii
till
##ous
##ak
so
##ap
##ens
les
att
##lle
##ain
##aan
ne
##hr
##ai
al
##gen
##th
##ier
##omm
##ow
##ait
10
du
##od
##ning
ar
##tion
il
##ää
##ande
##oh
ch
##ies
##ith
##che
was
##äl
##sk
18
##itt
##ont
##ja
##ann
##ly
is
##ost
pl
##ke
ein
all
or
##ach
##ct
##pr
that
##if
med
##op
##lig
##ett
##ht
##ng
##és
##ort
##ord
som
##are
zu
tr
##lich
##ud
##lo
ett
##ard
##ksi
ver
##ue
##tr
pro
ex
##ät
##ys
##ään
it
ha
om
##ind
##oul
von
with
##oll
Le
##oi
##iss
me
11
dem
##ille
##iin
##und
##ade
im
The
at
##ass
ge
est
St
##av
##ista
##yt
##ement
by
his
12
dé
Fr
da
mu
com
que
##oit
An
man
##els
19
mit
##eu
pu
##ür
no
##ern
##chen
##ft
##inen
##aa
am
##ins
ku
mar
##be
sam
##ån
sk
qui
gr
##icht
##ac
te
##ons
##ée
##ss
##ui
av
##ön
det
##ger
une
her
##ors
##iel
not
##out
my
tu
##ure
##res
##ise
##der
jo
##kt
##äll
50
##unn
##ire
fl
##att
##ér
##pe
##bl
##äh
Re
Sch
##uk
si
##ore
##si
##ma
##la
pour
##ci
In
ut
##var
##que
##ite
##urs
##äk
15
ab
Mar
##ate
per
på
##ang
lo
Th
which
##änd
##ina
##ats
##ben
##to
##ets
##man
had
##uks
dans
##age
sur
##we
##ank
##ug
##enn
##ond
##år
##fv
##ki
##her
we
Be
##sch
##ois
Par
##land
var
##ätt
##cc
es
että
ka
##ance
##itä
br
do
##elle
gen
ol
from
Ch
##ull
##ay
20
sh
Ver
##ele
##pl
##tre
Se
##oin
##mer
##inn
30
ta
kl
##onn
##ose
li
sen
##ould
aus
##ko
##err
##ES
##br
25
ré
13
auf
La
##gr
000
##ux
upp
##assa
##yr
##art
##yn
ad
##ment
##kin
##ale
ist
you
##org
##utta
##io
Ar
##ity
##aus
##ym
##anc
har
##åg
##isen
En
##hd
sig
sch
##äs
##one
min
##uu
##sta
but
##cr
14
17
##té
##issa
sich
##för
men
Ge
Br
##ès
##ime
##ong
bes
De
##ied
##pt
##het
16
nä
##ven
son
##essa
hu
have
He
##ère
##oug
##alla
Er
##hen
##ert
Al
##isi
pas
##ze
##cl
ser
bl
em
ty
##kä
dies
wir
ke
Un
##uf
är
från
##lä
oli
are
this
were
##iet
das
him
Gr
##men
under
##ER
##ON
##én
##da
##ken
sp
##ish
##cke
##ble
##ette
app
dis
tra
##ip
##va
så
res
##og
für
##tä
wer
vi
Ma
##aren
##urch
##igen
##ction
vid
##ight
##tig
##lag
##ste
Su
their
ce
##str
##ions
comm
fe
ei
##je
##öm
##per
als
nicht
Die
##tam
daß
lu
ra
##alt
hän
mat
pä
##ner
Pr
##bre
##its
##cht
##ile
Il
##vi
##fl
##ps
##iden
##bur
##ende
bet
ni
plus
##min
tal
tä
up
ob
##oun
##tag
##nen
##ungen
##ath
they
##tiin
##etz
##AN
##esta
##ita
ans
mo
40
##ib
##ild
pe
##ike
##ours
ou
pa
##ller
eine
##ive
##taa
##fe
nu
kir
##ian
kan
##ound
land
##yd
ih
ag
##ations
##ds
kr
##ister
##sten
mal
sta
##amm
mk
##vo
nach
##ua
kun
##ité
190
##illa
It
##jan
##EN
##lla
kau
ave
##up
ter
##nn
Ber
##berg
sin
vor
##IS
##äg
pre
##fr
##ide
##äst
##äd
##öl
##agen
##alle
joka
##ty
##arn
##ame
##able
she
##vil
##ari
##rag
##uh
##arl
pal
hat
one
##ischen
##ition
##oss
éta
##ph
sie
21
##kaan
##ace
##old
pää
##ely
##ott
##ök
off
Ab
22
hab
##atan
pol
##etta
##AR
##mi
##wn
wel
ed
##amp
##ings
klo
##ov
We
über
##een
##itu
been
##istä
aut
##ence
##jen
bei
werden
tar
##ossa
##sel
je
Paris
##orm
##aux
ro
them
##ella
##IN
va
mer
##vat
wird
And
##ars
go
rem
##aire
##ough
##ku
##ij
avec
val
icke
##tem
##pos
mon
##usta
##par
di
##ige
str
el
##igt
cl
Les
Ne
##ink
##ign
##ub
##tain
été
um
23
wor
hand
##ures
##ni
##tim
who
ann
##int
##ry
##elt
24
ind
Sta
##bet
##ster
ai
war
##reat
##yl
On
##ori
##ges
##anz
##iten
##ants
##ligt
its
##ouv
vo
##une
op
##asta
Hels
##du
år
100
Herr
27
acc
##cher
##fver
pers
##ih
kä
aux
ges
##ées
##isk
##elm
hal
mil
##ytt
##oja
ll
mot
samt
##jän
Kr
##af
Ro
##ole
II
75
hö
ont
bef
rum
##enden
Aus
Ges
co
##ana
##illä
##ents
26
ti
there
##ös
komm
kok
han
##äng
28
Au
##hå
sein
nous
auch
##ahr
ten
zur
##pa
tout
cons
Joh
mö
##burg
##ns
##alais
##ång
sy
kon
pass
po
##gg
##atu
will
##OU
durch
##kl
ord
##fter
sekä
Or
del
##anta
lie
Es
Der
##ater
##wer
##ler
##iä
toim
##lic
##ksen
##uo
##ques
niin
mä
##fors
part
##oa
elle
dr
cr
ass
##fer
##ult
na
##ene
tw
sont
##del
sel
hon
##ick
45
Ein
Me
##jä
would
us
out
##uun
##vis
fa
ses
##gatan
där
Mr
ste
##ho
Je
ber
ret
Helsing
##ssä
##uli
hy
san
##ther
##llä
kaik
##ahl
Tr
##vä
##ische
##cn
ko
inter
##erna
##ese
##orn
So
kn
bis
fin
##kk
mi
##ces
che
ole
arm
##ala
maan
pri
eller
kes
lui
##ück
##iska
##osta
##lichen
60
lä
##ated
ny
##ises
##ique
##ient
##liga
##uch
has
31
some
##led
##isten
##éd
more
til
##emm
##kaa
##ingen
fait
##olm
##öd
Eng
wur
said
Am
29
vous
##uri
##arna
ac
##oth
##itz
##TI
##use
ins
pré
sl
ru
puol
rue
était
##ob
end
dire
Wien
##nad
##ome
cour
##ura
öfver
##OR
main
##ton
##lin
DE
##ires
avait
sm
tro
tou
##omp
##gl
##stä
##iter
Sa
sj
##uß
##ha
##ary
kuin
##dt
if
##HE
förs
##ree
Dr
hier
gu
##ämä
##ärm
##etaan
##ane
##omen
nat
##iga
##til
ju
mais
ent
35
Pet
##uss
##uni
hel
##lt
##jo
sc
##dr
Pro
unter
80
##RE
Her
cette
bel
Nr
##emp
into
when
##era
##AL
ir
läh
##unta
##uksen
hvil
##ettu
##uten
tid
tak
Con
##val
hvar
##ola
Den
pi
gl
##tes
ot
##issä
##vern
yh
Sp
bo
joh
##eral
##ser
ilm
##ice
ap
##ata
##kr
pres
Et
##nt
##ial
##ég
##ante
##eder
Ka
Av
ve
##komm
##hand
jot
tor
deux
##ark
great
##dag
##igh
##iz
##raf
vom
##ulle
##pä
##uv
##ningen
sol
##isch
##imm
dag
kor
sou
fir
os
##II
##ester
fram
car
kans
##onen
##tell
any
##ident
##ffe
ren
beg
very
##net
##oim
##ember
##uis
##och
einer
186
##uts
Bl
##aint
##ally
##onne
rec
##tin
Ed
parti
Uhr
##estä
other
fol
ever
##ock
comp
någ
long
##liche
##elef
Tur
imp
ye
##wa
kunn
##own
##aten
##essä
than
##hal
ii
##till
##atta
mark
wie
##asse
aff
time
upon
##anut
##ward
nom
##agn
bien
dist
##arm
##les
##ikk
Land
sind
prés
##ves
Nach
oder
vis
må
pris
gar
##ider
tre
kul
vers
##eli
##ute
##oon
##TE
##edan
gro
##tra
##ligen
nur
haben
sv
Mon
##ungs
mê
##ska
För
##aient
fö
leur
ur
##itten
ing
pit
##else
##eux
##bst
##ved
##près
coun
ihr
about
##aste
ri
gegen
##ase
welche
##öt
##ling
now
##ili
Bes
##ric
tul
##ieh
El
Man
our
##of
##uus
##ots
bar
post
##iver
Fin
##håll
ska
##ep
kil
##urn
##reich
noch
187
##ettiin
spe
##ühr
ly
Qu
Gen
##taan
##ainen
All
ven
alla
dess
##als
Ad
gra
##upp
cou
Helsingfors
por
##iger
##ried
##vin
##oita
##LE
åt
##ief
##by
Sal
##oir
after
could
hos
##aft
33
Mal
##ningar
##ete
place
oh
00
Em
##cks
##red
##eld
##fi
gew
##cri
can
reg
##ack
Min
väl
##eter
##ga
oll
##isti
être
##änä
##teen
44
32
two
##ful
zum
Ze
Ham
går
##gt
##rei
But
bill
##änn
70
##gif
Vor
##hm
jour
##yy
##ellä
Ale
200
##utt
stor
##jat
emp
jär
Pl
franc
##get
aber
90
hen
tv
Hen
##ange
##bar
##hti
##ils
No
##hl
##des
tion
wurde
ger
##ße
only
fi
char
god
tam
##ställ
##öp
##sl
Fe
rel
##ieb
##irt
alle
##ikt
repr
THE
##ouse
genom
form
fam
rep
##mann
##ilj
##kan
##oint
##sä
##kom
Hand
kaup
##eten
miel
comme
hade
41
Te
num
##jär
sil
##ife
##ôt
occ
omat
Jo
ej
exp
vu
même
##nr
sans
##iste
over
37
##sr
##ission
ho
pos
##una
##iset
##ün
best
##fva
grand
##ontor
##imat
##ker
suur
500
##ches
inf
##cted
einen
einem
Kir
osa
made
##åd
dou
cer
Ny
##RI
##bo
##alta
##ander
ky
ces
gén
As
määr
kom
Aug
##asa
ment
déc
##uc
##ämän
##ilt
##ause
##ession
##ket
again
such
##ansa
Ex
##keit
Kar
iv
Pre
bek
Kau
##ällä
##aat
##gs
##adt
Saint
Ger
prin
then
Pri
mod
most
##unt
ens
Ha
Cl
kirj
what
où
may
##eme
mor
Ste
här
cor
##amme
jotka
##zu
36
##IL
##ieder
your
##SS
Bar
ich
Wh
##ld
##ren
##nings
##ought
sal
34
##kon
##ulla
tous
##eln
these
heures
arbet
Reg
##bert
opp
##rä
##uer
Im
##teur
##ements
##ather
should
Si
dep
dar
##unnan
litt
##ölj
##ope
##astaan
42
##inä
cap
##ikka
skulle
##oli
##onc
##ino
dont
vie
##aud
fort
##ahn
##ily
##tions
kann
##war
lör
tap
Kl
##iti
##oo
sub
Tel
##leich
tule
##mä
##fen
##ali
ill
Sk
Ja
tem
##olag
##ades
where
dit
##etty
Per
##van
nor
##hör
Mme
48
Telef
jon
efter
##ères
##anden
55
##ict
Nor
##oman
inc
##elta
prof
##ussa
quel
##rat
##mt
##hö
##hin
full
##ähr
##ström
##hn
vä
person
Mit
To
cent
38
##esse
pet
first
France
nyt
##emme
Det
enc
tri
##inska
##vel
##bes
detta
nen
##OM
##UR
##isse
##oc
ét
##zen
Ku
pub
##olon
Ind
##sg
##rik
##ivat
being
##gan
##ara
##son
43
##isesti
##él
fri
ul
Men
##éc
##gar
##fven
##ede
dép
supp
très
must
mind
bre
zwe
47
sä
##aul
denna
##ood
##ages
int
##anç
syn
##uta
Mi
après
##itet
46
##amn
##cker
##tir
jag
MM
##bt
just
##unde
fall
much
Auf
##asti
conf
before
good
see
##iip
For
##uen
##ances
##jest
då
Lond
##män
##the
##ving
mutta
ils
ble
##érie
inst
39
##riks
dev
how
##ptem
##nes
Hr
##ffer
tt
bu
##EL
kön
LA
##acht
conc
francs
day
##aut
utan
like
##olla
little
hä
dieser
##tern
##öra
##vent
##hing
pp
did
viel
arr
Vi
Sie
soll
##mit
vill
offic
lö
före
##otta
ele
vär
##äin
Alex
Fra
fer
##TA
än
py
lar
##ål
##lie
ry
thr
spr
peu
ker
koh
Sam
##ald
mir
kuul
päiv
##eman
##opp
##kseen
sous
far
sec
pat
##holm
sitä
last
arri
Kon
##ines
##allit
##vers
Ang
##hus
Fl
##iers
##elf
OF
bli
nim
##unut
Mais
##stra
##ky
Ke
##ående
##ender
##heit
##ory
##ager
Nord
faire
##tal
##ello
##iner
##ente
##pril
div
tah
##ona
##ustr
well
use
##jor
ihm
##rich
kos
Pal
Com
ga
liv
##ues
trou
met
rép
##iu
Hu
tai
every
Sen
led
ollut
Till
génér
##try
lis
näm
ehd
##tien
seur
##cip
andra
olisi
##ält
red
Unter
John
##ital
##ates
##elin
kansa
cro
##ius
##tic
Hau
jou
dro
sei
those
##etzt
##fin
diese
##ule
##etään
Zeit
Bo
##uden
ilmoit
##ohl
sat
##endre
##aise
aj
##etter
port
Is
know
also
van
##oire
189
##assen
tur
##ikä
##gel
##ask
hem
##ßen
##fall
##oud
##unk
##iS
Pa
Närm
##älj
sn
##off
##ela
cir
ihre
##vr
##AU
found
##asi
hus
CH
Mat
##tend
##sen
Da
51
At
New
##uck
prop
##dagen
188
##mar
##ious
tjän
plats
fut
hym
yle
åter
##itta
old
own
##enska
dom
##cial
near
##går
PAR
rak
##olle
##okal
soir
##elles
Li
tiet
Pe
uns
sim
##vid
hin
many
##ständ
mehr
plac
bro
##tei
ön
ple
Sc
sem
##ress
##iseksi
look
##uksia
mid
vol
Ob
##oule
##iseen
pid
contre
##arin
even
##cken
##ichte
donn
##hu
sö
SS
saa
##ollis
siitä
same
Ir
##atz
eff
##other
##ution
##ET
##iens
call
##usk
IS
##IT
##OL
sitt
##illi
##mo
työ
voi
mis
##että
##ensä
49
eng
This
##ani
act
entre
##med
##enen
##oks
##anter
##lles
läm
Bez
##ila
ip
Suomen
fre
##endant
Lind
52
##gn
päät
##som
##eller
rés
town
rest
mars
##AT
bör
##eng
pra
##ads
through
Ter
##tier
##ower
aw
mom
August
Ce
##annt
alt
##ness
ning
Pol
mie
76
##cul
ia
sent
point
##co
##yska
##Sta
Kun
##10
dra
##tik
gem
##ical
följ
might
##onna
ques
trans
here
äfven
##ln
find
eing
##ENT
##iii
kello
##ête
##isiin
Ph
##nung
##ånd
het
Berlin
koko
tulee
hv
##ral
##bour
##lung
Comm
mus
##agne
wenn
Han
##cket
##ffen
bec
##ama
när
oike
äro
##fs
Gu
##åt
##St
##geb
##geben
##TION
Svar
Stock
erf
huom
##älä
lit
Jah
myö
##ctions
Das
Suom
succ
never
ci
##sti
kaupp
ref
Hö
##ima
##tid
##gra
##mes
##uja
ki
Post
Ett
##ished
down
käs
Sir
rah
moi
hr
##ober
##öör
53
##ktion
stör
få
##iman
hå
Lou
Car
minist
##ré
##order
beau
##ksam
##ighet
##tres
inne
jonka
London
sis
##ika
##ced
##urg
##IC
##omb
##sam
##mk
##auf
##irk
##aden
Cap
##ls
län
##ème
##lands
exce
##imes
AN
##äf
##han
##akt
kap
##erk
Nov
##ople
eu
Har
54
wr
##ffic
Fre
Val
##änyt
blo
mag
##uut
##iff
##vol
nation
##amen
##pi
mé
four
##ünd
though
##isin
##osen
kesk
polit
##rent
185
##itte
bed
Stadt
##ätta
päim
worden
##irs
leurs
##cs
Mag
65
önsk
matin
pen
sera
Por
luk
##alan
oc
##éra
ang
fråg
fru
mill
encore
##atter
get
##ira
##ady
kök
##ittel
sina
jäl
##uka
appe
##mö
##chl
years
Mor
General
##ends
##rif
geb
kum
##oy
shall
Fab
still
Gl
##pre
Chr
##RA
##nä
Amer
seem
Engl
pur
##hmen
##elsen
##po
pai
##ilen
bor
##ards
##dom
##jet
##yks
id
##tter
IN
moment
avoir
##ount
dés
house
jos
##ism
dessa
##vit
asi
vara
Cr
##anger
hänen
##ator
wo
##kir
##ärd
art
She
lik
##self
##11
public
##aine
half
##ét
##iß
saap
Du
##nal
##ikan
Str
sum
##älle
England
##isia
##tia
sehr
lin
Pf
sor
hist
ph
85
LE
##idän
##sche
##ästä
bra
nou
mån
##éri
vår
seine
Wil
Georg
##amat
yhte
Jose
ställ
##ium
##ada
ken
##pon
proc
##NE
Ty
juni
nos
##keen
##ommen
say
hom
ennen
##länd
Co
##stell
##atur
56
Ue
##tigen
Ur
Af
himself
Karl
lieu
##jour
rece
Närmare
autre
##LA
##tiv
300
tel
##ands
##full
##itions
##OUR
olem
three
général
tun
contin
Ra
##chte
##bel
dur
present
##ains
##aug
way
suom
Mai
Tu
99
barn
##ween
kys
##kar
##ames
without
Fol
##oka
##ida
Ant
eines
##ena
74
kontor
dä
57
ner
##ût
mast
wieder
cond
Herrn
##ellan
Und
##ords
hans
foll
const
##ptember
uts
##illes
intr
##unden
##AND
##kn
kv
bon
##tige
mes
jan
##itter
hum
mukaan
##kka
éc
My
##ham
Kor
##glich
Tor
##ilta
77
##len
hvilka
##isto
Grund
too
jul
##hdist
##andet
58
jed
Wa
##iser
##yss
aik
ban
##schaft
kar
There
toute
produ
##xt
came
Hel
compl
##kil
##IE
gif
stre
temps
##ßer
Lu
##rn
kol
##kun
##ennes
gel
##iksi
##ments
jäm
rou
asia
country
##bles
##üh
sillä
Bet
##selben
fra
conse
tämän
They
aur
hög
general
##ament
make
bere
##gent
##ichts
situ
pitä
ey
koul
##mm
natur
April
kaikki
##iva
Jan
##tif
peut
life
##führ
vän
Gra
Bau
people
såsom
maks
##ynyt
seura
Ans
non
past
set
##aht
ovat
certain
##iem
toutes
prix
##vice
##üt
##stand
##hme
##ek
trois
73
##bru
sii
##ited
##ters
##gend
seen
six
##ws
dec
##US
fur
Frank
Ser
od
Um
mois
##akin
ään
ganz
kaupung
##ude
##istr
##antes
hui
skall
rätt
##ingar
88
Mo
##uit
95
##mal
##rait
pain
##uud
run
##nl
Ta
mem
gou
##ivi
##ple
dre
Mutta
Mil
between
##kko
Peters
Vol
herr
Hamburg
Sl
##kor
62
Fred
##tl
seiner
##ohn
66
lig
##essen
Gesch
think
fast
pap
##ärk
##ojen
cours
Med
tag
Piet
yks
jäs
##iipur
abs
##mat
ear
rég
mel
tull
##taire
Ol
gre
##rier
Reich
##por
##rift
##for
##insi
finska
##tive
##oup
##wards
Pu
aller
##iment
Juli
72
wür
##dens
##ption
sé
follow
nov
##ither
uud
side
##alk
habe
Mer
col
rapp
##ides
Von
##vor
beh
come
Mad
fo
##tn
wid
##imät
Bra
##imä
Bor
##ähän
mak
sär
##joit
##hä
Lin
ohne
kas
##usi
Sv
aussi
jossa
81
premi
yl
##nv
Jahre
genast
ensi
lag
##QU
kunna
##borg
##ual
##pect
Jul
##ras
##voir
maa
59
##uld
Sil
against
Wir
large
Haus
##CE
##ives
etc
Vers
##atte
ton
##skin
##iborg
##tens
##antaina
##kem
prom
##fa
Port
##pu
Eur
Lo
##reg
##jon
400
high
vic
##ison
87
##aiser
##kok
##erie
Hy
mann
lands
##pen
Telefon
##AS
##bahn
##ören
eh
miles
##uth
##ouks
notre
Pers
##llen
63
nombre
Ru
##vert
##position
inn
##ork
meddel
##rib
yet
franç
##igung
laus
Mu
sell
having
vot
Nous
atta
##eri
##isa
lif
kö
Mont
##tsch
Une
##isiä
exc
##eth
ft
Jahr
That
##ationen
nouv
You
Om
king
##ini
##abl
honom
78
enf
called
##CH
Elle
work
##oissa
##ått
##ätä
##plan
Ho
##yer
PARIS
##aista
grund
##cle
##uel
import
##port
##ilda
##nda
wen
Oh
##ba
##varande
##opul
##atal
jours
##halten
##istes
##été
##iven
él
stad
Wal
män
##ati
fac
yli
sag
Hän
##ivers
rik
By
selbst
là
gesch
##bli
quelques
##isesta
##arr
inom
deS
##uses
##abe
tunn
##olan
##ukset
God
##dem
##ote
Jean
samma
##aisia
Prin
voll
##illet
##ever
##anska
##jel
##ety
adress
##OT
##lr
hatte
dam
organ
entr
pan
left
allmän
don
##cka
##orit
wa
184
##AM
name
Cor
Not
##eren
##öst
Sh
##timm
Ober
each
##aisen
head
ange
##tags
kam
back
##ee
##embre
mai
##outh
ung
64
rau
71
Des
lan
IV
San
Paul
tn
hund
Bel
hur
öpp
Mich
##oista
##aina
adm
Ren
while
water
cin
diesem
Was
vin
Ju
##ix
perust
put
thought
##ucht
disc
tod
Finland
##allis
toi
##pan
Pour
small
##OS
ie
letz
##pf
vir
##cteur
##tigt
dann
##uS
tit
tav
##auv
Rich
ång
##koul
few
##ensch
suiv
##rie
##nas
muu
frän
##lau
##aisten
tää
##ias
kur
##yksen
Bro
84
##amaan
Ung
Hang
määrä
##inal
Akt
lad
year
face
##ites
82
ville
mycket
##kast
##stru
schon
vast
##ged
##alien
course
Charl
Lord
##ford
let
##richt
##mon
käyt
fil
young
67
mur
##fol
Kes
ehdot
##olog
själ
tän
83
##ettre
take
##lan
##utsch
Regier
Cour
##amb
##cts
##AP
##uter
mitä
sti
besl
##RES
##ikeu
##auks
##asion
taan
eri
seul
Po
Gar
Mann
syy
##sn
endast
sold
kautta
##ening
61
##inder
afg
serv
rais
Hal
rich
##hte
autres
milit
cal
poss
mig
##ume
landt
##atten
If
##yi
##jourd
aug
111
##öj
##ärs
können
kal
progr
march
68
ainsi
##oris
##aiset
heure
##itti
Mrs
##az
183
93
éle
rad
Från
cha
appear
emplo
AU
##vere
##lied
##ammer
verk
wurden
chez
##rt
dah
muo
nn
ach
ant
slag
##nahme
##mier
sw
##uksi
myön
##pro
Mlle
##unnunta
sjuk
maj
##jud
Zu
Hol
##ville
##ommes
Maria
Neu
##äkin
finn
ze
någon
consider
såd
service
##row
##väl
##yg
##DS
svar
Va
##fvud
saat
##erre
05
näh
Cent
##oihin
##ron
demand
sää
nun
##fahr
effe
nya
##kommen
ned
quar
##ians
rn
##iken
##zeich
lään
allt
##ms
##kuun
pay
##uuta
Juni
##eta
##TER
##vät
86
möbl
night
ost
among
kats
hör
##tto
##ihin
##kö
##ßt
##sky
##licher
Ac
##ände
gleich
##ently
kanssa
##fort
jota
once
aino
order
tl
stud
obser
först
Joseph
anc
##yttä
Bank
##ischer
mun
##ärt
Comp
##sible
ev
Hä
##lund
Kre
DU
##ép
##oke
rend
##asser
princip
grande
##edi
sedan
##esent
öf
siin
##êt
##yant
soit
##alit
moins
Ly
Åbo
##hol
folk
##ject
##RO
His
johd
both
##inta
depuis
September
##ired
##enten
Dans
##lighet
dock
##ove
command
whom
##ohj
rat
##vist
sill
##aps
Ker
teh
Wasa
##most
enter
##heil
##ieux
Ii
##usqu
##ield
Viborg
##jaa
ons
Joens
Dies
Tal
##ndag
##tement
##nst
##urned
##jör
92
whole
mindre
kuiten
ler
question
tut
##cy
##èrent
##bers
##änder
94
extra
tis
kunde
##essor
ettei
varit
feet
Tra
##atre
Art
hor
lokal
ryska
##ined
cont
bi
##ämään
hafva
tark
hvilken
##ula
allen
vuo
Ban
arb
##otte
gång
##oulev
##ienne
away
soon
läng
kind
##ända
##esti
new
##ience
Mär
79
##orf
##clar
Kas
hela
##esen
myöskin
Vid
stads
Rau
fors
puis
May
right
olla
##oma
Sj
tehd
##vé
##ley
##über
werde
Berg
##Ssa
bur
puh
Dire
circ
soci
89
##orna
##ived
Ko
rap
bad
mies
slut
##nier
##illiam
Red
child
180
Dec
stat
sym
Minister
mellan
another
asian
tämä
femme
sing
Ni
Marie
hau
itse
ras
##sin
##sp
##nnu
toimit
Ou
samm
doch
##ju
cas
##innan
Ul
##näm
##ctor
##kall
iu
91
Kur
##iat
sitten
avant
##ffent
Dem
ask
##zt
lii
myös
Tage
##ggnad
##ales
bew
##ake
konst
##sh
##stad
Ven
##bil
Lie
mm
aam
Kaiser
##vär
##rätt
##alen
##ittu
##rade
Gro
##ingt
##ava
président
ben
dir
150
98
##bed
##ument
oss
##gren
November
lich
Hon
Schl
##kia
##onder
##ollen
asem
Res
##ikko
heart
##ices
##ivät
suite
##tamaan
secr
rien
Bre
Kn
jä
river
##tok
sever
kysym
pien
ersten
Cham
##uutta
Für
einz
##essed
Kön
derni
aud
##OO
pel
aset
##ran
##öf
jälkeen
ihrer
Louis
tell
##ring
97
väg
puhe
ba
Nu
Jag
piir
Kok
bolag
större
##ateur
Kap
voit
##onnes
69
tom
siihen
muut
Miss
##enh
nouve
##straße
##lei
William
devant
##tö
hallit
##inter
##emmin
inh
lat
##ivil
mas
##ush
ff
##ieu
dieses
Go
##änk
några
##arbet
Franz
utg
håll
huone
Handels
##inge
##änner
tim
gent
kilo
Mill
förb
stora
ET
stand
lang
##resse
mont
kiel
##yed
puolue
fond
fab
##tains
##stem
##alis
##yä
##sm
Arbe
##öll
något
utt
##gy
##ître
zw
96
##ader
room
##ench
##ued
church
##auer
fred
las
teht
tes
##IV
första
##fte
gest
##orge
coup
took
##iehen
power
##äre
##iis
Oester
nyky
Pap
Wo
##vir
##ways
##ols
##bor
Est
##ière
##ittäin
Sm
however
##aneet
##äff
Febru
##lique
kommer
##AG
Ve
Thom
mort
kat
Oul
hvarje
##ellen
English
svenska
##ckt
Petersburg
ocb
préc
nt
##ieur
##quer
hall
Prix
ran
##ssen
Stockholm
##ped
Soci
##ason
##ril
##iir
##orts
fav
jäsen
##kasta
##pris
##omat
##jäl
Frau
vå
sort
##skap
second
palk
yht
##quis
##taja
Jac
##év
colon
##itude
600
north
##olf
Op
##cer
##tellt
unser
guerre
##go
Sim
##ora
##iebolag
Nä
taken
##ieurs
##pit
##nell
dan
##act
##ètres
give
Char
tuom
##MM
popul
##elegen
ihn
##itut
statt
lon
Sur
Jos
welcher
192
##ties
zwei
##hren
oblig
##cess
##mäl
Carl
Os
Alexand
rent
Hein
##rad
ännu
##helm
light
tied
##jours
redan
##chten
##tio
station
kons
Regierung
##anen
##under
##nat
##form
sit
två
less
##ktober
##bs
Staats
Borg
Bed
Hall
Johann
open
King
vel
uti
tapaht
fest
ép
sept
kyl
eyes
##rs
senaat
appro
father
homme
##js
Sö
air
EN
bez
##teurs
##less
Bon
wind
äl
cle
##bra
##uhl
kirjoit
häl
Di
sow
ouv
##let
muß
occup
cet
lau
went
##CI
Puh
##ody
##ERS
hands
penn
fois
##ength
esc
cher
wegen
siis
##cu
occasion
##vernement
##ables
##eltä
West
lop
voy
Vo
##uuden
waren
appar
expr
nnd
sche
##nväg
représ
##ING
193
##vn
Pat
étaient
##kim
saada
##stag
fit
ministre
##alité
trava
##ision
spec
sett
cel
pens
##RAN
##idence
AV
järjest
vier
kont
##yttää
inv
##LES
keh
Charles
särsk
Ich
##nade
Ros
condu
##erade
##nde
##neet
billig
demande
lim
Hangö
whose
love
Schw
zurück
happ
Ca
Ti
##äksi
raut
##IR
Wer
kin
telef
800
noin
lär
får
##enth
Ann
års
miss
pak
dagen
Jour
premier
nothing
Col
accord
sätt
beste
intér
pleas
##rå
##alainen
änd
HU
alk
ln
##ibt
Ut
opetta
##ledning
billigt
##ytä
##pel
##elser
##nar
Och
Do
tele
donc
##wär
toime
##issen
Wahl
cur
kein
kle
bank
When
##any
LES
##elleen
henkil
Turun
Bou
März
##este
vastaan
star
##uman
följande
##jà
commun
##emein
RE
##ici
##ceed
tant
cause
##ämät
förslag
##bens
##anst
mielä
Haupt
taa
##ows
ég
Oct
paik
mü
Cast
##yk
##ernas
##llt
kansan
above
förf
lt
kost
Ba
days
##ific
toujours
##usse
emot
##neur
##ädes
deuts
merk
##ained
pays
##rage
##nin
##altung
##bau
kyr
Brit
##ppe
##ota
Henry
sälj
ast
##rr
ca
##itution
Ueber
bild
Kot
##lar
War
enligt
diffic
##DI
What
##ogen
##iit
eikä
III
VI
##SE
auc
trouv
kah
DES
bas
deren
##ikin
##met
tour
prot
##utes
interest
##vier
Björ
Mus
##niß
kontt
jok
étr
Vere
SO
bekannt
##ative
##kas
Sand
Lau
##uran
König
rt
komma
south
death
Dan
##maan
##ury
##zer
vient
##asto
commer
##ären
somet
##ène
##inet
dagar
Bezir
MA
##thy
##ättä
heti
minister
Var
With
jetzt
mahd
##heten
##éâ
##oilla
rait
##ched
lait
Gesell
liber
Stra
gemacht
personer
stra
présent
mets
versch
##ässä
sens
##aitsi
##stellung
##läm
adv
##vet
##joh
##gé
##ährend
neu
aina
several
Don
priv
avons
ao
##pää
01
##ating
##kur
##lagen
reç
loc
##ior
orig
##styr
##minister
Bour
191
jeune
päätt
##igkeit
blef
##ossen
##attu
chief
##åk
##örande
feel
grö
sea
##förs
aujourd
mitään
jusqu
Fried
##yal
erst
##ööri
Fer
##erner
erw
près
##biet
inte
See
##racht
Sy
ak
##ém
##gleich
immer
aika
##urt
##enne
möj
arti
##gon
ainoastaan
verl
comb
Juh
123
##immer
esp
première
##ierre
comte
Ass
##äj
Anna
tarpe
##ular
##taga
Inter
##ops
fell
##fect
sop
Herren
Ei
kansakoul
almost
MAR
##isl
prob
jämte
Of
conna
sir
piè
##ru
déb
##yhti
dél
##osk
##wend
tions
##ikki
##pes
faut
Franc
sus
##50
kunnan
vil
##jia
##bank
##ppa
world
##IST
Wiener
déjà
täyt
chef
Sor
len
wat
##raft
govern
##pper
##lll
tan
##band
##teau
Maan
saw
lain
##ured
tin
Hav
##ié
eli
##ended
Ah
##isc
##kalla
dernier
Wie
##ustel
##kauf
##stadt
landet
round
##ying
denn
Landes
##kul
ES
##vl
##tas
##amais
during
poor
Zwe
vap
oct
pois
Dien
relig
kne
ordre
tir
Franç
Tro
niitä
lähet
fle
bless
##arch
##kee
##DE
##oux
På
Mas
Gew
##ably
##ret
Aut
Ap
Under
tors
sond
erhå
##alaisen
Ben
city
réun
101
myyd
##illeurs
miime
Pietar
##ria
rakenn
##ieg
ceux
Ag
given
French
sun
cla
eg
närm
##iness
hundred
##ст
enn
ayant
siinä
Kan
Ec
##ätz
viol
##ätte
kylä
Nik
##äki
##ift
Majest
##lem
gouvernement
kg
gj
##ictor
matk
Bei
johdosta
ground
terr
Que
Sel
##TS
leg
former
Graf
Spe
loi
home
morg
förm
##kau
##umat
##inger
##kuin
##iiii
##imin
hear
##tee
##chst
tie
tus
quatre
##päiv
##ittää
##tait
##lad
måste
table
spir
##hau
pil
##klar
always
##kään
lopp
dessen
##samma
##weg
##sse
##ammen
fix
##lé
ingen
Robert
##onom
würde
IM
français
tjänst
työm
hvad
east
Nation
##iche
AND
##ottaa
##ema
##gerichte
##öken
viime
force
##iller
lég
ris
##alli
seit
jat
##äck
Kle
##elbe
anledning
Can
maal
##utz
##cent
state
yr
sign
avaient
##innen
sök
Mö
##osi
##huset
Finska
Tag
nöd
Eisen
##oren
Kal
##fvit
inde
##ities
##cha
represent
votre
commen
##esser
Toim
letter
göra
Verl
sunnunta
##embl
cul
thir
##imi
Fors
##emaan
##ogra
##IM
flo
##heim
better
##quet
##ittiin
##ettes
Hier
nav
Osa
##fore
##äen
##kaup
##sez
heute
pendant
Viipur
##oten
blott
yleis
Thomas
120
##mis
##thers
##ottam
within
##ye
disp
nd
##jaan
sid
brought
124
hard
oi
##owed
état
##din
cann
##tak
number
uppgif
read
midi
plan
##pond
keine
CON
sai
done
lång
##olta
##hof
##IG
differ
##fråg
opin
182
##oe
##tiga
##ôtel
Gre
gan
UN
##osse
##isf
liik
seinen
##haus
##see
pros
cham
Rech
102
add
tillf
remar
impr
önskar
##su
Oesterreich
korke
taas
vice
##ildt
mäl
kaupungin
ep
##unto
##uttaa
rev
##oci
Obs
##aita
Cette
##lack
##qué
jen
situation
batt
##ivid
seemed
sak
förl
##byr
belie
camp
kär
trop
##fc
behand
##tesse
kuitenkin
Mir
care
aura
Ent
kapp
##anch
##istel
pou
##MENT
until
Februar
How
paljon
##usti
##bourg
##orte
##juna
##äjän
##emin
affa
joita
bou
##iskt
bland
Fa
super
samman
Rou
themsel
diesen
##iston
##lu
regard
known
bord
maison
usk
##enty
tö
##UN
##jal
##rop
déf
##erran
social
Vill
others
säk
Hög
##emat
110
##vered
##lage
muod
vain
##otel
250
ersche
représent
Klo
ihren
Tre
##urer
##QUE
##utoka
mär
##orten
##vän
##zeit
##gether
##icher
oppos
sondern
##meister
engag
hie
five
since
themselves
skola
charac
Sr
toimeen
propos
thing
##zeu
Conc
machen
jud
Jär
ere
##cep
jät
Hof
sten
122
bereits
##ateurs
thus
##ible
hank
Cro
##qvist
##ikon
Då
181
07
näyt
##trä
Fir
##onde
##rer
##imp
##sj
##issement
##ica
##elä
joll
##tu
##alten
lv
Wi
Prof
##mans
##hat
stats
Kol
celui
daS
tässä
##janta
##häll
gave
imm
laa
proch
kommun
meet
##ca
partie
silloin
friend
engl
##ché
allem
ain
somm
tambur
kiin
nö
contra
Del
##ités
##ен
##oni
hol
##usten
esim
ausge
Jy
##isestä
##mp
##rid
##ksk
Vir
Na
##eden
##emmän
##haps
1903
##riksg
Vasa
talossa
##bres
passed
##éré
want
bok
##usement
esit
##itation
heard
serait
##attom
eben
öst
pidetään
##ustrie
##rain
James
##sson
##kten
##ATION
porte
##osten
päi
Allem
Rom
1S
answer
##annten
ss
quite
##aston
##unes
fig
gener
possible
vielä
##AIN
dix
lors
vet
##ünst
COM
##zahl
impos
Vous
Wilhelm
##hor
##ban
stä
##nisse
##bi
bort
Stre
hufvud
##ukseen
pun
##ilä
##arbe
##lö
##angen
Läh
##avat
gård
iii
##oulevard
enem
##iren
laul
série
SE
nouveau
Victor
Ill
York
nar
##imme
try
Vorm
SU
##ionen
bä
trav
Ele
bå
pnä
##alement
Holm
##hän
drei
daher
##ckså
järnväg
zwischen
gatan
arki
##genommen
Jn
admin
gef
utför
beim
wohl
bus
Bal
##emi
##ublic
##ielt
bil
##ION
caus
##irl
##ureau
##éâtre
compr
##tained
voir
police
bal
##obre
1902
##ichen
##bro
##umm
moy
##hip
##ists
nature
aven
##mäst
gehör
##ahd
prison
myydään
cinq
vra
George
##augh
corps
Som
alors
##dags
lj
1901
rather
Jap
##rl
##etto
##eksi
##hält
yhdist
##kad
bem
kvar
voul
enth
lää
jord
Russ
##amt
##aiss
fy
pitää
numer
##way
##lägg
Brand
##ature
##erv
##çon
Til
##usion
juli
action
particul
leh
Seine
staden
sul
02
03
chap
west
##AV
##jur
hak
##imanche
ow
bonne
##andid
##gré
fon
déclar
pian
App
Cal
cô
rö
Schul
1907
Eine
##ämme
hill
class
sup
Sar
##élé
##amar
##isation
journ
seront
##öä
Bill
##tro
mand
##arne
käy
Tele
##via
Europe
antaa
ordin
Then
S0
##ares
sty
04
hi
##ences
08
läänin
arbete
next
fais
law
##ash
Rennes
öfr
öster
monde
1905
hope
lut
deras
Hans
##kehr
##ultat
##wä
Che
hra
##oney
mari
nam
##iled
##opä
celle
varten
requ
amb
Etat
reach
sään
##iles
##ei
##anten
suo
torde
North
##cles
##ME
Martin
##quel
gard
##üg
Verw
moun
##kter
##arty
fat
strong
elles
##etti
laps
quand
##mas
Gegen
temp
råd
##idge
##no
wife
##istian
Janu
gam
##jähr
ui
##kes
sud
103
tbe
##uma
##eet
##kaupp
position
dt
mètres
Alle
##rum
##haft
Mid
tär
incl
##itted
morning
droit
cela
rin
Köp
nan
##sto
ait
folg
##hre
##ensk
commission
skol
assez
öffent
##jain
Pierre
##berts
138
##ided
während
##lli
army
##ieden
tuli
line
told
senaste
weil
##tade
doit
AR
necess
assist
dear
Kyr
olle
skri
ank
Will
août
fören
aa
Off
##erin
##itto
Kuop
besch
##akka
mother
Sonn
##pital
vend
##moit
kuten
dennes
##ool
ring
##ète
Abo
December
mera
nuit
##ästi
##stein
atten
##AI
kaksi
eux
också
##ève
blifvit
gare
##edit
stort
räk
##vänd
##udi
großen
##teck
rr
absol
drag
spé
##kurs
Sin
band
év
fly
##iok
##ney
Nur
Ital
rautat
##gesch
##ave
april
1904
##zeichnet
##ankin
Mitt
##üd
##amer
##erska
towards
##ât
Stück
ers
##oms
held
##haf
##ов
effect
##empi
looked
kall
Komm
cannot
dig
Grand
##wi
Kom
##umer
gens
Bur
doubt
Gal
via
##erne
neue
##tamat
##fm
##ksiä
heidän
io
speak
family
kort
bat
##äns
tuo
times
From
##kade
tills
kai
##eds
allg
success
effet
vit
väh
##örd
täällä
##gu
näk
##vill
##kam
real
Bö
octobre
##ries
##ürger
##mel
eS
Union
Tar
suuri
trib
avril
Dar
minä
##ineen
short
Ki
äm
130
ship
##enl
##tor
##katu
Aktiebolag
Dom
##étaire
heav
##ony
lassen
hw
Lud
Så
##qui
année
1906
1908
CHAP
##tenant
Bu
along
nuor
tz
##respond
petit
große
##lid
##ragen
myy
Vu
vr
bö
suorit
##lys
##utenant
##uktion
Deutsch
##anti
Pää
HO
nouvelle
##thing
plusieurs
139
attend
##anne
##ahti
##ams
Vors
##ystä
1900
1909
viv
##III
divers
##chtig
infl
##mist
puolesta
Pi
septem
##usch
got
elä
##ujen
character
nah
##ktor
Cons
##unnit
##zz
Esplan
##cin
##kki
excell
##60
afs
##alo
Sol
inform
arbets
##BS
Unions
##ansk
répond
weiter
Ång
##endet
voro
acqu
##usammen
##ery
hommes
##cil
def
mikä
deep
fem
Theil
revol
exer
##anl
##rar
##iod
fact
accomp
lou
##rem
##burger
nel
keep
nut
net
saanut
fair
Anne
major
##oika
##ulta
moit
##ît
##ellement
##elmä
##uksesta
##œur
wi
olika
##gi
reger
mång
road
enough
##aben
##oles
propri
gå
##isser
månad
tekem
swe
Ryss
##wir
##omale
histor
##hi
##falls
jamais
Petit
tähän
Rev
Osake
things
##othe
##koa
##keä
feu
##maksi
hein
lien
wall
Sund
##aman
##wo
réc
Tagen
##UL
died
##ikkona
joul
Dep
thous
##éné
##ordnet
##ittä
##verk
often
cab
conseil
##ito
Anton
fine
##itzer
means
Sav
##uin
rä
Ils
juillet
fär
anim
IL
##lls
##urant
josta
##tet
##enz
sion
erkl
sek
nie
##onsieur
##well
nomm
build
##edeut
lum
Fmk
equ
Ak
##ANT
##eres
##dl
received
själf
friends
hvilket
##huone
##ously
konn
annat
Well
##sst
sour
Son
AL
contr
tois
700
aikaan
front
Bern
##timmt
Borgå
wenig
Avas
zwar
either
##ounded
donner
##gef
écr
##wen
jedoch
Met
village
##nm
##ouksessa
mest
erk
styr
grat
vaan
##aves
colle
ine
##hy
annan
donné
##nng
##ano
Richard
##édit
##stant
##ikeuden
woman
##seende
Att
court
mass
common
pouv
Damp
tahi
jout
##ément
letzten
talon
##theil
places
##kal
##ningarna
Kirj
Mel
104
Asi
föres
niiden
Juho
Tout
sammant
##éon
help
##ammlung
pie
sowie
##irm
kokou
cast
##yry
weit
omista
##gång
##iaan
Mary
##opa
Gesetz
knew
einge
##VE
vent
uu
Société
neuen
gut
##di
##jes
words
direction
##uksessa
##på
Pä
##ased
söndag
plain
##inkatu
##kea
frågan
ide
Stell
##edt
seinem
vou
Tammer
Alexanders
erhåll
felt
Hil
##fully
betyd
Lehr
Lapp
##kais
##cm
ents
satisf
##AB
työn
##vt
##oses
##xel
##euer
dö
##ången
able
179
##struction
mut
kesäk
fire
Emil
abge
gör
prendre
sair
Ek
lämp
##gat
fille
außer
October
##allet
quelque
##ationer
publ
##dagar
Arm
##èrement
Pass
borg
##rads
poin
dür
lord
##itung
Geld
dri
white
Just
##jer
vingt
actu
##lemm
##chs
kuun
##inner
beslut
Jak
low
verm
##ny
door
##uessa
##anda
siellä
vack
descri
reven
ST
##ndagen
eimät
##cient
schen
offer
Baron
frun
paikka
adresser
mieh
##ärä
##ер
jolloin
kvinn
##stånd
##sak
##skar
going
fröken
##licka
forts
##städes
1910
##lak
Kaupp
sist
reste
##gericht
##akuut
##ellis
Tämä
civil
salle
Preis
##INE
arriv
bring
##bly
##ivan
aurait
##ums
Dav
##yhtiö
Ré
försälj
schw
##las
tätä
TO
köp
Bahn
indeed
##ouses
##nu
##AC
perm
sav
Fam
lå
##assung
##ämp
nearly
##jalle
burg
maat
inför
kuts
##iltä
##oinna
##öff
Hug
Eli
##quent
Tou
##cel
manif
réf
perhaps
##го
taka
##uru
##èv
105
Esplanad
##icip
mich
Sten
##orter
##igare
##ski
##weise
South
##zog
Sw
##istaina
ram
09
##itants
hers
##wig
##örs
##TH
Après
mall
##oksen
##GE
tarkoit
km
##kein
concl
##blad
tend
travail
##dig
tait
godt
##culi
ruots
chaque
sait
##ège
##lös
johon
used
wollen
##amies
##nasta
Mac
arrê
##irte
##uite
##koon
##lick
kaan
dark
Nap
desc
Majestät
##gram
Buch
##ettel
##iko
##ellertid
oe
ott
##vu
fore
ajan
##oher
Mitg
##illon
danger
##ardin
##reff
manner
mots
least
mean
##estern
##igne
tiden
Henri
yhti
##70
mad
ihnen
##uil
lug
septembre
month
##tel
together
##Sti
daugh
##voll
Dur
##beck
##lair
##sgatan
Holl
following
##ding
##kel
koska
welch
##kontor
##amma
##aster
muuta
epä
rit
gäll
huon
Marse
##ape
case
Py
##ksamhet
##uvre
nog
sr
Tri
ottaa
därför
##coup
##zug
Church
twenty
kot
##éro
kirkk
trä
##bild
kuuka
Niin
##lott
derselben
Jahren
yksi
fif
##ato
##was
does
##llis
ancien
##auss
##75
hymä
late
##entlig
Gold
##kst
##vilj
hoit
uh
GR
##ples
Oktober
kert
##hem
train
##TEL
Beg
says
money
Gemein
##iehet
##agnie
##ustri
pys
Durch
Johan
##bb
account
vore
##80
##illed
##tique
provin
##âteau
ytt
bit
ersch
##rest
##ställning
eigen
##iell
Privat
Fru
distance
##LO
##iljel
bud
Näh
##agar
hit
##uom
appel
vale
wäre
##vs
##jantaina
ytter
##do
mys
##bon
##20
satt
##esses
lähe
deme
thy
140
##ließ
mol
Ml
##xe
##onner
prince
length
ilman
##heter
##ünf
cen
borde
##wor
cli
Auch
##udes
päätö
cit
puheen
##pec
kuol
##AIS
##tages
succès
vois
##yé
##rak
##umaan
Bezirks
tet
suis
juhl
##aisse
##aga
06
##dam
##uneet
##osed
##utom
##handlung
suor
county
voix
##rict
because
##ätten
Maj
route
deutschen
##anken
ik
Vormit
Pest
paitsi
##ichten
uus
##ids
##ücke
##arc
antal
kokous
dl
nes
enfants
##gå
##ump
anta
envo
Groß
groß
vue
sang
##so
##quelle
medel
##ск
##okka
##imer
##sy
##ised
Hj
##mäk
consid
hast
bear
sad
meille
##UI
kyllä
true
afton
##iques
honneur
##rin
tent
Michel
loka
136
Luc
wal
##räd
##fait
Aff
décembre
##ILLE
##imen
therefore
fear
##hend
coll
führ
poli
ic
##chsel
Esp
##irj
respect
##ättas
kirje
##halb
Central
olimat
##jut
##ennen
body
##iker
dimanche
Gesellschaft
##mista
These
##jana
lady
##lå
sure
##uche
Nya
Ord
Frei
mainit
sos
##tage
meidän
Sn
fau
yhd
ilmest
ofthe
egen
British
belle
ster
oper
##alaiset
cré
Kä
tête
became
##од
sunnuntaina
voyage
##fatt
##uudessa
##ode
suc
##sty
adop
##gangen
160
##bach
flere
##uls
Mika
Mä
fro
##ready
stood
Colon
illalla
##untaan
Tammerfors
Non
##ji
##40
##eleg
##ähden
huutoka
hors
latter
##ôle
ck
aufge
##crire
Kron
##évrier
Phil
One
##rit
##orin
##lichkeit
##ec
##istrat
admir
word
Zahl
Gusta
prochain
##amin
##ics
foot
fråga
Sti
##drag
return
##jaksi
huol
Mark
visit
té
FRAN
125
sant
säll
##pir
jur
##yttäm
Lund
byggnad
##igten
##onta
##kunn
##ights
Chambre
Vil
##atern
opinion
##athol
favour
läg
Peter
wood
säh
##okat
bisher
ligt
reason
##aval
##ämm
marten
##erve
##light
##iaa
jal
Fort
novembre
Lady
##uns
party
##staina
##stan
envir
##will
etwa
syysk
period
##fab
asked
##ussion
salu
hour
##edel
##oki
clear
2S
##cen
senaten
##ouver
##uttu
thousand
aikana
##jö
sade
##wort
ilta
##ograph
stånd
étrang
Anf
Hause
proceed
andere
age
cat
termin
chang
PE
Hv
kunta
matter
bene
##ST
Pas
wish
SV
jun
##estre
Ga
##itel
tomb
##äkare
mention
ögon
johtok
thou
##log
##tagas
##jorde
sista
##nehmen
children
##irten
Kos
coast
##ütz
##utus
##apa
##table
Hum
muka
kään
##seign
##ättöm
angl
Trans
cross
tehdä
##weis
##wick
##otten
anderen
akt
##IER
##unkt
##érieur
##ådet
kust
##vention
riks
arms
compos
laquelle
Iv
##fel
établ
turned
rl
Now
oleman
##ris
inhab
gn
already
##jou
##äft
zweiten
skild
onn
##ityks
cloth
##führt
##alter
##mach
began
Pohj
loin
##ennt
##henden
subject
Weise
SI
tum
önskas
Kö
##aler
##atin
Sum
##uol
Mur
Sitz
##äis
hyvä
jeder
##mär
##unter
leave
miet
berg
utom
##ittanut
lund
juin
lead
lem
kilom
##ägen
Jou
Vin
##antage
lost
##ième
bos
compte
Abend
##nö
##tiful
##nte
janvier
##rän
kän
Albert
##ilu
welches
OU
Poli
##okra
Van
##asen
Edward
##uté
earth
gestern
ext
förord
##ersch
mine
Roman
##iesen
hop
##ahden
refus
##alaisten
##ether
Prag
ailleurs
Londres
ici
pron
recht
##don
zahl
henne
hold
##ened
ock
##etut
Ouest
vat
##mark
##fle
Lager
halu
maanm
sau
alone
vorg
different
Kat
ts
##deles
##ioon
##asin
tytt
mäh
suff
ancient
sais
beaucoup
##riers
säm
préf
##alin
Bi
##NES
##ension
##meen
Staat
eas
въ
##eseen
zn
förhåll
Bret
##allen
syd
close
tot
##bud
##ität
joten
dispos
Eh
##tice
lay
nais
##ften
##ivä
petite
Kra
Coll
##ounds
##udessa
dy
пр
sar
verb
bour
mille
beiden
eau
##ücks
handl
förklar
vatten
helm
national
Jyvä
comtesse
AM
tilais
huit
After
opet
Elis
##here
soul
Max
##uksella
diff
##ylän
déta
seulement
passage
herself
establ
##sehen
bey
##esch
##lunda
##oph
##elska
##omme
Hotel
Tamp
Angl
##UE
early
Geb
##jelm
conv
fils
myself
Govern
##väm
##gär
##ussi
mission
utr
Tämän
March
##höf
##30
fc
view
medlemm
log
Lö
##anom
Christ
oppil
kuluessa
##dor
mitt
Stand
famille
Kil
##sit
##Stä
##etzen
expl
Pres
##OI
##isme
##ston
lak
##bek
Anspr
##ensom
##halt
krig
tietoja
squ
treat
dernière
häntä
sanomale
nord
provis
##öts
père
press
##erei
blir
ase
anom
jää
übr
##yhdist
enti
##uste
##uti
brother
##ühl
##vall
peace
pö
rang
Präs
nr
##мъ
Lem
tol
tarkast
##entes
##ican
Dam
##tigkeit
##jöl
Fest
dort
Hi
anti
eilen
##rodu
##25
Tour
éch
parts
Avith
besond
talo
kylässä
TH
##rique
author
Italien
##avar
##lock
note
Rome
##rog
missä
##sb
Krie
inten
nii
telefon
##iges
##gendom
många
modern
dead
##mont
elok
##dle
vér
##pal
föred
##jak
Diese
eut
parl
##ué
huo
##ottom
free
##issant
sollen
osaa
178
Far
##los
erittäin
##over
muoden
tien
såväl
ero
goda
sand
Tä
##ea
föret
lr
charge
##asia
tidigare
néc
Jänner
##isenä
asti
##pol
tat
voice
Efter
cre
franz
Kansa
terre
##kott
henkilö
##erst
##gew
Inst
Lam
##issance
boulevard
edusk
toista
121
##arena
##achen
Recht
##cd
pla
Malm
tiin
ulkom
Ost
erb
sür
kirk
isän
Fabrik
Gau
Here
##ustaja
##usm
island
alka
##Av
affe
magn
##pat
##action
##90
##venir
baron
##но
häm
Antrag
muutam
edell
170
##onst
Dé
##tz
Marseille
##ublique
##ALE
Rob
##UM
klass
##pet
kommen
government
träd
Hist
##ohen
##eras
##urin
ständ
vidare
##skt
Ath
centre
##imo
##esi
ansök
mastaan
arbetare
vårt
små
cu
##cret
ryht
vai
born
##PE
something
Silber
ef
##buch
human
sle
##ор
erste
äf
Schwe
läs
##aines
frü
gros
Hell
Ilmoit
Milit
Toi
puut
##ammik
resol
Mut
##iving
##träd
empf
konttor
##förande
##kte
rapid
##omaan
Ces
lot
##abeth
rid
Stat
malti
##gegen
National
Leop
individ
glau
wahr
##itys
Cont
våra
entend
##hets
né
pmä
lager
returned
Folge
bestimmt
Verb
Bri
principal
ign
univers
##kär
##bruk
##ication
toinen
##blick
Otto
uttal
bygg
assur
générale
##styrelsen
Roberts
Main
##gung
##vaa
##esh
neigh
nichts
##ingly
février
##gin
##elius
hies
atte
pah
ham
kurs
pitäjän
##höll
##hdot
raison
##uz
NE
Bay
Mos
##istö
kad
##chlossen
##tempt
carried
Zur
##ILL
##chsten
Heu
##rath
##ielä
esiin
##akk
jätt
Tous
looking
Stor
Kans
itself
##iere
walk
arch
Gran
commerce
##tikel
##byrå
kaikkia
points
##prise
händ
österreich
##isar
##ordnung
Zimmer
Jon
houses
##ieuse
lähett
##ération
circum
##éli
erhalten
##ettava
making
##fois
Lang
##erik
##riff
##ront
##zogen
date
##édé
samalla
projet
cra
anmäl
joista
##yh
##från
rock
mieux
##enschaft
##indre
formed
erscheinen
française
##stone
armée
wild
Forder
##esten
immed
ern
##far
##toa
größ
Dor
Dis
honour
daughter
également
##FF
##itus
Ing
familj
business
Verf
Aber
108
##OC
vuoden
Här
##ORY
disco
nl
##istration
##uone
Wenn
Kop
##isessä
##Sl
municip
##schaf
olo
cn
lah
##änen
retour
stark
##terna
##gestellt
ah
Cas
sammanträ
##êtes
uppg
Früh
##ilan
tas
Feil
Chap
mein
##ättning
einige
turn
change
malhe
7S
##uren
##tte
rav
enemy
raitti
flicka
##oupe
##mine
##handl
##uence
personne
tullut
Hag
emellertid
Gul
##recht
##za
hymin
REN
Smk
pièce
attention
##licht
##etzung
kii
Kü
côté
##asins
event
gericht
Frage
toukok
##arnas
##con
##iö
black
Gef
Vl
##orden
justice
continued
Grön
##itsi
journal
##richtung
##TT
saam
##ifs
doute
built
pied
##too
115
kept
##mål
##ureux
markkaa
kokon
ori
ball
italien
Ri
allein
##asten
##emn
Cred
förest
juuri
Cam
sia
##uttam
believe
horse
denen
nämligen
lika
##ually
bir
laat
Seite
##uppen
teki
stone
##elbst
##ardi
106
112
##usl
##rieben
möte
Pra
aamulla
##cre
central
Personen
##koja
Finlands
poik
##bei
yksity
##owers
Fall
beautiful
107
äfv
ät
Conse
ena
följd
schön
##uhr
annon
Beau
##stö
omkr
prakt
##vik
##aret
##IEN
grave
reçu
päivänä
##rig
capital
##URS
lia
instant
jung
Major
yhä
Ave
##anstalt
ket
kilos
lun
##llll
Ryssland
##ätty
secret
hervor
##bart
175
##mäß
täll
imag
gal
wit
eur
sammt
Vormittags
gau
##jille
##annut
##ÉS
Kotka
politique
##har
##ktionen
senti
Mittel
Senaat
##ARD
essa
##né
André
Puhelin
##gasse
Bör
Od
théâtre
förut
Suo
kuu
enemmän
exper
mäng
pyyd
##eradt
blad
Scot
Nyt
XX
Preuß
böra
tör
##üb
diss
##ests
direkt
vess
pes
##ested
##unen
aucun
##ül
ments
Fle
kenra
Axel
##innat
Andr
##iverse
Christian
longue
säljes
##OB
East
##ancy
tard
##nent
kirkon
exped
ok
concours
geben
##though
Ali
Brunn
laid
müssen
Georges
118
tau
ls
ME
persons
Pit
Tampere
girl
prote
1000
membres
##alth
##plac
ged
ae
lev
pastor
chambre
simple
##orben
seems
##dorf
suffer
except
LI
##ANS
qualité
ém
particular
Ule
kron
Tod
miten
dès
früher
paper
##ONS
##idé
solche
belong
##enter
##pose
##jn
unders
##rière
##Sk
##ival
Erz
Hann
anhåll
Mäd
House
erity
Japan
##ims
uut
##ankatu
rom
Coun
sudden
##Ue
spre
##itable
##OND
tyska
Mod
Gemeinde
##UX
disk
allgeme
När
gone
Rép
##ppar
heu
Augen
ligne
quant
##skylä
##htori
##KS
sådan
demain
##oto
personn
Univers
vas
folksk
Fran
aikaa
##ination
keskustel
brand
Must
##ankki
##iral
senare
##temps
##käri
erfol
##yne
##cli
##gabe
yeux
tåg
##rice
direct
mans
##AUX
##mn
##ksiin
##cept
tk
##schl
bureau
Sedan
lam
päivä
troops
##user
Ende
städ
##änsä
oivat
##ygg
separ
ål
##atti
##naden
remain
parce
Alfr
cpt
sålunda
##iert
chose
hennes
##ärmed
##nach
##very
##farty
##okr
lle
dut
##mid
177
##lieder
start
rande
##onsa
##läd
täyd
Tie
Frankreich
1864
Ll
##näs
helt
##хъ
säg
eight
##CES
##gramm
löyt
densamma
##ättig
Arch
Karj
##iil
rör
mère
##eland
angående
##rika
system
damit
##osa
##fvet
##ufen
##öörin
HIST
mäk
bästa
expos
Bort
affaire
dav
täm
##unal
##zü
##path
##ktr
medlemmar
##otz
##itik
Kesk
luona
gamla
##aro
Avh
##kset
##enta
utf
champ
Lov
##ligare
##äder
##cture
##èle
##iben
important
Espl
##keiten
Ist
taga
ske
siten
##vas
##VU
##33
hyra
Bürger
##ет
Parisien
Pari
minutes
französ
##kat
Gustaf
finnes
fört
##ettama
Svenska
päimänä
Nachmit
Uuden
stäm
veck
##äter
##nis
##car
##bé
##ishop
niistä
Egy
##pected
aim
Theater
Journal
extre
##riage
château
såg
##ppen
Termin
##gle
ganze
Allemagne
##erer
##ppi
become
##ail
svensk
Oe
##liament
instr
mah
VV
mahdoll
whether
destin
##lit
laug
office
##ienen
Pop
Woh
##itsem
hint
namn
play
cost
##läub
##DET
##ticle
abord
##ppä
need
woll
argent
compar
##onut
vik
Arth
inner
Rud
vuos
114
muist
avez
ningen
schwer
##ellinen
wait
##chn
directeur
järn
Aleks
##okrat
Söder
PRO
surr
Sat
Captain
ende
tään
huru
complet
Yes
sonst
##üsse
hamn
Pau
personnes
##cont
lok
##igent
##pped
Fil
##ores
##iselle
bestäm
##onte
chr
further
lördag
fabrik
mää
##alik
militaire
avenue
##gre
##alaisia
talk
roi
kaikk
affaires
##oster
lehd
##fern
self
Rück
Där
Verein
längre
una
109
écl
iron
nm
##bergs
anländ
show
vig
по
lettre
Hor
gär
Tav
purpose
myönt
Stud
##omob
##kauft
Hoch
placed
œuvre
Wen
ajat
##iton
afdel
konnte
Leopold
hyl
öl
##aiseksi
ober
##ieben
##14
transport
Dick
##ède
laut
paix
beaut
eleg
##hoit
fal
träff
1870
##tii
puo
##annte
afterwards
enfant
Ernst
##ielle
leb
Fri
##handel
luonn
vall
équ
Arme
##itaan
Anders
Oulun
Preise
##nden
##viä
##tout
spécial
evening
##enp
temper
arv
refer
vn
##vänä
Mikaels
HOTEL
##lm
hwil
spirit
##22
##hall
verd
##eur
sorg
pyr
underst
##itäten
##itaine
dor
Gem
##dy
Ville
##nnä
meas
##istaa
##bord
##ifi
millions
##ault
nouvelles
Januar
CO
nin
##eldet
##arie
Pan
##kap
##jenigen
resp
##hallit
##iviikkona
peine
##rach
##tabl
master
obten
häst
rac
ensuite
##stens
erhåller
Cur
appoint
Häl
prov
various
nuoris
##igte
resta
iss
hô
##kaita
Deuts
reich
befind
Vom
publi
villa
##olk
kel
##nande
spl
grands
##oen
seuran
Zust
##sf
##auh
##aude
Hart
##ungin
utgif
agr
##PP
generally
svår
ov
##piel
##ein
##uve
##ksl
rapport
replied
##edom
största
Prince
Als
etwas
##éch
8vo
##istus
Abends
tall
byrå
##olt
tj
incre
##ansson
##érence
Enligt
franco
Matti
lap
##äi
piti
appr
Wr
##eningens
Alexander
lätt
##lois
##ouss
##cour
##öre
eräs
Somm
##IA
##erg
necessary
##glise
pohj
##onds
##uire
nämnda
bald
Zeitung
Volks
gjort
##anche
##fören
sanoi
docteur
##kiä
wonder
##igheter
hot
##quence
##plats
battle
para
Rad
lyck
erh
joukko
Span
lai
organis
##Ss
##wing
##zlich
Kauf
##puol
erin
september
edusta
séance
kirja
##arp
##uksista
##otti
Famil
Earl
rose
nommé
Schiff
thee
sho
Hos
Ins
##abor
Adr
Detta
Aktiebolaget
##furt
liter
##tret
Emp
##prit
saken
##agner
Ky
##graph
eye
##heen
##88
seven
rie
trade
gold
Bud
saad
##pedition
Deux
oa
massa
##15
##isy
##klag
zusammen
prepar
##osti
Lor
signal
Barn
##ingu
yhtä
##iments
cut
Bild
##ulen
conditions
##Sr
région
Finanz
tulisi
##tigung
officers
Mun
Fahr
##erthe
##uussa
språ
##aria
Math
ensk
Mé
puoli
Tuk
##irn
##asl
welchem
##ately
Ori
Musik
suhte
##fia
Rechts
Dez
##hard
kone
okt
##stre
history
Tem
Rah
##anto
aucune
##iction
Tam
sång
otetaan
##olo
sembl
Aur
truth
probably
nå
rendre
Banque
fordr
vere
luo
agric
Frl
##roos
##lade
vah
päätettiin
vict
bound
Mak
Lyon
##gående
##ules
Pel
##ны
dels
délég
Zeu
Priv
Dou
population
##mor
##äneet
gården
##istra
Mah
Joensuu
sollte
OBS
Id
117
rii
##URE
gewesen
##reten
##lc
bestimm
break
demi
nehmen
vuod
osuus
CHAPTER
rå
##väg
Conseil
##quently
Gast
origin
osoit
##ted
##endra
Rel
##heiten
kuinka
osan
##oimik
Tuom
enqu
##elee
##richten
##ära
cm
##uari
PRI
##ousse
##vient
##öbl
ihrem
darauf
indi
##ändt
Stelle
##rings
gegeben
##aff
Ball
##agt
vos
##iez
learn
##uted
##ätter
##onto
Mün
avoinna
appeared
sij
seu
Great
##scht
##ufs
särskilda
Lose
bär
sille
##andes
étant
##issements
##üch
männ
##lly
ström
##ror
##veck
cad
##AD
##ativ
##gesetz
##lace
##ammaren
finden
##ödra
accom
seka
möglich
##satz
närmare
##ständig
deter
tästä
hätte
auS
##vää
Provin
##аго
##chant
##ae
fot
ehkä
##cb
poste
dépar
hyvin
Viipurin
Mess
Miipur
sight
lask
Leben
##anterie
Kuopio
Adv
öfriga
##haupt
Wasser
omkring
##lii
entered
Fredriks
##olar
Upp
sosial
##rew
allmänna
aband
Gren
##fficient
heinäk
Schätz
##35
Kinder
##elben
enää
##paa
States
##win
anz
donne
##elier
##aisiin
##essions
##Ul
135
##arens
ynnä
mettre
Ep
edes
Oblig
XV
##rast
Schr
däri
##voc
##olden
##ustaa
##iemi
manifest
sidan
##alia
married
obs
ib
##BLA
enten
Haf
correspond
näin
rän
article
milj
steht
häll
tunt
käsit
trees
poliis
Köpenh
synner
Gerichts
##12
##tta
considerable
137
##päivinä
##johtaja
##usa
curi
Welt
##jälp
fai
exéc
maikka
mach
##mehr
Geschäf
Friedrich
##ultur
Besch
rub
kertaa
##elli
rs
##ynä
Rosen
##ksia
women
lll
##rible
##itement
oktober
possession
somme
gend
russ
900
##kän
##eti
support
Aussch
##stände
Wall
adj
sed
##ckn
##innes
Arbeit
##ulture
départ
mål
kerran
##into
vl
ON
##zig
##finit
Salon
synd
seule
State
sujet
##konom
Raut
verst
##aught
##itté
Mars
##isted
##CT
##oktor
##ältä
Josef
olen
eld
##times
##fullt
grant
##cé
lé
##jd
##atze
116
Imat
Credit
Ahl
##pail
##bung
##ense
kuuluu
Opéra
Pfer
ami
HISTORY
erl
trouve
boy
tac
tax
sister
Alfred
hymäks
neiti
Sept
haft
sena
##UB
##éric
Köpenhamn
##aven
##laim
street
trouver
##idon
##irung
##apain
hl
einmal
##ollinen
litet
loss
##uy
total
kna
kk
##emment
school
hôtel
##inki
##ård
Jakob
##aisi
##ught
din
June
##mond
##ysym
dipl
Bas
glo
dry
nähden
##érieure
Lar
sometimes
skick
Professor
##emmes
coming
vån
Ungarn
128
##AY
sjö
Eins
##42
nombreux
nas
toisen
##irr
tällä
sota
attempt
##oille
kolme
1860
auktion
huhti
176
##komma
fick
##jects
##ppel
Inn
maase
behind
conne
##illis
Ange
bekväm
Dienst
olleet
Sver
Handel
##ysi
agit
##ORT
##aries
##tagande
Let
Arthur
##cteurs
exemp
uusi
##valla
##spr
fein
hours
ort
hatten
nära
unserer
Tom
##ID
réunion
iin
##leman
Commission
##ality
##bere
##zei
host
##issent
jolla
inhabitants
circumst
##ox
##gård
##END
##ized
gamm
attack
samedi
##essaan
##erry
främ
##ynn
Boden
blood
Morgen
hoch
intern
början
##wal
komite
##iler
storm
##ettuja
ali
täten
impro
##fre
terme
fé
Alb
cold
Jum
furent
Zt
##uchen
faith
##ielen
surtout
pict
Gou
unsere
division
Kunst
employ
yö
commissa
puolueen
##liches
##eless
kunnat
##umes
German
##maa
approach
Eig
##taires
tuh
souff
##thyres
##ityksen
jouluk
##cross
beträ
föredrag
##oix
Gab
selm
avis
seuraam
##gest
##blik
betreff
beyond
Feilbiet
##arinna
Jacob
influence
4S
ress
##ittäm
Part
##blatt
anything
bedeut
Sitzung
##13
augusti
Rh
Act
travers
##punkt
klar
suh
condition
distin
Hôtel
joiden
##nk
farm
##tiä
Lan
PR
Spr
1866
hvars
presque
garde
Fabians
föl
vente
Hamburger
Hed
##ograf
##ering
raken
##itty
##allinen
FR
1871
##jord
erää
gri
suos
Mt
Long
##enk
##gang
##elled
Gott
##INS
CM
perfect
##ouve
350
förv
död
fran
##iately
##häng
Turussa
##rella
##emble
nings
aine
inläm
Tis
##öhn
Namen
##ollisen
taking
anx
oikeus
##gift
gebracht
##iling
##ikään
Eisenbahn
Huom
##ray
##TADS
##ymä
erään
proper
##reichen
underr
ajou
ollen
##zel
greater
januari
Inf
kih
##iehung
##lut
Royal
environ
vaat
MO
vern
Dun
regr
##ouvent
carry
Ih
näytt
Hin
##aving
Pris
jeunes
jeden
##tended
Anst
demselben
lange
seurak
210
although
territ
##44
dispar
Borde
Abge
book
Lap
##erty
##märk
Sä
ready
##cte
##följ
Best
mant
gall
##ods
Hill
##amo
##irie
oft
##graf
parish
edelleen
##clam
maail
Mauri
##ettua
welchen
kolm
ruh
Ai
##LAND
##rache
numera
##fch
reached
Actien
senaatti
##herr
##isième
##eni
priser
tred
##ttori
härmed
norm
conce
Ret
##teil
Kfm
##ukk
followed
lid
maanantaina
##imaan
République
##uista
sound
Ara
##bruks
mess
Tap
really
133
macht
förr
ns
OR
finsk
neuf
##ahan
##nel
##ooni
spring
affär
July
accep
patri
täytyy
glad
##hed
lies
##idaan
sida
intéress
ouvriers
##vos
Dame
veu
##pend
##uoks
äfvensom
royal
uuden
##imal
obe
depart
façon
##UU
##ummer
1872
Gö
Brü
Us
verw
forces
Pen
##29
handels
Kons
mains
##aika
kaa
##elegenheit
Amerika
##imir
covered
dent
##mu
verkauf
##iiu
lett
Wechsel
Gel
convers
##érer
kommit
##bot
113
står
passer
##fic
##ynd
Léon
##alon
toimin
rar
öppet
gele
habit
Laur
Militär
blads
##quoi
##itr
##fvande
##üng
yng
koet
cœur
impossible
top
Ken
sufficient
agent
Sak
années
nost
##ав
tänään
Hir
##uments
thro
■■
Montag
einzel
##umen
Verhält
assembl
##cious
quiet
##bu
gick
##VUDS
natural
##identen
Blom
difficul
besonders
purs
##16
##fabrik
sådana
##fehl
husband
introdu
##ibli
##zi
herra
##kis
polis
haut
##ami
##aks
##inm
manuf
Wochen
##bury
tärke
Feld
siel
##dien
##ählt
travaux
doll
##tere
méde
##kauppa
send
##PH
##igr
##alm
##alley
Sain
Mex
##OUS
mouth
retr
##ottu
##utation
roll
##ttu
##rick
Kind
värl
Kunn
kapten
Why
##iri
Some
cried
skog
Natur
services
würden
markan
suu
##oncé
ganzen
Oper
pari
ulos
##étés
Oskar
charm
##stantin
tänä
strength
Cer
##feld
EX
accus
166
cep
##juk
ilt
##führung
lön
mn
Zw
shore
måndag
courant
pot
##iör
findet
paikall
##êts
Mädchen
End
##mittel
##lor
penni
gas
lasten
##iro
##byggnad
##drig
Rem
tapauks
на
1875
forth
verschied
##aded
iä
Kaup
Eken
Tid
else
kast
använd
##järvi
around
##ttt
##hood
##ssch
Gläub
##edd
sweet
##uttua
officer
fun
begin
synty
1873
##äni
##nten
maintenant
Belg
lust
##yö
##ske
GRAND
unver
kokoont
##êche
lös
##bör
journée
##45
halt
portion
##ching
noble
alkaa
##hålla
tähden
allekir
Indian
##sicht
145
##ellisesti
kass
ling
afgår
##26
tammik
gegenwär
##OG
plu
secrétaire
##yty
Lä
##deksi
##nnn
alltid
adr
Ihr
##landet
vag
##âce
dress
##kommande
faite
nationale
hopp
dos
liga
Past
##andena
enjo
Hl
Winter
Lt
##von
province
##gress
##üm
##acy
koulun
save
company
soirée
##äsen
los
Ruots
ell
##TADSBLA
kant
högre
nebst
quoi
##anced
across
##iesten
marsin
##hta
vii
##timmer
##ат
##MENTS
lil
Eu
stå
fått
##isches
seines
fäll
appearance
##fense
kem
enfin
##lement
##kol
##rages
ammat
##wür
aflid
Schluß
hänelle
##ollisuus
bois
puhu
##uff
##ael
socken
##dä
Jahres
dû
##arf
Sec
##ivo
##hil
##ettämä
wirk
fortune
Gam
internation
##day
##ago
##cription
blifva
dessus
tillfälle
sör
font
##lande
David
arrang
##sait
building
mist
äld
indem
Ferdin
matinée
##äts
parmi
Gree
##CHE
princi
seuraa
Kul
##omo
reign
##eté
126
##jäm
##llerie
##immt
##bär
gegenüber
nytt
poh
##ONT
Lande
chem
Dre
##jalla
importance
confi
Lak
##iety
Win
sehen
jouk
johta
lån
colonel
##ême
Schne
Prot
##fäll
erz
##inan
kokouksessa
answered
fan
lehden
fen
##sv
morgon
1862
malt
##stu
##ijä
##rådet
##dan
ig
Helsingin
tehty
Uleå
bin
##oria
##wur
##iemen
##tific
Queen
##dire
engelska
Amster
object
Bordeaux
Are
##erson
Liv
##édie
##ilà
gentleman
##volution
##onti
helmik
jene
Champ
erhålla
##kunft
Antti
sympath
ark
renseign
succeed
språk
ambass
##yksessä
##vant
jol
domic
##agné
##ksa
tain
lib
ij
niinkuin
öns
gauche
Nieder
japan
ställning
##akenn
##ero
slags
lieutenant
lähtee
Wol
##haa
165
##ettaisiin
oo
##ynt
mih
sons
continu
ging
##taus
##tai
##händ
méc
##imet
happy
##oksia
circul
months
Kai
Havre
##viljel
nég
Sunnunta
invid
forg
field
HUF
##jets
cuis
finnas
##hende
##sitôt
##ikö
lots
##ahren
jatk
fä
Stim
##Mi
127
Magasins
##chter
timm
propor
##etun
trust
##ared
mile
##ymmen
##ütt
Tages
env
Marten
lic
bewill
##köp
mau
Denna
crown
##ikat
Kirche
Mau
patron
##eterre
passé
why
##aran
sofort
sû
##18
slä
Amts
attra
chemin
joku
koti
##respon
##reiben
ouvert
##ikeus
##ändes
amis
schre
troupes
##credi
render
jede
dad
marché
prac
##ragt
classe
rot
##oksi
concert
##onnen
troisième
pauv
née
passion
lO
snart
musik
##gence
##ichter
anglais
lehti
BE
##issait
Gall
bost
bref
teen
kaupunk
alkaen
Bretagne
##cially
##vernören
##prech
genommen
##laud
bid
##jas
longer
##oda
siksi
##alität
wider
##oly
österr
ruk
##MP
intell
Lis
##håller
Hem
sämmt
muos
saadaan
nit
##jah
deutsche
kaun
##ico
kyrk
Skil
##jot
Mü
AD
##ffär
169
kart
låg
esi
remained
1865
##kommit
##für
##emmat
amour
arme
mängd
##ledge
##ishment
##lv
invit
olivat
##EST
särskildt
##phe
sommes
erklärt
anst
##acher
music
Four
dazu
garn
##istence
1863
Hänen
valti
penniä
##ôme
espe
veder
##23
neuer
Lage
Wid
specta
##prochen
##asm
arrived
medan
group
Portug
1874
Sonntag
Flor
sot
##TIT
##önn
##inte
##ssi
##enschen
rencont
##tona
entgegen
##ichtet
##skott
##päin
##uded
##wes
Ritter
##uneen
##wd
Cir
##veur
live
saatu
##igenom
raised
olemaan
gjorde
Beses
##ging
##field
tf
Beam
Sitä
sto
##komst
semaine
according
##auksen
immediately
##ensa
lundi
##time
ås
sagt
grad
##ammare
Rä
chance
##jun
Vr
färd
##utaan
fellow
brig
luok
Voici
Vorsch
bout
Sche
lamp
mater
Kaufl
Lovisa
added
administration
bright
kejs
##indung
##inna
notaire
uthyres
paris
skrif
##ningens
Fau
vien
paid
##lingar
teur
stadens
spel
taistel
Jyväskylä
##itaires
##vv
##jt
recher
décl
Leip
##armac
saapunut
kauppa
langu
##iina
Mitä
declar
doc
##ml
fullt
native
##ility
moder
trad
##teu
##pråk
perjantaina
accident
ves
##inent
reconna
Puis
afseende
VII
bevilj
silence
129
##ishing
petits
##ås
yours
##nelle
Cou
rörande
##cll
alter
##ffa
siv
gene
##empiä
fand
168
##ckte
119
Their
imméd
##wat
rendu
alkoi
bringen
##bund
##gör
##41
aldrig
pii
agents
mul
IT
##redi
##vaux
fördel
##ffande
dim
pant
Tamm
##ölker
meine
excellent
pièces
Maurice
Gi
koskem
associ
##hoita
##otaan
##laget
acte
Stein
##usen
begr
recomm
##iele
sådant
##bend
hind
##ел
450
##känn
##utti
liten
cam
visite
##ustom
##nder
joissa
Joka
Vater
##hib
list
167
kruun
suomalais
ausges
Nacht
Bad
ee
##inl
numerous
mehrere
sopim
sex
Palais
maalais
American
##gehen
pren
harjoit
menn
Ida
värde
anord
##ätze
Ern
tiistaina
deb
##kreter
pav
##andt
won
##äinen
semble
Alt
##pri
einget
##oved
entra
båda
##VUDSTADSBLA
Colonel
öfwer
uppgift
##tagit
original
remember
##ohlen
Nic
respec
amount
accept
##klär
komp
Salo
Its
juge
##Ct
##pap
Heinrich
mountain
jotta
##HI
observ
Wor
Deutschland
anställ
##lier
Alg
torp
commissaire
##hab
155
Bortrest
ikä
ferner
Vlad
päin
Esplanadg
##maks
##attes
Monsieur
duty
##mitt
##AGE
traf
##lings
bak
perd
sagda
##bara
##stäm
appears
##apt
devait
Cher
ungar
Bul
masta
##treter
none
Ev
betr
moim
Kaar
halten
Sau
##tsk
maire
##37
##mäktige
##erng
Versammlung
landets
##oil
##hire
##fit
##istin
##wart
egendom
konkurs
työtä
rikt
ought
könne
##vey
##amål
##irent
esprit
saan
##iih
Ecrire
gere
##ones
öfv
suost
difficult
##vision
gratis
exam
nécessa
##ISS
Amsterdam
inqu
Français
##siä
trem
Kont
particuli
##ан
Lebens
forward
stehen
Lok
Brest
Bil
Spar
##rant
##otetaan
##gande
##onse
##ymään
##isessa
sisält
Henriksg
##frätt
##OURS
Ten
##hoben
America
cabinet
##wan
##annen
tillhör
Madame
##ielis
##ivent
sitte
vih
mauv
##itse
kaupun
##LI
##ilar
ministère
möjligt
horses
ral
Sud
Jer
Pun
stället
maskin
duc
pn
##ordin
##angt
##joen
page
##tad
miehen
emb
nad
living
third
Damen
Beding
SP
##laß
Form
Toul
##assin
pourra
kannat
huutokaup
Sou
sik
quin
report
Court
grandes
##lay
edist
##47
femmes
capitaine
##antai
##unnassa
betra
Gericht
senaatin
Scotland
Kuul
##venne
##gas
##emen
Mc
Unionsg
Rbl
frei
endlich
idea
##oina
kauppias
béné
suomen
upps
##ölle
mêmes
vackra
groupe
##izen
gee
stell
Björne
##bours
##chester
jonkun
##lemen
pul
utveck
ks
eil
privat
opened
Vast
dahin
##felt
Preußen
##rask
##gärder
aiman
arrêté
Wohn
Dist
##artyg
Rath
Tab
below
partir
dépos
Ludwig
##iei
PO
dieselben
Wind
resa
##venu
maî
Agent
angenommen
##ücken
lienee
Wort
##yssä
joit
Bis
##weisen
##stead
Margar
preuß
##atuom
Työ
##öffnet
biet
Zoll
##naan
HE
##legen
november
148
##uudesta
##atl
##apu
pension
##schein
vaik
stock
dör
220
##antly
passe
##sken
Reichs
##jänst
Firma
due
##MI
vrai
Morg
##kunnan
besök
compan
##nast
##ftr
dieselbe
Eriks
alli
Vice
##iew
Millionen
##OUV
##erad
morgonen
story
tons
bätt
determin
honor
##iai
enquête
suppose
ensimä
##illé
lm
Frans
##liin
publique
##immat
föd
##ieren
försäk
mén
rè
##taine
extr
febru
Alla
phys
##com
##Ui
cop
räd
##ington
##kta
##stads
Colle
scarc
Crown
BO
utl
oly
Ton
tung
maik
mistä
monta
property
##ablement
tulla
##etze
parad
toimenp
prépar
figure
condamn
writ
##aksi
stam
##ified
arbe
Kauflust
##iable
##istu
Leg
cry
##ehen
##urr
wä
geworden
##olin
Hull
##ähl
Feuer
Abgeordnet
säljas
##wise
compt
6d
stellen
##platz
constitu
pyyt
##üche
##lingen
##afé
titre
ainakin
##etten
pääll
##hington
##reib
belopp
extens
##ydessä
darüber
mise
neither
##skan
pleasure
##ändas
meddelas
voiture
##17
##uilla
närvarande
##otus
cependant
pred
##eton
röst
detsamma
Rein
##väksi
alten
viele
##38
haf
##aisille
sna
##folge
##CO
##ukka
vak
##уб
skr
oikeu
eivät
kim
##idents
##bah
##xte
##zw
Helsingissä
##fahrt
Maß
##angel
distrib
pouvait
samoin
hallitus
neighbour
##Ut
bras
##27
questions
rus
scene
officiers
longtemps
rail
race
Län
gesetz
derniers
kunnig
scen
Where
alue
joy
Acc
##MA
##tiger
regeringen
##oder
Vic
programme
crime
Rue
ignor
##ortun
börj
Zug
Georgsg
##vien
gerade
Donner
protest
##olas
##ORD
##alai
intress
##ez
Hrn
works
##ouksen
detto
exec
cord
fmk
##undande
Pont
colour
määrät
nämlich
daselbst
##yksiä
assa
disposition
Lr
##tager
kohd
ruum
måtte
opér
Gir
##werk
gjord
excl
blanc
Hind
muita
synt
hänet
Aust
bereit
IX
Const
Dezember
comité
strange
Mitglieder
Hugo
Suur
Aujourd
##jät
herrar
Angleterre
warm
##ellisen
vac
##ttä
instruction
##riften
Our
tehtä
##eurs
jeudi
amp
##face
maître
vieux
äuß
##cti
däraf
coups
##ignes
Cha
##unda
mouv
Väl
Mikk
descend
##ettom
weiß
corre
usein
##eltu
nations
##ittén
##CK
AA
##iota
##chi
Maison
Uusi
##ikes
uppf
monsieur
Helsinki
##bat
##dra
savoir
tarjo
million
##ся
##ettuna
##ataan
intérêt
mii
rust
voim
tand
JU
minun
erre
Quant
##taining
Tv
##toja
##ycl
öffentlichen
meddelar
India
Gust
Jur
##äkö
lequel
käyttää
poursu
Sold
thirty
året
später
Sache
147
##ettin
Island
##pic
##ländska
Mk
##massa
##ellaan
jug
tran
sähk
aid
##nehm
##iehe
##usia
aper
hjär
yksin
auki
##39
##ariat
commis
##rikt
matkustaja
konkur
mentioned
sisään
jähr
läht
scr
##amment
lisä
Wege
obtained
église
distingu
täglich
##tila
Quel
S7
ml
beauty
yhteisk
cri
meeting
marqu
##joon
mountains
Kuus
green
##lies
district
passager
##sar
enda
ruo
veut
ingång
söka
sla
##erred
affärs
kt
Sig
Ferdinand
automob
rôle
Rei
leicht
##pell
subst
écri
Süd
säker
United
##wahl
##kää
lux
quick
##ird
##TON
##WW
AB
DÉ
fête
1867
ör
##auksia
profession
proposition
##bygg
cler
##yryla
Skill
##lia
##fallen
##abei
porter
##alités
februari
##nac
Jun
Dess
##ungS
halb
gab
edull
hn
fruntimmer
Simon
guard
seien
deuxième
future
##bit
Kaikki
Vort
##landen
feeling
##VUDSTADSBLADET
Anfang
courage
Werk
Tul
rekomm
Sé
##nats
usual
député
Ekenäs
runsa
cheval
Gaz
témo
neet
century
##AINT
uni
fallen
utskott
höll
pretty
##itze
Tir
##jien
vt
##innon
##alu
musique
ue
listen
##acon
##äntö
Tél
efforts
suivant
rele
##uug
Kaserng
##berger
##mak
Mein
parfait
Duke
##änne
##wr
##olen
##ällen
opettaja
gouver
existence
mour
Ae
stod
bekant
asianom
rv
rann
Palm
##istään
Sohn
##genden
erg
vitt
Armee
##ya
##attori
ete
länge
##CTION
pouvoir
Dép
tho
##zed
Dra
##ürg
fünf
##dert
##gått
value
##quement
upplys
inspe
Andrég
religion
##bets
##aled
##opol
gammal
Kriegs
double
lugnt
Person
##lek
chac
hwar
väx
hills
##24
walls
stream
##gne
Sill
206
##riä
sense
élect
suuren
Nikol
Francis
ago
moral
emedan
Bere
meillä
liegt
##ags
Krank
##cheid
exception
##yll
##jk
##ääkäri
Linn
présence
verkauft
shr
Hur
postij
Jules
##theilt
kop
##sache
illustr
##34
hiesigen
##fon
otta
nykyään
aussitôt
##MB
rer
Arbet
commandant
240
Dampf
##ügen
##riv
##anee
##umb
##antie
##ckeri
##oS
Saks
##duk
économ
Bek
inj
Ministerium
défense
##hel
yhden
Cab
##ros
##igné
Street
fann
##tts
malgré
##oimisto
Jl
##allisen
mou
Lag
Kam
Napole
kuulu
gratu
ningar
##intö
joht
verkaufen
fyra
Comme
Sää
creat
Fürst
vs
Gil
##pil
dritten
##radshöf
Glo
Tysk
saakka
mare
scarcely
157
Sach
besten
anför
valeur
solchen
dispon
Menschen
ien
schl
Gatt
authority
undersök
Imatra
långt
##uj
##träge
parents
märk
##üll
Nyland
Hoff
annonce
dän
utter
liike
High
ron
material
rocks
understand
marquis
##Mt
iS
##det
Temp
moyen
début
dj
articles
plant
Mand
sacri
##fordert
Grande
takaisin
##bn
board
##tellten
##essään
Platz
##üns
Wohnung
##stående
tietää
##miä
maku
silm
Washington
Ram
##änger
Rente
##oima
##druck
Nachmittags
COMM
sinne
delight
Hämeen
Senaatti
ändamål
PRIX
##éder
ofta
famil
##treten
ilmoitetaan
miestä
ålder
Förs
ros
Uleåborg
rain
##28
##gem
Ull
##eda
##elmän
##wis
##ykset
Frankfurt
##oton
Jud
Corn
##omin
Offic
COU
##markt
poet
##illaan
conduct
Menäjän
considered
Hamm
##eil
tm
##skola
Crédit
##woch
##inc
discussion
##leur
nämä
##Ma
##fn
fanta
##neh
##ennung
trente
skrifv
spoke
virt
joko
##ored
##mannen
##allisesti
frag
rare
behandling
##inkiin
##äss
mode
Lim
folgende
Jacques
omais
private
Pil
sucht
Bons
Tai
Brie
addr
##ibus
Heil
especially
elever
159
månader
professor
arrêt
meij
lokak
result
##agegen
##austa
enl
military
Camp
helst
industrie
##igue
hinta
Compagnie
tredje
auront
syyt
kohta
##annin
unga
arrivée
scheint
chau
progress
alldeles
Advokat
broken
Oui
passa
##Sm
Hyp
##19
certainly
mötet
tillba
##mögen
områ
City
kingdom
facil
cote
kysymys
kansakoulun
hed
Hvad
##utu
budget
ore
kra
##behör
igen
Lad
path
lour
230
papp
ved
brill
slight
spot
Phili
##johta
äldre
minkä
liitt
Gläubiger
##naires
angeb
exact
ouver
ail
##utet
##änz
fu
parties
repe
mät
exerc
pt
Zum
##tirely
##roll
souvent
ekonom
Rio
Beis
##owing
Glas
Kla
Ireland
Loc
##endem
CA
##46
Björneborg
##loß
##ania
discours
##kre
##fahren
oikeuden
##arlen
référ
grav
gi
peuvent
intresse
##hnyt
själfva
written
##ktör
##ilst
ward
Osakeyhtiö
wollte
##arit
järnvägs
##ryck
Haap
members
##oston
engaged
##uust
tekee
ds
Aller
Ot
claim
##UT
##imman
##bjud
kre
mardi
mande
lisäksi
orn
##âche
Holz
Kerava
empr
unge
##hrt
forme
Sör
##illeen
droite
Pietarista
tyd
pon
plais
DaS
malad
##elk
supposed
Lust
poika
kraft
##otu
afsl
fis
ljus
##tamista
##itor
manufact
Snell
##tecknad
##ligheter
Etats
tulle
deal
Noth
##istre
1899
pik
Government
Gewer
heavy
mista
december
##ields
Ångfarty
##benso
arg
##vak
bom
Auktion
##uner
voulu
Ged
öppen
##ringar
count
##usik
förmån
##stå
##main
gibt
entirely
somew
disa
Rose
oman
förel
vant
##iw
design
nächsten
observed
sleep
##uoden
utgör
appointed
sällskap
##49
renseignements
hei
terrible
Män
##rigen
fonction
Altona
Sverige
mainittu
Prinz
##ERIE
##ännyt
dass
uth
irgend
premiers
princes
avou
seis
furn
##pin
Niem
##igu
##älleen
grâce
bata
##oj
##lication
tyttö
156
situated
thick
##bell
varm
Isa
ohjel
##kalle
##OY
kaiken
##ordent
phil
##ELS
##wirth
afsk
tc
anl
rech
Mn
prevent
lived
##ichtig
ifråg
Suol
muuten
##post
candid
1869
##hung
##äjä
##ipä
nykter
tehnyt
Rautat
skrift
Avhich
Opp
##wood
##atives
dadurch
banks
Krieg
soldiers
##tiers
Bok
Smith
Nachrichten
asioita
natt
kummin
program
lower
Wald
minut
Masch
##ед
bif
skäl
##erver
##tirt
säil
fäng
##elem
avo
##ALL
lor
jäsenet
Gut
later
750
Kär
olis
notice
lever
Vier
tog
##gårds
ulkoma
innehåll
préfet
repro
hålla
##itystä
##tial
prim
##leby
boat
##ètre
##aliok
trouvé
Mart
Anm
geme
##päim
Real
##eks
uppför
foule
keitti
158
Boulev
##uksensa
Conf
Nantes
pitäjä
MI
acres
Esq
olemme
##48
##ineet
Industrie
IZ
##enius
kiit
Kais
yhteensä
##onté
Ott
Turku
sep
Oly
Dir
Norm
Suomessa
onsdag
contrib
accompl
sanot
François
davon
Hak
mt
bättre
UNE
capit
Mes
Bericht
rd
Prés
Weg
##king
##ordering
##bå
annetaan
##ufig
muodost
Walter
dant
##koh
##werth
Kammer
vicom
autant
kou
Henriks
bons
stopp
aU
arrivé
##itag
Litt
Dal
caval
Jes
worth
aged
destro
##isteri
kaupungissa
##insen
##ühren
myönn
##velopp
élo
##oski
eût
##Me
##ufe
##ött
Woche
##attle
cele
fj
jään
##cur
##viks
##sts
günst
##43
kleine
youth
teatern
##äster
Mm
##yttiin
varsin
Kreis
rab
Jeanne
##aris
Kauflustige
kell
därpå
Jä
fath
##itl
bd
lördagen
aan
Geme
ligen
Quand
occupied
Egyp
##oulun
fêtes
##ultats
Mik
##ERT
##grund
##char
Kro
Fi
Get
##cked
##kla
##iipuri
juh
assistance
högsta
square
Wohl
##ifen
amer
##rah
Helsingistä
Bund
##cus
ostaa
venait
Roi
##bö
expedition
lichen
gran
##tha
tuon
distant
##orget
##Sn
AG
Madrid
##Ssä
Brief
Div
Bir
mielip
favor
muutamia
##kadem
lettres
##nant
quelle
orch
##baren
possi
##estari
##ivement
käm
named
näs
ruin
##mission
industri
äng
denselben
##raa
nuo
lake
afgif
##ERN
Offer
asio
maamme
palkka
kaum
##ichtlich
rums
erster
##iate
cant
Sii
kro
vänner
dc
Arbeiter
##uttanut
##äß
Bell
skyl
outre
Kamp
dersel
marine
##ervat
splend
##nait
interpr
geht
hair
##cing
Thr
##fvo
SAINT
PA
milieu
taina
kassa
Cours
domicile
##adr
ända
übrigen
täy
scène
##inker
écrit
Stellung
##urre
##ydd
tehta
antag
Stads
Heute
##elve
continue
edellä
Ox
firm
##ökt
bay
##rd
Jung
iva
huoma
deg
Mass
##eler
täys
##rine
décidé
erhe
sijaan
samtliga
innan
produit
Rum
sacr
tillbaka
##aces
149
fresh
##isson
Ler
sides
##éléph
##oisen
Helsinkiin
evident
Porin
##quid
wag
Nylands
Alexandersg
##önster
##ipes
146
weniger
hung
dyl
dat
##otes
kw
##bin
##aum
##ijär
mier
Kv
corn
déclaré
siir
1861
extent
Bat
sli
##äkään
Lappeen
##ligtvis
##antil
leaving
ala
febr
##issions
QU
Poh
concern
clos
cous
castle
Mäk
Pian
applaud
tio
##icn
lista
ooh
wide
##orium
senast
henk
êtes
##oro
Polizei
fight
oför
explo
##rai
mjöl
section
##ließlich
faisait
désir
##esp
##orité
280
##rau
Yet
##agement
hyp
kustann
##uuteen
##naire
tvenne
##empia
ensam
##dagens
##chan
lähte
Sjö
##bring
society
oikein
slow
##tog
##roffen
Jok
##timmung
##tyg
républic
kumern
gods
##andra
Salz
Toh
besoin
##isille
värk
säger
occur
##olit
##crip
chiff
##endung
standing
remarka
##idem
quartier
Horn
liikke
säga
Mittwoch
todist
puu
activ
##erm
##vara
##elte
ture
kvin
##oite
kommt
venir
##isé
großer
Ray
différ
Wit
sah
nament
Orlé
Old
##ägt
##alet
##itetään
afled
Had
Garten
##olli
kuitenkaan
CL
labour
FOR
rédu
toimenpite
kertom
semm
Dag
##ijat
Tim
Sib
expect
Kum
##laimed
kür
Andre
torstaina
##öder
nieder
##iehiä
##oisia
pure
##hold
fier
âgé
##onné
Vis
##haber
##takunnan
##tschaft
##erskor
RENNES
Asia
##uvres
medic
näyttää
allgemeinen
Beschl
##otter
##dings
foreign
elämän
kläd
riv
Kaufmann
sall
circumstances
##pps
##seur
Auff
presence
##fvare
consé
##ppu
##ELL
Herzog
asiassa
Ingen
afford
härstädes
##jl
##tera
tenu
Kontor
anf
clock
författ
##auk
cultiv
##isses
##anzen
Tol
ilmoittaa
expression
Rus
lue
##amista
Wirk
gute
instru
##avan
Enfin
Norra
##olly
erhållas
##uous
apul
greatest
Dieu
Belle
JE
##oppil
stri
##otto
subs
Gründ
apote
kielt
Gest
augment
##LL
hiemit
##strand
soft
varande
lorsque
##inde
seat
fill
toimitta
transpor
##etä
##uelle
flick
Geschäft
bâ
bitter
##mana
bezeichnet
orders
##TO
##komna
conven
gaf
Jack
därom
##36
base
kuoli
jener
##mense
Michael
toimi
päivällä
sagte
River
roman
nästan
##iljelys
##uihin
##edda
golden
civ
##ogue
solid
##wall
köpa
lande
devoir
##blement
Joensuussa
##usla
Tyr
##verein
föreningen
##ikke
##IRE
Bär
sommar
binnen
VOL
##inne
schle
Artikel
Muu
vilja
##ppan
retir
##öitä
1889
noir
noud
HUFVUDSTADSBLADET
dign
effort
auto
yllä
##udet
Interesse
##utés
##omi
##cia
##peror
skär
mittel
resultat
##ientôt
vanh
nia
fisk
osta
Karis
méd
##äch
opportun
asiaa
##culiar
##förening
Moi
siè
andern
##timat
choses
##uction
##äläinen
försam
##oner
tek
ea
##pping
remains
##elia
Fuß
##odor
##osch
Feu
Truppen
desselben
##rande
opposite
intention
##uder
pourrait
undervis
##cie
määrätty
lähellä
améric
syndic
##hs
CHE
militär
letters
##joitt
##möte
pont
##can
##unnalle
##Sto
##enses
Mitglied
nimittäin
TE
##handlungen
##schast
AI
én
läßt
##aches
betal
narrow
toil
lämna
keinen
Genom
franska
municipal
##årds
##ATIONS
Adolf
##ef
épre
lesqu
fifty
rade
synes
Deb
kleinen
##gare
bag
Brun
Sax
Feilbietung
brit
##roit
##gesetzt
##lander
garden
199
faits
mait
##oted
Presse
sagen
ohjelm
Who
##ués
entsch
##anna
Rait
##ochter
##gro
Gas
##ateau
##ört
Partei
summer
Bot
asiat
names
vacker
chen
##järjest
ymm
AT
Orléans
anch
besonder
retur
##domar
Aux
Såsom
##achten
##wit
##ол
Sem
Johtok
Ehr
Versa
hyr
einigen
âge
##ôture
Mot
Mol
peculiar
TRA
ensemble
unbe
##antwort
jedes
ymp
Termine
Club
##cis
alte
Indians
gällande
Company
##jänsten
Margaret
##ATE
mere
##stimm
##cement
##entin
cart
surface
##aires
ordförande
dég
Ruß
##allista
##nit
##ieht
##rieb
news
päästä
bestimmten
frais
##arian
Wahr
delen
hvarför
##aitos
éner
Pietariin
ud
Eliz
indis
260
Pie
Castle
Dö
saf
ledig
Verkehr
Lé
Ents
Ach
ferme
Gulden
celles
Such
ouvr
##atic
trouble
knowledge
##vre
##enntniß
style
Aktien
fus
##lon
suit
calme
derselbe
ji
åtgärder
##uto
känn
Lil
hallituksen
saman
##folg
Miipurin
hang
NO
ships
##esk
##öfver
säng
BAN
melkein
##meu
bleiben
##istance
##atio
mér
sole
Anze
understöd
ångf
##öjd
Högberg
valley
osast
##önen
##esseur
Maa
##ureaux
uppdrag
tree
huomioon
Public
##stedt
##atever
##punk
teck
gehen
surprise
kerr
Geschäfts
Tiistaina
##asses
llä
dabei
winter
Julius
##muka
arrond
bruk
livre
Commer
Aud
Gri
impression
weak
perhe
Pé
##venue
Pes
gifva
fid
spectacle
##blom
##väen
Good
##oulu
##ivar
##ikas
##okset
##eldung
iltana
elektr
hardly
Tors
nöth
mään
journaux
##akuutus
könnte
##inden
##urm
##KI
##gie
Fal
##skri
##angas
Illustr
verksamhet
##ctive
Kna
previ
ess
amen
gestellt
##ED
##attoman
demie
Grundbuch
##illy
##onstr
employed
##üst
##örelse
arbeten
repar
tutkim
##iljely
libre
Russie
syystä
takia
aihe
otti
##ichtung
##ushed
Vie
exist
kerro
1868
##oinen
prise
smör
affir
Pohjois
##isie
société
##estaan
Sans
choix
##chste
Vall
Hus
Thus
uutta
certains
presse
acquaint
Spain
##ynti
deutsch
asiasta
##igner
egna
Ib
Einrichtung
##vy
forms
##tama
Pul
225
##oration
207
meu
koulu
##aterial
##FOR
brave
passing
mesure
actes
##fice
##isellä
fel
pé
##uppa
##lers
yleensä
##ställa
soldats
höher
##bare
congr
terrain
Plus
inr
##räde
##önt
tort
##uré
##altåg
erwäh
moin
kier
##kadun
##icks
ek
suddenly
hohen
attrib
record
##raph
##ärer
##åren
expected
##fil
broad
##ifl
saisi
löne
##ification
entrée
Wel
server
luul
##lain
Chem
comes
##atto
##osph
Ceder
Park
##zuf
Sicher
vote
##igs
##uced
##gens
Stad
##ech
##gna
soi
Lehrer
gått
##wand
##aged
politi
irr
rc
Senaten
osaksi
demandé
erected
1898
nachdem
desire
Wood
Zn
heil
##örer
owat
laws
seud
gift
##IES
mußte
Ihre
tyt
marriage
##hors
language
##kret
##tant
##itn
heraus
hôpital
S4
nal
##arh
##umed
##äude
##aften
näht
comment
##BB
##pn
frågor
##ppet
Leht
Lip
##fir
##tadt
ltal
saapuu
##räck
militaires
Lab
hud
parler
lauantaina
##arpe
##iljetter
skö
##Ml
killed
yhtiö
match
131
Arn
proportion
stadsfull
Sto
##klä
##otal
##tient
pale
öfrigt
wär
notam
école
paikkakunn
dame
précéd
actuellement
##joki
Gard
suomalaisen
Anspruch
##comm
kand
huomaut
##refter
sinä
surpris
Hvar
Hn
PETIT
joilla
chant
##elu
rise
tarj
express
sechs
häls
mouvement
purch
chasse
##ioit
lung
immense
##nades
##elegt
union
##lika
blue
##cell
Samm
intet
Lai
Garn
rig
##enskap
quarter
Lat
##orer
Notre
Är
Ln
Rede
##fach
verste
olema
regular
Reise
Back
officier
acht
Landt
Austr
bull
##jahr
Antre
auteur
uusia
Hom
SA
ng
##OUT
ihres
bot
conn
vessels
Bezirksgerichte
Lü
paikan
entrance
Philip
266
##waaren
söker
##xx
COMP
week
hotell
##Si
##eh
blessé
settled
theil
ää
##utions
Elisabeth
##attor
Schuld
##unä
anzu
##erved
single
spar
Steuer
similar
height
PL
Pré
pauvre
##inst
laiss
ambassade
Sis
Pic
parc
voie
Hinta
Voll
tient
ließ
##pres
Schätzungs
hell
Tall
##etting
Kosten
##SI
försig
Verkauf
erforder
vendredi
konttori
##orme
JO
Sord
kesken
Lon
anslag
##uku
holl
##nni
##chr
Riga
##21
Wik
ytterligare
kokonaan
nästa
##etin
##atri
tres
install
encour
kut
Expedition
##fri
lilla
onkin
##attar
Théâtre
##ßte
oma
telle
##unnon
pret
Fen
##usses
saaneet
ledning
##fo
middle
Hbl
neum
Kell
##ой
##ит
sicher
##tamisesta
Zl
##onnement
Graz
Rö
betydelse
luku
##55
Työm
##woh
##bilité
butik
Mets
Wieder
suhteen
Schi
Publik
letzter
Rat
useita
lois
matkustajajuna
Wagen
senat
fera
##ikok
neues
celebr
eröffnet
established
##abs
considéra
Jt
##ubb
osake
##cting
giving
dare
##rupt
Cin
falls
bread
contains
hvarvid
##imum
rek
IH
Kem
Kosk
Kall
##IQUE
##ènes
maaseud
##kaus
sön
nerv
##jala
soil
compris
extraordin
Hermann
##xed
remark
##anches
käytt
hinter
relations
oms
diverses
Selbst
Minä
céré
##ötet
util
tekst
lais
ours
päätti
##poika
##utettu
plein
hien
144
towns
tone
sorte
conversation
##seits
##elsens
Ecole
ua
##kse
Depuis
##imate
Napoleon
##älän
##ilais
twelve
tarm
##möbl
entendu
##wt
resande
liberté
Kund
allowed
siirt
gon
Vit
defe
absence
santé
SC
##tills
##uor
vert
Marieh
virk
nouveaux
yngre
tais
##nais
innevarande
Black
ANN
##atuomari
forty
##jj
wis
educ
Någ
oui
naut
dm
##stöp
##istam
prend
##isari
raa
##iegen
##inack
onsd
tavar
namentlich
Petter
Lii
prompt
Pö
venu
Kajen
##orie
##bled
vasta
##onnut
##émie
##hun
##FE
Södra
Dessa
##tements
ympär
Acad
voici
tii
veuve
Pfund
##organ
Mans
größer
Gü
Scott
Roger
konsert
lU
##vll
lycka
##üglich
guten
anställning
omedel
##immin
vari
##TRE
##akter
##wl
Europa
Cad
önska
##sey
valt
##ining
Fern
hath
Gerichte
Use
Ry
doivent
Markt
##ellään
Pferde
##dn
tref
##ledes
formerly
##espl
Johansson
lärare
adresse
päättänyt
inack
equal
ordered
somewhat
retra
täk
marks
##31
kertoo
placés
stru
Baum
olemassa
laki
Vt
säl
möbel
dein
##imatta
Nikola
kärs
##rons
pleasant
silver
##ützen
Juillet
extrem
Ström
vackert
avi
##cit
zweite
saapui
affection
Saar
##ça
jn
##frågan
nine
##htin
##hj
##tiges
##77
Koko
bridge
SW
##89
Pfand
Espagne
Kör
ters
##ending
Versch
##stid
Bois
Vikt
##veille
kolle
Kiel
rank
Tochter
##båt
##avour
Dahl
liian
offentlig
determined
##istol
refle
demander
##issi
Freitag
suhteessa
stands
Herman
##oriz
##cho
Ves
obliged
lod
julist
näet
Dres
unif
##phen
absolut
dn
##на
##gue
heitä
Forderungen
##ukan
vont
##énat
conten
trotz
blif
Lör
bolagets
##tritt
maalisk
##cten
##GG
##isions
Trois
132
##åp
Bol
209
Puol
Viipurissa
épo
141
österreichischen
keittiö
##zial
märkt
antanut
ensin
profit
ym
Vs
##ismus
Kyrko
moved
filled
##anges
mr
npp
##kup
délic
doing
sääd
##öne
exe
stets
tack
Karjalan
Gene
vielle
yll
poi
Ui
##ITE
Leh
promen
##olph
##herzog
gewiß
Roth
##rée
##seen
denne
##essori
gat
Rr
information
sunn
##nads
empire
Eigenth
maksaa
allait
##jort
heller
ordent
palkin
##oure
##inka
jälleen
discovered
chevaux
ration
miesten
Bem
Afric
Berliner
undan
Herz
##versa
satisfaction
##opetta
Sz
ordentlig
##URES
Air
Ses
##inkaan
toiv
confiance
Joensuun
Abg
Alors
##assaan
##ulation
revue
repos
grace
##wendung
##öld
ehuru
embar
tisdag
##rir
instead
valmist
##vig
GU
Nyl
wün
##ulp
heim
unb
##endes
caract
breath
MS
Vel
Zusammen
wissen
rung
motion
imper
mör
Vä
##igheten
bod
##urah
##alous
Hufvud
simp
Anto
##rien
afin
##illard
Lindström
Eclair
bevis
möbleradt
##kop
Dub
##ombard
menett
försök
gaz
agré
active
poist
gir
##uos
##fft
##bac
Sunnuntaina
##klärung
##oti
hår
##försäk
thoughts
kraf
lli
murder
##angers
##ouksia
degree
Robertsg
##ttn
alenn
lying
Allg
##ulan
kest
ilmoitta
Bef
XI
##langen
##onnet
machte
ksi
Konst
##äne
paikalla
connaître
Björk
Tun
tänne
loppuun
päimä
loh
gé
Samuel
jardin
##aton
Tull
Vornahme
eitä
##oitt
dast
earn
LOND
##okatu
Kaik
##chein
##RY
##schau
##hes
suurta
##mera
##mir
##iget
uppgifter
streets
auprès
vielleicht
kpl
##lev
Preisen
##MAND
lehm
angel
FE
##erat
marche
ifrån
##utch
prit
sick
##öka
##adel
ganska
läge
hustr
##gte
seuraamat
dramat
sessa
veille
taire
toistaiseksi
##ilija
pitäisi
##parti
pull
##vez
##ylä
##with
deu
ful
Monate
hrr
##paj
student
amus
##bad
makes
Gebiet
term
Alles
sail
Llo
##epend
##wurf
nombreuses
Elizabeth
belägen
lla
bestehend
##zte
Schön
##undas
kör
##iella
chacun
seksi
Johannes
Bremen
tribunal
##ÉE
LO
134
demeurant
fixed
équi
ray
Mast
varrella
aikoina
respon
clo
##nan
Herra
partis
Emile
##ckan
inträff
kring
Sprache
luu
hinn
Midi
Pur
##verse
Liber
##hait
marin
nant
easily
PH
Klein
sowohl
rein
cess
dimin
liar
195
##ompte
##gesell
Guy
##seit
donna
##qua
Forderung
contem
actions
##zust
johtaja
##kov
kak
Gaulois
easy
snygg
##uge
##okoll
decl
Dum
onnist
mercredi
piece
förra
Nicht
yhtiön
journey
##ications
djup
institu
Lindberg
Wag
advantage
##lam
villkor
##ELLE
##stes
huhtik
##haltung
Boul
##anny
struck
chair
Kuh
##chnet
##werthe
##ücher
Eug
##pton
gesucht
bientôt
heureux
vaikka
jet
lägen
liste
poliisi
idée
Boulevard
##jämte
bron
quai
söndagen
vite
Kyrksl
säänn
Orig
Linie
tote
##aped
VIII
célé
käsitt
anges
Dup
##aume
##ittain
brut
##onnier
##aterna
Mariehamn
àla
##enti
##ENS
distrikt
constitution
mapa
##nitt
besides
probable
Schau
##theilung
dagegen
laim
song
##85
Aino
##ando
##oue
cents
ebenso
##QUES
2s
förbund
##ENCE
##itzen
##rote
##etch
ça
Alf
Nähere
##åga
pitkä
##65
kaiser
lS
Vas
##ltä
Jane
Qui
##lj
fash
hyök
platser
billiga
Nos
##annan
AS
##hle
Edu
tryck
Marcel
##tyä
##arien
quart
mainitun
fonds
##ällskap
Kost
##32
skul
##hens
pac
instundande
paikassa
vé
Bland
nti
puolelta
campagne
monarch
abges
organisation
Ls
##Ua
eläm
tillstånd
Roh
CAR
tried
Cape
eigenen
wrong
succeeded
Telefooni
meter
required
uk
bare
drawn
Bien
Entr
Guill
inrätt
More
##derna
anhållan
##estään
föränd
doktor
Wein
gin
##ÉD
##vd
##skolan
lorsqu
##hön
chargé
amm
valu
##iaire
content
kihlak
tillg
assister
moyens
Rechte
##illisen
##ääd
##oken
trium
könig
##rés
##eria
ladies
##järv
ansåg
##uot
Öster
##saf
##tivat
gradu
occu
##isn
händelse
##lat
##ental
Heikki
##ruck
##kke
frère
##onie
cell
Perjantaina
summa
Donnerstag
Ons
receive
überhaupt
grow
éd
torsdag
Bezirk
##ар
behau
Rhe
Bourse
pääs
Skol
##zy
Led
rück
kokouksen
Hern
Bord
guld
passagerare
##barn
special
fortfar
##hause
Huh
Kalle
läk
##agas
rautatie
remplac
Mou
ansvar
##reiche
tala
Hay
nour
strand
singfors
Fig
labor
faites
Städ
142
##ception
ps
##lägga
handel
##xi
##ono
asc
låta
Sos
Ort
##oisin
jedem
Lein
Din
beslöt
opposition
##ksel
##ilem
anne
addition
##uet
Mall
trupp
båt
heille
##umber
mines
Lieutenant
aufgefordert
##igny
fing
miehet
avance
ofvan
Quar
##tar
##pool
##ymät
både
Cler
histoire
constat
##ля
##annel
gången
##iding
##ogn
Börse
interesting
alarm
##annes
kaikenl
Bang
berätt
Stunden
##igens
loved
Miime
##onser
metsän
##anzlei
mahm
paikallis
sinn
Kraft
rh
chiefly
lagen
##toir
##lehen
Versailles
##éral
Aleksanter
Pac
##dsv
##tan
##iatement
Bah
alles
270
Vend
proved
monument
generalgu
Ihnen
##irja
##sted
Chau
koske
##ierung
##nyt
tila
arrive
##utter
lausunto
##87
insin
Bä
##çons
##CC
kansall
suivre
Antwer
heaven
Monte
allemand
eteen
1880
##kylä
##temmin
waters
minute
tillfäll
western
##itsch
seeing
parliament
flag
bul
fou
centr
##uly
torpp
tea
Falle
sky
Brig
französischen
##ikkö
##etts
##lassen
einzelnen
##vereign
##iru
marchand
##ISE
##ffs
##imäärä
##ips
blind
fully
##igst
##oleum
Schwar
##tamme
Eing
kilomètres
##ilo
Familie
Fredrik
tenir
verein
##uksiin
##arkasta
##my
##èse
Cra
Avere
combat
amongst
coin
résultats
människ
natür
individu
##emmet
utlandet
vielen
Diverse
##asan
wohn
aide
arkipäivinä
lent
résol
Lic
##iM
##öffent
##inson
ct
Preß
trag
While
Komp
anxious
darin
removed
5°
##unge
histori
consc
##üf
Parte
##illinen
bolaget
Behör
kenraalik
season
Burg
pastori
meddela
Ster
offr
étrangères
stall
dessutom
obje
öfvers
##istaja
remarkable
##vement
saar
ival
##ösa
tears
dread
bonnes
ais
##ykseen
window
MON
##aker
##äät
saying
nau
ette
finan
glück
calm
arbetet
appre
marrask
Bev
becom
##ств
medlem
##jr
bestående
COL
##wel
##vai
##machung
mynd
##stod
Leo
minst
whe
##bte
##ierna
Nylandsg
##ulent
tagit
Cet
anal
##stt
##ließen
tab
sesta
rê
##mästaren
notamment
Töl
rahat
rm
Organ
Ik
nuvarande
entendre
koskaan
##uce
anser
Alexandersgatan
vecka
autour
djur
##ukselle
neben
##ümer
inté
Monat
##zaine
exhib
##anner
objet
numéro
win
##gården
##ivre
deliver
Rand
sijait
kirkko
Mikaelsg
hjälp
weder
äänest
produced
beräk
Montmar
##GH
pin
gren
##ingham
dog
René
Rücks
vind
##anss
##stellen
##ffee
lausui
sanoa
befolk
Bernard
Leon
Int
hålles
##isible
##ereur
alalla
parha
Pai
gross
Ulkom
konttorissa
consist
Autrich
Erf
Grafen
##inspe
##skontor
Mehr
##udesta
manh
Stan
agree
käytänn
prê
##aison
sanoo
Pren
##cta
##py
geschätz
##LOIS
LS
##worth
##auhoja
lauv
##ollista
##gründ
salon
Anzahl
utnäm
anciens
Roche
Gelegenheit
polic
smile
##uber
##ettam
atteint
haluaa
##nrg
##ONNE
4V
pyhä
##iio
Blätter
apart
##aktion
saur
##erted
##cean
Marg
yhdistyksen
##armer
##bringen
rant
##cipl
sonn
##bus
trait
malittiin
##SSE
sama
Kim
BR
Alter
Las
##uring
Anstalt
tapauksessa
Letz
tyr
bold
##istaan
toimik
##cal
kapt
yliop
Parliament
ld
ylös
FON
läkare
ting
bleibt
péri
avais
##önä
mainten
##ogne
Amt
islands
Green
tui
##ährt
Grö
##kuja
yöllä
Lait
Mem
kunnallis
##järmen
liberty
##ollut
presented
##BE
myst
Anneg
Nys
watch
ocli
big
##uler
Rep
dot
Snellman
##ttor
##VI
##body
Fabriks
Deutsche
##chent
angen
knapp
greatly
anderer
##94
véritable
jus
fredag
katu
Adresse
seconde
##oln
##lio
Ecr
courses
##ли
##66
begär
Guer
consent
Pros
beläg
navig
keskiviikkona
##estad
evil
huutokaupalla
nödvänd
##KE
fashion
rysk
Häm
nast
##orsuom
##ensen
appare
bemer
gym
puolen
allmänhet
consequence
##gärd
Ztg
##aring
verschiedenen
behö
wei
##orious
ordinarie
nuorisose
##ex
##cast
##inity
##gebung
##hdas
##ytäk
cinqu
älven
Irish
affairs
darf
Helm
##fection
##iki
paint
##zes
##ardinal
classes
crowd
Len
##andin
##veill
##obil
sport
Mail
Adam
wan
tief
##enthal
ork
föreningens
Nouv
Pot
##armes
##MAN
gewöhn
Kiin
##NT
##yre
verf
framför
tuk
served
##ikter
described
Fon
##nadt
pia
ryhd
fartyg
Torstaina
tekstin
##vm
##onnu
##oncer
site
revolver
tig
amiral
parle
holm
Jr
##BL
maassa
Nachricht
##skr
tos
toimitetaan
diverse
usage
##kus
267
Lake
commune
LU
##föreningen
##oneet
##äätä
##ängen
##ottanut
pankin
dia
##uille
##pair
Währ
minulle
sogleich
##such
nahm
räkning
kehoit
emme
jolle
Forts
crois
##ytävänä
difficulty
##rii
plat
Reval
Kab
White
lines
Donau
Effe
secours
##èvement
Lop
Anl
tourn
##roy
##rel
Pietarin
##ifique
143
##riel
croire
unt
##hind
tahto
Lav
tik
gekommen
kirkkoher
rai
##teeni
exclaimed
komme
synnerligen
##bler
Pastor
pill
##ively
Lah
rouge
Two
coal
tiil
torn
taloud
keen
##värd
nope
sod
tandis
sommaren
offered
shot
Kuu
fish
född
Leipzig
offen
superior
Führ
gånger
##wesen
löyd
##affen
thin
##träff
Montmartre
Lokal
tulem
beaux
généra
##échal
pounds
Bos
##igkeiten
philos
##kti
haus
##igence
##itime
cru
serious
malta
##ètement
lir
Stunde
verz
##bling
Kervo
everything
raittius
##onl
lips
##besitzer
##stift
##isella
tiety
bostad
milloin
sellais
natten
anm
anlände
oubli
##best
afl
laaj
åtmin
propriétaire
Lom
Frauen
##ästra
näst
cot
Fur
jum
hvard
##ligheten
hyväks
##ieS
nahe
förlor
Fac
##atique
171
##MES
ungef
vuotta
Dickurs
kotiin
märket
ford
##000
##ilaiset
##vaksi
##kana
##gramme
##cii
parole
##95
##imiel
cau
sotam
##uii
Rab
##uds
##RIE
rättig
##angs
tili
Harm
books
peuple
dinner
Syy
laisser
##laus
##monie
personal
ener
Wür
définit
Sillä
##qués
conférence
magistr
Schmid
Aktieb
##unehmen
kaikkien
1854
Ht
myönnet
allmänheten
crit
##vernör
ångaren
Suomalainen
partout
terms
dasselbe
##GER
fas
ec
##utensa
mett
Marine
proje
##rén
beginning
pyh
Virgin
##ultan
POUR
arriver
Erik
gate
gives
##utskott
batter
zugleich
réalis
sentiment
vermiet
tS
faveur
intended
##mästare
##antal
Elys
runs
Ps
##fö
pidettiin
##tiol
##œurs
##road
Suuri
##ignet
intim
extensive
##fve
##igher
title
whatever
##ffin
##almi
Malo
##yyden
dürfte
##iebt
##rais
aat
##vait
Zus
Ss
##uteen
Kemi
price
marras
omfatt
fullkom
hätten
städt
popular
Bureau
##aken
##erns
Staaten
valeurs
scho
uppträd
syks
frequently
läro
##uding
Mmes
Rog
vendre
inhem
##rou
##еш
supply
compagnie
Chin
##ileg
##ernen
gather
Politik
maata
yourself
Nar
moti
gagn
beweg
upplysningar
##Un
##skyl
##èbre
Louise
Entsch
diam
lopull
Sul
Joch
sjukhus
religious
victime
##74
Geist
Dank
muonna
domin
step
beant
Daniel
faisant
##üss
linn
vv
förening
murm
behof
##burgh
frapp
Nun
##nämnda
fjär
Lég
Penn
Verbre
ennemi
stay
##okas
depos
Dieser
hofrätt
détr
obst
närheten
Last
oeh
##eit
capt
sock
hielt
ungdom
Wes
cruel
Bart
handlanden
Kasär
##wehr
og
rate
hir
##head
München
##aj
##stat
droits
contraire
History
Arc
lc
SUR
##icate
ställe
telegra
Juin
weather
schreibt
Torkk
##ére
elegant
riipp
##ellt
##yte
maksam
##76
3S
Pih
jeu
likely
granted
##itetty
pourquoi
saison
##alaista
##elet
Pyr
##pass
agre
näitä
finna
rakennus
versehen
Cle
piirin
##nnd
##tered
lokaler
revolution
bruit
Unis
Råd
states
Pos
##illing
PRE
cél
Concert
bott
mariage
##avala
Tavaste
##uga
##UST
##nungen
unbek
##ANCE
420
Ple
market
##äu
naisten
subjects
postijuna
wenigstens
tapp
##ciale
memory
exem
ziem
##ems
sogar
##änden
summ
Volk
sotil
asiain
##ettäisiin
##fast
##verw
Edict
Tyskland
Los
kiv
trouvait
Lac
##arte
hvari
Leute
divided
Ast
Sofia
Tölö
##ämistä
Très
Schm
mauvais
ria
Kii
JOUR
välillä
Frem
##erable
rising
Schles
auk
kuntakok
lähti
##come
tarpeell
Offiz
##arbeten
kylän
amerik
Verd
tohtori
215
résultat
##èves
##LET
schwar
##handeln
gesche
Bauer
Vertreter
ystä
lyk
delar
ligger
##ivalla
schrift
ms
##enez
Itä
##enä
entraî
Arti
bell
Tür
##bergin
gentle
Extra
##össä
Bezirksam
##nts
##gerichts
##iehlt
Tan
kieltä
Venäjän
##andel
1V
ssa
Six
varasto
barnsj
Loire
uppman
Ia
kui
poul
##bland
récl
##INES
personnel
330
Gym
manœ
##arnes
mats
itsensä
Bett
##uves
dafür
##unsch
beneath
##amisesta
miin
##side
veux
disait
declared
##orbenen
käynyt
kesä
ute
nied
Verwaltung
##ätselk
pén
anses
##ustettu
aperç
##fd
##opäim
palmel
abz
##hlt
political
Schweiz
Riv
gentlemen
##amte
Italy
muot
genau
Pension
luot
corner
Pielis
##hetta
Lähemmin
viss
Ens
gemens
##ories
Ci
wirklich
jap
hoid
soins
northern
Weizen
##ällning
förslaget
ouvrier
dic
##érés
##läkare
ennenkuin
äs
Ms
Präsident
##vely
célébr
mannen
##93
##tat
##heilt
représentation
framställ
Nurme
jäi
##ieß
152
Guts
mécan
##oré
pharmac
nyligen
nier
##vana
toimeenpan
drew
##umn
Sénat
magistrat
particularly
svens
korj
issue
Kuten
assassin
Still
##tv
##kommer
##ißt
##ettamaksi
vinter
Kurs
Hai
concer
##skarlen
caused
mainitt
strä
hält
fruit
##vonen
ox
puiss
Sit
touch
loy
iM
circonst
bedes
Voy
err
thor
##otton
##istan
pitäj
élég
##ckel
Ehren
pCt
Über
ltalie
kilpail
##bolag
Oberst
##ints
meni
Nat
##yrelsen
gelegen
##paitsi
itselleen
##hang
Bert
Rec
##folk
##anim
session
sihte
dév
escape
roh
##ösen
##ingens
chauss
##86
##ämättöm
soient
traité
perform
205
##tienne
Tas
seikka
##änge
nécessaire
SM
salt
incend
lee
Oi
cath
MAN
tee
##föra
##km
Seiten
##üge
Sommer
##èques
##elserna
glass
Vereins
1888
##iinä
saamat
läns
prepared
##illen
arrival
Zi
haute
exemple
tiista
lives
visa
##fertig
présidence
département
empê
huolimatta
eastern
Gén
##estr
Resta
ili
consul
strug
tjänste
##aliskuun
##teri
Haut
visage
ness
##hamn
wounded
bourg
meiner
Papier
##agnar
Sitten
envoyé
asioista
##arinn
olevan
##èce
##leurs
UM
ehdotuksen
Keisar
Sab
Oll
##IB
Ere
tisdagen
Porte
entw
##ifel
##çant
portant
pika
kokoon
vins
president
daran
niihin
Äfven
patient
innoc
läsnä
Lindholm
##maskin
tehdään
##lex
flesta
##agna
politischen
##isp
##orial
Sorta
attitude
palj
frå
direc
taht
blessés
320
bete
ded
description
camar
examin
tiedon
maltion
emellan
##ioikeuden
##where
således
##empaa
##rison
##тъ
syss
allvar
plut
##imus
##skol
suppr
##skrif
artistes
intérêts
##ünstler
syr
vuonna
##zeitig
##delta
kumminkin
##urent
Lanc
Maur
betänk
siège
Capt
Geschichte
behag
måndagen
##imist
##iev
##leid
röster
causes
dream
##ourt
lade
##ämisestä
Sue
mesures
Janvier
##ouard
##bef
dwell
folgenden
Deutschen
steep
##ouk
ties
diplomat
##ittaa
##stelle
avoc
##81
Kin
ehdotus
learned
##iteur
CHAR
époque
advanced
rop
connu
##ückt
souten
orchestre
Ansprüche
autoris
##AMP
##adow
eigent
Cel
tower
##öh
worthy
DANS
pier
##icr
exceed
allow
##iek
majest
witness
koit
Asiana
##estånd
politiska
Sörnäs
wäl
halvalla
kesku
Djur
hes
##assé
Ferr
##fvur
##ufer
##ühle
Président
probl
##leitung
provid
affect
elev
équipe
natives
##ières
##tile
vägen
Edv
##atures
2V
käsi
täfl
mandat
judic
при
müsse
##prechen
rob
l2
besser
##inkerta
Salnt
Tör
wil
Cre
##ading
Kuo
avenir
PARISIEN
360
##ases
##atn
ined
protection
Plan
Ay
handsome
réuss
energ
Try
##tryck
Centr
##grad
döm
kandid
palvel
Anti
##pts
##ctt
Mutter
Exp
äg
bol
fathoms
##élég
##emään
##TIC
armes
##igar
samhäll
eget
##imies
matka
reform
vais
##opel
##ouvé
##allaan
Esc
higher
##uration
violent
käll
vaal
malla
##voi
bri
skar
##omet
Nachdem
vessel
Regiment
172
##vägen
scien
tilan
##neu
##zo
custom
Eis
Äl
##yhtiön
OFF
aivan
telegram
##iais
maksetaan
lutte
##say
Sachen
vare
kaikille
##yhdistyksen
##wid
health
BOU
550
174
##ukun
därtill
Syd
Even
russe
Programm
graf
##jeff
Has
Straf
##pur
perman
##TÉ
Lloyd
Amerikan
ärenden
##istor
##äässä
##bri
chois
During
kotim
##otettu
##kiel
Raum
tidning
homm
##ministerium
##ollisesti
aver
First
laugh
Viktor
initi
kvarter
åren
étranger
thrown
216
tori
Civil
##91
Count
##samt
EST
##alj
croy
Associ
Ran
##icated
Io
Bishop
krets
154
Holland
##icien
elo
##amaa
fate
##unächst
snow
heter
fastställ
##wich
straff
fakt
volume
Point
##veux
kahden
##tm
Erb
Miß
##elst
weitere
lasta
Star
##TAT
ets
##ittänyt
tulemat
##ertes
landsorten
uppsk
lords
område
Britain
pyyn
##ühm
Jeder
##öfv
2°
hai
Trib
ROM
Statth
badrum
perdu
Mosk
##joittanut
level
##kv
##assamme
Sainte
Française
früh
provo
Rußland
vapa
Jäm
tietysti
Fou
tens
strid
съ
Druck
frem
##ornas
1895
151
stellt
##planaden
##elling
Ell
Dampfer
lämplig
##AZ
##etched
Vertra
fortfarande
kit
ther
##stol
spår
##utting
##aki
Dl
##ffl
curious
incident
##akunnan
kymmen
uo
leading
serve
uudelleen
stations
soldat
lei
dens
kaikissa
geste
##mäßig
kapital
##cf
##finden
##betal
##innt
lZ
elämä
aflidne
##yksestä
språket
kyrkoher
source
##gil
possessed
##bol
Kesäk
Gol
##syn
153
##isena
artillerie
pray
eo
##ckar
Matk
Tau
CR
##gick
##nement
fail
##ettäin
tekn
##umin
##pul
thun
ajalla
Forssa
erbjud
tia
Hard
safe
##ägare
##züglich
Kyrkslätt
Magasinsg
##ELLES
kuuluv
retreat
##ado
kc
mina
keu
mord
lyhy
bäst
voin
Avec
##jit
local
Gleich
##itive
réponse
moderne
prol
gain
Your
hil
Werth
##mund
noth
feelings
unless
##ahrt
abandon
##73
kappale
glas
brist
tyyt
Unionsgatan
remer
##jser
163
##tagen
##ÈRE
measure
tenant
höchst
oben
##bez
##endemain
skott
Vert
tradition
höra
Villa
tilaa
##amari
Petr
IJ
därvid
##aansa
##odin
brott
Sordavala
cases
##ölkerung
310
äter
##beding
rautatien
mobil
Heik
thence
sinc
nummer
fäst
GE
##ilin
lys
därstädes
ruhig
Bt
Mari
gehalten
undertecknad
enjoy
##itations
##hål
malheureux
löytyy
Kaarlo
##rey
Loka
##ériel
dien
arrest
##llo
##etuksi
Perr
Roch
gründ
qua
länd
servant
VEND
taste
éclat
pomp
AuS
Sinne
tyyd
Spiel
fie
##insch
tuksen
##83
ebenfalls
Stör
pelast
tulo
kesäkuun
facile
Pien
ander
Ilmoituksia
depth
henkeä
raast
Bonne
Duc
##ram
deleg
förtro
js
steps
Sym
assemblée
tender
ajatt
famili
Kit
määrin
syyskuun
##apel
upper
yield
myöh
##yez
Denis
fleurs
rester
##pare
##ising
space
##äläisen
reprise
##gée
guér
Lands
hyv
##iegel
konstn
##ancing
cheer
valet
accue
##agif
Laz
besteht
persön
meinen
##enting
pitäjässä
pare
tuota
##unate
dece
vuoksi
n°
##ellow
matters
1855
173
##ityö
##attiin
sieltä
alku
liche
EL
päimän
##tretung
destr
alto
highest
Thlr
kirjan
chefs
##IVERS
sén
drink
Prä
##aw
##née
höger
##hlen
onsdagen
Lään
events
samassa
yards
Bezug
slutligen
##84
wors
Bom
##ël
##igned
mens
##märkt
kontors
Roy
##kf
alussa
queen
SB
##ône
##ivia
meldet
polisen
torsdagen
##unsa
##wers
hug
##XX
muista
Every
##aja
Ungar
##atif
produce
flowers
##iast
merveille
jest
410
Wirth
dcr
päätöks
Russi
##orde
##yst
wolle
##lägs
##ев
##erar
Cz
application
maalla
##lyt
foi
##kei
##idät
##uksena
Männer
##juta
Band
Bé
residence
Aussi
ped
##ivaa
RA
ouverte
range
##IO
##akon
merely
##ISON
##ilij
sys
solcher
quarante
ök
Empire
hero
hankkim
ane
proceeded
##pote
millä
##onia
##zn
##tiden
kanta
##99
huonetta
steg
saattaa
Karjal
##vann
muutt
Stimmen
noudat
persu
##èvre
##fulla
Baden
Spanish
##orska
##zl
kulta
Ausstellung
##bast
Absch
##zus
Kenntniß
SK
species
Suomi
lier
##utin
Linz
whilst
taloll
Tn
lät
estim
SH
Königs
##ivt
ruot
kruunun
Wiime
Etabl
export
Stande
Sub
##press
freund
Ij
##kri
sesti
##brauch
alls
syytä
kuulum
buti
2000
lef
marquise
pleased
lakka
stående
conqu
##äyt
kathol
##oitus
##förare
##istossa
##estament
Wiborg
stilla
delta
380
ordinary
Pendant
åtminstone
NEW
##bey
muse
teurs
161
275
##eleine
##rm
assurer
quinze
leen
##liike
##joja
rautate
sano
##tea
Pern
numbers
tont
Protest
cover
particulier
beide
sangen
##elen
selle
neljän
Fredriksg
hinnat
viennent
instance
näiden
##ttl
Rest
box
joined
perce
bevor
Pom
tuomio
constru
Lib
habitu
Tit
Konkurs
kohti
Miet
Blatt
Tisch
##URA
##isserligen
honest
##arbete
Teil
yleinen
##iso
familles
##merksam
invent
##sein
députés
Liver
osasto
éclair
340
répar
bered
task
##ggel
unl
food
##ICE
begraf
##gaffe
Kou
sake
iil
sauv
petition
##skon
162
##elves
##iement
wrote
bearing
fatt
prove
##oiselle
huset
##timent
hittills
##ators
pank
##iif
fût
##stäl
Schrift
##mansa
afgå
treas
meisten
kirkkoherra
##urd
##izens
jurid
Worte
dil
épr
tic
opportunity
Gun
Hauses
erhållit
##immä
miljoon
VO
kais
kirjeen
antoi
titres
Fabiansg
##öks
##väx
##ом
Maal
belegen
gemeldet
thank
melm
mene
nächst
Aktie
##уд
aftonen
rauh
tallet
gårds
##ambres
deut
forte
harrast
kirkkoh
Ks
Joul
##Ur
vorge
champion
##itting
##iSta
heads
jj
##aissance
alas
halv
##äminen
max
torst
Sic
vérité
dollars
##byrån
abg
ytterst
utställ
pictures
##fru
Carol
Pant
domesti
Böhm
présenter
Dro
##zeug
Bab
vorhand
päivän
Stu
liegen
complete
##oise
325
proud
godk
##onniers
##lingarna
communi
målet
Num
Keski
ingeniör
asunto
calcul
tranqu
##brott
letzte
##fluß
magasin
kL
##uan
rahaa
##stück
Cli
kommittén
##sko
sage
##ömm
pf
##issenschaft
Wagner
430
emploi
piano
gehörigen
##rakt
##cation
January
Publikum
##ilich
##händler
##seuran
Bürgermeister
muoksi
nette
nis
drame
lendemain
Lamp
uppe
##ttel
##jam
Besitz
Ross
soin
voilà
Hra
cout
extend
##hund
US
18S
broke
dames
FIN
keskust
erhöll
##päi
##72
##antry
##wärts
Kirchen
befindet
##etzte
TT
triumph
Kejs
##wed
##inaires
seuraav
geschätzten
Lepp
sovereign
garan
##ängt
immédiatement
##inin
lion
Fro
Elisab
##apä
##sable
elokuun
pieces
##still
##valt
celebrated
##dorff
Waare
gesetzt
##ни
council
Sea
ix
Argent
tuntem
nimism
##ÉR
##lln
revis
Schle
##64
Did
##uits
paraît
heir
##éros
rivers
##AK
gehört
##jährig
##kii
Frän
tjänstem
##öi
Sid
1897
omständ
Weiß
##ßig
reply
Rod
##hrer
lignes
einzu
mob
toimeenp
soix
mahdollista
##ivin
ziemlich
TR
valittiin
Stras
##ikten
lörd
landtdagen
##attet
Mii
maka
Luft
litter
##männen
beträffande
derrière
##börd
##wald
Esbo
Lux
Wester
##dd
Nyslott
County
Dickursby
Amerik
förhållanden
##stadsblad
wich
erinn
Moul
ratka
##uster
##nson
kung
Governor
Ilm
290
##schaften
independ
Seit
##ttr
##präs
blom
##ämain
brief
##responden
Cass
Beweg
##ICI
ordning
##raid
construction
##ksom
480
ard
wealth
Maanantaina
médecin
förbind
rätta
powers
##osia
##rian
orten
syst
förd
##édération
650
relief
raha
kuukauden
sän
assure
espagn
Kirch
##ppo
Ala
fool
##92
Holmström
confr
##miel
Kansan
laisse
##aneen
##oudre
stund
##räge
##ctur
Jug
##arten
käyd
##emed
running
saatiin
Antwerpen
##ship
rup
##avre
laan
BU
schnell
##alassa
rund
vorlä
täh
##spar
marked
##ügt
##sex
470
Avant
Freund
##ög
gle
##allisia
##bcr
##ittok
ministres
##åra
Sun
distinct
obtenir
Eerik
loud
vorz
##dienst
##aters
Gesetze
Byr
##kkun
kansli
étrangers
##fest
Mittheil
aseman
Böhmen
228
##stücke
S2
##jassa
useamp
erklär
##LS
certaine
ride
lähettää
Frä
suuria
##ounced
moon
rapide
ruu
Though
élé
##aisuudessa
donnée
kalla
speed
##iokunnan
Beamten
kyll
happened
tenue
bond
Kirjapain
##ritt
Kaupungin
heat
##овъ
lest
Bå
Esplanadgatan
Bull
garna
ordinaire
Times
Orient
fabric
##medel
likväl
café
Dau
capable
##empää
Gor
malm
hörande
började
##äfte
##éns
member
nimi
moderna
##MS
ilmi
tahdo
##iale
leaves
gering
captain
dirig
map
1876
filial
##llr
##viljelys
за
##avarande
Sko
Ellen
wiederhol
Englannin
fich
Brux
Skat
skad
skill
enär
##hdys
siltä
##arti
##tical
ylioppil
##ahre
##onk
réd
Tak
roof
archite
ajaksi
##ennent
skilda
##otograph
jättää
##ähren
olet
Castrén
omöj
164
Rudolf
Fair
Näin
luf
##arah
##ondere
Gegenstände
tragen
##rike
exac
pop
science
##ägg
tanut
##iln
preva
Leitung
Kup
betyg
hoita
changed
Ainsi
##neen
##ija
##ref
##eht
southern
##quée
genug
Strand
cattle
sääntö
##skor
##prin
Nich
übers
##värk
##71
Bundes
uppmär
##tip
anska
##inaus
##Avn
äsk
richt
Empf
##aldem
##marck
tarmit
FER
##etr
ara
Direktionen
##erte
##brik
235
heutigen
##räk
Cond
Auskunft
Neue
stones
Juu
rappel
wine
Vot
émo
empfiehlt
todell
verg
Dienstag
vissa
##walt
cup
anhållit
##weit
Wetter
konsul
verur
ög
Oulussa
Zuf
Hjelt
lur
bege
Arbeiten
Mul
##andinav
skap
##äläiset
##ogs
Artur
dî
venant
Tt
keski
sword
760
Daß
##alliset
##oyer
MAT
ivar
Concurs
##quette
grass
speaking
sui
##uppe
Maun
Ile
britann
arts
Ehe
jr
utländska
##lokal
oin
##nahm
##zin
##ensive
##östä
prins
##leihe
##ÉN
Pir
stir
redakt
ull
timmar
ertheilt
Waaren
gilt
FRANÇ
Ksk
kiinni
fack
wished
earnest
högst
Monaten
bringt
Gustav
##ollisia
decided
naturligtvis
dén
yt
Gefahr
##ference
##tida
##62
ankar
Lot
resolved
myr
Comment
tidningen
founded
tarkasta
norr
gegenwärtig
fatta
China
##remot
##arinnan
##jatar
dér
promise
##ignation
folket
prisupp
Pfd
Feier
COR
hect
nähdä
baronne
Apothe
heit
AUT
##omus
vint
Majesty
fleet
Rune
Zweck
cho
jam
julka
neut
Muse
évén
GAU
About
åstad
##apan
silent
recevoir
Lit
développ
##ettavaksi
Kristian
##atrice
essen
Beif
sähkö
buildings
##occ
##ikot
permis
pages
##Us
Blo
berör
Ee
SAL
##isissä
professeur
FA
##ax
omedelbart
bottom
##odon
Life
Both
präst
kov
tram
tahtoo
PI
Piir
##änt
usually
Sonna
péné
##ми
vollkommen
vuodelta
##tidigt
##ysten
stöd
Constantin
##rede
##hell
eingel
Dauer
Tähän
englischen
distinguished
##yys
Fören
##udelta
##klund
Thür
virka
##AIRE
dande
##visa
##tyi
Francs
rendered
Näheres
increased
##arier
##ihan
englantil
talous
lk
##börande
##ständigt
hés
valmista
présente
Müller
Popul
kolon
breast
Him
size
fame
thinking
##ifer
keisar
##zimmer
pir
sugg
perus
Arr
morrow
##ämiseksi
client
##ndt
##arat
Rot
FRANCE
##istians
throw
saav
##mé
oak
Hinter
Uu
villages
##kapit
Syl
cinquante
trat
##iture
##ämnda
connected
déclare
bidrag
pourtant
##aS
Kredit
rf
placé
Jal
Nähe
iL
Verhältnisse
grève
décision
entsprech
##unte
Ble
##ffar
skolan
##lien
##gor
##bility
Kontiol
##tau
##loir
Kasärng
pieni
leip
##ей
ingén
##läge
##öter
Relig
yhteydessä
##ouvre
kond
nimmt
pend
Untersuch
fatal
ähn
sisältää
porté
mäst
##ammar
inga
solemn
##ка
billigast
historia
itt
Situ
BY
comptant
exclus
quarters
anv
##erl
kokoukseen
enskilda
##ällningar
Luk
##ieuses
élev
väs
Edition
##ytty
sjukdom
lämnas
tå
Arab
pitk
Madeleine
##atalande
mittelst
##noon
fruk
saks
##alie
##blieben
kohtaan
Fo
draw
Ye
##istiska
boats
Koul
##PAR
dirige
Verbindung
matkalla
suivante
knows
pyy
##iede
Dresden
väk
##ppuja
gezogen
Ausnahme
käyttäm
##oende
##Mn
klag
victoire
jokainen
##möglich
hospital
mik
1848
likas
1894
toimittaa
Water
1887
häraf
funn
started
recue
##ONN
niissä
tietä
##ändert
kirjapain
tong
##glement
Kent
throughout
##lis
217
Ji
speech
violence
Lille
afraid
erscheint
mount
Marc
Diejenigen
sydäm
##ceau
keskus
Pariser
##usto
mei
hoppas
een
##ellut
entfern
einst
sépar
harbour
dags
##orum
Pon
Werner
aja
communication
8t
share
##rup
toht
schaft
DI
abbé
definit
pair
##åtande
##pale
##mals
##zwe
spect
devo
plutôt
Jord
Vienne
##odes
gras
kokouks
afdelning
##schluß
intérieur
##feu
neds
##mai
stch
440
inre
faute
hwilka
##riffen
##ensions
observer
Pall
##kande
OS
Toute
Kong
Oli
chemins
pride
sharp
treten
211
Redner
régiment
dernières
##aitoksen
proposed
branch
##idan
##enser
##gard
##iini
tür
Prenumer
Fel
##jus
entweder
##förbund
otettu
Bedingungen
combatt
1879
SER
animal
peruste
belonging
wara
Rouen
Pav
sker
Höhe
sitting
nécess
bezahl
tider
##èvres
##érique
zuge
fredagen
höst
##angegeben
puoleen
##gment
##akatu
surrounded
rule
lanc
tapahtuu
frukt
Säk
regiment
##ützung
niem
Alice
quickly
palace
ilmestynyt
##oler
##istön
##resa
Pn
Spir
published
menest
##adi
##klagten
picture
plaisir
interro
conseiller
##dar
polisk
zunächst
paino
närmaste
nk
saira
siemen
##vk
##bered
niille
getting
##érant
##nader
Sher
##assan
antam
bt
vicomte
voitures
parait
##vande
walked
branches
urval
sanomalehti
Stade
##ihte
bibli
huoke
négoci
Pou
##ligaste
confir
##erez
##ague
245
redog
ht
tysk
bestä
muiden
Interessen
expli
Wl
ilma
maim
länger
beschäf
Hank
##yryl
##umme
##аж
##embly
dépôt
Ide
stil
##bc
COURS
MW
Galiz
##osken
1890
maailman
Rig
##fta
iden
##alty
couple
IB
accompan
neen
##äum
##ittee
statu
lyse
WM
Place
möbler
##anskan
spent
hört
eduskunnan
kurz
avions
201
domes
Mlles
##fär
196
Elles
equally
birth
morgen
partly
AC
este
##arde
##aminen
platsen
eventu
##mot
bezüglich
Ångfartygs
underrätt
Tand
##lösa
tué
##beten
##oii
##cknow
Koh
refused
##äinö
ZZ
Köl
étend
skå
sellainen
##olet
##oiksi
Temple
##TIONS
##iana
kaat
preuve
comfort
boul
tunnettu
Jaak
karjan
abzu
##ettävä
nåd
##issaan
heng
Prov
iakt
Bn
##ustus
Erfolg
junge
##insä
atm
wanted
Schneider
Brünn
RU
seated
därefter
4t
lom
forget
gul
##okt
afternoon
réserve
Vår
sank
##HH
kaks
Sip
citizens
unique
##isit
kors
tyck
angif
einges
billets
Ech
steam
yhdessä
Italiens
päivinä
##ministern
Come
##mil
procure
Tl
JL
##ettäm
Mines
sollten
Konstantin
Meyer
bow
boys
##arme
mähän
gående
tapahtunut
hjäl
buried
##untaa
##tagna
Abl
##veltä
##skas
##äällä
interv
saarna
male
allemande
Silloin
partiet
##allitus
##usions
Victoria
##aget
fritt
Lont
kamp
abund
##VA
Neust
kaikkea
Siinä
Stam
##ärin
Straßen
Boh
högt
208
écha
seraient
##olasta
condamné
Summe
volonté
luon
Riih
##warten
folgt
Ske
Iso
##aths
Schutz
übern
sérieux
herätt
AUX
doctor
##tilä
tekemään
##itun
Dutch
quitté
kukaan
herre
##rc
##ticed
Grä
repeated
expéd
##court
blieb
fancy
anerk
aime
believed
1°
améli
taja
apotek
Hund
Wales
##ahdelta
##ämmande
265
hustru
Keskiviikkona
Helt
212
maréchal
##crit
Lee
gäng
MAL
Cathol
hof
crédit
kände
please
##imirsg
arrondissement
##duction
rod
##uvida
utföras
kiss
perin
##wiesen
colonies
palais
##oko
Daily
Sve
VENDRE
mieltä
##enny
1896
Anmäl
##âte
marry
ratkais
entire
##jerna
Posten
famous
President
muun
varma
Eröff
emigr
##heur
tern
Wm
move
aft
sele
Direktion
auquel
Suomalaisen
suffered
##lif
flickor
doct
Mgr
VEN
Cop
saatav
sekreter
puheenjohtaja
keiner
utdel
ay
hvaraf
##gges
proof
lement
wander
##ем
203
äfwen
Bisch
minne
asema
syssels
förnäm
discipl
##rades
##saken
daily
hither
##ITA
drawing
##skade
write
##lades
Among
##ngs
chain
curios
spricht
forced
sentiments
##hk
##oirs
altogether
tempor
##chts
##udella
1911
##iaika
inspir
Kah
##cier
##velop
prises
hästar
permett
dd
Bob
filles
hänellä
kyrkan
svårt
estate
ilmestyy
Jus
bind
Ts
##uries
propre
wol
konkurss
minua
##bid
Magn
esittää
##enhaus
Wiipur
réser
alusta
##akes
##ützt
##omea
ltä
talent
231
brigade
Kath
Reger
##82
##aitoks
Quelques
##imisto
happiness
##okan
powerful
##immalla
acknow
selon
Log
earl
Rock
##amiehet
joihin
##onting
stu
Champs
Möbel
complètement
Bruxelles
lifvet
ryhtyä
Himm
##iljett
retraite
##teki
##elma
Majeste
##deu
remarqu
pau
rg
##versammlung
obligations
Hop
##avi
noms
ouverture
Osuus
jämväl
##hrten
##pän
explos
##piir
##ielten
##ample
##aper
ivastaan
##Ii
certaines
gun
förvalt
procès
stadgar
Matt
##athan
kenn
lian
chapel
Raitti
##eries
BL
foster
Kale
attended
Vär
kosk
majorité
##west
MU
parlament
##förslag
##KA
Schmidt
##nahmen
looks
bestellt
cousin
##åget
répondit
tillfr
Vermögen
apua
Erd
rummet
simpl
3m
helg
Torne
##hto
composed
Havas
rauta
magnific
##afts
starka
kunnes
ställa
farty
beslutit
instrument
håller
yleisön
Fürsten
examen
öfverläm
caught
rk
quo
kirurg
artikel
##oret
Ras
erschien
cd
##verket
etup
Notar
##yen
Thé
turning
Eg
##rån
runsaasti
crossed
1881
ion
Ausschuß
Hat
Pak
Bevölkerung
tutk
auth
Huutoka
sprach
außerordent
étude
Ryska
##wäg
rekommender
aston
##RS
llo
##förhåll
##oked
orter
##oiset
##päivä
##ammin
Canada
Keller
fic
Cep
##tighet
edus
annettu
paran
pein
cht
führen
paikallisjuna
slowly
##ammt
stol
paroles
##itäts
Eduard
##atis
appli
Hyr
rån
##ilien
arkite
##bind
##ball
Kung
##amassa
punk
ert
Belgique
Association
confidence
maisons
tror
grew
vraiment
containing
##entä
heißt
morts
institut
Krist
rage
Laa
Punk
##kson
##pas
Lös
##lg
Mell
##GES
Ear
##halte
##wohl
##ôts
##lk
##ämäksi
Elin
soixante
trots
kvinnor
Wei
Sant
timme
##ländischen
##fuhr
nir
oj
iör
##häradshöf
print
##brand
Verhandlung
geschehen
##yksellä
muotta
Male
höga
employé
bara
Bach
Straße
##skomm
verkställ
td
Jäger
däremot
talande
Top
vul
Admin
selben
sellaista
karakt
lähety
Schu
Académie
Chine
vre
utes
##legung
##ynner
store
Ohio
##rav
Many
oil
Öst
eat
dangerous
mien
OL
##HT
sien
stated
visited
saint
##ågan
##iainen
closed
Exposition
Drou
TER
##timmungen
##lige
wise
##pid
rough
neljä
kasta
1877
brû
##äls
ellei
laad
livres
landtdags
Eil
kund
kirjallis
Serb
Allgeme
tier
ota
Antoine
##fices
petites
Glück
Greek
reb
höj
varast
##ikir
##unna
Lut
1891
Masse
Boston
Säh
Ansicht
Trä
conscience
üb
uttryck
NOUV
borta
Macht
##hdoin
gerichtlich
Roll
kurss
yhteen
belles
hausse
edust
##brecht
pleine
uncle
##63
puisque
suure
##yden
##ESS
sprechen
lääkär
##vernements
etel
nuorsuom
upse
fré
##besondere
##ukin
gläd
neighbourhood
##olaan
Söndagen
##utua
gefunden
##zahlung
närmast
Abs
joie
##bal
woh
Liverpool
carriage
460
inen
seder
kyrko
tonn
credit
preced
vols
mp
mihin
siècle
##VER
throne
##vad
reten
isänn
##join
##RIC
télég
tyy
entour
resolution
mirkam
advance
Lönn
étage
régime
endeavour
yleisen
##iSt
##spiel
Kenn
juo
infanterie
utfärd
graves
Morgens
vista
suomalainen
ED
kunnia
##nehmer
##timät
##ione
dylika
stranger
##aisena
Bedeut
##asons
Dä
liit
##vain
remis
Ain
##hallitus
##uusta
##ingas
pér
Wild
Brown
##bd
Elä
defence
miehiä
Kors
##asions
Pfarr
vive
angem
schöne
##ggelby
croit
spread
fyr
entrepr
Liter
Sys
bede
##unnossa
Samalla
##teja
allmänt
tott
Avould
##bla
ottanut
häf
##ANTS
##blin
canal
veröffent
provided
particulièrement
Voilà
föregående
4s
evidence
bau
##innä
onko
Little
Schule
##isistä
formation
##cré
consa
##upart
médec
##ells
##bridge
possess
gne
##oice
##isterna
équip
erhö
styrelsen
Sah
Cat
cuir
tapahtui
apu
##omac
Egypt
engage
illa
kauni
##isiksi
##städ
åtn
enthalten
BOUR
hyö
showed
##ALES
enemies
omöbl
myster
banan
##97
##opé
sammanträder
##landes
prétend
##jährigen
liksom
6s
AURA
##ügel
vollständig
complète
stür
Master
posti
félic
Ordnung
amt
##PU
##allt
Liefer
##mentä
pyydetään
mahdollis
##järven
takes
##ührt
IU
cens
Thou
öppna
Sing
enthält
indust
harmon
##tirten
hälst
##61
wesent
197
##fur
Tsch
fern
Tässä
interd
asett
##öpande
##омъ
##öster
emottagas
APP
treaty
valuable
engel
highly
##ieft
threat
##ulein
Reihe
schuld
särskild
Vern
ihan
prochaine
##reek
plupart
##achte
Richtung
guns
prisoners
perfectly
effic
Viborgs
Justice
Uns
otherwise
tua
weiteren
genre
Holmberg
mielipite
Bier
join
destroyed
audience
gung
fields
Andersson
Aussicht
belys
garçon
##minen
##kontoret
cris
KS
chercher
sähkös
visat
##owa
experience
Grunde
obtenu
##jansa
011
Lei
wu
Bürg
daraus
cach
Witt
##kunta
frequent
dei
2l
measures
duties
education
Frist
hushåll
Armen
##alles
joi
amerikan
jän
artiste
krigs
ZS
aspect
itä
päätöksen
##ffi
##enthalt
rights
Cpt
avanc
Blanc
##aukset
##mouth
##ktören
hopes
##orsch
##ako
iit
##innut
tuber
priset
vieille
##pects
caractère
Matin
forest
Lokaltåg
makt
##ICH
Parmi
##aussch
ies
shown
joukossa
congrès
odot
##omia
därmed
fee
tehtaan
Bulgar
sought
##èque
##inkään
##vasti
##ISH
##ésor
1878
UU
##isant
##fvas
Bod
solution
##ITS
Aj
##stöt
froid
vakuut
##imaa
förre
##üth
##ometer
Sonnabend
##uissa
##pot
nc
kultur
Pt
Erzherzog
##itoim
ungarischen
Parvia
abgehalten
johtokunnan
zehn
Elok
##eto
innehåller
370
taikka
Kirk
##iot
öffentliche
unfort
tue
##schiff
auraient
kerta
gande
Peu
Stettin
souver
julkais
Hov
matkusta
laiv
åtfölj
##frage
##aises
konstitution
##étaires
##IONS
Entre
213
Germain
Pourquoi
##ARE
##wegen
informed
bred
Thaler
kansalais
territory
stro
pere
reine
fullkomligt
säs
incon
bee
rnm
stup
218
fallet
##fä
##uttiin
##ifier
Laht
tvif
fronti
lose
bles
eit
ENG
##entr
##örsäk
laill
employés
Klage
matt
Leopoldstadt
manche
##ömet
##aiseen
privile
vatt
tuks
Auk
##igerung
##bericht
Toukok
thorough
wai
dal
schwe
aikais
nouse
représentant
Turk
address
##issons
Folk
joS
##ources
##kura
Bata
Gros
sions
tire
Commerce
##elan
lainen
##ärsk
outside
taille
##than
##bä
##impia
Bh
eager
##arina
cum
spor
hun
##lf
Woll
governor
##oncier
ledam
Sair
texte
Toutes
nul
Erben
rte
framgång
Rap
appren
tuleman
##OW
Pier
fattig
öron
Vog
guvernören
##lags
absolument
Hie
##igan
##onnais
##lungen
##nia
##hög
##èmes
Bast
föra
##vits
Svo
Anerk
subse
Bai
Yr
egent
matlag
goods
##genannten
##ariin
##endance
transl
Erklärung
##sakt
Cau
voud
harm
Mäl
vähän
spoken
Hab
202
Güter
255
éviter
KI
valtion
##nnt
##leg
ports
kuvern
jüng
ink
##taminen
einiger
##kseni
försäljes
##ittoa
##reté
305
##erande
soldier
##tamia
3°
rass
Ron
regret
##antaan
SZ
Kangas
##cière
Pekka
Gattin
tillräck
##atet
wore
faint
Hanna
##sija
##not
##partement
##98
##96
Barth
Sous
Ernest
bekvämligheter
##byg
##isper
Squ
##pflich
sacred
UUS
enk
actuelle
evidently
genannten
määrässä
Frankrike
ennem
##amiseksi
ecc
hållas
Stern
Normand
Institut
Korpil
wobei
kaikista
mia
öfverens
floor
Rücksicht
Rub
##ètes
Mort
vist
utsikt
jäseniä
false
##crits
kiell
Lahti
etu
##hne
##Sten
dehors
Ferner
wünscht
paa
metall
##termin
ciel
##ilson
geschrieben
rädd
dug
##achtung
fn
Loh
Gh
mc
lära
déli
sammans
churches
Linnankatu
##last
I0
blefvo
klein
luokan
##érale
kuljet
erschienen
mang
työmies
Comte
obtain
Magd
##castle
gäller
Küche
Mikaelsgatan
försäljas
##uä
servants
erinom
##asing
##kanen
Sön
Anzeige
##ERE
soup
åsikt
ilmoitukset
##AA
Weber
Ilo
LL
##tenance
yksimiel
1883
weight
S5
päiiv
purpos
matta
ffl
kommunal
214
farther
tide
##ilaisten
##theid
volon
shel
âme
henkilöt
Zwecke
Mise
stern
3s
ausg
cultivat
##läk
lyh
montre
##auS
antalet
guère
horn
wäh
patriot
prima
commenced
Rég
tilaisuudessa
qual
Charakter
##igheterna
demanda
##attered
Stora
##edes
Ouvert
duke
desired
roy
artiller
fria
directed
maîtres
Cath
##ikoima
Sü
Secret
Hannover
##teenth
Kaisers
telegraf
södra
Maschinen
##kut
Kris
##kkiä
##olis
majesty
##prå
quitter
förgår
vuor
débar
funnit
juste
##schule
angeordnet
##iie
spiritu
example
##cS
Mittags
étais
Unterricht
Légion
dyr
##olassa
judge
gäst
preußischen
##ampi
senatens
ehr
##intä
##ignon
betreffenden
##VV
verme
cérémonie
Tok
möjligen
Sf
linen
kartan
##onnés
##ppy
angr
##toon
dém
##jserliga
eger
Hilda
straight
##arik
ders
Alma
mkan
##atoire
difficile
FRANÇAIS
panna
Entscheid
Portugal
aktier
bureaux
Bew
##krets
hinaus
mic
##keja
Freiheit
Wille
Jumalan
##itetet
##weisung
##ology
ita
kuor
driven
redou
Olga
org
Kuulutus
cerem
Nam
##illant
EMP
Second
Tö
np
Gesuche
ruins
rout
envoy
Viime
ssä
nuori
##leben
search
oro
plöts
##nibus
tex
Gesand
extreme
##istet
##itul
##bom
##yör
uner
goes
Dimanche
Aer
Chic
Edin
henkilöä
Gabriel
adopted
ice
390
##kapp
194
ROU
BER
##stufvur
##oisten
necessity
dotter
##wendig
komitean
##tf
##üllt
375
##S0
Hung
Kapital
##itute
temple
Toulon
dürfen
hamnen
conduite
Sell
urheil
##hai
##68
toukokuun
##aaa
aikaansa
skull
Högbergsg
##hnt
notes
iti
berättig
##äntä
##IGN
Reform
Vorg
henki
Handelsgerichte
bevil
##achtet
##alities
##cée
commercial
varor
Tw
##ube
##AMB
##ev
об
1st
##endorf
Comité
Reu
##eteor
manière
Samstag
Haute
köyh
ug
arbeta
ehdoilla
md
Rien
sorrow
Marne
eig
##ksu
##zing
lukuis
consult
hyöd
Rautatien
##gäng
gelang
veta
täysin
##zeugung
lill
longueur
Cherbourg
Mond
hierauf
rast
Steph
CAP
bore
allerdings
##uchs
risk
sellaisia
söndags
constr
kysy
safety
##atr
pensée
inhemska
vait
hyökkä
centimes
våningen
lg
##anson
cool
döds
Första
##kien
zul
lind
suivi
rätts
##CS
Sus
durchaus
##CHES
Vorsitz
##stundas
remp
##akan
##standing
lokakuun
kanske
snar
occurred
##kännagif
families
tamb
Cependant
Zukun
Beng
##arbeit
##icale
Edouard
söndagar
gesamm
weg
framställning
quantity
Elm
##DER
Affärs
neck
jenen
compagn
concerne
melden
##volle
##jorts
blos
Ral
Bezahl
OP
##bm
irt
myönnetty
membre
meant
consol
February
##temme
Chauss
frank
##varen
premières
222
Kopf
betrak
pointed
GRE
kuului
fron
##nc
peur
stadg
204
Meister
##umern
COUR
element
princesse
##lück
maahan
Läänin
produits
dagarna
##villkor
tilalla
Päiv
cip
Alph
anchor
##orgs
désesp
låt
mkn
LY
##voy
##bv
hintoihin
##ahdella
inkom
ini
zeigt
glory
conduit
##ricts
##ständen
teil
stopped
##äärä
Town
previous
Bauern
Eder
hohe
accompanied
##kot
##atar
päässä
Seura
beside
##ла
##anders
världen
esille
##inais
woi
chosen
spirits
##bok
références
blod
227
Sac
##tamaa
1850
Koska
détail
Syysk
Africa
Js
telegrafer
työmäen
Bedeutung
nv
süd
kukk
1857
lecture
lip
goût
nnder
palm
Rut
Metz
##usar
Pain
poids
Aksel
habitants
dispositions
Etienne
automobile
tosin
kus
Verwalt
oer
försäljning
Anglo
##key
mälillä
keit
Hot
##tensä
Salzburg
##ckung
enemm
##ÉG
äger
faud
Betrieb
Heaven
administrat
Ansuchen
Aina
Original
läpi
##ätzen
säkert
kilpa
suspic
myöntänyt
practice
##ziehen
drape
##illons
bleu
termes
victimes
rues
servir
ouest
Dern
pardon
##kirjoit
PLA
Lemberg
flott
meilleur
kommitté
Alberts
gewählt
zurückge
gifvit
##vast
ст
##xen
Wäh
johtokunta
##jährige
Rechnung
hiver
antiqu
correspondant
Hou
##isd
eten
ingenting
Eilen
##ilité
Annons
##udence
Hör
Poll
Nouve
erfre
Kenra
lisään
pohjois
terna
##züge
huu
finner
##eg
Coup
College
möge
##pers
ZV
##aist
délégués
Quelle
Vau
indul
dévou
##nissen
élèves
##estra
ögonblick
Nau
Titel
banquet
prä
toa
brachte
Statthalter
föref
toiseen
cavalry
##ünschen
contrary
teach
Ank
disapp
Harry
##sachen
Anträge
##acity
mond
Bag
dun
voidaan
Law
adversa
##ötzlich
##jiksi
clôture
conquer
sund
Okt
##ottomasti
##väs
ernannt
315
skydd
värd
Lähempiä
##armerie
Pfl
kaikkiaan
##eo
Mount
##achs
##isel
##iehdot
Samoin
198
##ignant
##erit
malit
hiermit
##visning
Mission
Hälfte
lately
tti
rapidement
vägnar
Buk
##MN
##LIN
Denn
Imm
salut
Licht
désire
föreslag
Pietarissa
Senat
fyll
gil
kräf
##mächtig
crise
writing
pell
ourselves
Raumo
##chtigt
production
Oise
DEMAND
Ruhe
##raient
anmärk
##istère
singular
trace
kee
##criptions
quer
##eston
Hamp
Viipuri
Jonas
stop
Tallet
##istit
Gewerbe
girls
##hebung
interess
luop
Metall
beschlossen
eigh
Sai
épreuve
deltaga
uppfatt
##Ms
Supp
ura
##tiva
Jeudi
worse
Moun
##aschen
äskettäin
dau
##pai
zweiter
gä
##ämänä
##iry
Lv
##quisition
reser
bund
##ihuone
##ocip
countries
syys
kända
##uiksi
pidet
contrôle
Telegraph
224
huruvida
##esplanaden
sensation
feine
utmärkt
waiting
avocat
huomiota
Cu
##ichert
sairas
tuskin
ifr
##öin
zeit
vät
3V
Lors
##ikkoja
##lai
tionen
komitea
##gaben
Waffen
##amed
##föreningens
maisteri
enle
223
##manuel
##etus
Dt
##laf
französische
##hon
##asem
##kainen
SPE
settlement
##äläisten
ainoa
##ammes
##iaat
puisse
Refer
Eräs
Jansson
annoncé
##försälj
prati
ambassadeur
opening
Polit
méda
incendie
Zusch
suurin
Korn
Feb
päimällä
avantage
marque
charges
##ätigkeit
intelligence
Etelä
visserligen
Russia
##icked
##itzt
Yle
Järven
bishop
etupäässä
unto
fourn
dee
##manin
##être
##aye
senator
phr
juoks
##AST
490
dörren
NOT
hotel
paras
vort
##vinen
officiel
Bergg
Einem
offre
Massa
##lichkeiten
##lee
Mielä
##uct
jut
medborg
Comédie
##vii
environs
cs
köks
Haup
linjen
##logne
##quin
ilmaiseksi
olt
ax
##klass
Verhandlungen
œuvres
Wii
Seur
célèbre
Drag
Nice
Before
Tätä
Kuopion
##inois
anse
510
Pietari
1884
ombord
tta
Nah
Sieg
jälk
##ämt
Abgeordneten
priest
ifrågavarande
winds
Realitäten
tunnust
Rahat
1885
attaque
kaupunki
diman
hållet
alkoh
Dol
European
syl
tettu
Gesetzes
representanter
vapaa
engagement
##endez
##kår
##fried
##hei
Numm
jl
Saari
baisse
##ämma
kenraali
sut
Mensch
SL
Oesterr
Forst
##ENTS
pense
Torkkel
Inns
göras
Kansallis
##wert
##lein
Elect
##YS
collection
apport
attendre
##outons
Bres
vård
##iier
Reichsr
främst
amid
Henrik
Getre
allekirjoitt
klub
##IIII
Super
nai
tjänarinna
##ahdelle
##dre
Pin
hänsyn
##idt
##ikal
pist
jämför
visible
kuluttua
Cy
Vidare
nio
Muur
näistä
svarade
Heim
konttoriin
Bekannt
sammanträde
fourth
lecteurs
nung
maltio
Bonn
Månd
Nom
Nn
misst
Suez
größten
distur
##agent
commence
Rakenn
Wu
##vaara
##etien
firman
##hafvare
##oper
Außer
##skammare
##mr
décret
##fu
Atlan
##olution
HS
##quences
aussch
blow
Yl
##ached
wear
strik
Uo
Käs
berichtet
pous
Sepp
iw
##yhd
unä
##67
##ologiska
publics
##aturen
selbe
inches
##ра
seized
##ottiin
mv
peau
##tåg
##oua
blick
##teet
annons
Liebe
##üre
tale
victory
##sd
##house
Mét
##geois
ryhm
Council
theils
##viksi
dise
ina
##ßten
madame
kyken
rapidly
suuru
kuulla
tation
Sep
##bott
vivre
##derung
ways
Tenden
Betrag
kunnossa
lta
insbesondere
##wendet
Ranta
Nl
##roh
ult
##chni
pouss
gained
ottamaan
Kaiserin
ångare
##rières
Low
##ighten
sann
tillfreds
##éma
nett
Verlust
vidtaga
jt
finding
Nuoris
ingå
ylimäärä
Johanna
splendid
meitä
Sign
collabor
##imar
inqui
Cong
matkust
Uebers
##known
##nete
slutet
Akadem
4°
Torsdagen
erlau
herab
bij
##cou
##deks
1856
##edon
##ceaux
Fast
ansökan
Johtokunta
##iete
Aul
Ina
HUOM
##érature
Saksan
rooms
konung
##kaupassa
Tisdagen
##uisi
äi
auxqu
attendant
##imé
naan
useful
määrännyt
Leist
activité
##fla
ears
stig
secure
herbe
##He
Nikolaig
##schafts
frères
Run
idé
Ruh
Soldaten
Gras
sisä
tåget
Heikk
Mach
Gud
Boulevardsg
DIVERS
rym
laina
Lieb
känna
pans
##idd
ANNON
hov
BRI
Pankki
Nyberg
Pyhä
##inkin
sœur
flour
fehlt
HM
lähetetään
##nadsg
Laf
payer
##zehn
dauer
whence
232
##seg
##êque
suinkaan
émotion
##ologie
##kallas
hark
Freiherr
##ingarna
agreed
Thor
guide
innerhalb
285
rata
mjölk
##uksissa
Maistra
##tamiseksi
247
größere
tritt
##fra
höyry
emer
##attomia
##umi
##AH
Téléph
käydä
##yneet
Adel
Bestell
institution
työt
##uul
Anglais
häk
souvenir
335
grän
lääkäri
Ic
puheenjohta
séjour
##iiin
päätös
##ontaine
tribes
##ühlen
upprätt
Pell
GEN
fifteen
lnd
##staden
Glau
träffas
Tavastehus
Allemands
##onic
conclusion
déclaration
pose
zer
##adier
worship
##ueu
gesagt
Zucker
##utui
mukana
skrifvelse
Lördagen
sunnuntai
Päät
Revue
kansanop
généraux
Dessutom
hunt
regarded
raat
Nel
Full
Lots
##tojen
promised
frunt
rakka
Agric
Familien
##wohner
Lön
##bruck
patent
Kiv
##bungen
onze
PAL
Boulogne
Zukunft
Präsidenten
Occ
carte
rempl
rings
transa
teke
kiinte
Haltung
##iee
Richter
Bärg
Aufenthalt
##träg
Jeune
##iting
sammanträd
Manche
ront
tarpeen
Auth
maam
retard
Inde
hm
Tän
Auswahl
coul
##odist
tidningar
1852
ulko
##bäck
##assel
Sha
österreichische
Lonto
larg
delà
221
billigaste
Sarah
keskuudessa
##ossenen
##heits
erfaren
Dès
##rip
##ao
##jar
natürlich
features
irta
hid
môme
Landstraße
##zie
flat
##uttamaan
##handa
##tyy
concurr
##okous
Theres
allgemeine
Pad
förestånd
Beschluß
Upon
Gewinn
##ämätön
Anerkennung
kylästä
introduced
##tias
POL
Rav
##cau
##uft
maksavat
uä
Röd
pack
Mitte
soleil
sortir
##geri
näkyy
##umista
Auguste
##scheinlich
kohtu
Bezahlung
yksinkerta
Duch
Skatud
völl
233
marraskuun
maid
##auspiel
välmöbl
rens
##Se
##ост
admitted
prisoner
##stehenden
Wirkung
Innern
##jc
Handlung
Hit
oleva
##isu
Blanche
interior
475
unc
##allituksen
détails
##çait
lesquels
##preis
##ffet
förklarade
kill
rejo
bataille
staten
##uchte
liin
##umma
holding
provinces
Fräulein
Hypothe
släkt
aij
##emman
##itar
verstorbenen
Apost
offert
jungen
vida
världs
##ikunnan
dell
puolella
Autriche
##rv
ivi
##otion
Wä
Hut
Eröffnung
Fager
myyn
##faßt
kysymyksen
ISS
##ymer
EC
Jardin
##OP
##wirk
lés
##ätti
##avall
olemat
utanför
##bald
219
##gången
##then
##estens
mieli
Lehti
dépêche
früheren
eigene
increase
woods
mott
850
Station
yleisölle
jordbruk
Cyr
sanomaleh
Obser
VE
era
Inc
erden
Oest
span
##ouvert
##osast
ansa
Turusta
behaupt
##nungs
##ändern
##agé
##oulez
Beifall
aflägs
moyenne
demnach
tuot
ones
Nuor
hence
bilden
témoins
Werke
##■■
föräl
pala
olev
opérations
inaug
##quant
##ults
##rö
provisions
##istique
##ilia
prime
catég
Lappeenr
##iea
afgång
kiloa
malade
##inaan
utarbet
Einzel
##kaluja
keeping
geführt
cirka
241
entrer
östra
erford
schools
Amérique
weeks
Ner
moidaan
Dev
##ottage
expressed
tidnings
##enum
vif
lock
nade
veget
gradually
##etl
Déc
Acker
perustusla
##èche
BAR
veran
besk
##beu
glauben
Pauli
rei
dyn
Prüf
höyryla
Jää
maassamme
Beziehung
clergy
grief
attach
bc
##ücht
mehreren
Algérie
Rol
##lleen
Wunsch
##alissa
520
##78
encl
##änga
bele
Eugène
##varat
marsinkin
GAULOIS
seek
sixty
##omista
Krone
Direktor
hypoth
Theile
françaises
##olais
riktning
surv
##iennes
##ajan
spite
impat
skrifver
##odr
ano
##timmers
sanc
455
täytyi
kull
##roi
##lagt
omf
ajoute
1839
admiration
tjänstemän
intelle
Capit
liquid
##ify
circonstances
views
Marquis
dischar
##aln
Reis
matric
brown
hrat
kväll
##vue
lI
whisper
Zinsen
##arb
palo
##omenna
feier
BOR
ajo
Jusqu
nöthigen
Moh
Palace
nue
##raut
Fanny
Sot
coi
Km
marins
##brary
Kaikk
HI
##kläder
##fves
threw
erhielt
trial
##iebolaget
##imäki
discover
##archie
todista
télé
kokem
Koch
laissé
##TES
park
##äma
##fty
ari
ös
Agr
bemerkt
olleen
##kiin
##ligast
##udent
Fröken
cities
följa
Täll
Amb
Unterst
Az
reader
Anleihe
dagens
##imia
cotton
Trieft
delay
Mäh
263
dust
##ouden
Meinung
Vik
Proc
ack
##hast
sac
fund
Kristiania
stim
Bog
bjud
IW
Kleider
##stl
terra
vakt
Rach
Briefe
##drück
eaux
Sunday
##adet
##BER
Endast
finances
framhåll
äga
vaa
tôt
ergeben
prosper
führt
##jeen
gebild
Regierungs
Tow
hvarandra
larger
Athen
##acious
grey
Debatte
malheure
föran
##delning
Ruotsin
arrêter
1849
Terr
##nf
dju
##yyd
englische
Prima
erik
simplement
uv
tuu
mennä
Franco
voulait
bé
##ollisuuden
iir
Kampf
2t
##ügung
selten
##respondent
esityksen
visade
##urat
ménage
maritime
Iii
##woll
strejk
238
##heile
fei
8S
samaan
##vais
vœ
ordres
entier
Never
SOCI
chan
gg
suurempi
##kai
Torneå
hymäksi
roul
companion
##JU
##ugg
relative
##rott
collè
Vari
Intern
mél
##kisella
borgen
##iteten
##ullut
##anzig
Maikka
pikku
##rg
bilder
sakn
Gamla
utbr
##aite
226
##ueen
##taient
Höyryla
volle
##inière
##ultu
Ulkoma
comédie
Slut
obsèques
Freder
hii
RO
##warande
langen
##nut
##Uy
##ansen
Siv
##MIN
objets
tieto
Etr
##kör
seg
##elegenheiten
CE
ко
execution
robe
Germany
Parl
objects
redaktör
##uusm
##wät
attached
unknown
##ONE
##uksien
verloren
##almen
färg
vermiethen
##clamation
Landtag
suppos
lyd
Zimm
comfor
Barb
##ulté
Kansakoul
##vag
Kirkk
bret
##igem
##nb
suorittaa
helinack
haa
franch
Set
##imil
Finn
Jakobstad
svart
239
clair
parall
244
Alm
##ührung
uniform
##tified
jotakin
nunmehr
Alger
sisäll
##pflicht
predikan
Poin
##höj
ches
troubles
kännedom
tvänne
lauta
COMMER
1838
Zent
Mis
bv
Ring
1859
##råd
lf
Minuten
kauan
Depes
toisin
Tram
Alexandre
##schrift
profond
MIN
za
ira
suunn
1893
inl
thé
region
hearts
Hei
##bern
##uksilla
joulukuun
##HJ
##idel
tosi
delvis
pud
solle
tjänsten
Italian
suun
channel
##äste
##kaansa
dang
##gling
ohessa
inex
reading
suuret
Fabiansgatan
vorzüglich
konser
heur
lördags
##mun
##arel
##ytte
vältt
Gegenstand
Wah
Ausgabe
gärd
##ürf
Tukhol
##fäst
Aufgabe
selkoa
colony
minen
##alent
Auc
Clo
stipend
Vai
Wilson
animals
##verständ
bab
Makler
rude
Kajana
legen
nämda
vänster
Järnväg
iV
vud
Myö
club
study
glance
établi
konnten
intend
insp
##äköön
NN
##eded
##éron
yes
Chamber
époux
jury
##emy
variety
afsikt
beziehen
Soph
veckan
tombe
##auden
##åll
##saan
burst
VA
MER
fog
Cit
ew
schönen
##skylän
##ounts
exposition
rut
1Z
##ITI
##haften
lains
understood
Soh
Eintritt
armed
infer
Verfassung
dring
rabatt
knn
kirkossa
betreffend
##pään
Society
stage
MOR
Ensi
##habt
##fäh
Schn
forming
##ctory
politiques
principles
sorry
##liet
Cela
bladet
sieht
lal
erä
adh
Tästä
hemma
##oneita
##fehlen
enreg
finans
valta
##äär
united
NOR
luottam
Doc
spéc
##göra
##raine
jande
sheep
förmed
237
koskee
palkki
##скаго
kahd
##zs
ringa
sûr
skin
huf
prak
##dde
distribution
viet
admirable
Kommission
Eck
esitt
noticed
sevent
##tress
ymmär
Erl
entschieden
botten
juur
clou
windows
##hile
corpor
##ITH
någonting
Strasbourg
hakem
destruction
tahd
kunnassa
nus
työsk
##ricité
##IX
järnvägsst
extended
consomm
##onsert
télégraph
Sport
äänellä
trains
##chin
söder
access
retired
carrying
##manna
Viv
##ysymys
Dann
überall
sämmtliche
##wäl
Tilaus
heinäkuun
##VO
Zwei
PER
stadsfullmäktige
##idung
##adis
##iokunta
##owitz
251
korkoa
Romans
##ammet
negle
234
##rael
verlassen
##xs
Nachm
omtal
Niemand
policy
425
chiffre
area
445
##fie
ulkop
##69
##kost
chamber
mielestä
näy
##iia
Press
poit
##lil
Talon
myym
dylik
FROM
Hym
einger
troupe
finally
Provinz
ZI
parlé
gjorda
roads
##västi
kontto
vorlie
##èles
Perhaps
nimim
##ugn
##ickt
compren
holy
Bismarck
exécution
suuremm
##uvan
culture
##iy
Elysées
matériel
nouvel
kumm
erwart
Kajaan
île
sluta
Rail
Vente
Dia
favourite
Jnd
härom
reduced
mainitta
socialiste
blanche
ega
##oking
Torn
##tiques
frid
schließlich
strict
vision
Adm
Kri
syntynyt
3t
Aeu
mos
tuore
Rund
##emann
##landers
##vatten
Japon
familiar
uudestaan
relie
including
pressen
jyr
Gösta
301
##äänn
utlåtande
##IF
##perä
Justiz
Bewegung
käytännöll
suoraan
judgment
Parteien
gue
Bestimmungen
follows
regul
norra
Eric
Miel
Temper
ille
damer
glaubt
Which
##cz
Auge
Lod
tiistai
##ded
Heinäk
Pack
Siitä
återv
Möbl
##ttning
kasv
mikäli
##asts
##äga
contained
puuh
reserv
Fah
##oisesti
##yksi
terve
stet
271
Künstler
actual
treated
nyss
coû
Leb
##radsh
Gemeinder
machine
##rep
Sjöbl
##wäh
advent
meno
##bruch
Theodor
Suisse
suut
gyn
våg
répondre
gai
kesänä
écrire
kukin
tamalla
##ulin
apparently
somit
Joensuusta
terror
gloom
seldom
##tille
PART
1800
##ель
##yra
Köln
Mexico
koi
##anton
ilo
Sjuk
prisuppgift
spets
saavat
##thus
tempt
##FORS
remise
sensible
Kreise
##insa
##uvat
Cla
kuollut
tb
begäran
folkskol
Bore
##erung
##iefe
KU
nf
prodig
repris
Oxford
formid
förtjän
plans
voyageurs
Hud
bush
##akas
##arily
##atus
##würd
vuokra
##CL
Regen
kallas
mild
##areen
kaikkialla
##ically
Reine
Obligationen
##ättade
immediate
Norge
1882
Kel
##hur
Tampereen
VS
onsdagar
föruts
Revolution
ocean
toiminta
Gaston
Agence
XIV
EXP
côte
Kreuz
ankomst
elected
##ssään
epäk
Doktor
divid
##ered
Wlad
Maroc
töm
##RON
bla
nödiga
tari
valikoima
kings
tamar
rendus
Kundmachung
1892
##istic
bekannten
Kann
desir
Kyl
maaliskuun
lovely
därifrån
paikalle
Sop
typ
utrikes
##tragen
hinder
cadavre
Fischer
295
rats
##elot
pity
##legt
starkt
##kkoja
entière
päimää
##fäl
##gner
déje
Lain
talolla
långa
souhait
Meist
##äntöön
Bolag
##ulo
##chtung
ohjelma
supérieur
Besuch
Aft
request
##varor
goss
##ffeur
Jours
turm
Landesgerichte
utskottet
malmist
##imon
Allerhö
##uar
Arg
##omaksi
##audin
päivää
##cnt
##anke
Emperor
siä
##skaps
##ymmentä
fång
distress
bic
ordför
Mord
##uum
klart
wet
Manchester
Niinpä
##wet
isol
pieds
maladie
wast
lac
succession
byggnads
renouv
existe
Nil
arvo
filos
type
##haan
apt
ehe
Johnson
lukuun
jotain
consideration
vaatim
vorher
grown
Doctor
äär
Like
S3
##fll
Bomb
asiam
##äjällä
##dain
Hohen
esityks
décès
Eau
##ssel
Inhalt
Classe
spéciale
Lp
Tob
fabriks
menettely
Repr
##TIE
figures
##omaa
pâ
sok
Hafen
Chinese
importante
satisfied
refuse
Russian
perpet
tyhj
##estön
considérable
vorhanden
ANNONCES
##amia
IC
Croix
connaissance
maîtr
luettel
skyld
seurakunnan
Produ
##skij
työhön
constant
précip
vederbörande
rever
Bac
##jande
HELS
saatt
##räden
rene
Kt
parisienne
Menge
Verst
nojalla
##vinge
erfolgt
ständigt
Md
Fär
##bg
möisi
##står
##ND
rembours
##iege
Toiv
oit
ancienne
##führer
Cn
bränn
Popp
utveckling
Sod
dagligen
##ilainen
game
Western
LONDON
242
ond
kuolle
##bing
serr
##icl
Pflicht
paus
obet
##Staan
geeignet
Most
purposes
SSS
mém
Guillaume
##uing
Bio
##iait
établir
åtgärd
##orable
243
rinn
##Ski
gän
##enham
##hos
Verlass
##idet
égard
lagstift
finished
pöytäk
##ikkoa
eis
erhoben
förbätt
huud
##färd
établissement
##scher
ränta
reck
##xl
freedom
Cen
payé
Office
##ize
series
##roth
##manstrand
vorläufig
Marieg
begag
##unken
Cb
##га
difference
ilmoitti
sella
Chef
lel
##aments
ikään
täytt
erfahren
Rent
##taen
##durch
fins
Pohjan
représentants
Loim
##temot
dub
niä
Marguer
commanded
##fly
Helmik
extraordinary
Präm
magister
Jones
autorité
##fus
Wider
ombud
jealous
pêche
mairie
Osk
prod
##lager
Nyman
Letzter
inval
##umaa
##grens
afse
jäsenten
##tilan
##enschaften
Wat
Carn
affirm
etelä
pours
betydligt
wuo
Baz
midt
séc
fina
tvätt
upph
blefve
Uudenmaan
absor
##eb
##ormer
##uudella
kapell
##ikkaa
##illään
lämnat
Gör
##klam
danse
##HO
mikään
nainen
anmäla
##ärke
Tukholm
magnifique
##iera
##alaan
##tian
beabs
405
##deur
présenté
##urit
hvita
ache
Wilh
Versicher
##atorium
Societ
##orr
township
tank
intens
##oittanut
##iah
emperor
worked
chanc
yhteis
élève
radical
compelled
TA
AP
erinä
advice
indispen
Prior
opinions
Schiffe
slaves
severe
##erschaft
ttt
Halle
415
aul
Während
UI
Auss
nem
##nämnd
##cue
eläin
esity
ora
punkt
##gegeben
Ehre
##imn
parann
Häuser
vorgesch
eb
UUSI
laine
##telle
##erness
##hoitaja
jetz
setzen
puolestaan
faithful
hvilkas
godkän
Erk
Åker
perse
333
löse
Karlsson
applied
##ilän
Virginia
fruits
##kind
förhand
Kate
Berath
minis
visst
fonctions
##ABLE
hwilken
protokoll
théâ
Privileg
##apaa
Lott
##lof
käsittel
teater
BANQUE
##despel
##koff
tarvit
profess
##érée
géné
valit
Löf
traitement
Nachmittag
omaa
Ångf
##stimmung
lire
Emma
fallait
iß
Goth
sacrifice
Vii
muuan
##ischem
##okunnan
lapset
byg
Philippe
##ikolla
könnten
edessä
pond
sér
bade
##erait
tans
maamies
Comptoir
bolagsst
Beil
##ioikeus
IND
##utunut
Nordbahn
##ancs
##dry
lopussa
Stift
leski
Schü
1886
Guerre
Hong
##ahen
pääsi
##kins
landtbruks
completely
lb
Kull
working
suuntaan
Zahlung
kansamme
##agues
pitänyt
occasions
Bade
##ро
##taina
saurait
##oral
extremely
grounds
Another
sanomalehd
garrison
courte
semaines
1845
unseres
##ulous
socialdem
##AUL
Mait
Fortsetzung
patr
##fecture
vaad
Hugh
talade
uthyr
Linc
259
##macher
##isem
taus
##illot
Rhein
##tså
vole
disant
##arg
manners
beviljats
ferm
3000
Satz
##ijuom
iU
töitä
WW
Tot
2Z
Lum
adopté
Out
lyckades
papers
Några
dressed
##iac
345
responsa
dern
Arbeits
Lords
##arkt
bonheur
Having
##add
Storal
##79
vang
##gesellschaft
##mansg
cave
##hardt
501
Börsen
yellow
wären
Wert
progrès
matlagning
darum
##liä
##ization
Filial
roug
gesehen
##istoon
trouva
##unesse
Ausführung
Material
samana
porm
Avho
##entat
##benb
Huru
Claude
##reu
Have
toiset
stick
##stn
Magen
Those
urspr
perjanta
Anmeldung
Mode
zeich
précis
sko
236
fet
XII
##borough
viz
kark
##ATH
publik
##Mr
Två
##deuts
##fisk
##husgatan
bedeutend
Sever
##jken
##ilai
##lications
oppi
Vat
process
Entwick
horiz
veau
anglaise
##fal
Abra
parfois
pyytää
Sour
##arbeiten
Däre
##anstalten
##werke
fled
##IERS
##krs
eduskunta
naturally
##edig
Tammik
Spanien
Courant
Nie
cuisine
##wei
Onsdagen
Kapten
tyg
servi
toimittaja
##hafte
verschieden
escaped
poursuiv
##yyttä
##lagda
förelig
unanim
occupation
represented
IK
ilmoitus
demonstr
Foug
douce
##lS
middag
hevos
Beit
reli
consists
505
##onsin
handling
##vets
frk
##ighets
##érité
Dock
forst
allgemein
Angelegenheit
rahoja
##jatt
karl
##ulte
Herzen
Annahme
rire
vard
##bildung
rear
suffis
##sei
Vincent
Berl
kolmen
Nav
ärade
##ador
clean
kohden
rät
trafik
portrait
##elten
bail
näyttely
méth
schwach
borne
cust
drog
Fleisch
uppr
utslag
pénétr
##iant
kaupungista
ramen
Stall
extrê
erinnert
appré
pääst
lisää
##gow
hafwa
adjoin
Schauspiel
1934
HauS
aside
##tym
besondere
pourront
mirka
##ålet
neur
Dn
übrigens
cité
landtdag
beträgt
Voit
##etsch
Nag
diskussion
руб
##mät
arpaj
teitä
deß
tongue
##älde
ages
##rakenn
forgotten
##ныхъ
Einz
käd
Haar
Ausdruck
belieb
##theilen
cy
öt
lähten
##falt
##onter
##ugs
##iiä
legisl
unmittel
successful
céder
388
lämnade
gebra
russes
##platsen
sprang
##vällä
Fontaine
##quier
jokaisen
kasm
handen
##RED
lnst
excess
interests
##isyy
kutsutaan
##hns
reprodu
depend
##person
venue
fön
enseign
##edy
eläk
##etyt
taught
##dm
##illings
tll
##yön
BI
lof
Antwort
atmosph
##acteur
##emal
##ANG
rév
Hafer
poikke
Vins
CU
Wies
##hteä
bree
229
Kanzlei
sedermera
ån
Norr
##acks
Tendenz
##ningss
villes
observation
ench
Stort
zus
meen
exig
Eerikinkatu
susp
##estone
Lää
todella
städer
deta
vorigen
Tenn
shut
Lopuksi
##orous
##omit
Adress
Stimme
##istys
##geant
likewise
ziehen
##used
Jf
cow
confl
millioner
Entscheidung
Mikä
sprid
Stem
Kamm
cure
birds
uutisia
disappoint
afsked
##althy
telegraph
##cies
réserv
ottam
répét
trot
##ри
Lontoo
rappelle
##ijer
individual
rj
kamen
##ämällä
moitié
proven
Toinen
Philipp
lumière
##stiden
Regiments
Toijala
Schre
##rot
##burn
moindre
minder
##ineu
##tiven
##ENE
tusta
fak
##immän
##igo
##ftet
förhållande
cloud
lofty
test
##chet
palv
Abd
##oute
nomin
confirm
rencontre
propriété
Esk
sortie
faux
2i
konfer
##NS
cherche
tama
stär
##aiu
Usk
nee
kiire
Aal
Öfver
Ään
prem
tail
beröm
##kylän
inred
damals
##oui
sääty
käräj
hemm
Uts
##cester
actuel
##ной
Eb
situé
rupe
alliés
toimesta
##vollen
liiton
ryss
##athen
Magistr
##ätselkammaren
aware
système
##ueux
Edinburgh
##ettöm
Alsa
deck
##erskan
PROP
##certain
##Sd
surprised
rival
därigenom
kestä
##gjord
caisse
Königin
inse
##ода
ausgesprochen
erklärte
##ormais
##vidare
citoy
Hotell
gehabt
adres
meth
Lori
deshalb
##artin
påpe
REP
##löst
sukul
Vergleich
Dublin
garanti
papier
demandes
Rov
##järm
Friedens
##fälle
##intarkasta
Hjal
Kvinn
Pehr
rises
establishment
Auran
prolong
##velt
camarades
##acle
sijoit
Newcastle
Toulouse
verse
réussi
##arce
Olymp
##orl
districts
MAISON
enkel
##eding
commencement
Rl
##jander
käsk
sanotaan
##onique
##imit
jolie
Buen
Lucien
lördagar
permet
##zier
mud
Premier
Lied
infin
System
Lyd
aktie
cand
##bryt
gagner
wah
##MO
##dale
##anns
bemerk
Uur
##ïs
Abr
tehneet
säännöll
Absicht
##strä
administr
lup
Hul
surrender
##mack
enh
##zon
##föring
kuulumat
miljon
blé
rul
Laval
loco
utgjorde
mémoire
Celui
närvar
sked
propose
provision
##kkia
##geu
diejenigen
Bc
##MME
taks
Buck
gosse
Wieden
##rophe
sistlid
tiv
angle
##ibel
allemands
aamuna
Eind
##OUVE
Toht
Parviainen
pidetty
ausgezeichnet
GO
zufolge
##jahre
recommand
Henriksgatan
supported
Rost
##ilty
##steuer
##lose
einander
messe
git
économique
länder
blå
kirjoittaa
Moskva
befinden
bvar
##cribed
##istot
null
climate
Edel
accompagn
Schon
ämbets
Väh
##geld
##igungen
beds
Gebäude
##weil
##chesse
Vuos
##eau
Faust
Ota
##vements
##db
kiinn
Gent
hankkia
Sicherheit
##anes
до
pyör
syfte
ANG
couvert
248
excited
mielen
##withstanding
Aa
conve
vsr
##hler
##stel
meaning
Realität
tande
##gende
##lås
##länder
Slo
Uno
##amana
manque
Engel
brilli
##tyger
##elija
décor
##iellt
lA
löj
monen
expéri
Rauta
Abtheilung
Brunnspar
broder
suivants
folkets
require
committed
uppträ
brow
preserved
##uolella
2g
Doch
Rc
Ksm
separate
Father
##förm
transporté
##убер
particip
Uli
rief
récemment
Lars
händer
NI
retire
conserv
quietly
leda
positions
skön
officielle
gleichen
##vie
##urie
##hallituksen
##ре
exposed
iH
Cô
Fenn
262
olin
glänz
kortare
wed
Sut
hyväksi
elin
passes
recogn
menet
##ÉES
esitys
hyd
tém
##illeton
huhtikuun
prospect
circulation
Aub
Author
skyd
ylle
##arinnor
téléph
älskade
offent
##atteita
maali
prononcé
isä
gårdskarlen
halte
1914
joutui
##htä
tys
midst
Za
utgöra
##ärerna
Oscar
bekanta
gehe
esitti
##istik
Verwaltungs
vouloir
##elson
##öltä
Duf
politische
hauteur
272
##upa
Pia
enorm
##intes
Nancy
##imetière
incom
compter
altern
affair
Gräfin
embra
##preise
XXX
Raymond
##elsi
procédé
##rac
##DU
ehdottomasti
Cross
stehenden
halva
laughed
##ned
metsä
Indeed
##ktioner
##amalla
luom
##ioike
##tives
##ffel
dîner
Three
##tiopä
innost
instructions
##orst
revenue
verkligen
bergs
##imis
doms
virtue
lus
Meter
demeure
cort
förrättas
##hända
asemalla
duchesse
Fragen
Pharmac
Länder
magnificent
Gestern
pressed
Oder
Prinzen
ick
##ksesta
parf
répondu
expense
truly
##asaar
samtidigt
avan
Gn
Thier
samaa
Paria
##bonne
ooo
faible
Nro
dying
Neubau
##opin
develop
vertreten
##uminen
guter
Catal
Norden
auszu
geschlossen
313
##fritt
Soll
päivästä
Dopp
##schall
##vare
##itate
##ÈS
pom
Capital
##aisesti
déliv
##kojen
##stellungen
Fü
handeln
435
failed
Lång
##pekt
chale
fought
tement
OO
correct
vastaanotetaan
Student
techn
##alossa
koon
écoles
##ställande
durée
Bene
Febr
bürger
stycke
##itious
sändas
##kit
värme
Besides
satis
Först
kehitt
Rs
période
esimies
##askin
##uSta
Hope
fordringar
facts
bestehenden
ler1
Wai
Worten
##ijo
assured
faces
311
amort
##miss
##ichtigung
##iae
560
dum
##elo
##ounding
inflyt
365
##asch
Mobil
379
##yhdistys
Miller
fönster
maksi
Holy
revenu
##osto
unseren
##rikes
exactly
Wass
Là
current
skil
uf
Ct
pih
délai
betrakt
##viljely
Calais
##immassa
Berichte
liene
prêt
##iehungen
OOO
ous
saataisiin
Thätigkeit
myytävänä
bestehen
richten
cch
lajia
Moz
desamma
imagine
Jouluk
##edral
282
Hé
##BY
##iljelij
Anlaß
grain
Erfahr
##rät
##empien
##eltiin
CENT
relation
Orle
besökt
##uiu
##onger
Love
rur
##chus
issued
väder
keks
Reuter
kläder
flower
Arts
douze
Aurakatu
274
Lauantaina
##iber
suchen
clay
##uod
adressé
sairast
Lik
##PS
Fédération
ZL
Träff
##skl
##pruch
Laurent
certainement
verka
##iteurs
betydande
##ähd
##standen
Marché
säd
myöntää
verschiedene
Tay
TI
försv
##ustann
1853
kohtuull
määrära
##ämää
shape
Parts
kris
längs
resan
##lant
Note
rätten
hut
278
##jää
Mayer
Eriksson
252
sjön
begagn
Dieses
sauf
Gebrauch
iltama
##hopp
##mia
marched
sufficiently
##ousseau
515
folks
##others
Gripen
Laul
##ssor
##zet
réal
poissa
##urcht
Kore
maltiopäim
##tios
erwarten
text
##läg
##ichtigt
nement
WOR
Zo
grosse
supplé
##emoiselle
mj
HA
Muo
Herrar
Klagen
begg
Konttori
Lung
lass
Kapit
Bäck
vicinity
railway
voisin
mineral
##änkt
Domin
größeren
407
Vuo
##brunn
sekajuna
##ware
Verm
Skr
hemställ
Say
##illement
uudist
mahdollisesti
Beisatze
##utskottet
offices
lieux
humble
orkester
Allmän
##ckl
Tuo
rika
devoted
message
268
##fé
bess
unserem
TRI
Ric
##tais
Bridge
##kupyör
Maarian
Wolf
rode
befatt
Eri
257
ehdottaa
portes
mell
##etzten
##oike
habits
krafter
NW
Bapt
##mg
Lyy
Karol
Sjöblom
##båts
355
Sed
signat
##leks
alltför
dignity
useampia
Gui
usine
maistra
Parlement
JOURN
hemman
marble
draga
XIII
sekin
nécessaires
erhält
recolle
erm
djupt
myösk
##ilton
##kapital
Book
Kih
540
Voir
démo
##astoon
bert
besvär
herrat
xx
HER
Wan
drive
##skans
karaktär
##toile
##kou
shame
rip
264
monté
Nämä
föremål
vänta
Drouot
##atie
genehm
stolar
##ас
Centralt
##irjan
Helen
##istischen
Augenblick
grupp
##air
##iseras
Château
Neben
yleisö
gefähr
gorge
LOU
circa
kannatta
Pope
Clar
transf
##pture
perfection
haud
yhdistys
onnettom
Hiet
vinst
recr
##kos
JJ
ries
writer
cial
##ancier
vastaanottaa
lähes
fara
##oulder
Untersuchung
Halb
rakast
tonnes
##ården
louer
##gefunden
ihme
Budget
exempel
Ludvig
nimen
copper
Följ
inscription
sätta
##emark
1500
avent
##amman
Syn
immeu
bifall
##leit
##atum
Ark
303
taloon
Fredagen
apurah
261
behöf
dio
gegangen
Kustaa
operations
prokur
##рав
interpell
huoneust
sociétés
##itea
känd
Eugen
supple
Bewer
rag
Schaden
arkipäivä
##kulose
##attuja
Laufe
pm
skynd
lukem
obigen
gänzlich
##asioita
##igna
##kinä
jätti
tombé
##zustellen
##öte
eht
gator
Affaires
##ftt
Pii
arbit
försvar
##ymen
twice
secur
rif
puutte
##ко
yard
##usal
Cord
KM
##poli
breadth
miksi
actually
regn
##welt
##arest
Naz
Hél
visiter
Seu
##issär
##ishes
##esehen
följde
##crn
Rotter
pli
beford
312
observe
Döds
remarked
Catholic
belägna
silk
Doll
assuré
ausgeführt
Schwarz
tyst
Malt
convo
sellaisen
Jm
rikk
lapsi
sni
Ofen
##arbetare
##horn
Ari
Mend
Hagas
tarjotaan
domestic
Innsbruck
##atsen
varmt
oikeutta
##ostaan
##acs
##iiiiiiii
Jurid
légère
verre
härvarande
tiedot
Redak
avoué
##lär
##cepti
##yllä
##euve
merch
estime
révolution
barr
pis
##sss
anspråk
Kone
##nee
entièrement
Tanz
##KK
Polen
School
formidable
##utit
fantaisie
##stande
surely
Mikko
rauhall
öffentlich
carefully
Blattes
##atorn
##orderung
Loch
##ikkeen
Rahatoimik
BA
Lill
laulu
attir
vaut
GAR
Greg
hait
CONC
allant
Wiip
nobl
Tch
größte
photograph
temperatur
##slokal
##itets
Name
Dy
Allen
##arre
lehdet
##uuksia
violon
lukum
kappal
tique
Beste
S8
Resultat
Bald
246
##ießen
##bas
dessous
näytti
Mang
röd
Total
simply
##järveltä
##järvelle
Tat
Sein
Chemins
publie
rekommend
tillfället
prose
Qualität
Gräs
läänissä
dangere
bisherigen
Hälft
illust
##fond
##astus
lesquelles
utmärk
256
##anka
Poor
Kaksi
unable
sattui
ympä
##ränk
moments
raise
alkov
furnished
tänyt
Holstein
##anze
official
##lege
##sträck
sala
##änsla
##ätään
Jugend
leisten
XVI
##ijan
vaste
Wär
olette
aufgenommen
##hört
peas
##drar
dol
##konen
sf
##atherine
Fitz
##yp
défend
maladies
dje
HELSING
Lif
Saloon
ruoka
événements
##yS
directly
manifestation
Canal
I8
genius
485
vuot
##vif
dance
##annon
##hrte
strongly
Järne
##abr
##anspråk
##union
##tall
Roggen
##ONG
tad
Turn
maist
canton
kuuk
277
gris
dieß
Hamb
tillika
sotilas
Offerte
suic
Gilbert
hoped
##blé
idées
Scha
erreicht
Fav
kuuta
Pred
##eront
kval
liikk
edge
monet
##auté
Ivar
keino
Princip
##wegs
kaikenlaisia
courts
Hoh
5V
Ganzen
Berger
##inton
puhui
##aner
Fritz
derna
gang
deser
##ikar
uttalade
##wist
##york
yttrade
Anc
Schlacht
merr
##issään
hitherto
Fell
bets
mauvaise
401
kyn
##tten
Stahl
Kolle
deltag
sale
##cas
ungefär
épau
nutida
##fare
mighty
##quem
IR
##bten
##arenas
Pud
ihmis
##riot
Bess
Einfluß
sement
beige
##kyl
Stimmung
direktionen
Anwendung
kindly
##rochen
pv
##rod
observations
495
Helena
##tS
shadow
##öö
##ikatu
donnera
kli
##kansa
Savon
movement
fullständigt
pall
Aam
Accord
minds
kansallis
253
bodies
kilomet
sooner
##gea
vaike
Behörden
Gour
##iminal
Benj
fii
disappe
glöm
##elys
japanska
silfver
parag
uteslut
##uria
##uht
770
tlie
##orités
statue
richtig
desper
Erde
##ÈRES
##set
flera
besluta
darkness
##veu
##statt
isk
##zut
senaattori
getroffen
disposed
kiertok
Etude
vanliga
Demain
inbjud
Uni
##oum
näinä
grie
Direction
plötsligt
longueurs
antamaan
Lev
Comique
##asaari
Jen
##jäin
pression
##wagen
##rement
##athe
henkilöitä
élevé
meilleurs
armen
liqu
tup
##outs
Paar
häir
Hast
siege
noire
Tah
hoi
décédé
##urss
principle
Egypte
inkö
stellte
profonde
intellect
##ömans
wahrscheinlich
525
304
Yv
Statt
atti
Verste
##INGS
core
##fan
##RIER
worn
Gute
moni
ölver
Åter
##tap
täs
svag
influen
##nyo
pratique
Konkur
yttre
saamaan
##ernes
Gebur
##tally
propriet
VU
handelt
industr
288
gemeins
réunis
Marguerite
##arbeiter
fängelse
Golden
portée
procent
ming
##anco
Chicago
Avhen
böhm
adopt
riche
385
Tos
rim
hyres
bent
lnt
laista
##inkel
supplied
##HN
Px
##ilius
##uva
toisessa
bn
##uko
gendarmerie
nak
penningar
nearer
##gendes
breakfast
sports
plate
Tois
##rois
Sortaval
becomes
1200
woo
délégation
##VES
##hnung
pröf
owing
hilj
wod
Beweis
Brenn
laum
mögen
Illustrations
liikkeen
blieben
Elektr
begründ
##iain
##ettämäksi
Santa
TU
piirissä
gehörig
changes
kuoleman
aiv
##CLES
compli
PP
agen
tabl
##chens
inköp
rol
suol
willing
Fach
régl
saatavana
##aue
283
##ubli
##ksessa
580
frig
confusion
edsv
##fii
##otn
plötzlich
##night
##aissa
Berth
##tail
incor
530
Tark
##behåll
Einsch
Witwe
##once
Vn
kleiner
farmer
parquet
rörelse
kapteeni
toimisto
divisions
##OOK
wre
knight
operation
##bry
Ped
##MW
##bted
##utetaan
Lc
streams
Grant
lant
##ario
Frågan
##arene
slave
##achsen
anmälan
hörde
##ilé
Oss
pääasi
direktör
slo
Afrique
asettaa
Hammasl
admit
##cellen
paikkaa
395
Latin
puhta
Matts
Oran
##cice
Lm
Jub
restored
##AGES
voté
StaatS
perästä
Zweifel
##htaan
welcome
##orgt
doux
##undet
trädgårds
Hert
Ergeb
countenance
darunter
1858
barbar
cycl
ansi
##herre
koht
effects
##ichl
largest
HAV
##fet
anomuksen
Schuh
folgen
belonged
päiminä
##lesiast
avoid
Situation
281
Linien
Sultan
##iellen
##jected
toon
307
Gord
Kauppa
##lichem
Banks
conscious
##atser
##timents
Up
##nea
##joitta
Kauppias
##ungsweise
kerto
banque
##oires
edullis
##atts
Regel
tavalla
Corps
dritter
##nés
611
##åld
##steller
fertile
radan
obl
1913
soirs
rouma
##vell
##emät
helposti
Adler
1851
jälke
hemos
Heikel
striking
Plac
ani
citer
Tell
falling
##ämättä
##ciers
odottaa
anled
##vail
Eth
asuin
Pla
##ringen
propag
hinnoilla
élections
Billig
##ensi
billigen
balle
##ukse
##ills
##atory
œufs
Lj
BON
bombard
täin
gos
jaa
exten
valtio
warit
##hot
Gesang
manger
neuvo
tive
eingetroffen
276
Gerste
tunte
zeigen
##jalta
Anlehen
##männ
Inhaber
Taipale
Neustadt
Synd
273
mältt
Henr
ajouter
burning
##gods
Pent
##ijoki
soc
##SW
Ruf
##stall
##xa
##ilaan
##jältä
##ytetty
konstnär
##ilassa
admis
ornament
exercise
Cabinet
##аз
##éraire
Klasse
nent
rådstufvur
undersökning
##üben
ånyo
Leib
chim
Kad
deeply
Flo
Admiral
##lautakunnan
##vään
helmikuun
##läggning
final
Suolahti
##akar
Gesucht
tare
iso
##ainaja
Zeug
sisäl
ridic
##gä
##chw
Import
användas
transform
Hauptstraße
Stellen
laita
444
härvid
##umia
Luxem
luck
gymnast
Hjalmar
##oes
Cheval
pistä
##essel
lul
naap
tettiin
##ternal
utmost
##kaupung
Rn
Hoffnung
Norman
divine
##innas
sanottu
sain
249
meurt
Head
études
##kraft
Zeugn
privata
ymmärt
dosta
tA
Zeich
Islands
Chief
flight
Staatsbahn
##hinnat
advan
Spring
wand
uin
Häll
Verordnung
inculp
yhteist
Ereign
statens
Behandlung
287
##neurs
vuokr
mart
heureuse
EU
sév
##icz
##allisten
hef
##kare
décid
distinction
vielmehr
direktion
Crom
landed
kunnioit
widow
##otl
##uchten
ier
##orges
difficultés
belief
411
RÉ
##ettet
##utna
RES
composition
ceased
302
Septem
hälft
devront
œil
élu
despair
acted
suome
##hic
Andrew
Aktion
sd
intill
chambres
##ikts
##ÉDIT
##cap
pait
Ford
stäng
##ской
blank
cimetière
##leu
inven
veckor
summit
1830
mètre
angekommen
##back
Byggnad
average
ekonomiska
growing
Dug
##rived
##rell
Abraham
PU
principe
Tuch
assembled
accomm
tron
ilmoituksia
Gård
ovan
##emang
##gues
##amatta
##schlag
Ihrer
ouvrir
##delningen
korot
sénateur
Nej
##oste
##icit
##TIN
techni
Leder
Wick
merit
appropri
pitkin
VENTE
känner
maatim
##ußt
croix
ER
Fabr
S1
miehe
Vorstellung
##pitä
Fait
Beck
##opet
convin
##aufen
##urité
suunnit
Internation
Liper
edel
##igg
Hm
bears
appareil
Stephen
Boulevards
##imt
fixé
passande
##anni
Svensk
britannique
##celle
District
ersättning
##oga
Freunde
##utile
widrigen
Constitution
##uivat
semblait
inträ
festen
Uus
254
##quar
Europ
Ski
##ufung
##aska
##change
Mund
##olge
##iU
##umé
Kreisen
juhla
##liest
Allt
Forss
Tagsatz
convention
toin
Pik
##gés
Italie
kihlakunnan
niillä
##huoneessa
stattfinden
##agan
##itch
Gymn
regel
cheveux
remaining
##aseen
taasen
salons
anländt
Lasten
démar
##häl
réclam
Infanterie
onnell
begyn
Schwier
gegenwärtigen
svarta
kvinna
eins
Division
##puolella
scand
dylikt
##érences
1840
Brust
choice
tribe
språken
##akun
tte
Ohr
derived
krist
korkein
shout
gt
##üs
9S
Voi
Lauri
##klagte
MONT
ASS
Tus
gram
addressed
Action
##umann
nest
258
nister
säät
Sandelin
konstater
estomac
beklag
sosialisti
Briand
tric
Söndag
##rats
Uti
##fts
tuntia
Triest
alliance
türk
##ytään
##iljelijä
struggle
FL
saved
female
##ääntö
Pard
Elisabets
fia
nousi
##gerichtes
eti
lull
rechts
pum
kulk
Lion
Mih
mè
dritte
##ließt
ample
kaffe
jäle
##ooth
##isinä
##älla
prie
Papp
Geschäfte
asiakir
##iries
##fford
ylei
##то
##chm
lemm
##rifft
##éries
##CTIONS
trying
Schloß
lopuksi
oppila
delivered
discuss
talet
##uhe
conform
FTA
shoot
##ес
Herbst
Kirjapaino
Doug
dään
##idi
cardinal
##та
Feind
Opfer
Tokio
Malgré
##ovårds
Sont
##tagits
amende
##chau
Brés
rappor
accent
hide
sökt
korm
##oitta
JS
laisen
acts
Bombay
Biljetter
Mats
Brah
schien
##änkning
reward
keines
Ordin
akter
création
nunta
motstånd
annettiin
fll
##pé
Nyky
Aufnahme
jakt
Berghäll
pään
Liquid
HELSINGFORS
SOU
##itan
lea
##roff
dict
Gon
tagas
ajoissa
lank
meist
Samp
préocc
tulleet
friendship
ana
exag
##jau
adjoint
reprendre
beroende
##omon
kinds
##laut
tapa
Frieden
##AME
Getreide
##uba
##zwischen
contempl
##ämi
anbud
##utuksen
rahaston
hofr
hearing
##eleitä
##taf
##deS
LIFE
neuesten
hing
vand
##gart
##tact
berühm
lugn
knappast
##mästar
Put
disparu
##stal
meijer
medför
gewill
saknad
Magaz
kulku
alloc
laulua
Lorient
behagade
Nikolai
olycks
werk
fotograf
Job
##vista
Fm
##terre
arrière
Gazette
stö
tammikuun
clothes
Noch
Hyvinge
##ikunta
rea
föll
##ANC
BRE
kommunala
тор
##arning
Nem
##ilder
intyg
##aha
företag
N°
Peller
Opetta
säkerhet
teille
Service
##banken
Annegatan
Lincoln
##seu
jes
Puut
beginnt
molemmat
ministers
Vilhelm
##gal
##verhält
Ankunft
Mén
##find
pålit
gerichtet
##iette
bruks
AF
Hilfe
Fed
##onnière
##UBL
##üchte
maiden
vaka
Kouv
Pér
befindlichen
chase
dull
Verlauf
Deleg
Comtesse
shop
##ängar
gewes
couleurs
414
agriculture
zust
##eben
Vih
annual
curieux
occasionally
lähemmin
##edrag
paikkakunnalla
Gouver
sjukhuset
##jf
nande
EM
vio
##fvade
Regerings
fanns
contenant
##rass
##itean
##tirte
Finsk
sökte
restaur
##kkä
unfortunate
peria
##tynyt
geblieben
Ora
découv
Stä
##outé
muor
##arzt
5000
dea
DO
offi
begre
departure
##ctors
DEUX
porten
mult
iO
##ströms
kysymyksessä
étud
sident
establish
Oesterreichs
exercice
Young
##arpeita
permission
##älk
Lungen
Ther
##ättnings
impor
##ivière
##crs
Marsin
Constantinople
wünschen
##lust
otettiin
##iehille
käsky
diplom
Bevoll
##illiset
##wind
mapaa
käytetty
réception
NORD
kändt
Ders
Betreff
torstai
##kort
Meidän
Grenze
correction
knowing
säästöp
hinzu
siirr
bewilligt
##tades
vm
##Zt
##ktorn
oik
espoir
##OME
##lägen
##ciaux
adjud
dents
hälg
Quatre
Ili
##uulla
##ättens
Führer
gré
##oimat
##husg
##ATRE
##ilde
augmentation
verbre
Nothing
##ksensa
Vack
côt
köpare
##bie
vivement
570
tenait
masses
ense
##alier
trouvent
##öörille
Prenumerations
exposé
Wahlen
nächste
circumstance
hér
korko
oon
aikaisemmin
experien
Hela
sust
Mör
Koiv
BB
tamm
##icap
politik
408
malmista
Gér
använda
##ffes
rétabl
upptä
Saa
##ymme
suuressa
Kokouksia
poitrine
concerning
drove
Blut
Vale
Reichstag
käyttä
Dampfschiff
Huv
##Ska
##isr
partants
Seuran
Bey
precip
mahmist
Staate
Anth
superbe
ELE
genomgått
Jat
assurance
Paper
##imirs
interval
unten
##illo
grade
Lahtis
bekanntlich
presents
##law
##arv
skada
kod
frivill
tänka
rukous
##enhagen
Hoheit
Instr
##geber
##cns
Fisch
про
STA
mili
##ustomed
todellakin
sisältä
vinna
##itionen
##erd
yleisöä
einzelne
##nay
lotter
empêcher
keske
Dispon
Tekn
mkaa
##avier
heten
täysi
Kuinka
jopa
muis
triom
benefit
##imalla
##wie
skal
Pelt
flu
##inture
veaux
painos
agitation
asemaa
völlig
liberal
Fonds
nécessité
indiffer
suures
tch
tableaux
Massen
##pät
Icke
sentence
returning
manor
Hände
Verfügung
Varatuomari
Nm
##ilii
huutokaupp
Casino
république
gärna
Noël
Kass
Völker
##höra
##inkiel
Hii
Section
Sachsen
couver
##olliset
NOUVELLES
anonut
sekreterare
pyysi
fm
Jns
##intäin
lakiehdot
nik
Sven
Prüfung
gesp
Wt
Samedi
människor
Lazare
##aparte
föranled
arranged
##holmen
toisella
##ios
##staap
Bezirksamte
dank
630
unterm
Tin
tés
lyö
Porissa
angry
ambition
accordingly
##esa
##ayette
hev
särdeles
##ilie
ändring
perfor
Tut
Laus
sentähden
tulen
excuse
jouer
imagination
beauté
Koskinen
REV
##uiig
kana
Curator
##eldungen
##cst
##lautak
##skär
Mitgliedern
invol
laisten
tableau
Bond
meddelade
jedesmal
kansakoululla
huomat
Hamilton
unterst
465
huomauttaa
##österreich
voulez
##ikossa
Himmel
fullmäktige
##reibung
repa
Exc
##ping
accepter
sven
Lindroos
maike
befäl
eteenpäin
saapi
derar
Peking
garder
##äuß
##assungs
kaunis
##tab
kate
##ustaan
##astrophe
Vll
appelle
kunnalle
Constant
Lindgren
förtroende
befall
glorious
discipline
##aisessa
ding
kät
##nitz
talrika
1912
##ifié
chute
Area
Vv
comprend
recent
##uskunnan
sive
Mies
uthyras
kompet
##tsi
1SS
tillsvidare
tiedä
##iiksi
##cet
##opat
ath
Kranken
vitesse
##ikte
Niederlage
höchsten
purchased
osot
##afs
##igl
letzt
capitale
epäilem
escad
fruntimmers
##naderna
Bele
##enton
##ability
##aher
portait
erfolg
douleur
MAG
polt
myöten
##plar
kompl
However
förnämsta
##outi
##stehende
sodann
paru
mönster
##vertreter
##uudet
##ettää
söm
##gelt
accepted
L0
vête
##omma
seuls
sistnämnda
jätettiin
##aktig
acquainted
toward
##Hi
##isista
vana
##nie
ersucht
tings
menac
sköta
Ig
framhöll
##OTS
Cirque
Inne
Laine
Grundb
Brunnsparken
Hain
Bibli
##emot
brick
Ohjel
drif
Rivoli
Neder
myöskään
##abled
guvernör
päällikkö
##ereien
##styrelsens
##antaisin
Ganz
710
fini
##umberland
Senaatin
##tils
pouvant
surveill
##vius
melk
rätte
Träffas
Spani
kontoret
##ented
reichen
Hiit
mistress
##quait
735
honn
luft
##eliers
Maat
VIL
fiel
bande
Very
##isée
spät
Summa
##ukseksi
gemäß
wonderful
##ttle
##kassa
socialistes
412
kirkkoherran
Table
uttala
##ал
Streit
årets
muokra
init
rupl
##chem
quality
Bertr
lyckats
conducted
##ritten
##aisissa
##llor
##unz
##RU
beantragt
##imens
Marin
hiesige
pannaan
Each
Jamais
##pek
julk
Weiter
##ääll
Gib
bewe
collected
Fortsch
framgår
Letter
donnant
niit
##dukar
sjukd
äsken
##ottel
apost
##enc
Arriv
risti
epäkoh
quelles
månd
##yttö
##fvor
atelier
itseään
sugges
tance
sääst
Beginn
trefligt
ital
Korke
ernst
##CU
Clôture
##ettävät
afsluta
Konstant
Parish
##wolle
qualités
tillverk
työk
Haw
kkrs
##ttok
främmande
Oulu
##allan
Säästöp
##ological
lp
inclined
Journ
étudi
Rosa
rubel
HY
tage
amend
hufvudsak
##nna
Congress
venus
trott
I7
siden
Pacific
kines
Essen
meinem
NOS
Ranskan
##antu
doul
circle
triste
sanotun
S00
##aissait
##wechsel
bride
3l
lopet
emots
kis
##unately
telegraferas
##ytti
genannt
voisins
minuit
Gare
repas
Sisään
côtés
##ckning
##elly
kuuluvia
röm
##frei
##maksu
##perc
tulevat
navires
pommes
##gh
etenkin
clouds
##rupted
navire
separated
visar
##ZZ
Garantie
##tsen
vål
Wahrheit
##aking
Cré
possibly
Austria
Bestimmung
##umpor
Kolm
Zustande
##orted
##papper
##oittaa
Thy
##ersdorf
Ön
triomp
dus
##tena
tetaan
Skandinav
explosion
merkit
laissa
Angabe
tirer
Lindfors
structure
päälle
##rech
syndicat
Arvid
##äkää
enjoyed
##ieheksi
Café
deutscher
bio
##liu
teidän
äkta
Järvenpää
fabri
talking
attractions
auswär
mukan
Museum
##uuS
resembl
minkään
insinööri
raisons
##tifs
köy
Myöskin
Kant
soligt
Unternehm
gagné
##glar
gay
maatal
insändas
lean
muissa
COUNT
kia
enkl
##stöd
Ruk
##aling
##ueur
ääntä
##issante
Mariegatan
##tryckeri
##ilit
dcn
##atrième
aio
attacked
##ateaux
##gym
principaux
Vj
confined
##lik
##altar
##besitz
uttalande
werth
##verwaltung
Card
##irait
Bd
Muh
Ennen
##sons
##stage
årig
Liibeck
##zeigt
Marche
Columb
Sanomale
innehållande
haara
eii
eastward
köksa
##forme
##holz
importe
Huone
manus
Muut
kaur
##aktigt
raj
eleven
accompagné
Raat
travel
##ruption
mask
tp
##inschaft
Feuilleton
##ENTI
Scots
Imp
##illeur
Saxon
##oisella
displa
336
inu
##leute
fredagar
eftermid
##igsten
appartenant
continent
Rant
ylläpit
utländ
styrelse
##viin
##lng
désa
##theless
doors
vapeur
ohe
schweren
gern
Suz
gates
taiv
##OIS
##köön
publiken
hållit
Assembl
Meu
vd
tjänster
führte
##hist
Repu
conser
6e
penning
Ao
Polaris
Keisari
##onnée
deed
abend
ansprå
sagdt
##LEY
fung
##chster
4l
##Ti
Divid
sic
opération
Vertrauen
westward
Hack
448
Mittheilung
pöyd
puissance
ansett
Gamb
Zwischen
landl
##adan
317
Ausgleich
Besitzer
##zr
Nim
entinen
buts
paljo
Kym
rô
praise
Vars
##ipa
##ierge
voraus
Gt
gelangen
bewilligten
297
##anca
Kohl
lupa
Rang
##hofe
Stol
##ättiin
##oisi
enthous
moimat
ror
##isty
Palvel
Dj
Merk
##ökande
nimismies
fuhr
drunk
desert
Lundi
dét
Palo
künf
##reissä
##♦♦
cultivateur
nime
##isés
755
extrême
orsak
edelleenkin
##CIER
##hten
kno
fjärde
lämnar
miserable
##käl
fare
recover
##vakt
mena
déjeuner
démocr
Inform
Gunn
gardens
cortège
Gebiete
306
##iid
fum
308
##jolar
##flt
creature
grièvement
hasard
ryh
##ignée
TOUR
elt
Möglich
täkälä
Fällen
##reß
möglichst
framtiden
appelé
pomm
Kuol
Mariahil
unent
förbered
##förmed
malle
leagues
##esc
zog
sert
victim
ansökas
Administration
##uutensa
331
##uno
hvarom
permitted
monter
##olain
##лен
graph
Stutt
##tifi
269
stead
livar
säännö
Kohlen
gleichzeitig
seize
##ento
beur
##zul
endroit
##olia
retrouver
dto
unha
gransk
hallitsi
Bildung
##hjälp
##valta
bortrest
Jyväskylässä
befri
Orleans
ääni
ompel
glac
leider
toimii
nykterhets
déclara
ligga
ire
puissances
Fougères
plains
armé
##itat
##lakar
##lch
##osj
##pson
##iches
##wy
huomenna
gestrigen
stycken
populaire
Ilom
huomatta
hoitamaan
extremity
##karleby
soie
continuer
##heater
letztere
Puheen
Emellertid
##besch
Nature
##rf
rede
anger
Mikkel
##quets
kei
käsity
1932
Féli
403
Alser
##öto
Artillerie
brygg
uhalla
hinge
##aljer
Exe
heidät
Utr
##ütze
stann
majority
venge
tamaan
underrättas
uppställ
patrie
grefve
stren
tapah
toisten
##lip
##LY
950
viktig
förhållandena
lainsääd
##reau
Wich
Yks
acquired
##GRA
scenes
sourire
720
535
416
##beg
Weih
Dépôt
twä
agricole
autorités
Jas
##ösk
trom
Lieut
RM
Västra
lopullisesti
défaut
gê
Tagesordnung
##okin
Hauptmann
innocent
Vien
eder
Danmark
kumernööri
bezahlt
##kommender
montant
sigh
##arbeitet
murh
russischen
juttu
Advoc
auteurs
assumed
déclarations
Sei
Bilder
thereof
Mull
mercy
lähetetty
âgée
assisté
##taux
aii
hafvet
##itim
heillä
smaller
lente
unmöglich
Pruss
Händ
Imper
päätetään
cesse
Insel
Princes
porcs
hölls
Hü
timber
restaurant
määrää
reprises
groupes
agréable
allé
Kallio
Day
zuerst
##ать
mière
wodurch
lieber
Pääsy
entit
mounted
luxe
##avia
completed
##hc
##weig
cun
uii
katso
asiaan
ilme
cultivated
hintangegeben
Rés
IO
suffering
REC
trapp
tables
Excellen
ance
vk
Jam
##teilung
Upper
289
##stern
Nest
##наго
lions
##tein
siff
mantta
keskivi
skogs
##ylvan
remembered
bety
advokat
Unterstützung
anders
finskt
##aved
##osake
plainte
##krank
##arse
vendus
Zahn
hvit
ideas
##aser
skolans
inferior
##ließung
désormais
GRA
puutt
286
inspecteur
Vieh
##agers
monat
yk
intressen
navigation
##kehrt
garantie
##umis
##förslaget
##aisella
antingen
row
##ис
##ibald
##itaire
##lict
poursuit
eikö
humour
sju
compre
huge
stores
Wur
smak
korja
Disk
##blich
##öön
WH
arbetar
284
modest
##jotoimisto
moinut
##ndes
berufen
execu
1t
directions
shelter
##uuu
kuka
lover
Befehl
487
##Stt
débat
##ittoon
Benjamin
##führten
gouverne
paiement
pyhäpäivinä
behauptet
prayer
document
##veil
##romp
wholly
##amarin
milli
Buenos
Grad
Edmond
prokura
osaston
börjar
zo
traî
tehtiin
hjärt
election
bildad
Ie
tract
génie
ordningen
Lun
bog
Staatssch
Fenster
asiamies
##behörde
##dent
##ollet
##KU
##chung
##kaupan
Ziel
varust
rok
jordbruks
traces
byggnader
##ociped
##chluß
arose
riin
##ampf
##fvan
##esserung
unw
##oht
##hko
309
Siellä
##elé
vuodessa
OUEST
SJ
Vladimirsg
favorable
omistaja
Medic
Quart
finge
approached
Lombar
bvil
Junat
roses
rege
acknowled
##ioik
##gebracht
friendly
didn
kansaa
obligation
wenigen
begun
##rob
##ünsche
##lst
482
renvers
##uneita
##cheiden
##zeichnen
hören
beat
provisor
olkoon
commander
##IU
suuresti
årligen
fault
ögonl
Båts
pitämään
tann
Hvarje
##ftn
Glad
##iStä
neutral
lln
gud
nic
##fförsäk
от
alive
##stehen
gifver
##ETTE
##entz
kindness
paille
##hode
slå
concluded
Ris
arrangement
##bote
huolta
##mies
##grade
##übt
##gebäude
##uie
musta
##schafter
Noti
##eus
verpflich
performed
PLUS
Dinge
418
smooth
lägga
##ifie
Konz
cathol
##oused
fever
impôt
##ongen
##ipiir
##kolle
irti
jäsentä
tilldel
civile
##essin
artillery
tvifvel
##ijoita
Schüler
hörnet
iy
krit
Williams
##уберн
##pie
attempted
sympathy
inneh
nothwendig
sanott
##ще
##willigung
##tnant
##jään
häri
röstr
Castren
paremmin
tillå
mara
mastoin
vorbe
Folgen
aient
vikt
Ua
HH
KL
Kask
keskimi
Oppos
kammaren
293
Over
Största
echt
ivo
kohtal
Tex
pidettä
Sag
Gin
rauhan
337
dozen
rud
minuter
palst
##MBRE
bära
frappé
erled
##auen
ljust
erot
Hilma
##irg
vilj
lukien
Zins
1933
omassa
ofvann
##èr
muille
Tiet
vänd
kyrkoherden
Wand
##wern
affl
##verted
##érien
bought
Ecke
changement
hälften
Geh
Rotterdam
frihet
##ßl
##nai
Nv
Todes
##kejä
##iefert
##elegten
##kommet
Scottish
##rows
douzaine
6t
erklären
##udeksi
##ettait
shade
##punkte
asukka
jalk
maanmiljelys
guilty
johdolla
bringing
##onien
durant
campa
lägre
Jackson
jättänyt
Hofr
##edning
connaît
Charlotte
jaetaan
CONS
koettaa
##äljes
incidents
Fot
rocky
Bus
Edmund
Än
détermin
Ame
##äsche
Bec
pluie
björ
Map
zeigte
noise
##ammarens
Knaben
jard
passant
reco
##after
l4
nion
ving
##reise
voinut
##ITÉ
ease
meddelande
lyce
hudsj
jährlich
dortigen
épreuves
##iversa
##ilaine
rouva
1920
großes
kriget
philosop
##ÉTÉ
uskonn
bitt
trol
toutefois
##aco
Near
##éo
Petroleum
Lob
mend
tiss
Elisen
1111
wretched
Ea
##lh
framstående
##altaan
IMP
765
kaikin
##iseur
watched
##ollär
Dés
##olainen
##aiS
##sor
##üglichen
##handelt
Viit
sodan
mening
pais
Kansall
dimanches
Bischof
voisi
prisonniers
tU
communes
##orenz
kab
puuta
bird
730
reasons
dreadful
vaar
häd
##irat
ident
##vens
##verkehr
Kapell
préten
pime
Meck
bietet
##omål
##ateful
tei
kertoi
wishes
##taman
näytelmä
smoke
##arium
tète
mietintö
##villa
##utuksia
riit
unex
Sosial
weary
##elden
lü
maina
gek
ammatti
##ksch
pract
joutunut
suivantes
Wäinö
##inea
rice
previously
##bis
nousee
##ourse
runo
faubourg
Prager
käytettä
##itil
##omar
förstå
nens
waste
##ulu
TOU
legs
höjd
Keskustel
desto
Plusieurs
toja
Schreiben
aihetta
Gottes
314
association
nig
##illers
Krog
tZ
combien
##RAL
flacon
AK
##ivn
kaupan
cartes
anticip
##uung
Schmer
Angelegenheiten
Orte
äer
kll
compa
connais
Vortrag
##itimes
lauvantaina
frame
##enken
learning
##fria
impéri
muok
gol
##enskaper
Copp
sestä
Braun
Kirja
292
siit
andels
##voirs
übernehmen
##barkeit
ajour
trakt
##jap
closely
charged
##éry
tulevan
anklag
##urious
Nt
gelegt
Jaakk
connection
fält
##atien
pocket
suojel
sähkösan
Tower
wän
Spitze
quantité
##ordningen
Kirkon
PRIN
##ibles
tioner
shores
riksd
Afr
möchte
tön
dok
tants
I4
semina
##uon
kuiv
mitkä
begrafnings
ivat
##standes
advis
1860er
conséquence
279
hyvän
niinikään
hyt
hetk
1847
luonnon
Händen
hurried
prononc
##aisista
##osaston
kommande
##iné
tret
Dän
Kello
défendre
##CTA
stäl
291
prév
##ordning
1837
Martha
Toimitus
##tima
SÄ
Roose
##huoneella
bén
##imään
Montre
##crt
sökes
patience
prési
Dipl
consisting
lek
##illisten
##ksien
tuomari
tusen
seuraama
Wy
réguli
gathered
förrän
Yor
seurasi
created
##beam
montrer
bouche
Kokem
näyttel
börja
agreeable
böcker
Gouvernements
sins
fraî
extraordinaire
heiter
##lieue
##inik
mail
##styger
repré
tade
laga
démission
lääkärin
constantly
tribune
##asiain
##atorin
coat
uudet
Patent
LET
taul
Bow
bateau
##Le
##etteja
abroad
dung
grou
Hinnat
##utuu
Vet
philosoph
verlangt
châ
Camb
##theile
VALE
##oureux
chiefs
conviction
Prop
toimenpiteisiin
naisen
WWW
BOURSE
Majorität
Runeberg
##kkien
puhuja
muni
Tällä
Nicolas
shook
Rik
##mast
##togs
Vereine
Unglück
Philadel
dv
jf
Temps
hvardera
angelägen
bains
röda
Mittag
Verantwort
##more
ftr
tuotta
##ymän
Félix
##huoneen
##ersk
putting
##oué
enkelt
tels
uppmärksamhet
Meteor
##NW
VAL
suffit
einsehen
##läggas
##érance
Gegend
teollisuus
##frid
partier
ID
réuni
kylm
Errichtung
önskan
sécurité
posit
keisari
teu
neul
740
MIL
4000
Etage
elää
323
Thiers
Kaffee
Bj
befried
##umos
rasch
image
##inein
Apoll
abond
sammankallas
Ceux
stt
lehdessä
##chait
##IH
Clem
##owski
becoming
aujour
saker
##olie
Eure
##deck
livad
##itant
WAS
vapen
respecting
##cio
##itudes
##jul
überzeu
Tohma
##rachen
répé
##minster
##nns
Prim
vorzu
riktigt
##omie
transm
Sd
isänma
##beil
Big
##kös
##pent
##omal
Herbert
##ommenen
scrutin
industry
aufmerksam
tomt
Behörde
##joitus
##briefe
kassör
trappan
entwick
llt
Kurz
netto
klockan
Rouge
Stenberg
##hoito
betänkande
Ralph
##aré
riches
Cæ
Kh
Verk
Derselbe
##gesetzten
underhåll
seuraavat
ordinaires
##bishop
##osl
nobles
##banan
colum
##âts
devil
organisé
Ruis
##mente
Kuolle
allra
younger
##igneur
##tivät
reda
780
sympathie
Quin
##tene
I2
##zent
nähtä
##atifs
Ziehung
##upä
überlassen
sönd
magistraten
Kristin
engagements
##udis
parfaite
Since
uhka
Broholm
Eglise
Forsman
couv
##worfen
permanent
extending
##folgt
leim
soum
318
##arts
uppträdande
Arnold
lausuu
lifs
Telegramm
Sll
paikoin
Goda
proceedings
cabin
terminé
##ellistä
ended
##indel
##yttely
Mieden
##utzen
myöhemmin
585
einsch
Skiln
lakko
ancl
thre
Chan
crimin
338
Saal
vagn
##érable
différents
olisimat
snab
osanotta
##ivit
difficulties
l0
päähän
shoulder
Glasgow
Dela
déroul
437
della
taux
Erst
Kunnioit
découver
committee
##bec
kennen
öm
secured
assembly
##itated
reve
hart
tillämp
trän
ade
##uSt
##ühne
nukk
couleur
##gemein
##VAL
##amis
Rit
beurre
maskiner
##jalan
äid
Edith
villan
Votre
##nec
musi
##аю
pyynnö
##ле
##lun
##Sb
claims
inalles
Elias
uppen
Eisenbah
Labor
Eink
##peare
##baum
åsk
##utena
comprom
utgång
##kreteraren
ungarische
##isee
Miten
##aid
postes
juhlapä
egn
##ymistä
résistance
##oer
##ymättöm
anxiety
kirjoitus
alko
gendarmes
worin
mtr
öre
Robertsgatan
documents
2d
##järn
belge
vuosi
##jojen
##impiin
lav
Einricht
empfangen
##jöd
commencé
companions
##ATT
occuper
Sle
Theresia
wants
jub
seil
åtsk
lasse
edif
##emente
motiv
##ÉRI
Grey
digt
##inut
TOUS
acquaintance
Colom
Page
##uern
##OCK
Söderström
##ellista
empfehlen
maanmilj
originally
relativ
bosom
pungin
praktiska
verksam
Nan
cong
Eriksg
zuges
VIE
puuse
##läss
hierdurch
trouvaient
##heilen
Blumen
wuß
##thor
isäntä
Jnf
camb
shows
##hoidon
busy
organiser
tilaisuus
remb
##Sia
##chou
neat
chante
##glück
##moins
hvarpå
##jasta
nähnyt
eif
tired
##thet
Normandie
##raum
ancest
##remja
kuk
Gedanken
##bladet
332
apporter
762
Nob
mistake
ehdotti
##andidaten
Preßburg
1921
ted
##ulier
semin
thoroughly
erfolgen
styrka
##jön
worst
##queur
clientèle
##gegangen
##issier
Wed
328
610
glücklich
sissa
parfaitement
##KT
Weis
undervisning
Also
accustomed
edellis
rand
##glichen
Dix
entering
##Lt
zeal
arra
##haven
härads
200fl
irreg
##rol
recon
##taines
##ulus
mennyt
##nil
Fram
Taf
##uée
##herrn
pursued
AFF
nil
frågade
estates
toimitus
ABONNE
löneanspråk
exhau
Special
luki
utile
uppn
murs
##uimat
empt
åker
geltend
620
begrü
wars
##laisia
##hoff
asemalle
koler
gratitude
##tamiseen
##versch
defin
Fremden
Director
##ykselle
gouverneur
##ichy
Skillnaden
geheim
406
4L
argument
##itie
opéra
##garten
sentään
Fie
jourd
Käufer
VIC
executed
##arbetet
pref
MARCH
Again
Empereur
##ACE
Erste
wiederholt
402
Florence
Amanda
##cheine
niitten
tersburg
Catherine
Pay
accommod
Linden
instantly
##actien
empereur
synn
Poul
##ynen
##maß
paket
gata
förlust
##leken
envoyer
404
Parisiens
Juan
siun
##byte
##oiu
mate
Samt
esimerk
Gc
##зъ
aunt
inquiét
achete
rese
tydligt
ympäri
Akademie
##mansgatan
##ijain
facilement
##joukko
instances
couteau
##öiden
Bref
Méd
convain
Tours
##pher
armies
kaim
déten
299
setzt
##oden
##verkan
Nordiska
##ksemme
tomber
Schwer
perdre
##nii
xi
lähettänyt
circons
427
##tiu
2j
##къ
##ränkt
Geheim
verket
##ikation
##iscop
##üchtig
Eikö
Eben
##Sf
toimiin
##ättande
##ciation
bolags
Soc
pankki
essai
Swe
käsittää
beider
Tammisa
##ÉL
tahton
esitettiin
stem
Tuber
misch
revient
olikin
334
Nui
hiukan
recall
tät
Beh
Piis
##uens
##mod
Stir
amerikanska
##cki
låtit
europä
énergie
##bellion
Gener
##venus
einfach
upply
hoito
##hier
##iums
##estin
Jar
vollständ
##arnan
Roos
Alexan
geh
Genève
Taus
gs
##isillä
tutta
Dich
Gesetzent
##çants
##wirthschaft
emotses
framåt
puhd
Äbo
beob
##thum
TJ
tiers
bai
Tunn
suoma
##ETS
letzteren
velat
furst
##tiet
680
yllämain
kump
298
excurs
koskema
Directeur
Folio
Joensuuhun
einzige
##ählte
institutions
cé
##mante
katsoi
Ansök
##geon
##alr
Albrecht
rena
Jim
Augusti
repre
alen
jäseniksi
hymän
syt
761
LONDRES
printed
useat
Nytt
painted
##inrätt
foul
versa
Hyv
Rää
##gien
##iani
dispara
ian
inträffade
discovery
sessä
pyytänyt
1e
##ikkala
shillings
joukon
##ftl
sopii
Naisten
##chés
taid
Garde
##ivet
##jäs
Beob
Tagsatzung
##aku
##ragte
koulut
segl
##got
gestattet
zc
pohjo
##ifications
Augusta
devra
##ssyt
##hemmet
Redan
##RESS
frontière
vide
Hipp
##ysl
##kons
utkommit
Percent
coloured
katholischen
Oel
élection
Pays
##backa
kla
##aissent
##endal
sammanträda
ale
joen
Provinzen
entfernt
##beln
äiti
sieben
pitu
suosit
##lagdt
gardes
Rousseau
tartt
Gesund
contain
Box
messieurs
folkskole
Viipurista
Toijal
Wegen
##ckets
##oikeus
tilaisuutta
Home
Bemerk
##umatta
##attade
Kolon
Vive
treff
excitement
Erschein
Lucy
##uoksenn
maksu
afdelningen
Fat
fixe
lch
dest
ollenkaan
worauf
upwards
##otek
presently
Tampereella
OE
640
vollen
känsl
luv
Monarchie
exister
Kokous
##maiden
aufges
##oukseen
republic
Höyrylaiva
Muuten
Konsert
##Mat
minsta
enlighet
321
defeated
Monta
##brun
Transport
übergeben
MOU
##ovon
Petite
##uine
##üllung
##ibe
asetuksen
envis
##essan
rajoit
tâche
##ners
Nouvelle
##olles
294
##ур
iz
##ilee
Posttåg
Afgår
bénéfice
taholta
clearly
##insichtlich
wichtig
Jumala
dif
valtiopä
ISO
##teille
1846
supérieure
reconnu
namnet
Mänty
perustus
##skrift
5S
folkskola
##radt
##schte
säästö
316
Universität
arrestation
fanden
kuningas
emprunt
äk
behör
##ääu
##tamalla
pick
##före
Boi
liu
Nationale
préfecture
##Ht
tyger
scre
##kåren
supre
gewal
##richtet
413
##pääll
vänstra
daughters
jeunesse
récomp
LZ
##Al
scattered
preußische
Hubert
DIS
##illir
Franzosen
##ämässä
Krakau
sérieuse
Maz
4i
##skurs
indép
Drog
##året
inb
RUE
Schätzungswerthe
##xr
ehemal
Milan
italienischen
dab
Helenius
##inence
affected
##quie
##ilv
##lets
touched
##itära
tilauksia
Jem
##aaja
##yrä
scheinen
##reiten
motsvarande
flood
kuolem
records
démont
plikt
brilliant
sammanträdde
eräässä
6er
##chev
##immät
altar
tira
vank
anomus
Viel
främsta
под
höheren
##cro
concernant
Baud
regeringens
Philadelph
obetyd
Mant
lief
##Ar
##örter
lossa
defend
Staatsan
poln
Lakias
förde
296
opetus
##It
Fisk
deltagande
mmm
purchase
revenir
återf
Sorten
laughing
Tavast
Grenz
kenraaliku
permettre
##sall
puisqu
pienen
##pankin
placer
joli
Mötet
scenery
calling
Religion
fäl
exquis
pompiers
##pten
##mäßigen
Bras
##tellte
gefallen
mörd
##riger
menälä
Nylandsgatan
brid
présid
Hunt
vetenskap
tunnin
##ieii
##athes
Kats
security
Selin
Körper
kaiserlichen
Untersch
slog
Helsinge
chère
327
##joella
Vermö
suomenkiel
##alasta
##illl
neral
härad
##nei
##arling
explain
erwähnten
##iran
Witter
Only
660
samhet
Volkes
##mag
##naie
bolagsstämma
sieurs
ignorant
Mangel
horrible
pertes
elder
##itts
Honor
##gressen
framdeles
##gnaz
##sek
Athens
##naa
rappro
bicycl
##atteri
lösa
Verfasser
approaching
##IK
Westbahn
recettes
##irje
vertra
##yton
Venedig
kaikkiin
scul
##paik
Kort
##ampton
picturesque
##fvat
meren
##fj
Seinä
väck
enseignement
Tilaushinnat
##riebe
343
annuelle
##seura
40°
Herrschaft
svåra
descended
Olen
ür
convient
mainitu
758
tli
olot
##rasser
accounts
encoun
Jeden
1a
Svan
Vos
kunt
jau
##kak
lausuntoa
590
Jenny
625
played
1935
##blicke
projets
##amps
pow
tO
ROMAN
suurella
directement
tyksen
kotoisin
historian
geg
prejud
Kinn
Hofrätt
thanks
bekannte
##linge
chapeau
papper
##TEUR
##usted
##pii
erwartet
Fan
maintained
ouvrage
Tryckeri
Syr
heen
##qn
NOUVE
##ightened
##aik
Onko
Mv
Bourg
##xis
befolkningen
##cca
noggr
##regeln
##érieurs
asetettu
viimeistään
käytetään
torppari
##ägan
film
Zeiten
naiset
##ämiä
tillräckligt
yönä
fairly
mourir
Pettersson
hymää
##laßt
skolor
aal
Premi
clas
##aU
aro
7s
polism
##ieen
dost
##halts
Turkuun
debt
##cières
ETAT
Disc
favourable
tillhöriga
Douglas
mekan
##ättningen
Söner
Elmgren
Ilmoitukset
Bant
takaa
##saker
##kaksi
assis
förbindelse
kokouk
kent
freien
Ländern
##anmoins
##етъ
Beet
##gifter
bie
##utenants
Intr
dépend
Grundbuchs
Kirje
880
tiré
Maine
Tampereelta
shock
Humal
vicomtesse
Midd
##reit
envelopp
independent
vernement
##eley
##ivinä
417
jas
ponn
Schlüsse
denken
Freude
toile
Puhe
héro
départements
asunnon
engine
##ports
jugement
##masch
fuite
##kuri
##VS
confort
suomeksi
##förvalt
savait
työskent
##höhung
Smed
Heraus
alg
##grat
säsom
lio
demanded
stift
Wn
stag
Wilho
Kämp
oii
maad
##hauses
omfattande
##leh
Zs
halutaan
Rib
entretien
Esit
artist
Omnibus
##usalem
naissance
leader
wäg
Dunker
Nay
gets
##unts
##oned
territoire
CAN
433
pag
##imu
503
ingal
Breslau
Tré
##ww
Vertrag
COURSES
Zimmern
gerechnet
detek
##formen
rådande
bœ
Järn
Rapp
bark
##oust
##ART
phrase
canon
##xp
origine
plants
##kylässä
rug
förklaring
gallant
Chal
##karl
##uty
plenty
##regung
Dienste
advantages
condemn
Adolph
pstä
##vaal
kaikkein
Auktions
intervention
excellente
lapsia
##attomat
älsk
invitation
slott
##adrat
wards
Wissenschaft
##iffe
bakom
Verbind
##ölja
Centre
links
Enf
ingått
Viertel
internationale
tulip
Né
utvid
##ällskapet
Auft
##ttin
bön
vorgenommen
Uusia
##pö
Stats
Radio
Consol
förhopp
##läß
##UC
sult
ruumiin
miljel
Kejserliga
isen
##ferenz
limits
walking
##ilpail
Pfe
Amort
##ansch
Naples
##yger
##ettavat
toimia
##änderung
Glogatan
##bracht
battu
rättigheter
##okon
kaikilla
utterly
beträffar
Feli
possède
##ottes
freilich
toler
##aniemi
Châ
syynä
schwere
Dort
trakter
Mom
Intér
##stén
##pression
Lydia
Gesicht
Testament
reconnaître
Elsa
##nngen
délib
consisted
wisdom
##amiseen
Jesus
beteck
ennemis
vattnet
apparent
##itv
disgra
##sbolag
4e
##tionen
##zeile
##tively
volumes
kontant
не
Klä
441
Muster
nuoruka
numéros
##irjoja
gestorben
trån
legal
Eastern
permit
indignation
Sek
Boo
Toimisto
Grace
##stadsbladets
SEC
Tj
Försäk
dite
Advokatbyrå
##fat
sûreté
dikt
veter
Slutligen
Alsace
kulmassa
##maskiner
Erinner
Frey
tember
##skrifter
pierre
##emer
447
empar
Conn
laiset
malades
intéressant
reprit
costume
##die
location
wing
##irc
Lieferung
##Dg
maalle
hou
doubtless
meilleure
persönlich
johto
yon
Hs
##wirkung
Lewis
Linde
##elliset
##kass
biljett
##ädigung
##ersök
##NG
recently
Fox
##bew
församling
Greece
candidats
##itete
##erc
##alue
serveras
glaube
##würdig
##OST
Chapelle
Schleswig
propositions
Greeks
394
straße
Gemeinden
Stö
GEOR
souven
##esterday
uppfattning
FO
gor
##jauhoja
##kräf
Apotheker
Erfolge
tids
desp
##unnat
Bezirke
pauvres
akadem
gethan
grü
##ionn
sittemmin
oppress
centuries
##saus
jak
Het
##alleys
##rachtet
##ändska
gjorts
##ienten
heistä
jatkaa
rush
Cog
åtal
Jaakko
juna
traite
Offerten
recherches
osakeyhtiö
##htinas
Aura
begeben
sources
##ISSE
##amon
##TATION
induced
S6
Sla
fördes
uttry
##tiren
intense
dangers
saata
remarks
referred
likasom
fartyget
Graben
Bewerber
Ita
tilläg
Ordre
Laut
HUI
begann
omsorgs
lahd
authorit
322
Rysslands
individus
##ingon
Gagné
##just
##issippi
cid
##usive
hauta
igenom
Handl
ulkon
summon
Byrå
entitled
##vest
selves
##station
##adows
ENGLAND
Bruder
thunder
Mayenne
##betet
flesh
merc
näher
##wasser
Christians
##lats
snabb
Death
kvällen
käytäntöön
##vå
Saale
lupaa
täältä
wt
gesprochen
fatigue
pump
vää
fch
irré
##masse
HEN
silmä
##ivu
##antin
sanan
##cheu
skräd
##apest
##eminen
afres
élector
kaupunkiin
médecins
härtill
übertragen
sider
mécanicien
unf
##immilla
knock
##ilities
rahast
fli
##organisation
halp
chaussée
sauver
3j
##iliation
énorme
förbi
årsmöte
bestimmte
sända
##ician
Eleg
lité
tanke
##ivän
##UF
##unan
Läng
contrad
déposé
invasion
refuge
Tes
käsitel
tile
utbetal
boule
laatu
Eo
##icious
scher
pysy
Ester
##fang
##tamassa
Ext
nästkommande
hunnit
##OMB
rentrer
##dente
solches
Julia
##ivier
naatti
Odessa
prel
copy
Eva
amie
markkaan
763
OB
Tb
508
##gleichen
jotenkin
begagnad
##ckade
##arefter
contempt
##RAPH
landsorts
musikal
alb
##rikts
##isters
ihmiset
hål
##tellen
programmet
enskildt
reported
vidt
##OLOG
surpr
Industri
remplacement
generous
Asianajotoimisto
månaders
4th
##cius
vända
##ин
tme
Verz
ämnen
kulkem
Sinn
ratta
Zun
Entwicklung
snyggt
rys
mukaisesti
##brit
##nummer
sitäpaitsi
skådespel
Vertheid
förutom
försiggår
eigentlich
##sab
junger
##ellers
laud
assista
quarr
columns
Eigen
##beit
sov
signature
privil
##aresta
Newyork
Seg
poiketen
sällskapet
näl
##pricht
höyryl
Tarn
Mab
##ingo
756
mukanaan
uppst
##verka
##laatu
gefäll
maas
##OBIL
##hoid
ilmoittanut
beweglichen
Näyt
kyrka
Erled
reference
Brésil
omöjligt
373
stimm
tromp
armo
##ystem
##ånga
Grundlage
Foster
##cssa
bröst
stadsdel
kie
##dei
contest
##enthüm
pengar
##unu
composé
##cian
463
springs
Ankl
Leit
KO
##istung
##kännagifves
##OLD
##ихъ
nimitetty
coach
##ÉT
##ders
nS
Magas
##xion
Kala
purje
bloß
prec
quatrième
accro
Gesuch
Prom
sugar
##etyksi
##usehen
magasins
passait
mejer
infir
respond
kuukautta
Beträ
commencer
Akten
Wels
lab
taite
geden
Edvard
Z0
Yrjö
DEMANDE
dienen
Cav
Nå
##osasto
Salt
##ilm
underteck
blomm
##ündung
Äng
feiner
##ijon
rov
ifall
hatt
##päimä
mana
tru
Aleksanterinkatu
réalité
Gamlakar
Course
suggested
472
Kyllä
l7
tarkastus
aliment
torr
DRA
Scri
##raße
verbunden
Bost
afforded
##yrkan
ärendet
oppilaita
##lichst
##ITY
##sal
Spa
bieten
hugade
Warschau
yrkes
ryöst
sieur
Merc
skatt
Quartier
##glau
esitelmän
bilda
Appar
lähteä
frök
##iak
beschäftigt
enabled
Berathung
leben
Reserve
procéd
normal
perso
Diener
##zeichneten
Sart
anteck
##яв
##tiles
conseils
protester
hyvää
elevat
Mahl
Vad
gö
##nak
kysymykseen
##veri
##ilaisia
479
lautet
POR
règlement
uteslutande
piirust
764
Orden
muutamat
priests
Fn
milieux
1809
##ettinsa
Iu
waves
huuto
##mäktiges
##ikainen
halm
##fache
sition
##PT
eingetreten
davantage
575
Bremer
##öfva
valm
ausdrück
##nels
testament
##faller
##iés
delicate
skyldig
##chers
ajaa
colonial
Congr
männen
vände
sympat
##odore
oppilaat
Kaffe
##OSE
rask
cc
verlie
grandeur
Tendance
##unno
jy
iiii
blic
dépenses
##ärtom
##lel
Statuten
##ienst
obed
inflytande
ignorance
gast
Abre
##itary
medtagande
foundation
saimat
inves
pause
##kala
näihin
##GNE
Retur
##acles
##iper
beslöts
##acité
savez
problème
3i
unmittelbar
maximum
venälä
tidningarna
kerra
##usiasm
sate
precious
rive
complain
##bir
sonder
Ivan
Keis
absent
prox
##brochen
kää
##ный
laisia
##kiska
kamari
viii
##emies
##rio
puuk
432
glor
reçues
##ammat
Mist
charming
Häls
interview
Herm
Riihimäki
results
Peut
PAS
warn
##NA
Session
tunut
##icat
kött
Große
Gewalt
Tunis
##stän
repu
procureur
Vilaine
recog
litraa
porträtt
##jm
##ijärvi
Muk
seventy
ingår
Bevollmächtig
penser
kiert
##maßen
kärlek
Conservat
lehtori
incap
Gustafsson
##stolar
##ataires
ence
sanoen
Rolle
tunke
notwithstanding
Kindern
Abonn
waited
##Mä
##cera
##teeksi
biljetter
Sok
wound
standen
päässyt
remind
gently
##utusta
gingen
Northern
Médit
spiel
Rie
merchant
sicht
pitt
iT
Andra
Beispiel
VALEURS
pins
Laden
sq
lapsen
Vind
förklarat
unn
istunto
ottom
Abbey
##cv
angeblich
järjestyksessä
##städer
##BLE
liknande
öppnas
library
Wiipurin
##igre
perusteella
stulle
lol
adap
Lauv
Urtheil
Agnes
##kari
##pst
##tikeln
marié
showing
rissa
tunne
##merk
engelsk
toilette
nelle
joint
zahlreich
£1
Tiil
betala
shortly
zweck
lajit
##aly
##emia
indispensable
##utte
372
bomull
##Sg
energy
Arzt
##feuille
tuoll
kämi
curiosity
abandoned
##avo
Honoré
danska
##dingen
tisdags
Singer
devenu
amateurs
##uua
Seiden
Command
dets
Estnäs
inträd
##unton
Svens
##kola
##inga
prié
nait
verr
ohjelman
höf
##An
nego
##clt
nuorison
vägg
Effecten
År
757
herro
Ångfartyget
Barcel
kesän
pouvons
berechnet
Sitäpaitsi
knif
Lehm
visste
##usern
##isimat
Manuf
tietoa
novel
publication
##DY
quels
studier
remettre
lägenheter
Fünf
coucher
##änka
Tode
maatil
öff
deuil
insol
Gunsten
Sakförare
##elie
müßte
Kanz
Export
tendre
clerk
Made
##äkt
CLA
Wenäjän
##isent
Lindqvist
##star
Persian
marchandises
vanligt
Eklund
boite
##oid
abatt
gräns
établissements
basse
##mäen
triomph
##vra
Kronprin
Mim
Poit
kio
##inth
natursk
##iam
##ostel
meur
määrän
resté
442
rope
noon
050
Schritt
tlo
Eindruck
WAR
##quise
##alion
rapports
##ushing
##ANTES
##ettujen
gäl
duquel
##eping
339
##itetets
kejsar
chauffeur
324
témoin
embr
TOUT
Före
sorter
Viip
Farben
législ
rendez
shoulders
måhända
##innassa
##quen
skilj
utb
409
tälle
##orce
nui
mainitut
ratt
taim
V2
Voim
Mine
Kassa
tune
##emar
parh
setä
landen
hundra
##chy
slain
procéder
Chaussén
tetty
foss
##fti
absolute
##ая
tytär
7V
tok
paljoa
fingers
pappers
brass
##oso
##lör
##ricks
CIV
K5
##tami
##lus
offici
recherche
kantta
tuer
##urien
Bestellungen
Parc
marm
Kapp
Göte
erheben
tast
Fili
ångfarty
Fahrt
pide
Bränd
låter
äkkiä
TW
##lir
Lomb
ikkun
reputation
Lorraine
Camille
vertu
Caen
Käk
alam
##fertigt
jer
extends
Stücke
edellisenä
##ARY
##seau
cadre
Wend
##partiet
vunnit
##odo
project
uun
över
##vissa
paradtr
Assemblée
fermet
väls
Lock
ignore
##eting
huutokauppa
##oskelta
Eltern
Vinc
##ittua
##JE
montré
Laaks
##uro
##ernt
1919
Empfang
kyy
##eneet
trodde
Lübeck
Common
schm
maanviljel
heureusement
tjug
sunnun
kuuluis
ledare
##IAN
daan
paht
autrefois
tval
würd
Suomesta
gewissen
syntyi
method
aikoo
##län
Serge
kongress
iZ
lnstitut
##partei
mainittakoon
##USE
##kd
TRO
##rative
Fem
espère
##iiit
savage
bist
##ylon
tärkeä
319
##nab
toimen
hemmet
##oläns
lieb
##teilt
nnt
édu
rej
Thes
##wm
Siebenb
##äht
preceding
resist
pound
uppfost
##engers
Suomal
kysyi
Armand
##uttama
Häme
arc
appréc
Puu
zahlreichen
##trn
menee
ROB
Ward
hautaus
Asp
tvä
##OIRE
342
##ilis
##CIAL
1815
degre
mental
cheek
tarkoitus
##ioa
##flan
rull
474
##urrection
edusm
##istelu
despat
occupé
##wu
##itié
Order
constater
Sad
ingénieur
irregular
commiss
terri
##vera
Chemin
##oussel
différentes
##isait
precis
Jeu
##Uo
tunnet
fug
ausgestellt
työväen
talar
fierce
429
beseit
##zahlt
Paitsi
Einer
##yminen
brothers
##ksamkeit
##AGNE
1L
Pesth
bronze
Jagd
laatua
ote
minimum
beska
melko
Kopenhagen
Loy
##stro
##vocation
tillsam
GÉN
pung
SPECTA
kamr
##itellen
##ouri
457
smiled
ehdotusta
##gning
unverändert
##ineita
##lagd
trägt
Odéon
1S0
NU
régions
AH
convenient
control
##ättern
edustajat
Manne
341
aptee
Shang
inled
##inkää
melanch
bedeutende
ringen
affr
Konstantins
bounded
veröffentlicht
##vagn
Wright
ingalunda
habitude
entertain
##uels
manufacture
##ulsion
##oksesta
frans
Englands
010
Kli
begif
Verlag
##xer
Jakok
aviation
Trag
##otut
palkinnon
Gunnar
descent
477
framtid
tager
bs
436
##igle
timmer
##berätt
gagne
##klub
##strömin
alltså
AMER
tillför
porta
omnäm
naa
sine
Histor
##osser
##itzung
Guér
allure
363
Fredrikshamn
traveller
indire
Individ
schuldig
Täällä
Dru
Folksk
pj
maaseur
irtain
accum
égale
ylä
Angriff
Französ
Standard
##lern
complic
##wege
Harald
naval
skildt
usel
keinem
jor
Måndagen
Turin
Pfarrer
Sack
paikkakun
ril
envah
##oä
lausua
mim
besonderen
##röst
Ordens
lauf
olag
norska
Raoul
omgif
##immung
Huutokaupp
egde
jäänyt
sonne
Ueberzeugung
jedenfalls
Senator
##ollisuu
Steier
Loir
Kleine
Vsr
##weilen
miß
receiving
entreten
Punkt
Betrage
lein
stationen
berechtigt
##iode
Meth
Lal
1931
parallel
fart
matkan
settle
Repar
326
##emmaksi
Lappviks
mallan
670
spekul
actif
Beide
Gegner
praktik
intryck
##ityksestä
silmän
##isyys
nag
kenen
resistance
pani
europé
Vorlage
rient
##adg
näkö
##akul
tyh
elden
getragen
##ener
oath
apr
gårdagens
##etn
writers
Apote
nés
loose
jämförelse
Celle
##ikkalan
##iske
banlieue
warri
celte
rekommenderas
consacr
silmällä
##byter
##assy
Barbara
républicain
nedan
Blick
emport
Magistrat
Hervé
stadig
fried
kulki
Tnr
Lombarden
disg
donnent
kammare
veulent
readily
concur
##unnen
existed
Hirsch
Mississippi
##järvellä
431
##ladung
vaisse
353
förekommande
condam
##culation
Coupons
besitzt
Orts
teeth
Olli
nez
skor
##ylvania
comprendre
Sturm
lähd
lèvres
opett
##Il
##ÈME
strangers
754
##zard
équipes
ausführ
säilyt
svenskt
Austri
vanha
krans
##course
##gage
Sap
##prache
föga
ÉT
härigenom
Ritt
tüch
Sébast
cement
##aisesta
Entré
PORT
drift
Särsk
##ålar
ställen
gifves
Tirol
Row
yst
347
osottaa
##iday
sairaita
sträck
gaze
##essant
##uent
Through
signe
Folies
##yreisen
##posten
nasta
##stor
##iij
Mathias
Penns
##öllä
Törn
färdig
##fli
Zul
##ensation
Katariin
toisia
502
##cor
insult
Gehalt
wovon
gleichfalls
épar
##inko
syrjä
rentrée
mostly
Drey
kalli
377
##esia
##istische
kannalle
##chée
Chester
hengen
##ehm
rall
Högbergsgatan
Allan
maine
Lane
mesta
alaiseksi
Salm
Torkkelinkatu
##ilier
Suzanne
kontroll
dispers
täl
dropped
Vib
##schul
toire
##ottamatta
ivan
##tilla
##kirche
##ishops
##ädchen
Mähren
talollisen
äußerst
väst
Angers
##ieli
Fé
##lyn
markkin
JEU
##irenden
frucht
fes
characters
eingesehen
507
sS
growth
##eS
Julien
samband
motor
##feldt
médaille
##bisch
Saison
##fling
ruok
HP
##gate
Tohtori
délégué
##oikeuden
473
omaisuutta
stärk
parcours
confess
mottaga
##érieures
##garn
##imän
Cart
länet
vålds
Ilomants
##trage
Jetzt
appartement
##rör
Reichen
liked
329
378
Licitation
satte
1808
Zr
muutoin
tuotte
nyttemmin
##hum
wooden
nay
mérite
mått
accusé
armées
Panama
471
##low
oeu
Champagne
ABONNEMENTS
BOOK
förkl
dres
Mie
inneren
annonc
Eon
tutki
Nicholas
raient
unus
måndagar
tehtämä
américaine
451
##gaf
jättä
##erton
Samassa
##icans
422
##esson
##velle
Robinson
nuoriso
##leihen
##getheilt
medborgare
##Staa
tillgång
TS
américain
yksinomaan
Mare
Proven
##lichsten
limited
echo
morte
Gripenberg
peintre
##MU
##AINE
claimed
républicains
Siis
Lontoosta
##lösung
gossar
robes
cig
Kuuka
curs
##ichtigen
vengeance
Southern
reçus
kalk
##аст
361
##ningsr
neighbouring
minn
Kina
##auksena
Tho
zerst
vex
supplies
acad
tahansa
##itur
##itue
ystäm
nassa
##WN
##cut
##ohta
jar
lebhaft
Kuok
Would
scarce
signale
Kür
tarka
##spel
vuodeksi
Lenn
gewinnen
##aliokunnan
##atim
nykyinen
Skatudden
Lamb
##brn
Zuge
faibl
##umasta
counties
publié
paikkaan
##lang
perte
Rac
348
Whit
##eling
##ahrung
trupper
naista
erlassen
Picard
infantry
Verlassenschaft
omis
##laista
fordra
contact
##pfl
##VILLE
##äätäli
Chapel
coupe
1927
zahlreiche
##aisuus
punishment
sas
degrees
fisher
Sigrid
examiner
fonctionnaires
unhappy
nykyisen
Vict
loge
vicehäradshöf
##ATI
enkla
respectable
##while
Frederick
laillis
Pitk
Kc
##orta
Buff
landtdagens
månads
##Vi
pipe
domestique
indemn
gh
Ign
ollessa
##ussent
totta
Bestre
commande
##ня
##kne
Fond
Gos
koll
längst
##hafter
759
##yksistä
Ion
asuk
Escompte
##mäs
##ffr
##itin
ehdo
crimes
Einen
##ographie
lähetys
##åten
katsonut
flotte
manufactures
##denburg
kreat
##alisation
omin
##odt
##orität
repose
accur
Mehl
prevented
##årig
velle
cannon
glädje
Wesen
Neapel
toimikunta
##ccn
misery
368
Sjömans
flow
##oins
parap
moving
Kuk
##jina
devient
##tich
taxe
manœuvres
utföres
voulut
Gum
Lehtonen
machines
##ternas
überreichen
Bedürf
##umisen
longues
burnt
Gesammt
sanat
##eute
Seul
folkhög
##émat
Skilnaden
Sik
romp
##aua
komin
rushed
toissa
Marian
concerned
excep
458
Ecl
korn
512
##ustyö
##sac
##stjänst
impl
sorm
répand
passages
##ynnä
kansakoulu
Vaat
##hag
källare
anzum
352
Tart
1930
utsåg
Serv
tarkot
##asche
anstr
raamat
exactement
färger
Lombard
##brücke
##rk
Où
Ehdot
TUR
##respondenz
tif
naur
Campbell
453
393
##ukt
1803
##pohj
##igern
1801
REG
beför
Monats
##mace
Turc
arrivés
810
Isle
Frag
Bege
Cirk
##ierte
383
##ignan
Spaniards
geist
ihmisiä
Hes
##unkel
##icken
Sål
PAT
Ångaren
5s
weigh
bezeichneten
##trt
créer
##arer
##aana
linj
Soin
experienced
fed
Entwurf
##rez
Haa
##rafik
Although
eom
envers
Versuch
mietinn
Arv
tyks
Gur
versamm
destination
##orton
portions
köksor
##amiesten
brain
widrig
##cls
Ert
Mg
Rid
enterprise
##irurg
Kurki
hiezu
flash
Stt
##uation
collègues
##pann
ändamålet
stått
mußten
##tius
##omassa
öde
nickt
arsen
hinsichtlich
Myy
await
Allein
chi
IG
nombreuse
beviljat
intressant
##üllen
##värda
##chel
Call
cass
muodossa
vrais
tekemät
perä
mixed
hag
meubles
1842
374
Grie
tendant
fired
Olycks
ux
##ог
##aikaa
hurt
##unis
##halle
dela
Hämäläinen
sinun
insk
rendit
Lower
instruc
tietojen
ombre
breaking
tells
Kaarle
juop
hundert
delightful
Kopp
##roc
Lilla
lordship
TV
donnait
epäilemättä
wn
##aille
olevat
Parti
Bonsdorff
eighty
##ischt
Avhat
ainoas
ivaan
Detto
nod
466
tante
masters
merchants
northward
##ängd
kejsard
tuomiok
##unki
invités
olyck
Korp
Eikä
##iiil
malfait
segel
##thä
oaf
##olai
443
WII
##ANE
Weit
THÉ
orient
repouss
##gsg
garant
musical
kronor
concierge
##IGNE
avail
mutual
Ami
452
éléments
Vertretung
##NI
Cook
##empiin
3k
Messrs
##sia
##sätze
##omain
smiling
tto
gratuit
crew
##vei
inside
remarquer
accidents
##Ji
subi
##iehelle
hätä
ennät
minor
##bleiben
finest
barnsjuk
Myr
työnteki
##iiia
careful
tahtoi
##fton
conduire
beach
fester
Front
##ottamat
affections
##ännande
367
wiU
syster
husa
##ucky
##At
LandeS
##kc
Moor
charter
Gordon
Konstantinopel
##TIER
kannetaan
medgif
bres
Mardi
358
oloissa
##ido
Bergr
Muss
##IRES
sjuka
procession
cf
comfortable
##igungs
Siihen
lapsille
gc
osassa
maksamaan
##kehren
##PTE
##stuga
mani
syyttä
##ollisten
##nantti
représentations
ope
ferr
absolutely
aéro
##tsr
Kart
gewöhnlichen
initiative
##rechte
puutarh
puole
1836
Januari
Beilage
Häst
découvert
entistä
1929
Belgien
##aui
Punkte
songe
Meldung
thc
Alo
Suomea
Vormittag
##oilta
##öitsi
Ainoastaan
pryd
äußer
täyttäm
träda
missään
##berge
suspicion
Rai
withdra
korta
##hoven
ROY
cation
##honen
properly
huoneen
marrella
##ENNE
Quoi
Auktionskammare
##oneen
oikea
##ürgen
retain
Prenumerationspris
##kra
perintö
##emain
races
##antz
lack
fals
tentative
##gewiesen
treffen
ssi
##aute
billiger
omständigheter
##thal
dated
upplä
supr
##ättää
Polvi
Rönn
masse
ruotsi
departed
curé
Verg
Iis
##kammaren
starke
kaut
langue
förvar
##oie
357
kaupunge
respons
fighting
assises
katsoen
intentions
Hypotheken
émission
Population
watching
##lent
eighteen
##iktet
Renten
##kappale
Gd
hostile
schein
YOR
jätetty
vague
FINAN
Senaste
##enda
souls
##ämin
esine
sopimuksen
Bass
blifwit
Önskas
##ikankaita
Größe
Neiti
##platze
trésor
##plus
bildet
järjes
Myytävänä
thine
plunder
blessures
generalguvernören
Lass
souverain
##endrait
kasmat
ennenkin
tenden
gelungen
Hedman
weap
artific
niemals
##vering
##yard
##prim
kuva
Paim
Koi
Secretary
##üssen
Että
siiv
Ihm
##öchent
pard
gui
vorüber
xv
korrespon
doth
Toimit
##ASS
Hob
##otin
förmåga
##utscher
Amtsblatt
iis
##Ki
partiets
##enee
##lements
kande
##rige
traiter
draper
fattiga
Jedermann
entré
Pori
##laks
erle
Suff
loukka
eldest
421
Gibr
Westminster
##iring
inlämnas
kantaa
bröd
##inahe
joué
##ivel
nnr
hann
6S
##ojan
lausunnon
tarpeeksi
hymäksyttiin
nopeasti
Ctr
desperate
##linnaan
1834
témoign
yi
passions
##agh
lassa
##ähet
lokaltåg
Rii
##sie
föror
bahn
upptaga
##nS
kanslia
opposed
##kirj
Child
Stoff
Bea
finit
766
Nummer
Kauppi
appell
##chement
setzte
Via
##bourne
todistaa
438
organisée
##hak
adorn
Rennais
1832
dites
fås
Aar
orateur
carrière
malheureuse
tahtonut
nota
##rose
flert
Cand
Centner
stairs
border
Berichter
Unterrich
ansait
##ешя
Tjän
##fler
arres
Oulusta
lähtem
Works
Grönroos
Mll
scorn
käsittely
münd
nice
Satt
kysymystä
beses
##fvar
bankens
remov
Staates
virast
366
351
äkten
expert
##aiselle
##ultural
freie
INTER
travaill
asioissa
imagin
Trou
##atalog
##gles
tén
##skost
veranlaßt
alike
##ignait
##pti
undantag
##Ka
muihin
demandés
cambri
##werb
Lol
hvarken
kerrotaan
fiir
jc
##BO
Blomqvist
milliers
751
Taylor
##hängig
empty
Schröder
Helander
metrin
Zim
Israel
##videmment
Gend
##lot
mechan
##ästaren
NY
setting
##atively
firent
371
teau
Edikt
Posti
Andreas
Öppet
betrifft
maintain
##jem
Zeugen
##jista
cert
tarv
4M
Kööp
joSsa
included
Uusik
iia
slöjd
##irer
##elset
bords
##57
##imiä
ungefähr
myc
Allgemeinen
Foncier
##edo
cottage
##ländische
Täten
Inser
bonden
erreur
Etoile
##êches
mors
344
yn
##loo
468
##alte
##vS
362
centrale
liq
Otta
Salle
möjliga
respective
earlier
mobile
förkast
Kristi
stadt
située
trug
palkk
statement
##attua
Iti
catch
##iforn
##musik
asser
lann
quit
certific
##jeri
modèle
sköt
Lambert
Republic
Napol
Fredsg
vaim
##okratta
ruun
##sterna
Förenta
eingele
disting
listened
ungdoms
drapeau
##ARI
günstig
devenir
nägon
##zeichnung
Käl
##stoff
kirjoituksia
##zusch
Mam
artiklar
markasta
##ächlich
voua
Teidän
##chure
Apostol
campaign
mäki
##IGHT
lime
Schnee
Joen
Meilen
ledamöter
tulot
suomalaisten
##TED
382
silla
##ICAL
kokoontuu
##ürn
##erein
##iese
BS
hectares
gehören
840
offensive
anber
Chamb
contract
papa
tava
choc
häller
solide
CHAU
##terin
Spor
##macht
Theilnahme
schließen
BUL
Komb
Gm
vei
poster
##Ste
thousands
##riffe
Consul
cyl
affären
huomautti
##ilités
tamat
Vuor
plenum
amust
kassan
prenant
skjut
tnl
##Ull
##ktes
lâ
ocn
inackordering
Tukholma
provisoire
telling
VILLE
##eron
universal
##ppuun
évo
sanoin
Tule
kertomus
##chlossenen
##ieusement
payment
Karvonen
601
Bitte
fenêtre
sihteeri
Jeunes
##aland
Bath
gratuitement
Chab
Föredrag
2o
syssl
milk
419
sociale
Gulf
taxes
éte
##lassung
hinnan
digne
calls
Moulin
##fertigung
conquest
kestää
##stap
appareils
Obst
rp
##abrik
hoh
verpflichtet
##iha
handlingar
##mung
Teu
bestämm
Gebr
##kfi
toimeenpanee
##åer
Schlag
Urheil
paikkakunnan
awful
Umständen
barnen
Februari
CY
##sver
onsdags
Piano
pc
##flor
Bron
inventarier
##isan
##etshuset
noi
viertel
ohje
1923
JC
##oitsi
Chevalier
Tänään
##mall
öfverste
nägra
##eted
choose
medi
##aming
Satur
##ikassa
möjlig
Dani
anerkannt
begle
Kast
##yisi
Cambridge
Hun
récit
Helmi
sana
##nämnden
##areg
##tagning
myönnetään
RI
beginnen
##ählen
recovered
geringen
framkall
Malta
Bengal
viin
lainan
haar
regering
Paa
##aset
1833
Lawr
colours
parasta
slop
filosof
##emista
lähtenyt
fixée
Maskin
Loi
##rock
link
##kont
Hc
Nied
##ollision
Atlantic
Serie
ylioppilas
gares
Sång
lenn
Kaiken
az
charmante
##odi
Eint
yesterday
##sai
panta
consequently
kuv
suomalaiset
Eigenthümer
Yves
##områ
##nelles
Board
##akat
gewisser
affirme
392
##dos
##apäätä
##üchen
ranks
##ATS
likt
wes
Felix
hyötyä
räj
behöfver
rez
lagt
##ulden
etter
Lönnr
fullständig
Père
boundary
hc
##komsten
drop
Lange
##ureusement
Landtage
Lel
spare
Uebr
fleur
##riques
elevation
vorgestern
befann
lämpliga
asta
Bli
##hut
Hierauf
nj
Publicum
pavillon
##gc
ate
äänestys
pensions
Angeklagten
##saari
##bnrg
##schn
allo
##dri
##vot
burn
##osan
frisk
SPECTACLES
frö
l9
stable
Time
förekomma
unbekannt
erfolgte
myytä
regards
adjoining
authorities
giebt
Mayor
rechten
lM
bac
##ZS
nière
Wis
yhteiskunn
career
området
Scho
horizon
nons
loyal
##talet
wicked
MEN
spend
iri
Verlangen
ransk
Regie
Eim
Borm
Arbets
##ikokous
##anko
##keits
kommo
légèrement
revend
ends
probablement
dence
torsd
FONDS
423
puolust
##ätsel
Meer
kous
746
cigar
litteratur
Schauman
Andreg
##lämna
##ropolit
##mith
accomplished
fifth
Krogius
saamme
regler
souffr
Diebst
##îtra
comprenant
##görande
##röm
387
Ilmoitus
ridge
Sehr
cb
##enntn
##imirsgatan
jorden
##örelser
defeat
tendance
##alar
ys
##lait
bath
forests
sonstigen
flatter
duman
trakten
Drei
Péters
Sohl
Katharina
matière
##ILS
hommage
TRAN
##lauf
399
repair
nearest
##schen
##iellement
traits
eigenthüm
schriftlich
angre
sökande
superst
förlo
##aneelle
##mittag
college
года
##lutning
blancs
Square
##sea
Omistaja
çais
atl
strike
Verpflicht
Maanm
åtskill
interromp
Landsorten
##äget
wagon
##rück
demokrat
paque
Derby
settlers
champs
##bestimm
cessé
S°
##rens
Föreningen
##keita
exige
Verwendung
Compt
interested
enormous
1928
Dear
##geschäft
VER
amulla
orph
Bewilligung
nettement
avion
konkurssipes
##ettynä
kannalla
texten
478
heders
##jy
täydellisesti
Tann
##kll
inch
##lääkäri
##okunta
Hallberg
Kirurg
godkändes
##renz
melancholy
##jern
##ådor
Chaque
rares
##idl
révol
constructed
Nais
huk
discr
ahd
##ру
Lorsque
inher
tnld
##uneena
Leur
acclam
selmille
##TOR
Stoly
##liha
verliehen
Inom
seuraaman
504
##ttorin
obé
##iously
befindliche
##domen
enskild
loving
Raa
##folger
Budapest
vaches
398
entisen
gloire
ultim
Deputation
##ellschaft
##alg
Leiden
chevalier
428
Lokak
importants
##Mm
##ettaessa
359
incons
piste
Rå
1812
lh
tarkoin
eme
Philadelphia
##ääkär
nämnas
##orderungen
Bonaparte
##iviä
##51
##allisuutta
scale
Micha
##ourd
356
hets
échange
bestätigt
öfverallt
döden
##ktet
434
Enc
jem
Studien
kvinnliga
##Ke
beb
kannt
banken
explan
Illinois
négociations
Schnell
täyttää
kala
bones
Coch
##ить
##Hl
462
##zuführen
huolellisesti
widrigens
puhua
prefer
ledande
honorable
lakes
##oimin
bâtiments
Lungent
##ettäessä
Prei
ffi
Galizien
1810
flows
kaikesta
##asian
svenskatalande
transports
Klafter
Kne
synnerhet
conç
adversaires
##aliike
pantu
faudrait
Nc
tjo
509
##isle
paraître
##hua
kustannuksella
467
myyt
owner
##omed
##avant
scheme
sörjd
minnes
##bons
##ähus
##ipuol
pouvez
eman
nöj
Reiches
tve
patronage
verhaft
taivalla
381
gade
Ferry
läse
354
manœuvre
##ettyä
kalust
sammanhang
Erfindung
célébré
Morb
alkanut
Mj
fulla
obligé
##amasta
alist
täisiin
##uese
##iane
kretsar
Brieuc
Majestä
doctrine
keS
signed
Työmies
uit
##veau
##års
##caré
clim
engels
kulkee
torg
Kaur
Imatralle
steamer
SERV
victor
surve
461
Sang
tart
explained
##qs
511
##hein
sändes
Arctur
##cule
439
Batter
estää
finger
##ettelo
überras
JOURNAL
XL
Persön
Succ
753
Rt
obsc
376
GENER
Ned
acheter
##wil
Shall
malheur
Cow
##ennet
taip
Kulta
##onders
mäß
##BUR
tva
decor
##olu
seende
##êtres
Luther
rista
kieli
iN
kaul
läst
sken
##Hr
##irter
absurd
Rain
Look
muutta
397
1841
Abonnement
conspir
##kirchen
Zustimmung
Gamlakarleby
außerdem
##ktiv
Sampo
Lawrence
Pank
bijoux
Ouverture
appris
##iön
##koot
lB
##rathe
##ottama
républicaine
varatuomari
réaliser
Umgebung
##miksi
yleistä
##Ha
##nrs
löy
##tiel
##rices
Ud
stars
##ussen
Euro
Depot
kuusi
##etit
admission
grim
tranch
##rogs
Adams
##uttamisesta
##igi
arbetaren
kunnall
lopul
melt
revision
Jerusalem
Maistraatin
Claud
syntes
##offs
högtid
Grün
Belgrad
proceeding
streng
kaikkina
meri
493
rannalla
soumis
noita
Gy
customs
rikka
Pankin
Passag
Lopp
maß
ava
lakk
batteries
réclamer
druck
kostet
velv
parcour
montag
blomster
488
##flä
##leton
auxquels
fällt
guer
antaga
officiella
suutta
fint
erittäinkin
##kulle
zen
##agog
erkannt
vur
##xes
##keu
Lll
details
##innande
##vesi
Hammer
##ulated
vidtager
tutust
##elon
##OUSE
beinahe
leads
Commun
Dow
Schulen
subl
Durand
übernommen
antyd
dogs
Etablissements
##uskon
##meij
Marras
regions
fahren
utställning
1814
talked
esillä
meddelat
mises
##oben
simplic
##dsg
464
välk
kotima
Dichter
column
##ivänä
Lösung
kri
painful
Lehden
remède
habitant
Kriege
électrique
##fertigten
fears
##iören
angef
Born
transporter
BEL
349
Vastaan
##DIO
erfordras
rautatieh
Stuttgart
Uud
bénéfices
fournir
skicklig
Valt
précé
##HS
sidor
joitten
Mozart
##ulit
Sb
stab
household
flor
oubl
ressources
bandi
Lep
stories
commandement
wheat
sung
gleicher
lane
##érations
Unser
##yle
##icka
clever
nb
Ohjelm
Passager
Aufmerksam
näissä
Ici
Bristol
Jahrgang
finale
##OOD
oublier
enhvar
zug
Kristinestad
##TERS
##liii
stämma
Bit
##kij
##pun
nalle
Travail
survey
##autés
asemalta
##kosten
fertig
Lär
southward
decay
Helsin
Diam
##acha
Nuorisose
tobac
snö
festi
##richter
tarif
lunast
##да
perustaa
yksinä
perjantai
erzählt
##ibet
billet
555
erinras
Dubois
Hatt
ångbåts
LIT
Ply
jonne
Nou
unbekannten
##anin
##plet
##isons
Kleid
gede
allies
5t
wenden
centrum
Karten
Niitä
Einführung
Kaus
##HM
instants
##lb
aluksi
##Kt
Olm
pharmacies
smär
##äe
gale
MT
sänd
koin
Meine
joue
346
loppu
rents
##gret
Uhren
mansion
Reims
kämp
##ollt
preach
viande
suspect
Alfthan
jälkimä
elektriska
S9
cav
##emän
##ïque
Jaur
AJ
483
Gele
caiss
##kkaa
Continent
compass
Deutschlands
MY
##pser
signaler
##wendigkeit
Depesche
##stil
ARRI
postkontor
kauppak
gala
astr
##käs
Utra
##cot
feast
Samma
menace
##jug
promis
Améric
DÉP
LIV
tacksam
veranda
verh
intelligent
lähinnä
suppression
745
offrir
##elman
Skandinavien
##umilla
nnn
AMERIC
monte
OBL
modérés
752
sailed
erkennen
lights
pfle
tuin
bataillon
JOHN
##alil
betrug
omasta
Platze
##idenz
température
##Li
Générale
##statter
numerossa
leik
Aender
mötes
förhör
vahvist
aS
kurzer
latitude
wozu
Umstände
linne
käsiin
thinks
hyll
##enhause
##yta
1835
urged
deßhalb
lösegendom
effec
suureksi
voyant
Matilda
##uhte
Pois
villig
##umassa
domstol
##ollisuutta
##anie
объ
réforme
protect
limestone
##rasta
animaux
sakoul
##henkil
abgel
brillante
happen
aufz
Creek
Feder
CIR
##wein
##wc
##riages
dition
##emmäksi
legte
Knut
kolonial
areal
koulussa
gelangt
lähetettiin
preis
mäen
##mei
usines
##ahdesta
rappeler
Vendredi
Gouvernement
3d
Tischler
fortw
ihminen
Alban
##bation
sannol
Fabriksg
Ingenieur
sime
kaus
laitt
NOUVEAU
pup
Alp
arbetsgif
slightly
##oty
triomphe
radalla
horror
##apua
Milch
wollten
tavara
poète
##verb
dörr
##émen
taine
mynt
Parlament
patrio
anwes
international
parent
Concur
allemandes
Tabak
leaders
##einander
geräum
Bygg
Engelska
Meistbiet
spécialement
sääntöjen
diesmal
aspir
Carlo
##Men
##raits
Cos
attentat
##ltl
kommission
1843
##aisiksi
##OD
476
##ettuaan
wiime
ljud
##liikke
PETITES
##iku
bäg
Russe
##ertom
##ysk
CONT
Concer
billigsten
##vud
anzumelden
dp
instin
traur
falla
monuments
väster
##ukselta
moida
ainakaan
Einar
##anteri
Social
Voltaire
iö
noted
##reux
424
convey
Glen
##olé
##éph
484
##atiques
shed
Maalais
CONF
Ocean
inm
Lappeenran
Skilln
Wellington
##skontoret
##EC
Dör
Uudessa
fameux
1l
##ityölä
nommen
feind
Inval
tamma
##kning
##kreuz
kenraalikumern
Sck
##öns
##ennut
##eleen
Cost
summan
kouluun
Vaas
Ail
Inack
##annissa
##vagnar
Ef
Georgsgatan
pourraient
styl
Avoinna
längd
torppar
counter
lauantai
##oliques
feront
Oo
commanding
Männ
##iansa
improved
exceedingly
##öpf
dynam
wußte
Umstand
Skepp
occupe
cheerful
##érées
Grade
järj
causé
##illie
aatte
termine
Polize
rouges
crowded
missions
vau
##ILLES
ljusa
steel
orgue
Schä
CHAMP
Ekman
##upalla
foolish
soo
useless
##häm
tilassa
terminée
##uhla
läraren
Vitré
Kuolleita
taistelu
IP
##oimikunta
tult
refres
##ikun
träng
Kreu
##aders
confirmed
ohella
Butter
häradshöf
##AMES
Petition
Brad
vendu
Aufführung
##holt
##waa
ilmoi
##igend
deemed
481
nimit
cultivation
##testen
Sard
deserted
lektor
830
flank
maîtresse
yliopiston
reaching
annoy
aui
retirer
maanviljelys
##direktör
[...]
