#version: 0.2
a n
e r
o n
r e
Ġ i
Ġ s
a t
Ġ w
Ġ o
e n
Ġ c
e s
t o
a l
o u
n g
i ng
Ġ f
Ġ an
Ġ b
o r
e d
Ġ p
a r
i t
Ġ to
a s
Ġ m
Ġ h
Ġan d
Ġi n
Ġo f
i s
Ġ d
i c
l e
i on
o m
i l
en t
a c
â Ģ
e l
Ġ l
Ġ y
r o
Ġ re
u s
Ġ n
Ġ e
e t
Ġ g
Ġy ou
Ġ I
v e
Ġ T
a d
Ġi s
Ġ S
e c
a m
u r
l y
h at
Ġ on
Ġf or
u t
a y
o t
o w
Ġ C
Ġ A
i d
s t
o l
v er
i g
it h
Ġb e
a re
h er
at ion
t r
t hat
Ġ that
Ġw ith
i r
n d
a b
t er
Ġ M
âĢ Ļ
e m
c h
i m
a g
Ġi t
Ġ al
Ġ as
c e
Ġ B
u l
Ġ P
ĠT h
Ġw h
er s
u n
a p
Ġs t
il l
Ġ are
Ġp ro
k e
Ġ W
t s
es s
Ġ 1
Ġ H
Ġc on
o s
Ġc om
a i
Ġ at
Ġ 2
Ġw as
es t
an d
Ġo r
Ġ D
Ġf r
o d
ai n
Ġ F
Ġ r
Ġ R
Ġ (
i f
Ġyou r
o re
Ġs h
a ve
ig h
Ġe x
o p
at e
u p
ar t
Ġw e
ĠTh e
u m
Ġ L
l d
it y
Ġ v
e w
q u
r i
Ġc h
h is
u re
Ġ G
or t
Ġfr om
Ġc an
n e
i es
Ġh ave
Ġ N
e ar
Ġ E
Ġb y
o c
m ent
u c
Ġ âĢ
t her
i ve
an t
Ġ tr
i v
t his
Ġ this
Ġ us
t ion
en d
al l
ou t
h i
Ġn ot
om e
Ġp l
Ġ2 0
Ġ O
ar d
e p
Ġ ac
u d
Ġh e
Ġw ill
o st
Ġ le
Ġw or
i al
n t
re s
a v
ou r
el l
g h
Ġs p
e y
is t
Ġs e
igh t
Ġ ab
t e
o k
Ġ J
Ġal l
a k
ou ld
ac k
to r
ou s
T h
Ġd e
l i
ec t
Ġ j
Ġ k
al ly
Ġl i
us t
t im
ap p
ou gh
g e
ic h
Ġg o
Ġcom p
a f
Ġd o
Ġn e
Ġh as
ag e
as t
h ing
ou nd
Ġ en
er e
e ir
a ke
Ġ ad
id e
h eir
t heir
Ġb ut
on g
Ġ their
p er
Th e
Ġh is
u b
Ġo ut
ic e
' s
Ġ up
Ġ U
b er
Ġm e
Ġo ur
at ed
o g
ver y
o ok
Ġf i
m p
s o
f er
h ey
Ġs o
t hey
Ġm ore
Ġ they
ab le
i p
Ġ tim
Ġwor k
Ġre s
âĢ Ŀ
Ġm y
a il
i z
Ġon e
an s
Ġ K
ĠI n
am e
i re
a w
f or
is h
Ġm an
0 0
ac e
en ce
i a
Ġal so
ig n
i b
Ġ un
ac t
Ġwh ich
u e
an ce
it e
Ġ Y
ar y
ac h
her e
Ġab out
on e
s e
it ion
Ġc l
re at
ation s
as s
Ġin c
ent s
Ġ1 9
Ġ app
h an
u nd
Ġtim e
Ġwh o
ay s
el y
er v
u ch
ĠI t
Ġy ear
Ġ V
h em
ic k
h r
ic al
Ġ qu
Ġo ther
h en
as e
Ġe v
d uc
n ow
m er
ĠâĢ ľ
Ġd is
os e
Ġp er
ar k
t hem
i ne
Ġg et
Ġ them
Ġcon t
Ġ20 1
es e
o v
Ġs ome
Ġ ther
Ġn ew
f f
Ġh er
ul t
l l
n ing
n ess
p l
il d
ĠS t
Ġp art
re e
Ġw ere
Ġh ad
for m
Ġ te
Ġ ar
Ġg r
on d
Ġwh en
p ort
Ġbe en
Ġi mp
Ġan y
Ġo p
Ġp e
Ġp r
Ġo ver
Ġne ed
Ġther e
Ġre c
g r
n k
Ġli ke
res s
i an
Ġ ro
Ġh el
t ing
Ġw hat
c ess
op le
Ġp re
t w
en s
ir st
ion s
Ġf e
o ve
Ġ ag
Ġb ec
or d
at er
Ġin ter
Ġ 3
le c
l o
Ġk now
Ġ "
w n
Ġi f
v el
. .
i e
i nd
ĠâĢ ĵ
Ġd es
Ġin to
ver s
an g
on t
t y
Ġw ould
en c
Ġ af
Ġof f
ĠW e
Ġh ow
Ġit s
o i
t han
i le
Ġs c
Ġ am
Ġj ust
Ġb r
Ġpe ople
a us
ad e
Ġ than
Ġcom m
t hing
Ġhel p
Ġf irst
n s
a ir
t hr
t ed
k s
Ġs tr
ĠH e
r y
Ġ tw
l ow
u al
u g
Ġ thr
ĠTh is
Ġs up
Ġc ol
o ol
l ud
on s
Ġm ake
Ġm ost
f ul
i ous
Ġpl ay
l es
Ġpro v
o od
an c
am p
Ġthr ough
ĠC h
Ġs erv
Ġb et
ou nt
a id
Ġe very
Ġw ell
ow n
n al
Ġl ook
ol d
h y
l ic
o b
r it
Ġon ly
Ġad d
Ġ und
ou n
Ġ -
at es
Ġb u
Ġin d
Ġinc lud
at ing
Ġsh e
ĠS h
Ġcon s
Ġm ay
if e
Ġb ack
Ġn o
Ġus e
it ies
aus e
re d
Ġex per
Ġpro duc
Ġs ec
il y
Ġc o
Ġd if
Ġtw o
Ġman y
n ed
h ese
t hese
o y
Ġ these
w e
ing s
Ġyear s
hi p
i ness
h n
ic es
Ġund er
ot h
Ġw ant
is e
ur ing
or s
t hen
is s
Ġaf ter
ment s
Ġse e
el f
Ġ very
ation al
2 0
f ore
Ġw here
ĠY ou
I n
if ic
t en
Ġ 4
Ġst ud
ĠU n
i ew
Ġw ay
s s
Ġac t
tion s
Ġb us
Ġac c
Ġl oc
Ġs y
al t
i ence
Ġd ec
an y
Ġ 5
Ġre g
x t
Ġ ke
ro w
as ed
Ġb l
Ġp os
to m
Ġ then
ak ing
) .
ers on
Ġm i
tor y
Ġs m
Ġh igh
Ġas s
n er
Ġre m
vel op
ic s
ul ar
Ġin v
n ce
) ,
Ġev en
Ġsp ec
t ain
Ġgo od
ib le
em ber
g an
g et
Ġc ould
ure s
Ġo wn
e ad
al s
d ay
ou p
Ġex p
a z
Ġg reat
em ent
a u
Ġst art
il ity
t ur
e f
e ver
t le
ol og
p e
at h
m s
ch ool
Ġsh ould
Ġ ent
it s
Ġin st
Ġ thing
Ġb est
Ġg u
ĠC om
it ed
Ġdif fer
Ġn ow
1 9
Ġs et
Ġf am
at ch
i ed
h ough
t ake
h o
or k
w ard
Ġ20 0
Ġd ay
Ġs aid
t hough
Ġs to
ot her
Ġbus iness
en er
an ge
Ġin s
Ġc ar
Ġre l
st em
tr y
Ġm uch
Ġl ong
Ġfi nd
Ġd on
l and
li ne
Ġdes ign
a ut
ow er
Ġ take
Ġh im
Ġc re
Ġbec ause
Ġ art
Ġ &
Ġs uch
Ġ aw
ĠA r
t hi
Ġm ade
re n
Ġbe ing
Ġte am
b le
om et
Ġh ome
b r
b s
Ġd own
Ġl ife
Ġde velop
u ally
Ġp ri
t ec
Ġat t
n es
Ġi d
c t
j ect
Ġd id
ĠP ro
Ġbe fore
Ġp erson
at ive
Ġsh ow
' t
Ġ thi
Ġre ad
W e
i o
ol low
Ġ end
i vers
ul l
p t
ĠA l
ĠI f
Ġs ur
as on
Ġ |
e k
Ġag ain
Ġs im
i et
Ġwor ld
Ġs i
Ġre qu
d er
Ġp res
ĠA nd
m an
Ġs ub
an k
Ġus ed
gr am
Ġc all
at her
Ġb el
a x
Ġc r
oi nt
a h
Ġtr ans
Ġi m
Ġe ff
Ġ 6
Ġre p
Ġwh ile
Ġc are
Ġ av
al ity
Ġm ark
Ġh and
Ġthi nk
ous e
l ish
Ġh ere
Ġcomm un
m i
ter s
Ġe ach
Ġdis c
al k
ĠR e
Ġcomp le
u es
Ġdiffer ent
l ed
Ġm ed
Ġm od
h ose
Ġv is
iv es
Ġn um
Ġr ight
ter n
Ġsy stem
t hose
ear ch
Ġ those
Ġar ound
Ġd r
Ġs k
ĠN ew
e e
v en
p r
el s
Ġfi n
n a
oc k
Ġdo es
Ġmi n
ak es
Ġb o
Ġin form
. âĢĿ
t on
ĠF or
ag es
Ġl it
al e
as h
Ġle ad
Ġ ed
Ġf ollow
Ġf l
st r
enc es
Ġs er
Ġe as
id er
Ġch ar
Ġm us
we en
Ġpl an
Ġpro f
Ġc ur
i ent
ĠA s
Ġf ound
Ġc us
âĢ ¦
Ġch ild
ĠM ar
Ġf il
Ġad v
w ays
ĠThe y
âĢ ľ
tor s
mer ic
Ġm et
ĠF r
am es
Ġp ol
g i
Ġp ub
Ġsup port
Ġb oth
ion al
Ġf ac
Ġs omet
Ġimp ort
Ġ1 8
ec ts
Ġv ar
Ġbu ild
Ġpl ace
ĠT r
alt h
is ts
Ġe ar
Ġbet ween
at ure
el d
Ġ1 0
Ġ tec
et s
Ġfor m
iz e
ol ut
Ġre ally
.. .
b ers
Ġe m
Ġst ill
Ġle ar
Ġ 7
Ġpro cess
Ġs ame
Ġs ign
Ġd et
o ver
Ġd uring
Ġ though
Ġfe el
or n
Ġm on
iz ed
re ad
Ġc our
Ġf ew
Ġc le
Ġd ep
Ġde f
av ing
Ġpro gram
Ġres p
ec k
ar m
Ġl ot
Ġl ast
ro p
Ġto p
Ġ $
c c
Ġr un
o ot
Ġm ain
âĢ ĵ
at a
Ġof fer
iv ing
Ġb ook
Ġexper ience
p le
Ġd ri
Ġ 8
Ġf un
ic t
Ġgo ing
Ġl ar
Ġprov id
v ed
ĠS p
v iew
Ġ ty
Ġtec hn
ort h
T his
Ġfam ily
it al
Ġd ire
Ġs chool
le ase
Ġm em
h ree
t hree
Ġke ep
Ġh app
f t
ont h
Ġc oun
l ing
ur ch
Ġinform ation
Ġ20 2
ĠB ut
Ġg ener
Ġ three
id ent
n c
Ġor gan
od y
Ġpos s
Ġd el
Ġop en
Ġthing s
Ġre al
Ġal ways
ro ss
r ic
ĠG r
Ġall ow
Ġc ent
ĠSh e
i ver
ĠT here
ar s
Ġsm all
Ġl ist
out h
ivers ity
Ġp ost
Ġpart ic
Ġl ove
ĠA meric
Ġto o
Ġus ing
Ġcomp any
an ts
ho to
olog y
ĠL e
y ing
g y
Ġw ater
at or
ur al
Ġ 9
re nt
us s
Ġimport ant
Ġin t
Ġw i
I t
Ġcont i
Ġconti n
s elf
b e
Ġs oc
p or
ĠC l
i end
Ġgr oup
v es
Ġc ap
i qu
Ġfr iend
Ġre ce
Ġex c
ire d
ĠA d
Ġcl ass
Ġm onth
a j
ĠH ow
c ri
us tr
Ġp ass
ĠB r
Ġav ail
ial ly
ĠA n
f ect
Ġw rit
Ġmark et
is ion
st and
ic ally
Ġv al
Ġwe ek
Ġcom e
Ġe mp
Ġg ame
uc k
Ġ tur
Ġlit tle
Ġch o
Ġserv ice
Ġ ter
Ġper form
c er
Ġid e
Ġinclud ing
Ġab le
Ġbet ter
00 0
Ġnum ber
ard s
t re
om m
g er
Ġf ree
n o
ir t
Ġo b
are d
Ġc er
y s
Ġs it
Ġc li
ain ing
Ġsomet hing
Ġs ay
Ġs ure
Ġs uc
Ġm ov
e x
ĠA f
ĠP l
Ġwith out
Ġ Z
Ġon line
ĠI nd
Ġp op
Ġman ag
Ġc or
Ġavail able
oi n
ĠC ol
and s
Ġp ut
re en
ent ion
R e
Ġhe ad
Ġne xt
Ġin f
u ary
Ġsec ond
Ġ est
l ess
Ġsi nce
i k
ĠS o
Ġo ld
Ġcon f
Ġprov ide
t il
I f
Ġis s
c on
Ġor der
at ely
Ġwork ing
om en
Ġan other
ut e
Ġm ight
Ġm ust
Ġserv ices
Ġ Q
ur y
i er
Ġp ay
af f
Ġb ig
Ġare a
Ġprof ess
iv id
ĠâĢ ĺ
n is
Ġst re
, âĢĿ
Ġp at
ĠB e
Ġle vel
ĠS c
p os
Ġb ro
Ġcus tom
Ġspec ial
i nal
Ġg row
Ġh ard
Ġex pl
Ġadd ition
i or
j oy
Ġne ver
Ġs l
Ġqu est
Ġo per
Ġd ata
i ke
Ġs ing
Ġinter est
Ġwi n
Ġp ower
Ġcon tr
Ġg ive
en g
Ġle t
Ġcons ider
igh ts
Ġg ot
r a
ĠC on
Ġinc re
Ġse ver
Ġc ost
Ġwith i
Ġwithi n
c ed
Ġwe bs
c es
ain s
Ġpro ble
ent ly
os s
Ġ19 9
Ġe lec
Ġf ull
lo y
Ġme et
Ġp ar
i ns
Ġst and
ĠB l
ill s
Ġmus ic
Ġc reat
Ġ| |
c ent
ĠA t
es p
gi n
b all
ĠJ o
ĠE x
Ġapp ro
Ġstud ents
iet y
Ġev ent
ĠD e
c tion
Ġas k
Ġen g
Ġp h
get her
it ch
le y
Ġcur rent
Ġb re
Ġsuc cess
Ġd ays
Ġre f
h or
um p
u it
Ġm aking
ro l
im e
s h
is m
Ġsp e
Ġv ide
Ġhe alth
Ġl ess
Ġloc al
Ġact iv
ur s
our s
ĠUn iversity
Ġac cess
Ġpro per
ĠI s
Ġpr act
Ġp hoto
Ġpr om
Ġpub lic
Ġb as
Ġcommun ity
enc y
ĠC hr
ĠO n
Ġen joy
Ġal ong
Ġe qu
Ġto gether
Ġpro ject
Ġ el
Ġrec ord
ĠO r
Ġp ain
le t
Ġf ood
Ġ1 2
or ts
ir d
en se
oc us
ĠM an
Ġpre v
un e
Ġs af
Ġchild ren
p ly
w ay
Ġb en
Ġle g
a im
op e
Ġun til
Ġlook ing
1 0
at s
iss ion
n y
Ġof ten
ĠT o
Y ou
Ġc as
Ġunder stand
ug g
Ġli nk
is ed
u ly
t est
Ġneed s
Ġpres ent
b y
ĠE ng
m it
. "
as ter
ĠA ll
at ter
Ġf our
em s
ent ial
Ġ Ċ
Ġimp ro
Ġn ame
Ġch ang
au gh
et her
Ġse ason
Ġp oint
b o
c k
m ed
iz ation
Ġcon n
Ġaw ay
Ġh ouse
ac es
Ġsever al
Ġg l
iv ed
Ġcre ate
Ġ1 5
Ġagain st
Ġan n
o f
oc i
d ition
ĠM ay
Ġh um
ĠW ith
Ġmem bers
Ġ air
ĠC an
ot e
ab ly
Ġh aving
Ġl ight
Ġp i
iqu e
ivid ual
y le
uc t
Ġqu ality
ĠW hen
ect ed
t al
ĠâĢ Ķ
end ing
n ation
w ork
or y
Ġl o
it ing
un ch
Ġj ob
Ġbel ie
a ud
Ġcour se
Ġbec ome
Ġmon ey
Ġwebs ite
Ġd i
A s
hi le
Ġch ange
Ġst ate
Ġro om
Ġv iew
ne y
Ġtim es
if ied
c om
Ġposs ible
Ġf ocus
b i
Ġs ite
Ġm ar
od e
Ġd em
âĢ Ķ
ail s
Ġs w
ĠAmeric an
ĠC ent
Ġproduc ts
W hat
Ġlar ge
lec t
v ir
Ġm ove
E R
Ġb ased
port un
er n
Ġwh y
Ġb ody
t reat
tr a
Ġto day
Ġ aut
ap e
er y
Ġeff ect
ot s
ĠT hat
fer ences
es ts
Ġ 0
Ġsoc ial
Ġk ind
or m
Ġm en
Ġbe aut
er ing
ate g
s ide
aj or
lish ed
ĠM i
r ap
Ġind ividual
amp le
u ro
end ed
vir on
v ing
ul ts
Ġn ear
Ġl aw
ab ility
Ġd oc
Ġproduc t
is ing
Ġli ne
Ġh ear
ĠC ar
Ġstart ed
Ġf ur
Ġsh ort
Ġre tur
Ġco ver
n ers
ep t
Ġed uc
Ġinclud e
al es
Ġl ater
Ġeas y
ĠR o
p tion
Ġknow n
p ing
Ġop portun
Ġc ase
Ġre st
u f
e le
iv en
c o
iv ely
anc es
Ġs ays
n et
u ff
Ġapp lic
ĠU S
ĠH is
ill ion
f ort
Ġre d
p ed
Ġgo ver
Ġres earch
Ġ test
Ġle ft
Ġfollow ing
ater ial
er m
Ġcall ed
n ment
us h
Ġben ef
S t
Ġch eck
Ġtr ad
Ġo cc
Ġen s
Ġinv est
Ġdevelop ment
Ġ ve
Ġs ide
Ġor ig
Ġcomp et
s p
c l
id s
1 8
S h
Ġemp loy
Ġother s
t ell
Ġm ind
ec tion
ic le
Ġl ive
Ġm akes
Ġde v
at ures
Ġ treat
Ġc amp
Ġd one
ĠC o
ut es
ward s
ĠS e
olut ion
Ġw omen
Ġqu ick
an e
ure d
Ġfil m
ĠTh ese
read y
ut ure
h od
Ġvide o
Ġst ep
u ce
ĠHow ever
5 0
Ġget ting
lec tion
ri es
i um
Ġen ough
Ġperson al
ain ed
t alk
Ġw r
Ġe ver
Ġty p
Ġsp ace
Ġre le
us try
Ġs tory
if t
Ġac ross
ĠW or
I N
am s
Ã ©
p h
Ġ1 1
j ects
Ġwor d
Ġme ans
on y
Ġper fect
Ġ19 8
viron ment
Ġcom es
Ġg ames
hy s
Ġw on
Ġ tre
ĠA p
u ng
it ive
Ġc ity
Ġp o
ĠM y
H ow
Ġf oot
ce pt
ĠC hi
Ġto ok
ĠW hat
Ġm ult
Ġyou ng
Ġchar ac
Ġ talk
Ġp ast
Ġe t
Ġcer tain
Ġear ly
im es
Ġbuild ing
Ġp ot
Ġal ready
ĠUn ited
Ġs ol
Ġs ch
al f
av el
Ġf ar
g ed
Ġ [
ĠCom m
ĠF e
os p
Ġli k
Ġm aterial
Ġm ajor
Ġplay ers
Ġ '
ĠO ur
Ġcoun try
ent al
Ġdo ing
Ġ vers
Ġ3 0
Ġres ult
p s
Ġbr ing
Ġn ight
Ġsh are
3 0
ap er
Ġ tell
re t
Ġc ame
Ġspec ific
t em
m ost
il t
Ġinv ol
ir l
Ġb it
ĠP r
Ġre port
ĠR es
E x
id d
ĠChr ist
is ter
Ġf av
ĠA m
ĠA ss
ĠD r
ip s
Ġact ually
res ent
Ġex t
F or
id es
Ġfriend s
Ġm om
Ġser ies
Ġ202 1
ĠN o
Ġon ce
Ġ .
Ġh old
le ge
ap s
ord ing
n am
Ġdid n
Ġ20 20
ack s
Ġbe gin
if ul
Ġf uture
ĠS chool
T here
on es
Ġn on
Ġoff ic
Ġcomp an
Ġl im
Ġto ol
Ġe le
Ġtr y
Ġpartic ular
ount y
Ġrequ ire
Ġf und
Ġcl os
Ġme an
ac y
ou d
Ġent er
at ic
Ġcont rol
Ġ1 7
i ans
Ġf ore
uc tion
Ġind ustry
Ġc ult
Ġvar ious
Ġex ample
Ġch all
ar ing
Ġe y
Ġke y
Ġ1 6
Ġrel ations
ough t
Ġs um
Ġfi eld
Ġs ong
ĠD is
Ġcle an
Ġd ue
ĠW h
Ġprofess ional
c i
Ġ #
ar r
re w
Ġlear n
R E
Ġn et
Ġcont act
Ġstr ong
for d
ĠAf ter
ro om
Ġw ent
en e
Ġ tem
Ġest ab
i no
Ġs ound
Re ferences
O N
W hen
ul ation
Ġcon dition
n it
ro duc
Ġapp ear
Ġevery thing
1 2
ĠM ore
Ġm il
t aking
ĠR ep
Ġen er
ab or
Ġtr aining
Ġthough t
i nc
lo ad
con om
at ural
b ook
Ġd ist
ĠJ an
ith er
Ġsing le
ow s
ĠP h
Ġwork s
Ġcle ar
t i
m e
il ities
Ġh ours
ic ult
our ces
Ġcustom ers
Ġf re
r al
ĠS outh
u ed
Ġw atch
Ġ /
u le
ac hi
et er
pr il
om an
ur ity
Ġst ay
Ġen vironment
Ġmonth s
Ġl ov
Ġdis tr
Ġen c
Ġst at
ak en
c to
ish ed
Ġacc ount
el ves
er t
ĠD ec
ĠM us
i od
A T
ir c
Ġte ac
Ġ19 7
Ġpre p
O ur
Ġrec omm
ĠO ne
Ġid ent
ĠIn st
n ot
ec ially
Ġw alk
Ġf act
Ġpos ition
ĠE uro
Ġh ot
Ġle ast
Ġpi ec
Ġre view
Ġhapp en
Ġp urch
art ment
Ġcompan ies
Ġexper i
Ġcomm on
Ġ202 2
Ġr ange
our ce
ĠM ed
ug ust
Ġhis tory
Ġ ess
ĠC ity
Ġdoes n
if y
Ġbeaut iful
ĠN ational
O n
Ġpri v
ill ed
Ġcont ent
hi e
Ġinst all
ĠY our
Ġ au
Ġcon cer
Ġ aud
Ġde al
ept ember
Ġv ol
ib ut
as k
ang u
ĠWor ld
Ġd ig
Ġw ind
Ġl ow
Ġp age
Ġins p
r on
Ġdef i
um ent
Ġ1 4
ec ess
irt h
am i
ĠS y
b ed
Ġp ack
Ġg iven
Ġre ach
t it
ore d
ĠB o
Ġ X
Ġdisc uss
Ġbel ow
Ġdire c
Ġdif f
led ge
Ġfe atures
i nce
id ed
cto ber
b um
Ġpartic ip
Ġf lo
Ġev ents
s w
le x
ĠG o
Ġsto p
il ar
Ġimpro ve
Ġiss ues
Ġmet hod
Ġc ut
Ġgover nment
Ġdire ct
Ġ201 9
Ġbec ame
Ġmed ia
a ur
Ġre ason
Ġ taking
R ep
ĠN e
n ts
Ġy et
Ġproble m
' re
Ġevery one
n i
ĠG u
Ġrelations hip
Ġp hys
Ġsome one
Ġl and
Ġare as
1 5
Ġ esp
s elves
Ġf ive
H e
Ġwho le
Ġdes cri
E S
Ġty pe
Ġbre ak
Ġener gy
Ġ age
ri ed
g es
ib ility
iv al
u ation
Ġun ique
gr ap
i na
ĠCom p
Ġse en
b al
Ġam ong
fer ence
ĠSt ates
ag ue
Ġm atch
i eld
ful ly
ĠG od
Ġsim ple
ic ation
Ġp ick
Ġbu y
m ing
ĠMar ch
Ġpol it
Ġbr and
ĠJo hn
Ġ Â
ĠEuro pe
Ġl a
Ġtechn ology
ĠN orth
Ġent ire
Ġhum an
Ġpop ular
Ġoff ers
i ents
Ġper iod
as es
m ber
Ġto ur
Ġan al
ĠT e
ĠY ork
Ġw ays
ĠA ustr
ĠS erv
Ġsh op
Ġw ond
Ġass ist
el t
Ġb ar
y c
Ġmin utes
Ġw a
Ġres ults
Ġh on
Ġfi nal
Ġr is
Ġf ace
Ġst aff
Ġs earch
as ing
og rap
Ġre pl
Ġide a
Ġyour self
2 00
A R
Ġmanag ement
m y
Ġquest ions
Ġelec tr
ĠC al
Ġm ember
Ġcon str
ĠJ une
ac tion
Ġm ag
Ġf it
re am
Ġcre ated
l er
Ġcare er
ac ed
Ġs elf
Ġ1 3
an ks
Ġp ress
Ġresp ons
Ġesp ecially
Ġcli ents
Ġval ue
ĠS up
to mer
Ġac hie
A l
tw are
is on
end s
Ġ201 8
ro ll
1 1
Ġpro b
Ġfr ont
her s
ove mber
oin ts
ious ly
Ġappro ach
Ġst yle
ĠF l
Ġdiff icult
Ġpro t
C h
A N
Ġj our
Ġ z
Ġab ove
ver t
ĠB ro
ĠC ounty
i nes
ĠP ri
Ġso f
at t
Ġ19 6
Ġ1 00
Ġfur ther
Ġcomple te
Ġm ess
Ġp are
Ġneed ed
at form
Ġm o
Ġtr avel
Ġtrad ition
ens ive
ost ed
ĠH er
Ġc al
Ġcomm it
Ġhe art
ch es
Ġp lease
i tor
ell ing
Ġh alf
Ġfin anc
ĠD o
g o
Ġin it
âĢ ĭ
ĠM e
Ġal most
Ġsk i
n ov
Ġwe b
res h
ĠP ol
A n
Ġoff ice
Ġf low
ĠB ar
ĠIn tern
ter nal
ĠN ot
Ġal bum
Ġl iving
ĠA pril
Ġc rit
Ġ2 4
Ġperform ance
Ġens ure
Ġp ur
ĠSt ate
Ġm iss
! !
Ġto wn
Ġqu ite
Ġcol l
om es
Ġem ail
Ġ er
t aken
Ġde ath
Ġm illion
v ent
Ġh ope
Ġhow ever
Ġag o
Ġf all
tim e
er c
Ġre t
Ġe conom
ĠJ uly
' m
at ors
e es
g ing
Ġbu ilt
Ġlear ning
Ġdesign ed
ub lic
Ġw ar
og n
af t
um b
Ġcho ose
Ġeng ine
Ġm or
ĠAr t
Ġ2 5
id ence
Ġn atural
Ġk n
Ġvis it
Ġhel d
Ġcl ose
Ġwork ed
ĠP ar
ĠG e
ĠP ark
Ġtur n
Ġaut hor
ip le
Ġde ep
Ġtr ack
Ġso on
is hing
li n
Ġprovid es
1 7
Ġb irth
Ġwant ed
an n
id ay
ec ut
Ġany thing
ĠE d
ĠS eptember
T o
ĠA ugust
Ġn ecess
Ġex ist
Ġrep resent
ĠE n
hi nd
ot t
i x
i nk
et y
ad a
Ġinst r
Ġro ad
Ġwh ether
Ġfe ature
ag ing
c ome
ĠW ar
Ġan sw
Ġg irl
Ġcharac ter
Ġro le
Ġ201 7
ĠA c
Ġthrough out
Ġsim ply
1 6
Ġ tit
Ġgr ad
br uary
Ġe ither
Ġdo g
ag ed
ad em
' ve
g ress
Ġde b
Ġbelie ve
z e
Ġp ict
Ġc red
Ġsign ific
Ġse em
r om
l u
ĠW ill
am b
et h
Ġlink s
Ġv i
Ġknow ledge
ĠC ont
ed d
ol l
Ġbe gan
Ġwrit ing
ĠO ctober
at ur
Ġam ount
Ġfam il
Ġ201 6
t able
ast ic
t ar
I D
ĠJan uary
or ies
Ġc oup
Ġreg ular
Ġ taken
o id
Ġadd ress
Ġequ ip
Ġdr aw
gr ound
b ack
Ġrequ ired
g est
Ġfav or
Ġo il
a ver
p ro
ĠR ec
am a
Ġus ually
ĠAustr al
ĠB rit
Ġopportun ity
Ġpl atform
k i
ĠB y
Ġb ur
Ġd am
h ird
t hird
Ġrece ived
ĠC r
it es
A d
Ġeduc ation
Ġl og
Ġop tions
am ed
Ġbl ack
Ġplay ed
ĠRe g
Ġbl og
Ġorig inal
Ġquest ion
Ġc irc
pl ay
Ġfor ward
t akes
is es
Ġpr ice
Ġm achi
az ing
R ead
Ġpro jects
Ġsk ills
e al
Ġh y
Ġproduc tion
to p
ĠM c
Ġcontin ue
ĠP art
Ġme as
Ġsystem s
Ġloc ated
Ġab s
um e
Ġplay ing
. ,
Ġcom ing
ab les
Ġcom fort
1 4
ir m
om i
Ġ takes
ĠQ u
an a
to ri
Ġout side
ic y
Ġfun ction
Ġread ing
Ġan im
Ġbe hind
Ġproble ms
Ġactiv ities
Ġup d
r ing
a ul
er ed
Ġpre t
Ġtr ying
Ġnew s
angu age
Ġ ap
ĠP e
ĠS ome
Ġst ar
Ġins ide
ĠSt ud
Ġcl ub
Ġs ugg
Ġsof tware
A t
ele br
Ġcomp ut
Ġc ard
ĠD ep
Ġp ort
ur ance
Ġcus tomer
Ġf ul
ĠS ec
Ġsim ilar
Ġmod el
ĠM o
Ġdel iver
id ge
Ġprob ably
iz ing
ec h
Ġ201 5
t ax
Ġb ad
ĠO ff
olut ions
Ġstud y
Ġat tr
ĠP er
uf act
Ġgr ound
Ġinclud es
ob ile
S o
Ġread y
Ġ third
A f
Ġs ent
ĠS w
ific ation
Ġd ou
ĠN ovember
Ġs ize
b or
Ġgener al
S T
ĠP res
E N
mi nis
ĠS oc
Ġsignific ant
Ġproper ty
Ġcol or
Ġlik ely
Ġexp ect
Ġar ch
Ġpract ice
n ational
Ġass oci
Ġl ives
Ġr ather
" .
Ġadd ed
ed s
il le
Ġwh ite
ĠT w
O R
e ks
ad es
Ġcom bi
Ġ tax
st er
Ġr a
Ġm atter
, "
enc ed
Ġreg ard
le ment
Ġet c
Ġhapp y
re g
Ġfor mer
Ġquick ly
Ġann oun
Ġski n
Ġrun ning
Ġ Ġ
uct ure
Ġchang es
Ġc aus
u ge
av es
Ġincre ase
ĠS m
med i
W ith
Ġvar iety
Ġvers ion
ĠM ark
Ġte xt
it ut
Ġp oints
ĠDec ember
ĠW est
A L
Ġsi x
A nd
Ġsaf e
Ġs at
Ġto ld
ect ive
Ġimp act
ap an
Ġex tra
A C
Ġp ark
ul es
v al
s c
Ġmarket ing
Ġ ut
Ġgo al
Ġto uch
Ġshow s
ĠH igh
1 3
h ic
Ġ5 0
Ġop tion
ĠD es
Ġv ia
Ġch e
am er
Ġs le
Ġ201 4
Ġcl aim
ĠP re
Ġh air
Ġmain tain
Ġcoup le
Ġlong er
Ġh ost
ig her
Ġsup er
Ġrele ased
ic ated
f ace
Ġallow s
ist ic
Ġask ed
Ġfoot ball
Ġis n
hi b
s y
Ġcurrent ly
d o
art h
is c
Ġwe eks
' ll
ail y
p ose
Ġprovid ed
Ġl ay
Ġ table
ed er
Ġse x
Ġn ational
ĠEng lish
Ġinclud ed
Ġchall eng
Ġg en
Ġcon st
Ġ ten
Ġbo x
ag ement
Ġfinanc ial
Ġph one
Ġnet work
Ġl ate
ĠW hile
Ġd ate
Ġpot ential
Ġsum mer
Ġmom ent
ĠCh ar
Ġar ri
Ġapplic ation
Ġ19 4
Ġau tom
Ġc op
Ġrecomm end
k y
mi n
ĠA b
Ġde g
Ġtr ue
P ro
Ġp aper
Ġwond er
lo bal
Ġac tion
Ġus ers
ĠM ich
c il
Ġeas ily
Ġr ad
Ġsto re
Ġb and
ĠC O
Ġr ound
as ons
ic ient
Ġiss ue
Ġc ook
ĠC or
ĠU s
ĠF i
Ġe p
e v
Ġs ess
Ġf ig
Ġinter national
Ġle ave
e el
ren ch
s on
Ġf ast
Ġword s
Ġdig ital
ud d
ĠFe bruary
Ġlead ers
ar i
ic tion
h ood
Ġw all
idd le
Ġrece ive
Ġin te
Ġ ,
Ġspe ak
Ġpret ty
Ġpart y
Ġdet ails
Ġphoto grap
Ġrem ember
Ġh it
Ġc elebr
Ġk ids
I C
lec ted
Ġsec urity
Ġrec ogn
ĠS ch
en ing
Rep ly
Ġex act
C om
Ġ201 3
Af ter
Ġbe h
Ġin j
Ġd rop
I T
ĠN ow
Ġ201 2
Ġstud ent
ĠJ ust
ond on
2 1
ber t
ĠAf ric
air s
ĠC oun
av y
Ġpr im
tr ation
Ġw ide
Ġmod ern
Ġsch ed
Ġretur n
alt hy
Ġpriv ate
Ġp ers
nd er
ĠD on
Ġfi re
Ġtyp es
Ġm ass
Ġ tar
Ġman ufact
u el
Ġexc ell
Ġit ems
Ġdec ided
Ġs qu
ire c
ĠH ere
ar a
Ġnot hing
Ġs aw
Ġtreat ment
Ġp an
Ġs un
tr ies
A S
Ġre li
ce p
2 2
er ous
Ġinte gr
o ke
re et
Ġam azing
mer c
Ġinvol ved
Ġsh ip
Ġto tal
ĠV al
ĠCent er
Ġaddition al
end er
Ġn orm
Ġcl ick
ep end
Ġpri or
Ġi ll
ĠO f
Ġs ense
a ign
ĠH ar
Ġbo ard
Ġbook s
Ġh igher
o es
Ġl if
Ġla unch
Ġj oi
Ġel se
ĠD av
o ice
ĠK ing
Ġthem selves
Ġmi x
amp ions
i res
M y
i nt
Ġmeet ing
Ġplay er
Ġcho ice
Ġset ting
Ġatt ention
Ġb al
b ur
ĠFr om
e um
r or
Ġab ility
Ġr out
Ġdisc over
r ound
b ased
Ġon es
ĠJ apan
ĠM on
Ġs il
E D
Ġp le
Ġ tal
Ġ2 1
Ġcan not
Ġf ail
Ġl ost
Ġup on
Ġris k
Ġs ens
Ġm other
m m
ĠD ay
Ġw ood
Ġany one
Ġl oss
Ġmor ning
Ġne g
u x
Ġart icle
l ight
ag s
Ġto wards
Ġ201 0
Ġhand s
T r
ro wn
Ġtool s
Ġsugg est
ir it
Ġpar ts
" ,
y ear
C l
Ġb i
at tle
Ġmy self
A ll
Ġbenef its
er ve
Ġh ol
Ġenc our
ĠE l
merc ial
Ġ201 1
Ġmed ical
ĠH ouse
ĠS te
ĠS tr
Ġb ot
a e
Ġex tre
Ġgrow t
Ġgrowt h
B ut
Ġs ales
Ġits elf
2 5
ĠA g
ĠL ondon
ĠS an
Ġsc reen
r am
Ġas p
Ġc ause
Ġpare nts
pl es
Ġpri nt
h am
og le
olog ical
Ġc ell
Ġl at
Ġ :
h us
Ġb ase
Ġf resh
Ġus er
Ġch urch
Ġinst ead
Ġeffect ive
ĠM r
Ġnecess ary
Ġprovid ing
I S
ĠCol lege
d uce
Ġrec ent
ĠO p
Ġloc ation
Ġdri ve
Ġwrit ten
ĠR uss
Ġm ot
Ġhelp s
Â ł
Ġacc ording
Ġl ab
ĠA ir
Ġc ool
Ġprogram s
iv ity
i tors
Ġhigh ly
Ġpl ant
Ġide as
u k
ĠAss oci
ep ar
av en
Ġgroup s
Ġs we
ac ing
Ġrec ently
Ġre duc
or ge
Ġmult iple
Ġb ed
Ġcreat ing
Ġd ed
Ġorgan ization
ator y
ac hing
Ġim medi
le v
c ol
ud e
Ġequip ment
ic ro
Ġse ems
if f
anc ed
omi n
Ġsaf ety
Ġan t
lo od
Ġw orth
os ing
Ġint roduc
or ing
Ġcas es
edd ing
Ġexper t
Ġcomple t
us iness
ĠA ng
Ġf elt
B e
ab y
P osted
pos ed
om ing
Ġs tor
im ate
Ġdevelop ed
Ġl ed
Ġcor re
Ġinf lu
Ġch ance
w h
ir ing
Ġs olution
h s
ress ion
ke y
ĠS er
at ives
Ġoffic ial
im i
em i
O ne
ace book
bo ard
Ġwe ight
Ġaf f
Ġs n
Ġachie ve
Ġsuccess ful
Ġpiec e
Ġ2 2
Ġb all
er man
ĠAmeric a
Ġo bs
Ġv ill
o ff
d e
Ġl ower
Ġpl aces
Ġs olutions
ĠB u
. )
Ġmaterial s
Ġb orn
Ġg ives
Ġper cent
ĠR ead
Ġtar get
Ġl anguage
Ġstand ard
li er
Ġstre ng
an i
t as
Ġs old
Ġres ources
it ary
h old
Ġc and
Ġlead ing
Ġs low
O U
Ġpart ners
Ġgo es
Ġestab lished
Ġpub lished
c ast
id ing
Ġm ention
Ġfavor ite
op s
Ġh or
ou l
us e
Ġre fer
Ġcondition s
Ġcomplet ely
em ents
h a
n ally
ĠBrit ish
Ġqu al
Ġdec ision
Ġindividual s
Ġs on
ell ow
ent y
Ġteam s
ord s
Ġgo als
us ion
an ch
r ight
hip s
Ġcol lection
ec hn
Ġdo or
ĠIntern ational
Ġim m
Ġv ac
am ing
ĠA cc
Ġre lease
im um
Ġlook s
ill ing
Ġserv ed
Ġd est
Ġtradition al
Ġf ather
Ġcamp aign
Ġd aily
Ġcons ist
ition s
Ġapp ly
Ġw ish
Ġmov ed
Ġh ous
Ġst age
Ġe mer
Ġar r
Ġdoc ument
Ġprom ot
Ġs epar
n ter
al d
Ġtr ip
p ut
Ġp m
Ġp ath
ĠComm un
Ġter ms
ĠC ons
Ġplan ning
Ġsomet imes
Ġn amed
Ġimp lement
Ġbusiness es
p re
Ġatt em
Ġc ross
Ġcomple x
li ed
Ex ternal
Ġdri nk
Ġw oman
ĠBl ack
ĠU K
e at
Ġn ature
ĠâĢ ¦
Ġlevel s
if orn
Ġg iving
A r
Ġg ave
Ġr ate
ic a
nit ely
ĠTh en
Ġdirect ly
Ġ2 3
Ġ tas
Ġtr ust
Ġ19 5
Ġwr ite
Ġrem ov
Ġexcell ent
ĠT V
Ġm id
Ġm ount
Ġconsider ed
C ont
Ġphys ical
p m
Ġs ell
Ġb ank
âĢĿ .
ard en
Ġaw are
Ġfe ed
Ġh uge
ĠPres ident
Ġlat est
Ġinter net
ĠI I
Ġstart ing
Ġdet ail
C on
Ġ4 0
Ġsp orts
Ġrel ated
h aps
Ġav oid
ĠHe alth
ĠG ener
el ess
ut h
Ġin nov
Ġcent er
Ġpos itive
ib ly
um ents
Ġcoun tries
Ġw el
e ed
ic ip
sy ch
es tern
o x
iforn ia
Ġaw ard
Ġey es
ĠIt al
Ġre v
Ġn ice
es c
id ents
ĠW i
Ġcons um
E O
Ġ aver
g n
Ġv ic
ce ed
en ge
Ġpurch ase
w ood
Ġsur pr
Ġsit uation
Ġconstr uction
Ġsit es
Ġcon vers
Ġthink ing
ĠGr oup
Ġprev ent
ĠInd ia
r up
Ġbegin ning
Ġs uit
Ġcult ure
em b
Ġcost s
Ġinterest ed
ac ts
augh t
Ġpro gress
Ġcomput er
it ation
Ġim age
ens ion
Ġorgan iz
Ġfamil ies
Ġinterest ing
Ġcoll abor
Ġcons ult
ig ation
Ġfeel ing
Ġpart ner
Ġf ight
Ġadv ant
A M
b and
y l
te e
Ġopportun ities
Ġst ress
li ke
Ġ aim
Ġapp oint
Ġ200 9
Ġdis play
augh ter
Ġg reen
ĠA nt
ib r
it ute
n ary
ĠU p
Ġad minis
ord i
ĠF rench
ĠG l
Ġag re
n os
Ġful ly
Ġsle ep
et ic
Ġd iv
it ter
z z
ĠP at
as hing
Ġpl ans
ĠA ct
h ouse
Ġcred it
Ġd ark
ud get
Ġsp ent
Ġc ode
Ġcli ent
Ġbro ad
ak er
Ġm at
Ġemploy ees
19 9
ic o
k now
Ġem ot
h ous
a el
Ġs al
Ġmov ing
ar ies
ol f
i am
Ġcon duc
ĠPh il
Ġs end
Ġm er
Ġb oy
Ġ2 8
Ġess ential
ys is
ĠE very
ĠF irst
Ġw arm
Ġreg ion
j ust
ĠD irec
v ille
ĠE m
o o
ant ly
Ġsp end
Ġs ave
at i
Ġ ur
ip e
Ġacc om
ic ate
6 0
Ġsto ries
im ent
Ġbr ought
ig r
Ġwas n
B y
Ġter m
Ġget s
Ġcom ment
Ġansw er
it ect
Ġrest aur
ĠS im
ĠCal ifornia
H E
Ġrequ est
Ġfi x
ate gy
4 0
u ate
w ise
Ġro ll
en n
oun ts
Ġs ource
P l
Ġac qu
m as
Ġhe althy
Ġ200 8
ad d
Ġpol icy
es ter
se qu
Ġaf fect
Ġf air
Ġne igh
Ġm obile
re st
Ġgrow ing
Ġleg al
Ġ2 7
ag er
Ġcomple ted
Ġcar ry
Ġins urance
Ġcent ury
Ġcas ino
Ġst ation
Ġpolit ical
b an
Ġsub ject
ĠC our
Ġstr ateg
Ġey e
Ġsec tion
Ġcom mercial
ĠA re
is f
ec ause
Ġp ull
Ġdis e
t ies
osp ital
O T
ĠCan ada
ĠL a
land s
Ġtit le
Ġ â
Ġsp ot
Ġprofess ion
Ġprev ious
Ġdown load
ĠM ost
N ew
Ġpat ients
Ġconn ect
IN G
ĠCh urch
ĠR ed
Ġ2 6
Ġro ck
iz es
S p
Ġunderstand ing
Ġdefi nitely
Ġhim self
ve y
ĠT ur
eng t
ce ption
ĠGo ogle
ĠInd ian
ĠE ast
Ġfi le
Ġf a
Ġspe ed
e ep
ĠLe ague
Ġtur ned
Ġf arm
Ġcol lege
ear s
Ġco ach
d om
is ions
Ġw ife
Ġg old
Ġex erc
ĠPro f
ĠSt reet
ĠL aw
Ġinter view
ĠB en
Ġrequire ments
Ġbl ock
ĠS und
Ġfre qu
Ġcer t
Ġact ive
Ġexact ly
Ġfin ally
Ġcap t
ar ter
ĠM et
Ġkn ew
ĠM or
g g
ĠCl ub
ust ain
oy al
u gh
on se
S ee
en ior
Ġr ace
ain t
N o
Ġfil ms
Ġh our
Ġal tern
m ore
Ġlim ited
anc y
Ġflo or
Ġjour ney
Ġdet er
Ġeff ort
Ġhear d
Ġim ag
itch en
ash ion
ĠAustral ia
act ive
ĠL i
Ġprot ect
ĠB el
est ival
w here
Ġg lobal
on str
em ic
Ġn orth
Ġschool s
Ġresp ect
Ġ ul
ĠIn ter
ĠDep artment
iv il
U n
ĠP lease
Ġcertain ly
Ġj oin
Ġsur round
Ġc at
c r
Ġpre c
Ġphoto s
Ġ x
Ġtr ain
Ġcomp os
Ġnot e
b orn
Ġvi ol
n el
h icle
rop ri
ograp hy
on ic
Ġfin ish
Ġmov ie
ĠI r
Ġpop ulation
Ġpre d
Ġd ry
Ġind epend
Ġextre m
un k
Ġlit er
or ks
Ġdeg ree
- -
Ġwr ong
Ġaver age
m a
Ġcon c
ff ee
Ġser ve
ĠDis tr
Ġus es
Ġcreat ive
Ġn ov
Ġob ject
ĠChi na
M ar
qu e
Ġex ecut
to wn
f ield
ĠG reat
Ġsee k
Ġbeh av
Ġtem per
Ġob tain
Ġhelp ed
A D
ĠM ag
ĠO ut
Ġs outh
Ġmachi ne
tec tion
Ġproduc ed
ĠEurope an
d r
Ġdev ice
ĠAssoci ation
ĠH ol
Ġb lood
Ġcour t
ub e
Ġapp re
Ġs us
s et
Ġc amer
Ġart ist
ĠR iver
i ation
Ġc ou
Ġgl ass
Ġpass ion
Ġhis tor
Ġf irm
ĠT ri
Ġc ount
Ġm ax
Ġstr a
m b
ĠS to
Ġchang ed
Ġeas ier
un te
Ġlov ed
Ġsp irit
ĠCoun cil
ĠDes ign
ress ed
O S
ĠP M
ĠIn c
Ġatt ack
ĠAl so
ĠB usiness
form ation
Ġexperi enced
2 4
ic i
Ġbenef it
or g
Ġtr uly
Ġlook ed
Ġb udget
E T
? âĢĿ
Ġ ver
id a
oc al
ar ant
ag o
ap t
ĠE ven
Ġpur pose
ap y
Ġh op
ĠMi nis
Ġp en
Ġl ic
Ġactiv ity
ac tions
ĠFi n
ĠH all
Ġover all
us ed
Ġsup ply
Ġorig i
Ġim ages
Ġ +
Ġwa it
Ġhelp ing
Ġtrans port
Ġdel i
Ġhe at
Ġmean ing
Ġdiffer ence
yc le
Ġwonder ful
ous ly
ec han
Ġv irt
el i
atur day
Ġfi ne
Ġfe et
Ġstra ight
Ġbe y
Ġw edding
ĠL et
ĠT echn
Ġbey ond
ist ics
E C
ar ily
ic ed
il es
ĠM any
uf fer
por ate
Ġst uff
od ay
Ġgu ide
ĠP ost
Ġmess age
ro te
por ts
Ġut il
Ġj ud
m ark
N ot
L e
ĠA M
ĠP ort
Ġex hib
ur t
ul ations
ĠG over
Ġapplic ations
re l
ĠF acebook
Ġe ight
Ġw id
ĠServ ices
Ġatt end
8 0
Ġaud ience
Ġ19 3
Ġop tim
Ġannoun ced
V ID
Ġcorre ct
ĠTr ans
Ġappre ci
and er
ĠB est
Ġde ad
v ant
Ġre ve
ĠP aul
Ġstr ucture
Ġe at
Ġex am
Ġg ar
Ġcontin ued
Ġparticular ly
om ew
ĠB er
Ġallow ed
Ġ2 9
ĠPl ay
Ġbro ther
Ġfin ished
Ġestab lish
Ġown ers
ĠServ ice
ĠPro gram
Ġal though
Ġart ists
ĠP al
und red
Ġexp ected
Ġimmedi ately
Ġv oice
Ġlo ad
2 3
Ġspec ies
om b
Ġocc as
en ed
A P
ĠW ell
ĠG reen
Ġtr ied
Ġ200 7
am m
Ġpre fer
le g
Ġre asons
w are
Ġstr ategy
ec tions
am ent
oc r
Ġdam age
Ġs ort
li p
Ġred uce
Ġli nes
Ġf em
Ġoffer ed
op er
B C
t ick
ĠNew s
Ã ¡
Ġdem and
Ġgr and
n ner
un t
A b
Ġextrem ely
Ġpro duce
Ġve hicle
m ission
Ġf ab
Ġl ack
Ġexperi ences
Ġsay ing
are nt
Ġd ied
y n
ĠDav id
Ġbas ic
Ġstr ugg
Ġopen ed
Ġocc ur
ĠG erman
Ġeff ects
ic ations
Ġchar ge
Ġmay be
t hous
ĠB ur
Ġresp onse
Ġexp and
Ġsur v
Ġpict ure
et ing
Ġincre asing
Ġp et
Ġstep s
Ġcontr ibut
Ġpiec es
Ġwe ather
Ġm ission
Ġsat isf
Ġl ands
il i
ĠN et
Ġwe ar
Ġsub st
eder al
ul ated
Ġfollow ed
Ġn ut
Ġind ustr
e ff
Ġback ground
Ġsong s
Ġnorm al
Ġreg ister
Ġpress ure
Ġinc red
Ġsm art
ĠB ook
Ġc ash
h es
Ġsp read
ĠW ork
Ġsc ore
Ġp aid
Ġcomp on
ĠF ound
Ġteac hing
ri end
Ġm iddle
m on
Ġdirec tor
Ġ thous
Ġexist ing
Ġass ess
b ody
ĠT ex
Ġmove ment
Ġ =
Ġc ry
r as
Ġw rote
por ary
Ġcomfort able
ĠDe velop
Ġal one
o le
g en
Ġs uffer
Ġabs olut
Ġcom ments
Ġw ild
Ġinvest ment
Ġst ates
Ġpri nc
Ġtrans fer
I s
ĠJ ames
Ġjoi ned
ĠSund ay
Ġsh oot
al ing
Ġr ights
ĠEng land
h ol
re y
Ġm aster
k en
i ant
W hile
Ġreport ed
Ġdr ug
Ġ tick
ĠCh ampions
iqu es
Ġd om
Ġg as
Ġar g
Ġoffer ing
ĠDistr ict
T hat
o ly
Ġcontr act
Ġpower ful
ĠE duc
n ese
Ġsur face
I ON
ĠMi n
ĠO ver
Ġhigh est
ĠC ap
ĠH ome
it ar
Ġc ateg
ĠS um
Ġadv ice
Ġcontin u
Ġcap ital
ĠS ur
w ide
e ared
Ġfor t
Ġsh ared
Ġb aby
b on
Ġchall enge
Ġsc ience
Ġaf ford
ĠChrist mas
Ġep is
Ġw ants
Ġor d
A meric
Ġstreng t
Ġrel ax
Ġchalleng es
Ġh us
Ġmethod s
Ġch ann
Ġcont ain
row s
Ġsub s
as ts
Ġinst itut
Ġte lev
Ġorganiz ations
Ġad vert
Ġ ah
Ġpol ice
ĠFr iday
Ġm ale
m en
Ġsess ion
Ġcol d
Ġsus p
Ġpain ting
l us
Ġded icated
Ġlot s
ly ing
ord er
Ġbl ue
Ġnum bers
H is
Ġman age
Ġpro ced
Ġc ast
c el
Ġcand id
ri ef
Ġapp ropri
Ġi ng
Ġthan k
ĠRo ad
iver se
Ġeconom ic
Ġl engt
Ġdev ices
Ġc up
ad y
Ġresp ond
Ġnear ly
enc ies
ĠM ac
ĠE v
Ġro of
Ġgr ap
Ġ6 0
Ġcommun ities
com ing
on a
Ġcon v
Ġlar gest
Ġr ules
Ġre nt
ĠMus ic
ĠComp any
Ġ200 6
Ġh undred
st on
âĢ ¢
ten ance
for ts
Ġpres ident
t end
ĠR ich
ĠC han
ĠBo ard
Ġclass es
ĠO nce
Ġ esc
Ġk itchen
Ġac adem
ain e
Ġsh ot
Ġf ant
ĠW ind
Ġnum erous
E L
Ġele ments
Ġb reat
Ġac cept
P h
ĠL ou
ĠDirec tor
aff ic
ĠGener al
H ere
Ġopen ing
t ips
o on
ĠS ince
ĠC le
ashing ton
Ġsto ck
Ġide al
Ġlear ned
ĠM od
ĠD uring
d own
ĠM al
ĠT er
Ġsc ient
Ġanal y
ou ther
h reat
ab i
Ġd aughter
Ġregard ing
ĠSp ec
ĠG old
Ġanal ysis
Ġear lier
t hreat
Ġarch itect
Ġexpl ore
ĠO ther
ĠD em
Ġco ffee
Ġp sych
b ing
| -
Ġcompet ition
Ġcon cept
Ġgener ally
Ġbas is
Ġweek end
Ġincre ased
Ġelectr ic
I L
ĠM em
Ġbot tom
Ġdescri bed
Ġg ift
Ġ tips
cri ption
Ġse lect
Ġuse ful
Ġcharac ters
ick s
her n
D o
Ġtr ade
er o
Ġlar ger
z a
ĠS l
Ġeff icient
Ġd ream
ĠS aturday
ip p
Ġassoci ated
am ily
P S
Ġstud ies
ĠM ount
Ġah ead
Ġs ustain
ĠM ary
O M
ul a
ic ial
Ġwh ose
Ġcommun ication
ch ange
ĠG et
Ġprim ary
2 7
Ġal ign
U S
Ġcould n
Ġmil itary
Ġdou b
Ġtre nd
ree k
Ġvill age
at ively
ĠSy stem
Ġann ual
outher n
Ġg ather
t ree
an ish
Ġst y
ĠC up
Ġv ot
hi re
Ġtelev ision
Ġbe ach
ound s
Ġbec oming
Ġsee ing
Ġtalk ing
ac ity
Ġrespons ible
Ġe f
Ġadvant age
Ġc ards
ĠC amp
s es
Ġhus band
Ġso ft
ĠB ay
ĠM art
L ike
Ġmod els
t ail
= "
Ġfor ce
od es
Ġenter tain
r d
ĠD iv
Ġpl aced
Ġse ven
Ġconn ection
f it
' d
l ies
9 9
Ġjour nal
Ġp ool
Th ey
l ation
c are
ĠL ife
ĠTex as
el p
Th ese
Ġhe avy
v est
Ġd ress
Ġare n
Ġgu id
mit ted
ĠG erm
ly mp
Ġs av
Sh e
u ated
Ġsoc iety
Ġcrit ical
pl ace
ing er
ond ay
ven ue
ĠI m
2 6
Ġs u
Ġf at
Ġb ath
i nation
Ġpe ace
ĠI nt
Ġ ti
ort hern
Ġmar ried
2 8
on us
ĠCO VID
ic les
ĠE ach
âĢĿ ,
ĠPl an
Ġgreat er
ang ing
a ult
ĠTh om
Ġef forts
ĠRep ublic
Ġpict ures
Ġpat ient
Ġper haps
Ġke pt
if ying
Ċ Ċ
Ġrequ ires
Ġf ans
Ġf ish
D on
A p
Ġcli n
Ġvol unte
Ġad just
Ġp ush
Ġ threat
Ġaut h
ĠInst itute
Ġdistr ibut
Ġfor ms
ĠS al
ĠMan agement
Ġsec ure
Ġre str
ĠQ ue
Ġch em
c le
Ġsl ight
Ġsh own
c y
Ġvis ual
Ġon to
Ġh omes
o oth
ul ate
Ġwin ter
o very
Ġdeli very
Ġpr ices
Ġpass ed
it iz
un ately
Ġm echan
ĠW ashington
ĠG ood
ĠWh ite
ĠCour t
Ġmeas ure
Ġvis ion
Ġf ashion
Ġown er
Ġd oll
ĠR em
Ġser ious
Ġinstr uc
h let
G et
F rom
Ġdem onstr
P e
i ar
Ġfam ous
Ġm is
ĠA ward
w i
Americ an
c her
Ġdeter mi
Ġsched ule
b u
ad o
Ġad op
ĠAc adem
t a
Ġfind ing
erv ed
N ow
Ġpro tection
al ed
Ġpay ment
ad ian
B l
ĠIs land
olog ies
Ġplan ts
Ġn ation
ĠF il
ĠFr ance
t ask
Ġun it
Ġout do
Ġinit i
n ew
Ġretur ned
Ġn av
Ġh arm
Ġre ality
Ġsy mp
ag ram
ĠAng el
i os
ig er
and emic
4 5
ĠGe orge
Ġnot ice
erv ation
Ġfig ure
stand ing
Ġrel ig
is ation
ĠPe ople
Ġcover ed
Ġ tree
Ġpo or
ĠAp p
Ġold er
Ġf lex
ĠN or
Ġp or
ol ic
Ġtechn ical
m ail
ĠFl or
Ġkeep ing
Ġdise ase
om a
Ġr ich
Ġdevelop ing
W h
Ġdou ble
x im
Ġthan ks
Ġsc en
imi n
2 9
Ġrem ain
Y our
ir us
Ġf ill
g ency
Ġest ate
Ġple as
Ġcomp l
Ġ ...
Ġlead er
ĠAr ch
Ġgirl s
r ay
Ġoper ations
7 0
Ġpr oud
Ġsup p
r ough
Ġstor age
Ġthere fore
k a
c ement
Ġwork sh
ĠM il
Ġsh ape
Ġf ol
Ġc atch
ĠCl ass
ð Ł
Ġli br
ĠL ake
Ġpre mi
b it
Ġadv ent
Ġd ang
ear n
Ġdec or
ad ing
Ġgu arant
ĠChi nese
ĠM ex
Ġwin ning
Ġcop y
is try
Ġd ating
Ġp ages
ĠD i
W hy
Ġ task
Ġrelationship s
ak ers
Ġinc or
ĠPro duc
ag on
Ġ tend
h ead
Ġtal ent
Ġbec omes
Ġwel come
ĠR ob
ĠT y
Ġdire ction
Ġvide os
Ġdistr ict
Ġw ine
ĠAfric a
b l
Ġ- -
Ġinc ome
Ġhappen ed
Ġg e
l or
ĠI T
Ġg arden
ĠS am
Ġloc k
ĠProf ess
Ġacc ur
ĠAl though
ĠS ing
ĠM iss
Ġtr affic
Ġwork ers
ant a
Ġd iet
Ġcamer a
Ġme ant
as y
te xt
ĠC are
az ine
Ġ @
E M
u i
Ġpl us
ĠP et
ĠP en
Ġse lection
Ġs ale
Ġswe et
ĠS pr
Ġhot el
Ġyou t
Ġg one
Ġdes p
Ġh ar
S c
Ġsw itch
Ġwind ow
Ġsol id
y a
O L
ĠChrist ian
erm ine
Ġexc ited
Ġsc ene
Ġcent ral
ĠY ear
ĠÂ £
cent ury
Ġi r
Ġeven ing
Ġbeaut y
Ġass ign
ĠEduc ation
or row
ĠMich ael
ĠTe am
Ġdri ving
Ġb ow
ic ine
Ġ200 5
Ġn ames
O r
Ġb atter
Ġrep orts
v i
Ġclos ed
it z
Ġ20 00
ic ing
ot a
Ġ3 1
Ġev al
Ġprofession als
Ġtechn iques
Ġperform ed
ib ute
ĠJ os
Ġact ual
Ġr ank
Ġbig gest
Ġbal ance
ant ic
ug ar
Ġm ental
Ġrun s
Ġsh aring
d d
y nam
Ġsp ring
Ġevent ually
Ġem b
ĠA lex
ĠGr and
ĠP hoto
Ġsp ort
v ious
ĠB ecause
ĠL it
ber g
Ġhand le
Ġlo an
ĠThe ir
Ġfocus ed
ic ian
Ġstrengt h
Ġfl av
o e
ami n
Ġmil es
R ec
ĠV ic
I P
Ġmanag ed
f riend
M ay
Ġcol lect
Ġappropri ate
* *
ĠAn n
F i
Ġpresent ed
Ġmanag er
ĠFr anc
Ġtest ing
Ġval ues
Ġexp os
Ġfil es
anc ing
il s
Ġrep air
t hus
ell ig
ĠH ot
N D
S ome
3 5
ĠRes earch
P re
ĠSoc iety
ĠL ike
19 8
Ġdis app
Ġexper ts
ter ed
Ġc ore
Ġrem ind
C C
Ġclean ing
at ically
Ġmet al
ĠMus eum
ĠGerm any
ĠM ad
ĠJ ew
Ġb ag
N e
Ġbirth s
Ġhapp ens
Ġcon ven
Ġmon itor
ter m
ĠDevelop ment
Ġtr ail
oc ks
Ġgu ests
ordi n
Sh are
Ġthough ts
Ġst ick
Ġul tim
Ġbuild ings
Ġb ul
Ġb ird
Ġl uck
ĠI mp
li nes
Ġr are
Ġp andemic
Ġmain tenance
Ġstat us
Ġfriend ly
n ct
Ġd ish
Ġr ates
Ġlands c
Ġg ain
Ġr ain
an o
Ġmention ed
all ery
Ġinit ial
Ġle aving
Ġ thus
et te
f r
Ġstre et
Ġteac her
e an
Ġstand ards
âĢ¦ ]
Ġcont ains
ĠLe g
Ġs and
Ġr ap
Ġprep ared
c ing
w ell
Ġconn ected
Ġnov el
ĠR ock
Ġd en
Ġj ump
G r
ir gin
b our
i j
Ġi ce
Ġop i
Ġc y
Ġleaders hip
Ġfem ale
hen s
ĠAn y
al a
ĠL o
Ġh om
Ġbut ton
il ed
ro ad
g a
all s
Ġ Ã
Ġsmall er
Ġcol ors
ĠB et
ro y
Ġpl enty
Ġcap acity
c ell
Ġfac tors
Ġd ance
ĠPart y
bo x
Ġdet ermine
Ġcontin ues
Ġac cep
w rit
Ġro b
ĠOff ice
Ġs omew
ĠB ig
Ġ ton
ĠD el
Ġret ail
ĠK en
Ġdec ide
Ġjob s
Ĥ ¬
row d
Ġh ab
ĠSt ar
ĠP ublic
Ġse lected
app ed
Ġmost ly
ĠCent ral
Ġdeb ut
Ġfac ilities
ac ement
gi ns
Ġcom b
ĠF ore
um i
ĠSup er
ĠCommun ity
Ġp urs
ĠB re
Ġbr ain
ĠT or
Ġcomp ared
Ġend ed
Ġtre es
l im
Ġlim it
p et
ri nt
ĠCom mit
Ġwhat ever
Ġwa iting
Ġrem ains
ic ians
Ġprocess es
Ġstud io
v is
Ġrad io
ĠC ur
Ġm ist
O W
ut y
ens es
Ġsm ooth
Ġse a
ĠO lymp
Ġst e
Ġcar s
Ġcaus ed
Ġexerc ise
ĠU nder
ĠT om
Ġanim als
Ġev idence
ĠJ es
Ġlist ed
Ġp al
Ġrem ove
b re
T S
Ġpract ices
Ġres idents
A cc
Ġopi n
ĠM ake
Ġtr ou
Ġexc iting
Ġent ry
ĠV ol
Ġadd ing
ĠS un
Ġview s
ĠEng ine
ĠSc ience
ident ial
Ġsign ed
as c
ow ns
Ġh aven
Ġte ach
P lease
Ġan g
Ġb an
um s
Ġing red
Ġreach ed
know n
Ġwor ry
Ġchang ing
Ġsp l
B r
Ġle aves
L E
l a
Ġf an
c tions
C an
1 00
Ġindepend ent
ĠM onday
Ġtyp ically
I M
Ġmajor ity
ri age
Ġmult i
Ġop pos
li ance
ĠW ater
Ġra ised
ook ing
il ing
ĠCh ild
S e
ĠAd d
ĠD en
Ġ aid
ĠT ime
.. ..
im al
az z
ic ious
Ġclass ic
ĠE mp
v an
Ġreview s
k et
ĠJapan ese
Ġcall s
Ġsc r
Ġneigh bor
Ġbr ings
Ġstar ts
Ġter ri
Ġ8 0
Ġ19 0
) :
Ġmem ory
Ġto w
i us
Ġfor get
Ġp air
ĠT our
um an
C A
ĠRe view
Ġdep artment
Ġpres ence
B A
Ġb onus
Ġsh all
ici ency
Ġapp eared
Ġsec ret
os en
ĠFlor ida
i ences
ill er
en a
D r
7 5
ro id
ent ially
ro s
ĠAr ts
Ġmo tor
ĠC ong
Ġknow s
Ã ³
Ġ[ âĢ¦]
Ġdoc tor
Ġyout h
ĠAfric an
Ġh ospital
Ġg un
ie f
u able
omm od
Ġlet ter
ĠA P
Ġpr ay
Ġc ivil
lec tr
Ġf ear
ĠUn ion
Ġarr ang
Ġtr ial
Ġl ose
Ġintroduc ed
Ġcon ference
Ġcont em
Ġprev iously
Ġres ist
9 0
Ġlengt h
i to
ed om
Ġre pe
ĠA v
n ight
ĠT HE
ild ing
Ġ200 4
ĠC ath
ĠM ont
n n
ĠI ts
Ġs now
Ġtas te
ĠBl ue
ap ers
Ġrecord ed
Ġbr ight
Ġwatch ing
Ġ9 0
ar ly
Ġcl oud
Ġcour ses
ĠL ove
Ġexp ress
Ġfund s
it ude
Ġsepar ate
Ġrestaur ant
Ġcl oth
Ã ¼
Ġs enior
Pe ople
Ġun its
Ġadv anced
y m
on om
urs day
ĠI N
Ġpers p
Ġatt ach
Ġprinc ip
f ree
ĠM el
Ġlist en
Ġcan cer
Ġtrans form
Ġelec tion
ĠAcadem y
ed nes
ĠFound ation
ĠCom ments
Ġcoun ter
ĠW hy
Ġcal c
Ġr ail
og a
ur ies
res p
ĠSc ott
Ġgu ys
ĠB ill
amb ling
Ġl ived
ic ago
Ġpart ies
ap ter
Ġallow ing
ĠSoc ial
Ġserv ing
ĠT op
ĠF ree
Ġex ception
Ġgu itar
n or
Ġgu y
ult y
Ġcor ner
az on
a it
Ġdist ance
ĠCar ol
ĠPro v
ill a
Ã Ń
Ġpl ays
ĠWe b
Ġcult ural
Ġhon est
ĠAustral ian
Ġmiss ing
Ġsec tor
Ġdep end
bur g
ĠChr is
i nct
Ġbu ying
b d
ĠM er
ec e
ĠS ub
Ġex tr
y r
un ction
un ning
ĠS il
l ife
Ġmin ute
R es
Ġb rief
Ġun s
Ġcol lec
Ġgr ant
Ġour selves
Ġident ify
Ġan ti
Ġhelp ful
Ġto ward
M ore
Ġattem p
ĠTh anks
M S
Ġwrit er
T w
Ġteac hers
op h
Ġrele vant
Ġexpert ise
Ġen han
ĠSm ith
Ġr ide
Ġcl im
Ġsound s
ki n
Ġdesign s
Ġthem e
Ġto r
Ġimport ance
Ġproper ties
Ġwould n
Ġsw im
ĠS en
I V
Ġasp ects
Ġm ap
ĠH y
Ġqu arter
! âĢĿ
ou ts
ĠS T
F e
Ġappear ance
Ġdec isions
ĠW omen
Ġshop ping
h as
ap es
ĠR oyal
Ġroom s
Ġtemper ature
Ġfound ed
ĠM ass
ĠCommit tee
Ġis land
ph one
ĠSt ep
go ing
Ġac tions
Ġfa ith
Ġexp ensive
Ġabsolut ely
ul ed
tom s
Ġcr is
Ġd at
Ġlead s
Ġupd ate
ĠVal ley
Ġcombi nation
Ġtr uth
Ġf ell
Ġf illed
Ġaccom pl
Ġc hat
and a
Ġinsp ired
Ġar m
ues day
ĠWill iam
Ġv en
Ġenjoy ed
Ġdep os
Ġprep are
ĠL ist
g u
Ġhol iday
Ġvis itors
Ġs ources
Ġwalk ing
ĠH ill
p an
Ġit em
um ber
ĠOn line
Ġoper ation
ĠV is
Ġrecord s
Ġm icro
Ġnot es
Ġaltern ative
Ġthous ands
Ġsp ending
Ġfore ign
ĠJes us
at o
Ġdis p
it ness
ĠB al
i ers
Ġdesp ite
ĠW estern
ĠB ank
Ġshow ing
Ġfe els
ol a
ab ilities
ol ars
t un
Ġfac ility
6 5
Ġwebs ites
Ġstat ement
ip es
Ġc rowd
ĠIntern et
Ġloc ations
up s
ĠF ort
ad s
Ġdog s
Ġgu ess
ednes day
Ġcol le
ĠItal ian
Ġpost s
ri an
Ġfav our
S S
nam ent
ĠK ore
Ġinvest ig
ide o
Ġstr uct
3 3
ur ther
I nd
Ġoper ating
Ġsqu are
h ics
wi n
Ġsess ions
Ġprom ote
w orks
Ġinstall ation
Ġto t
e en
R O
Ġmot iv
Ġlaw s
ĠR oman
ĠCan adian
Ġcomp re
Ġform at
Ġs elling
ĠOp en
Ġb illion
hic les
R A
Ġsc ale
Ġgener ation
ĠR ad
Ġm ill
ĠP ower
Ġwas te
Ġwill ing
Ġc itiz
Ġacadem ic
Ġepis ode
Ġb attle
Ab out
Ġr id
Ġappear s
if ts
ĠW ood
Ġassist ance
ĠW il
ĠP C
ir ation
ger y
ĠP an
Ġmus ical
ĠTh ank
Ġput ting
ell a
xim ately
Ġve get
Ġb ought
ĠF estival
u ations
Ġd er
ĠIs ra
Ġlaunch ed
est yle
is tration
Ġbreat h
fort unately
5 00
Ġcont roll
Ġfl at
Ġseem ed
Ġe arth
Ġe gg
Ġeconom y
ri nk
h ab
Ġcl imate
Ġproper ly
ĠFr ank
Ġch air
Ġe c
Ġcommit ted
E very
Ġb ill
ĠPro ject
ĠV irgin
ĠRuss ian
Ġacc ommod
Ġph il
Ġocc up
enc ing
Ġcol our
Ġbus y
Ġvirt ual
ut hor
g ers
m ar
ig an
ce an
ĠCh eck
Ġed ge
Ġ *
el ine
Ġrecomm ended
Ġwh om
ĠL ead
es ome
st ate
Ġd ur
c hers
ar io
cent r
Ġpack age
Ġbr ands
ĠK r
i nary
Ġfeature d
Ġdoc uments
ĠLou is
ĠAr my
Ġsupport ed
l s
Ġslight ly
ep h
it a
ĠH en
Ġexc lus
ĠComm ission
ĠRo bert
az y
est ic
Ġtop ic
ĠP ress
Ġp ow
f ol
ak ed
Ġmanufact ur
ĠS ol
Ġdi nner
Ġe ating
ar ian
F r
Ġj oy
ĠP i
Ġstrateg ies
Ġfamil iar
iss ions
ĠUS A
Ġdi ag
Ġsy mb
Ġdri ver
Ġpost ed
ĠT re
ĠT oday
Ġimp ress
Ġbehav ior
Ġdep ending
n ue
Ġfe e
od ies
Ġg ri
ati n
Ġ7 0
ĠR el
Ġc ities
Ġapp lied
Ġposs ess
Ġinflu ence
h row
Ġcent re
Ġun iversity
Ġform ed
ĠCh icago
Ġco ast
ĠV e
t hrow
t ight
Ġfore st
h ow
ĠP eter
Ġpro pos
ecut ive
l ishing
ĠS k
w ith
Ġpl astic
udd en
Ġpain t
Ġl abor
Ġbe at
Ġto m
i nue
Ġencour age
Ġap art
Ġclear ly
ĠGover nment
ĠIn f
Ġmed ium
Ġr iver
C H
Ġattem pt
w ord
ĠM aster
ic ted
Ġm ail
Ġdes ire
p i
Ġprof ile
ĠPar is
Ġag ency
Ġmen u
Ġpare nt
ĠThom as
Ġenvironment al
J o
n ch
ro ve
Ġfant astic
w est
Ġposs ibly
ĠAt l
nit ure
Ġ200 3
un icip
ci n
Ġset s
um m
Ġse at
ĠTw o
Ġarri ved
ĠP ay
Ġadv ance
Ġup gr
Ġbel ong
Ġcomm and
Ġm outh
Ġpro p
Ġk id
o or
omet imes
ras tr
Ġshow ed
P A
ĠI S
I G
Ġmin or
Ġdiscover ed
el le
ĠC us
Ġst eel
ed y
Ġs ugar
l ist
Ġb ound
e i
ĠFranc is
Ġbring ing
ok er
Ġart icles
Ġl unch
Ġsex ual
ĠTw itter
c ious
t aught
ific ations
F A
D e
h ick
ĠB i
Ġbo at
ĠAp ple
Ġqu ant
ĠAcc ording
ĠG ames
ĠO ld
ĠInst agram
Ġinter nal
) ;
Ġfor ces
um n
ĠSpec ial
ĠL os
t hick
t u
Ġregular ly
Ġinstall ed
Ġinj ury
ist an
er r
Ġconvers ation
ri ve
ak s
B u
Ġother wise
Ġconcer ns
ĠM en
ĠF re
D es
ĠL ord
Ġhouse hold
Ġmax imum
pre ne
Ġlibr ary
ĠR et
emi n
Ġf le
Ġag ree
Ġtrans l
Ġfund ing
Ġele ment
Ġv ent
ĠJ ack
Ġve hicles
f ast
h eat
i ned
Ġneg ative
u z
F irst
ĠSh ow
Ġcor porate
Ã ¶
_ _
ik es
Ġrep ut
Ġl ux
Ġcompon ents
Ġrout e
b es
ut s
Ġoccas ion
Ġacc ident
ar p
ĠCent re
Ġill ustr
Ġd ynam
er ry
Ġinst ance
idd en
Ġoutdo or
Ġcombi ned
Ġ tun
umi n
ik ing
il it
g ent
re prene
ĠU se
ĠC D
Ġparticip ants
ĠC B
re te
ĠC as
Ġr an
ac tor
ig ital
Ġst ated
Ġask ing
Ġk illed
ch ed
a un
Ġk ick
5 5
et t
Ġ thick
ĠF amily
Ġingred ients
Ġs ister
Ġ tail
ol ate
og ue
4 4
Ġsupport ing
Ġattr act
ĠMinis ter
Ġvar i
ĠF ire
Ġcon centr
esp ite
ĠS af
Ġapp eal
app ing
Ġconf idence
Ġext ensive
Ġsp aces
Ġs oul
Q u
Ġdis s
Ġsp ons
Ġf old
Ġf ederal
ic tions
Ġstre t
ib ilities
u its
ĠG ar
L et
d en
Ġfab ric
mer ce
ĠV i
Ġhous es
How ever
Ġ taught
ĠIn s
ĠBro wn
Ġsto res
Cont act
ĠD ef
k r
Ġcre am
ĠJ our
Ġcar ried
Ġcre w
n ity
Ġm ur
t ro
Ġan x
Ġsuit able
Ġsign s
Ġeduc ational
Ġun c
ĠSum mer
Ġ throw
ut ch
Ġspecific ally
ĠL ong
Ġbo ost
Ġinnov ative
Ġau to
ĠBe ach
Ġprof it
Ġindustr ial
O nce
v iously
Ġp ump
n ect
Ġapp s
room s
ĠDiv ision
Ġrap id
Ġcamp us
ick en
Ġsit ting
Ġremov ed
Ġcre ation
ĠO per
el ines
S ince
Ġad ult
ĠF ood
Ġther apy
ĠL ight
Ġfun ctions
Ġanim al
rastr ucture
Ġr ule
ĠM icro
D ec
u ke
Ġfield s
ĠTh ursday
Ġtas ks
Ġfeed back
Ġlab el
ĠHis tory
Ġw est
Ġex change
O ver
Ġappro ximately
Ġbas ket
p ress
erson al
Ġpract ical
U R
Ġest im
ĠSp anish
ĠA u
Ġf uel
ach el
ĠRe al
Ġmin imum
ĠM att
Ġman ner
Ġfr uit
ĠD et
Ġval uable
Ġle ague
ĠDem ocr
re land
ĠS qu
ĠW ho
ĠWind ows
ĠO b
emb ly
Ġ200 2
Ġany where
Ġdec ades
p on
ri er
Ġse qu
hens ive
cr aft
D uring
Ġi gn
Ġ tight
Ġhold ing
ell o
ian o
ĠMed ia
u ing
li e
Ġ3 5
Ġser ver
ĠT im
Ġcirc um
l am
Ġdiscuss ion
Ġp up
Ġqu iet
ĠS ee
Ġf aster
e ast
J ust
Ġincred ible
Ġ200 1
Ġleg is
h ns
Ġorigi nally
y er
D A
ap ed
ĠB as
at ers
19 7
co hol
Ġtot ally
ot hing
ar ch
Ġchem ical
Ġparticip ate
ĠWh ether
Ġsc ri
G o
âĢ ĺ
ĠH on
Ġind ic
4 8
ar ge
M an
u an
Ġpol ic
Ġdirec ted
Ġh ers
av a
ĠD own
Ġwall s
ĠĠ ĠĠ
ĠRe v
Ġg rew
ĠC am
Ġcommit ment
Ġset tle
uc ks
ĠB oth
Ġbe gins
ore s
ult ure
ĠD oc
Ġto ugh
Ġreli able
Ġatt ended
Ġconst antly
ĠE arth
Ġcho ices
3 6
ĠAm azon
Ġg ambling
m osp
Ġv an
Ġrespons ibility
ar ation
Ġplan ned
Ġengine ering
im inal
ers ey
se e
Ġcomp ar
A re
Ġmark ets
f low
Ġtr av
ĠEx per
Ġfour t
Ġreal ize
ĠJ ul
I I
n em
Ġb ike
Ġsim pl
qu ality
3 8
Ġfr ame
ug s
wh ich
Ġsymb ol
Ġkind s
Ġfourt h
igh ter
ĠS ar
as tern
ĠT en
ag ged
Ġhigh light
Ġmeas ures
Ġchann el
Ġdeliver ed
Ġdo ors
ac ter
ĠZ eal
Ġdeath s
Ġte eth
ĠTechn ology
y an
Ġwind ows
ĠT uesday
b ut
ĠJ im
3 9
I A
Ġint ellig
Ġd ial
Ġam b
em e
Ġemer gency
ĠMex ico
Ġplatform s
ĠL ibr
Ġl ap
oc ation
Ġst one
ĠS et
N A
Ġadminis tr
z en
Ġemot ional
ri e
ĠB ack
u is
Ġflow ers
Ġr ise
U s
Ġtechn ologies
Ġin tr
r uit
Ġafford able
ĠN ov
Ġvol ume
app y
re es
Ġown ed
Ġra ise
Ġknow ing
re ams
ĠAngel es
Ġeffect ively
Ġhous ing
ĠD an
Ġe ast
Ġmom ents
ĠHe ad
col or
J an
ĠW ednesday
Ġch osen
ĠM at
Ġat hlet
Ġdec l
le ts
al i
Ġn ative
ĠZeal and
Ġinter ests
ĠOr gan
ĠL ab
ĠC all
as er
y t
c ient
Ġsurround ing
h and
Ġenc oun
os op
ĠT ake
Ġel imin
Ġs uff
Ġdoub t
ĠV er
y e
Ġpan el
Ġmachi nes
Ġdes k
4 9
ell ed
Ġte a
Ġgreat est
Ġdetail ed
Ġp od
ĠY es
Ġhistor ical
Ġmeet ings
Ġs ides
Ġexpl ain
Ġchalleng ing
re ens
Ġpro te
Ġsymp toms
ast ing
Ġm ir
Ġsur vey
Ġcaus es
Ġv s
Ġafter no
C ol
Ġstand ing
Ġfe at
P ost
ic an
Ġconf lic
3 7
Ġcollabor ation
u a
O ther
ĠItal y
ond s
Ġr om
Ġident ity
a o
Ġcomp lic
Ġ199 0
Ġdep art
Ġfl u
Ġval id
t hor
Ġtop ics
Ġad ults
Ġpersp ective
Ġmus eum
Ġs udden
Ġconf ig
Ġfrequ ently
Ġfor ced
Ġadvert ising
Ġacc ounts
Ġint ended
Ġgu est
F L
Ġcover age
Ġcell s
ony m
Ġg rown
c a
li nd
Ġmar riage
Ġappoint ment
S A
Ġpurch ased
M any
ĠH aw
Ġfur niture
Ġclaim s
ot ic
Ġful f
Ġinter ior
L iving
Acc ording
Ġr ing
Ġpat tern
Ġr ub
ĠS pe
Ġagre ement
3 2
Y es
Ġw al
Ġmov ies
C O
oot ball
Ġch ain
is her
Ġhold s
Ġro w
k ins
ĠCol or
ĠÂ »
Ġ ðŁ
Ġtr ained
Ġter r
Ġexam ples
â Ħ
Ġper man
ĠT O
Ġaware ness
Ġn eck
Ġb rows
ĠTh rough
Ġmount ain
4 7
h ance
ĠC ard
Ġrecord ing
Ġsh ut
Ġcr uc
Ġsecond s
i nos
g l
Ġcomm ission
S P
Ad d
Ġvic tim
Ġ4 5
An other
and om
Ġ5 00
Ġess ay
hus i
Ġat mosp
St ep
Ġcompet itive
Ġl augh
t ests
ch e
p art
Ġfl ight
Ġcon text
Ġemploy ee
ĠL and
Ġ tu
cri pt
m et
Ġmain ly
V iew
g ar
ĠRuss ia
Ġbro ken
M ost
ter ns
it t
Ġhear ing
3 1
Ġar ts
am il
Ġaward ed
r ich
a is
Ġmod e
Ġfound ation
ĠMan ager
ĠI reland
Ġm ort
Ġc aught
Ġlov ely
i ors
ĠB ob
ĠVirgin ia
EN T
Ġimpro ved
Ġrepl aced
Ġrem aining
ew ork
Ġfe es
Ġpro to
az il
Ġstre am
Ġm el
Ġf ly
Ġdat ab
Ġpolic ies
Ġd iverse
ĠSer ies
Ġen able
ĠEn ter
ĠMart i
Ġcut ting
pr ise
Ġme al
ĠM ur
ĠSec ond
ol it
Ġappreci ate
U T
t ons
t heat
Ġch ampions
A m
ir ty
ai red
Ġprov ider
it age
ĠC at
ĠK ar
ĠChar les
ĠIn formation
Ġfre edom
Ġord ers
Ġsl ot
ĠS and
âĦ ¢
Ġun ivers
Ġtur ns
Ġfac tor
Ph one
Ġsur f
Ġmanufact uring
ĠW ord
? "
Ġli qu
Ġwrit ers
Ġneighbor hood
Ġgood s
ing u
ĠM ain
p o
Ġmonth ly
Ġbig ger
us hing
Ġperfect ly
e ory
ĠJo hns
Ġv ote
Ġwe aring
Ġsup ple
li ament
i ams
0 1
Ġautom atically
h eory
Ġtrans ition
le ar
ĠWe ek
t heory
Ġp il
Ċ Ġ
f i
el ing
Ġinv es
Ġed ition
ĠC EO
Ġhundred s
Ġaccess ible
M e
Ġtell s
3 4
Ġconsider ing
Ġj u
so ft
Ġcall ing
ell s
ĠW ay
9 5
Ġsuccess fully
ot ed
un ior
Ġv ary
Ġaud io
Ġsustain able
Ġsk ill
Ġn ine
Ġ theat
Ġwe ap
Ġk ing
Ġhers elf
aw n
Ġn or
um ni
Ġstop ped
Ġpro s
ual ity
Ġmem or
ĠChi ef
d y
ĠGe org
Ġ tests
er g
Ġafterno on
L A
ĠB oy
oc olate
p to
Ġpark ing
Ġext ended
k ay
Ġent r
Ġst ars
ĠT em
hi a
Ġp as
Ġhor se
Ġfor g
Ġear ned
Ġ theory
Ġcircum st
Ġj oint
Ġbatter y
Ġentire ly
Ġlandsc ape
ĠSc ot
Ġadminis tration
Ġopin ion
ner gy
r ition
Ġdist inct
Ġaccep ted
ĠO F
p ass
Ġfollow s
Ġex ami
Ġnot ed
Ġp ure
ĠKing dom
Ġl ights
ĠD ou
Ġaw esome
tor ney
we ight
Ġconf ir
Ġupd ates
ĠS i
0 5
Ġco vers
Ġsetting s
P r
g as
p oint
ĠChampions hip
Ġro t
ex p
ĠAs ia
Ġupd ated
li ned
Ġposition s
Ġcook ing
C T
Ġ >
Ġtw ice
oss ible
ĠI l
Ġent husi
Ġreduc ed
Ġserv es
Ġtr uck
8 8
t ack
Ġemp has
Ġc abi
ĠW ild
r ick
ĠĊ ĠĊ
Ġre ference
v ention
Ġw ire
iven ess
Ġenter ed
C hr
Ġdec re
g ment
as ters
Ġy es
Ġinstitut ions
Ġcateg ory
ĠYou ng
Ġalong side
Ġcontem porary
Ġinf rastructure
ĠN Y
Ġcr af
Ġsub sequ
Ġan cient
w ater
Ġdefi n
Ġprocess ing
Â ®
ĠF ac
Ġcompre hensive
Ġclos er
L earn
ĠDe v
Ġcitiz ens
Ġpay ing
Ġsur gery
Ġear n
ĠT imes
ĠThere fore
Ġseek ing
Ġrem ote
Ġvis iting
Ġen hance
ĠSec ret
ĠF und
ĠT est
Ġ thor
ĠMarti n
Ġorgan ized
Ġbro wn
z y
il st
ĠSt art
Ġ198 0
Ġex cept
Ġhon or
Ġappro ved
ĠR os
Ġsub mit
Ġtyp ical
or a
ĠBe fore
Ġg lo
Ġk m
ot i
Ġadv is
Ġr ough
ĠT own
for ce
Ġend s
ĠP ac
amp s
His tory
ens ions
Ġeff iciency
b a
ĠM ike
Ġtechn ique
Ġdel icious
are s
w hile
âĢĻ .
Ġlif estyle
ĠK eep
ul ous
Ġdistribut ion
ol ved
Ġpre gn
Ġadv oc
or ter
Ġspe aking
Ġtr acks
Ġsit uations
Ġdel ight
ĠCong ress
Ġb low
Ġme at
ian a
Ġrec overy
Ġprovid ers
! )
Ġcris is
Th anks
Ġkeep s
Ġconsum ers
Ġre tain
er ies
ar row
T ube
Ġcon ver
I R
Ġdest roy
Ġi con
Ġorgan ic
Ġmil k
Ġscient ific
ĠC ast
Ġreg ional
Ġinf o
ĠCath olic
Ġmat ters
Ã ¢
Ġrecogn ized
ost on
to re
Ġres ource
Ġbut ter
ult ural
Ġfood s
Th ank
Ġelec ted
Ġcloth es
ollow ing
Ġpro sp
Ġr ac
Ġauth ent
ĠK now
ĠAb out
l ers
ĠCarol ina
ad ed
ĠMed ical
Ġinvol ve
c an
4 6
Ġc ycle
ĠM ax
D F
t ables
Ġpo et
Ġche ap
ĠJ ud
j i
Ġphotograp hy
ĠLibr ary
Ġaffect ed
Ġg aming
Ġup per
Ġent reprene
Ġpr ison
ĠE li
Ġmag azine
Ġgr ade
r is
c ur
Ġv ital
Ġfail ed
el ly
ĠH ave
Ġmass ive
C omm
Ġcon sequ
Ġevery day
Ġus ual
Ġv oc
hi o
or ld
Ġro les
c ons
Ġob jects
Ġst ations
and on
ĠNet work
ĠInst ead
ĠD ata
Ġun less
Ġrestaur ants
Ġcer em
ak a
ĠL ee
ans ion
Ġcrit ic
Ġre b
ĠRich ard
Ġship ping
Ġmix ed
Ġsil ver
ĠAn other
Ġhe ight
cl usion
Ġj ew
â Ĥ¬
Ġ199 9
M A
ĠOn ly
Ġprot ected
Ġorigi n
19 6
p ers
Ġpat terns
Ġimag ine
Ġex cess
Ġstruct ures
Ġrece iving
Ġrem ained
Ġcare fully
osp it
Ġrepl ace
ub s
Ġrel atively
Ġfix ed
ain ts
Ġm ine
ĠA ud
ip l
Ġless ons
ĠAr ab
all ed
Ġpartners hip
Ġwh eel
Ġcruc ial
Ġdoll ars
Ġs alt
v a
t t
ing ly
ĠAd dition
B ook
Ġâ Ĩ
ning s
Ġsignificant ly
Ġcho osing
ĠC ross
Ġo dd
on to
ĠY OU
ĠL im
Ġres ear
em y
ĠCo ast
Ġre ward
Ġc e
ĠG al
Ġsup posed
Ġmatch es
R el
T e
Ġnew sp
Ġperform ing
Ġsty les
l ig
Ġproced ure
ĠI d
Ġd omin
Ġd im
Ġele v
Ġgr ab
amp ion
Ġlight ing
Ġf ellow
cl ass
Ġag ent
ĠSt and
Ġrelig ious
L C
Ġ tables
Ġso il
Ġentertain ment
ĠâĢ ¢
Ġass ets
Ġre new
Ġarchitect ure
h m
Ġmess ages
Ġeng age
Ġappoint ed
atur ally
Ġj ack
Ġsh oes
um es
pl ies
Ġd ie
ĠE nd
Ġdisc ip
i ni
is ters
Ġspe ech
W ell
Ġregister ed
Ġh all
Ġlov es
Ġs ac
Ġbelie f
Ġsch olars
ab led
Re g
y ard
Ġad apt
Ġguarant ee
Ġref lect
Ġp ed
Ġpresent ation
Ġeng agement
Ġrec over
o om
ĠSpr ing
pos es
ĠIsra el
Ġdetermi ned
Ġrem ark
Ġ Ð
H ome
Ġp itch
Ġst ands
l ock
Ġcelebr ate
st one
ĠSp orts
Ġsup ports
Ġup coming
Ġd ivid
ĠG ame
tori al
Ġm ut
es ides
p y
Ġset t
C ar
Ġfac ilit
Ġworld wide
ĠT H
Ġpro posed
Ġcreat es
Ġf ishing
Ġl osing
Ġal cohol
ĠF ind
Ġg ro
Ġpo ly
ĠJo e
C E
ur n
al y
ĠVic tori
Ġg olf
Ġhappen ing
ĠSec urity
Ġbr idge
al le
ĠWill iams
0 8
ĠE lectr
S up
Ġboy s
ol ve
ĠFor m
ĠB ow
Ġfeat uring
Ġwin ner
Ġph ase
Ġconduc ted
ĠCon ference
s hip
ĠW al
A c
Ġar rest
Ġy ellow
Ġv eter
O f
ĠK ey
Ġexpect ations
Ġdep t
Ġnear by
Ġoffic er
h etic
ĠI D
B S
Ġsm ile
u zz
Ġagre ed
Ġs ad
Ġnot iced
Ġsuc ceed
i nem
Ġmembers hip
Ġexecut ive
Ġh ur
Ġdesign er
Ġwas h
on ial
Ġsurpr ise
Ġco oper
E n
e qu
y ou
0 7
Ġconven ient
ump tion
Ġoper ate
Ġin put
Ġsing er
ĠU l
E ng
Ġthor ough
ĠJour nal
G B
ĠDis c
i at
Ġpick ed
Ġtr a
P ri
ag ues
Ġre venue
ĠG irl
ĠM iddle
Ġun able
Ar t
Ġapp arent
Ġyoung er
op y
Ã ¤
t ip
Ġch ief
Ġco ordin
Ġur ban
ĠMark eting
Ġk ill
ches ter
Ġtour nament
ĠSw ed
Ġbirth day
k er
Ġcons ists
Ġtrou ble
erv es
Ġar ms
ĠF ar
Ġelectr onic
0 6
ock et
Ġclos ely
Ġn urs
ester day
ĠLit tle
Ġadvent ure
Ġpleas ure
ĠM id
yc ling
ĠFil m
Ġwe ak
Ġgover n
Ġconf ident
le te
Ġread ers
Ġasp ect
ens ity
ĠM os
c ase
ĠH uman
Ġfac ulty
ĠCl ick
ĠL ink
0 9
Ġd u
ol es
ĠS outhern
ĠOr der
Ġh ire
F C
Ġinnov ation
ĠN ight
ĠSup port
Ġconcer ned
ĠL ast
Ġcapt ure
ĠU kr
rel ated
ent ed
al ign
U N
ĠC re
Ġtur ning
j a
ĠA ND
Ġconsum er
Ġlist ening
as p
Ġex ternal
Ġfeel ings
Ġinsp iration
Ġatmosp here
Ġw itness
ĠW all
ans as
Ġb odies
0 4
Ġun f
il ly
Ġhe av
ĠH el
ĠI P
Ġbl ess
el er
T A
te en
Ġfr am
Ġ197 0
Ġinv ited
O P
lud ing
Ġconstr uc
c ks
Ġs am
Ġse asons
Ġreve aled
angu ages
O C
Ġon going
U p
ĠCol umb
Ġdri vers
ĠH or
rup t
Ġgr ass
re al
ĠG en
ĠTr ump
Ġc ounty
Ġexhib ition
Ġf estival
Ġover l
Ġcap able
Ġr ating
ĠU N
Ġs izes
ĠAnd roid
Ġsk y
ear ning
Ġprogram me
ĠL uc
Ġd ates
0 3
Ġdi am
ĠN orthern
Ġslow ly
ack ing
Ġn arr
Ġte en
or ry
end ar
Ġag es
to ries
Ġrec ipe
Ġexpl ained
Ġalbum s
ost er
Ġqual ified
Ġm igr
Ġguid ance
ĠF air
Ġmed icine
Ġreal ized
Ġreg istration
e ah
Ġcou ns
Ġres idential
Ġdr am
ĠE r
Ġofficial s
Ġh ang
Ġincor por
Ġpur poses
ĠC y
Ġconcer n
ĠS EO
ĠMich igan
ec tor
ĠAd v
og y
ĠV an
z er
Ġte le
ĠJohns on
ĠA ri
ast y
Ġspirit ual
ai re
Ġe ase
Ġplan et
Ġbasket ball
Ġtell ing
Ġident ified
Cl ick
ĠM O
Ġdang erous
Ġre i
Ġair craft
Ġ199 8
Ġimprove ment
Ġachie ved
Ġmiss ed
ĠA wards
ĠYou Tube
Ġp un
Ġv ast
t all
Ġhealth care
Ġh ook
Ġsol ar
ĠMay be
ord ers
h ical
Ġout put
ĠJ ones
l ights
Ġwor se
com es
Al though
Ġob vious
Ġvic tory
t rop
ens us
Ġtr ig
ï ¿
Ġhab it
Ġinstruc tions
Ġdeg rees
ĠRec ords
Ġbe er
gr ad
M ed
Ġaw ards
Ġsc ored
Ġcircumst ances
Ġprogram ming
Ġtre ated
ĠD ani
Ġv it
Ġsched uled
Ġsp i
ĠBr azil
ĠR E
Ġf ro
Ġaccur ate
0 2
ĠB oston
m ade
Ġlay er
Ġcandid ates
Ġcl othing
od d
Ġcandid ate
az e
ĠA L
Ġhistor ic
P hoto
ĠHen ry
t ab
Ġbelie ved
ĠD ub
ĠTr aining
Ġfac ing
ï¿ ½
Ġreput ation
be ing
Ġmur der
ĠC ost
Ġg ear
Ġmanag ing
Ġconst ant
Ġvers ions
Ġequ al
Ġgu ard
Ġansw ers
Ġfavour ite
ick et
Ġnorm ally
am ber
Ġspl it
Ġh un
Ġgrad uate
Mar ch
et ime
P er
T V
ĠChild ren
Ġimp ossible
acks on
Ġfail ure
ĠIr ish
ens ed
ĠH ospital
ke ep
Ġi ron
Ġtrad ing
Ġl ad
Ġfol ks
hi n
Ġviol ence
I F
Ġad m
Ġworksh op
Ġint ro
t ank
ĠT her
b ec
A ny
oc key
Ġsh ock
Ġso le
Ġrout ine
Ġultim ately
Ġbet ting
ent le
Ne xt
Ġproced ures
m ond
ĠV ill
Ġimpress ive
Ġcar bon
af e
pro fit
ĠPl us
Ġconc rete
Ġag encies
ĠW alk
Ġstrateg ic
ad or
Ġprim arily
Ġpl ug
B ack
ĠAs ian
ol i
Ġorgan is
we et
Ġmem ories
Ġw et
ĠR ail
Ġimpro ving
ĠHis tor
Ġ18 9
Ġlic ense
Ġrefer red
ĠW rit
ĠA uthor
Ġcr iminal
Ġv ibr
ĠK e
Ġret ire
Ġed itor
ic ts
ĠFor ce
ĠO hio
Ġhe aling
ac le
Ġpro ceed
Ġn one
ers hip
Ġstud ied
Ġ18 8
Ġdiv ision
ur a
5 6
ĠM a
Ġcommit tee
ad ium
Ġcont est
el a
ĠD igital
Ġgener ate
Ġac tor
Ġfight ing
A pril
osop hy
Ġanx iety
5 9
h ost
Ġ3 00
Ġmot ion
g reg
ĠPol ice
is to
ĠWi n
Ġpass ing
J une
ei n
ĠK at
Ġpl ate
Ġund ers
ĠW here
Ġs ail
S E
ĠL og
Ġin tim
Ġ tip
ĠL ive
Ġvis ited
Ġfit ness
Ġposs ibility
Ġdatab ase
ĠU r
Ġ tack
Ġ tall
5 8
A ss
ĠMark et
Ġer a
Ġweek ly
ĠC reat
ĠO l
ĠP ass
ĠC ov
ĠTh ose
Ġoffic ers
Ġsy nt
M P
Ġrei n
el come
Ġv ul
Ġdefi ned
Ġsup plies
Ġmo ist
resp ond
ig ate
an ing
re me
Ġassess ment
ĠE conom
ĠO il
4 2
Ġgl ad
l ong
Ġport ion
Ġclub s
l en
Ġdef ense
Ġd ental
wh el
O p
Ġg am
Ġiss ued
Ġdec ade
Ġrec ruit
p are
! "
a ug
ĠSp ain
at re
Ġwalk ed
his t
Ġer ror
Ġdraw ing
ĠJ on
B est
7 7
L ast
Ġdest ination
ĠJ eff
ĠAd minis
Ġr andom
d ro
Ġag ric
Ġm unicip
Ġv irus
Ġinit ially
P art
Ġb read
Ġsc ul
E d
bi n
Ġlik es
Ġb order
h ony
g or
Ġrepresent ed
I m
Ġcommon ly
ign ed
Ġjoi ning
S C
Ġflex ible
ĠHot el
ĠFrancis co
Ġchar ges
Ġout standing
ic ity
is tr
r id
Ġstreng then
Ġsol o
c ar
ĠJew ish
ĠJ ersey
ly wood
Jo hn
Ġf iction
Ġc orn
Ġbath room
Ġtw enty
Ġti ny
Ġmag ic
b ury
t ag
Ġ199 6
ĠA nal
r ics
Ġstret ch
ul s
Ġdepos it
ĠF ootball
Ġproduc er
ort hy
Ġclin ical
d ate
Ġconsist ent
Ġch ose
Ġintegr ated
Ġcontr ibute
T H
ĠAs h
id ays
v ision
Ġcert ified
Ġhost ing
ĠP o
ĠAmeric ans
ĠNe xt
Ġeng aged
Ġb ass
Ġdeb t
ion e
ab et
i en
Ġresult ing
Ġfig ures
b les
oc ated
ĠPre mi
Ġdom estic
br idge
ĠP op
ift h
lec ting
T oday
ĠWor ks
ĠCh air
Ġimplement ation
Ġtit les
Ġhum ans
Ġcas inos
Ġpay ments
Ġexper iment
Ġfil ter
Ġleg s
Ġdeal ing
Ġ199 7
Ġconn ections
H i
Ġlik ed
ren cy
aw a
Ġdrug s
E W
Ġrecogn ize
Ġk it
Ġs ick
ĠC li
x y
Ġsol ve
Ġsuggest ed
ĠE p
5 7
Ġperson ally
ĠSt at
por ation
ĠH and
Ġ tab
str uction
ĠGeorg ia
4 1
Ġ tank
Ġbe ar
Ġfr ustr
Ġrepl acement
ver se
C ons
Ġincred ibly
ĠSte ve
Ġlux ury
p es
b ar
Ġcr ime
le vel
Ġsup erv
Ġconduc t
fol io
ic er
ĠPac ific
C o
Ġche ese
xt ure
ap ing
Ġconfir med
ĠQue en
Ġflo od
4 3
AT ION
ĠAnd rew
i nter
no is
Ġwid ely
ĠSe a
Ġtec h
Ġs em
Ġch icken
ang er
Ġin ner
G e
h op
olog ist
ok ing
Ġdisapp oint
W ho
ire ct
ĠCh o
. âĢĻ
ul ating
g color
Ġwhen ever
J uly
Ġmus c
Ġbreak fast
Ġaccompl ish
h al
om s
friend ly
k o
ĠE nergy
ĠâĨ Ĵ
und er
Ġfair ly
to s
Ġspi n
âĢĻ ,
ĠG lobal
ĠP ak
M us
os ed
Ġattach ed
Ġconf irm
Ġd reams
ĠCont act
Ġg ained
Al so
Be fore
Ġinform ed
Ġtr ick
Ġc ock
Ġnet works
Ġstrugg le
Ġbird s
er a
Ġfr ag
ate ful
S m
Ġperson ality
ĠC A
m aking
p ret
ev i
r ors
ĠBro ok
ĠS anta
Ġdi ning
Ġsearch ing
Ġproduc ing
t ub
Ġch ocolate
Ġ18 6
fr ont
um a
i est
ĠS ign
us ing
S ec
ific ate
ĠA ff
Ġincre ases
Ġc os
ach e
ĠMc C
Ġreg ulations
Ġco aching
ĠB ul
t one
Ġlo ans
f l
ĠC ert
P C
Ġorder ed
Ġris ks
arr ant
!! !
en ger
cep ts
Ġac ting
Ġstre ets
Ġreli ef
Ġg ifts
h ar
Ġmanag ers
Ġsh ift
Ġop t
ĠF urther
aw ay
W here
Ġk ne
Ġ3 2
Ġprov en
E mail
ou red
anc er
d es
Ġh ung
ĠG reek
Ġcommun icate
Ġind eed
Ġh ors
n ent
g un
Ġ196 0
? ?
li nk
ess ion
ak i
Ġperman ent
Ġinter face
Ġmonitor ing
Ġap artment
Ġdynam ic
Ġhard ware
Ġdrop ped
roduc tion
ĠEngine ering
Ġsp ect
Ġst im
ĠD ie
Ġdr ama
Ġover whel
Ġl anguages
ar ity
ĠSh op
Ġs outhern
Ġpro of
ĠUs ing
Ġmin i
ang es
ĠS ometimes
Ġguid elines
Ġindustr ies
Ġtick ets
l aw
ish op
qu ar
ĠK ent
ĠProfess or
Ġoff ices
Ġexclus ive
gy pt
Ġh osted
Ġbas ically
yl van
Ġretur ns
Ġb at
w ar
ay lor
uck y
ĠB at
Ġshoot ing
ĠJ ackson
Ġmark ed
Ġinj uries
Ġcon d
Ġn arrow
Ġp ill
Ġtransport ation
ĠL ine
itut ion
ell er
Ġequip ped
Ġple ased
Ġobtain ed
Ġcaus ing
20 20
ivers ary
bs ite
red it
Ġdep loy
Ġtrend s
Ġemploy ment
Ġele g
Ġdiag nos
Ġnew ly
Ġcoun cil
y o
Ġs ight
Ġac know
ep per
Ġlog o
ĠO k
a est
P R
Ġmov es
Ġabs or
Ġdep ends
ĠMicro soft
Ġatt acks
ĠF arm
Ġenjoy ing
Ġv end
Ġh idden
Ġimmedi ate
Ġchann els
F il
qu ir
Ġst unning
Ġp oker
Ġexp ression
L ist
Ġme als
Ġdept h
o ch
ĠS ky
ĠJ ac
ap ore
Ġliqu id
ĠS aint
ay er
Ġb gcolor
ĠPol icy
Ġac id
Ġg ard
Ġdescri ption
ĠV ideo
Ġel ig
p ar
ĠO N
Ġprote i
Ġprotei n
Ġsurpr ised
Ġprom i
Ġdiscuss ed
w ich
em p
Ġf as
Ġtest ed
less ly
il a
h ur
A ugust
Ġarri ve
ac tors
Ġn aturally
Ġpull ed
Ġdevelop ers
Ġill ness
ĠF red
Ġinvol ves
res ents
is a
ĠEx ecutive
Ġsc an
Ch eck
Ġlet ters
à ¤
Ġperform ances
Ġm and
Ġdef e
Ġg ym
ĠR en
ĠIr an
Ġdel ay
st ream
Ġjust ice
end ers
g age
Ġvac ation
ib u
Ġimm igr
Ġvul ner
ĠL ook
Ġc oi
at han
it is
Ġinter act
Ġs ample
em pl
Ġthi n
ĠF ield
ĠG re
ĠM P
Ġcr azy
ad ow
à ¸
ed ing
og s
T M
P ress
Ġ199 5
ĠAss ist
ĠThe atre
Ġsubs cri
ylvan ia
lud ed
Ġluck y
E ven
ab eth
Ġd ent
Ġre ar
ĠL t
Ġr ural
it able
ĠH ard
Ġem br
ot ton
ĠR ight
Ġprint ed
i ny
Ġch ances
Ġcompon ent
Ġdes ired
G ener
ĠStud ies
ĠGu ide
Ġbot tle
Ã ¨
Ġ3 6
Ġsomew here
Ġser iously
n ations
Ġchar ged
Ġre nov
Ġform al
ip ped
ov ed
Ġb are
Ġdiffer ences
Ġgrad uated
Ġl atter
m es
T C
Ġshare s
Ġh ospit
ber ry
Ġvolunte ers
Ġinves tors
ĠAre a
ĠA D
Ġdescri be
Ġmus cle
Ġn ob
ri a
Ġauthor ities
Ġst ake
ĠD ar
ĠCon f
h read
20 21
ĠS ir
ĠB ang
O D
Ġpol l
Ġde als
Ġcr aft
c ont
Ġtick et
Ġens uring
Ġrecogn ition
Ġsubst ant
m al
ĠV iew
ack ed
Jan uary
Ġpolit ics
ul f
Ġb ags
Ġcol lected
Ġb ond
Ġg ender
Ġprofess or
Th en
t hread
Ġneg oti
ĠTh ough
Ġ tro
ĠA R
Ġl ies
Ġch art
ĠE qu
Ġal umni
os es
ĠS us
t iss
Ġp apers
to ck
Ġmer ch
ĠA C
Ġin ches
ĠF our
Ġz one
ul um
Ġauthor ity
Ġrep resents
Ġven ue
Ġbroad cast
uc cess
Ġwh ilst
ĠH aving
Ġdec k
Ġst uck
ĠBu ilding
Ġch ron
ĠColor ado
Ġn orthern
F ind
bur gh
Ġprior ity
Ä ģ
Ġvis ible
Ġsomew hat
ĠCon st
n ab
C are
Ġbr ush
a uc
Ġsever e
li nois
Ġsp ok
Ġshop s
ot es
Ġar my
Ġprincip les
Ġadd s
St ud
anc ial
ĠMinis try
âĢ¦ .
Ġwor st
ĠRad io
Ġcerem ony
Ġno ise
d ney
M r
ur ation
Ġ )
k m
H ave
ĠS her
O ctober
Ġ199 4
Ġfore ver
Ġfound er
Ġant icip
Ġemp ty
Ġcry pto
Ġtreat ments
ĠK im
Ġc ake
are t
Ġair port
Ġcor respond
5 2
Ġperson nel
Ġr acing
Ġst ages
ĠN OT
Ġattr active
ĠH arr
Ġf er
Ġpremi um
ĠStud ents
Ġins ight
Ġy oga
Ġi Phone
ĠC ro
Ġprep aration
ĠTr ust
Ġhead s
Ġelectr ical
ĠJ er
Ġc rop
Ġli ber
Ġcr ash
Ġresist ance
au ce
Ġm ood
Ġs lip
ear ing
ĠR ay
Ġsp oke
em bers
Ġad ap
E P
is k
Ġl ake
Ġassoci ation
p at
S eptember
ĠS han
Ġm ile
Ġf o
ĠJos eph
Ġle ather
h on
Ġpassion ate
Ġacqu ired
Ġincreasing ly
Ġmaintain ing
Ġpriv acy
t ent
er ia
d i
Ġr ig
ĠP R
ĠRep ort
Ġconflic t
ĠCont rol
Ġ tiss
In ter
W ill
Ġfram ework
Ġi l
Ġscen es
Ġf ir
Ġdom ain
ĠK ong
Ġs ter
Ġres c
r aid
iet ies
ri n
Ġcontr ast
ĠOlymp ics
5 4
t es
Ġretur ning
on na
Ġintroduc tion
umm ies
Ġsh arp
ri ends
ĠL y
A B
ig en
Ġlink ed
ound ed
Ġconcer t
it er
Ġscri pt
ns ylvania
Ġtr ib
Ġbr ill
at ics
Ġac ts
ĠH ope
Ġbox es
Ġemot ions
Ġcomp ens
Ġexpos ure
Ġadvant ages
Ġtem pl
ĠF ull
Ġro ot
ut en
Ġcomp r
Ġp ills
S im
ĠTh ree
ĠE ss
M ake
Ġr aw
Ġp it
Ġph arm
ĠMount ain
as m
I mp
Ġup load
ĠM ir
Ġsuffer ing
st ers
Ġreg ions
Ġ199 2
a er
ĠIs lam
W ork
ES T
t an
G u
b ro
im ize
le ep
y stem
Ġoppos ite
Ġregard less
g ely
Ġext ension
Ġint ent
ĠC reek
Ġresear chers
ĠR am
Ġd ust
Ġch apter
Ġsp ots
A G
Ġac tors
Ġspecial ist
Ġs ending
p age
Ġm ob
Ġpro ve
Ġpl ot
lec tions
ĠS n
Ġmin imal
Ġsto od
e gr
Ġsp r
Ġ thread
or i
Ġfind s
Ġbow l
Ġfunction al
Ġm ic
Ġp hr
Ġsuff icient
7 8
ĠCar l
Ġnut rition
Ġfun ny
ur b
5 1
Ġcal m
Ġs emi
id ers
Ġreport ing
Ġv ess
ĠPri v
ĠG allery
Ġ trop
ĠE astern
C ateg
Ġact ress
hold ers
ĠCB D
ĠPl ace
Ġfort h
cer tain
Ġtravel ing
ĠC irc
s ite
ĠE gypt
hi ne
form ance
Ġmusic ians
E ach
Ġy esterday
ĠIn vest
Ġstud ying
ĠAddition ally
iet nam
Ġen ables
Ġassist ant
Ġworksh ops
Ġse ed
Ġentr ance
Ġh urt
R em
Ġun ion
em ble
ĠLi ber
Ġv o
dr aw
Ġcap abilities
Ġpr ide
S tr
im ents
Ġsp ark
ov iet
Ġdrink ing
Ġg entle
w an
Ġw estern
ĠTh us
ĠF ederal
Ġeng aging
5 3
it i
Ġreduc ing
ust i
ig i
onym ous
Ġexp enses
F acebook
ĠBrit ain
Ġcontinu ing
ir al
ah am
Ġdis pl
Ġoper ated
or ized
us ter
Ġpar am
Ġaff ili
F T
Ġag ents
H S
ĠSp ace
ĠSt an
ui n
R o
z es
Ġres olution
ĠBl og
Ġexist ence
Ġextre me
ĠB and
In st
Ġas ide
Ġclaim ed
ograp hic
Ġstay ing
ir ts
Ġp hen
Ġrecommend ations
ĠW atch
ĠDo es
ĠS tory
Ġbr anch
ĠE U
Ġesc ape
ĠN ever
Ġcare ful
ĠD espite
U L
Ġswim ming
Ġb anks
ob by
h et
ĠTor onto
Ġsl ots
y ers
Ġinv en
ĠV en
Ġfin ance
Ġc bd
Ġ4 8
Ġliter ature
evi n
Ġinvest igation
Ġlar gely
Ġres tor
Ġbl ocks
Ġm ask
Ġme ets
Ġrent al
Ġun w
Ġsh el
O h
Ġun known
an es
Ġz ero
Ġen roll
Ġ tone
ĠS on
ĠH un
Ġliter ally
Ġcateg ories
al o
Ġexception al
O ff
ĠIl linois
Ġencour aged
Ġsudden ly
ĠScot land
ĠS P
Ġun us
Fe bruary
Ġf est
Ġb le
ĠM ember
Ġse ats
Ġad j
Ġl ady
usti n
ĠC ivil
ĠEn vironment
Ġfac ts
Ġemp ower
ĠD utch
Ġcon cepts
Ġprint ing
Ġsum m
Ġreason able
Ġdraw n
D own
ĠP ack
Ġcomplic ated
Ġchild hood
20 22
orge ous
Ġ aest
to od
Ġhop ing
Ġegg s
ar n
Ġinc ident
am ental
Ġre aching
Ġli e
w ords
ĠE vent
ĠE st
rent ly
st ein
p ts
ĠCh e
Ġdisc ount
Ġh ole
ĠM ah
Ġf lying
Ġhead ed
achel or
ĠP as
Ġintellig ence
ter y
Ġlaw yer
Ġcreat ivity
Ġfocus es
ĠL atin
Ġy ards
ĠD C
Ġgr ateful
Ġdri ven
Ġfac ed
D S
Ġvolunte er
Ġman ual
Ġtal ks
M i
Ġsh ower
Ġn uc
ind er
20 19
ĠBo x
as ure
Ġrec re
V E
ĠG arden
Ġsav ed
Ġtalk ed
Ġprom ise
Ġl aid
ĠP ub
Ġ tub
ĠSing apore
Ġfl ash
% .
er en
et r
Ġhand ling
Tr ans
Ġexp ansion
v as
b el
Ġal le
br id
Ġ199 3
ĠPen nsylvania
Ġgar age
Ġoffic ially
A Y
ĠSo f
ĠBro ad
ĠP hys
av ed
Ġp iano
Ð °
Ġrequ ests
Ġshe et
ĠPr act
hy t
ĠW ales
ĠKore a
ER S
Ġret ired
Ġprefer red
Ġmed al
Ġsign al
Ġdeep er
Ġestim ated
Ġp ace
ĠB ad
Ġtrig ger
m o
H igh
if er
ĠH ong
Ġr iding
ach es
ĠO x
Ġcons cious
Ġsing ing
ĠR od
Ġs aving
Ġal ive
and y
N ovember
t ill
at oes
Ġc able
ĠS enior
ĠU t
ĠLi n
Ġconsider ation
Ġfl our
Ġwatch ed
Ġr at
ĠN avy
ĠFore st
Ġmod er
if ies
Ġcover ing
im p
Ġnav igation
Ġcarry ing
Ġaf raid
Ġto oth
Ġevery where
T ags
Ġs ew
Ġmill ions
t ang
ĠL ind
ĠSt ation
P M
Ġstr ict
A F
ĠAg ain
Ġab use
ĠL earning
ĠCoun try
if ting
ĠMem bers
ĠP oint
f all
Ġexpl ains
Ġstrong er
Ġsec tions
erv ing
I nt
Â °
Ġst able
Ġbrows er
z abeth
Ġm al
ĠSy dney
Ġjud ge
iz er
u ous
ĠCons ult
ing ers
Ġlim its
Ġb ands
Ġre form
Ġbro ke
Ġroad s
Ġgreat ly
Wh ether
st ery
Ġcon vent
or ation
ver age
Ġtr ips
U se
Ġocc urs
v y
ou ch
e et
Ġport folio
Ġflav or
C ur
Ġdef ault
6 6
Ġbase ball
vi n
ĠB all
Ġpurch asing
Ġintegr ation
bour ne
Ġbenef icial
Ġw ave
Ġdec ent
Ġn omin
Ġpow der
gor ith
ĠO s
Ġultim ate
Ġfac es
ov ing
Ġrev olution
ĠN i
ol is
z ona
Ġus age
l ay
Ġcom edy
ĠR un
Ġcommun ications
ĠS ong
ĠSecret ary
Ġy ard
od ge
Ġapproach es
b ell
ul ing
ĠAc cess
Ġaim s
Ġsens itive
Ġwe alth
ri ers
M ark
Dec ember
Ġpi nk
ed ia
Ġatt ending
Ġsurpr ising
Sp ec
Ġw is
Ġab andon
o h
ĠM ill
inal s
Ġwi ns
Ġb lind
ĠF un
Ġ199 1
Ġbed room
qu est
Ġend ing
Ġset up
Ġdam aged
Ġl oyal
c oin
Ġbl ank
Ġis ol
Ġdeep ly
Ġconsult ation
ot ion
Ð ¾
R I
Ġqu ote
Ġremov al
Ġclass room
Ġassign ed
sp ec
ner y
Ġdrink s
ar on
ic it
Ġpr a
Ġstor m
Ġpi n
ĠB ible
ov es
Ġadop ted
Ġtom orrow
ask a
ov en
ĠT ele
li k
Ġleg end
ab b
ĠS u
ĠRead ing
ay a
Ġsh ots
ĠT aylor
Ġdesign ers
ĠJust ice
Ġpres ents
Ġop pon
ĠC ode
Ġat torney
Ġsch eme
Ġcolle agues
Ġinstr ument
ĠA I
at hy
O ut
Ġbelie ves
let ter
for cement
Ġh its
Ġsing les
pe ople
Ġfocus ing
Ġo cean
es h
Ġre action
ĠJ r
Ġ tag
G ood
g s
Ġhy p
Ġsugg ests
ĠB udd
ĠD un
st al
Ġb ars
Ġexpand ed
Ġre ly
Ġd uty
ing ton
Ġmanufactur ers
Ġb unch
Ġdise ases
Ġscr atch
h eless
Ġob viously
Ġam ounts
ĠLt d
Ġd iversity
act ed
us es
ĠA venue
Ġ4 00
Ġorgan isation
or ial
ĠMr s
Ġany way
Ġshould n
Ġent ering
iv als
Ġexpos ed
Ġad s
ĠV ietnam
t heless
ĠC H
Ġflex ibility
ĠBe ing
t act
Ġh es
el ry
g ian
Ġmass age
Ġoccur red
Ġcal endar
Ġnewsp aper
Ġ7 5
Ġstr ing
ĠT al
20 18
im ental
Ġd ad
Ġcons umption
Ġparticip ation
reg on
T op
ĠT ry
Ġ ?
Ġg od
Ġexpl oring
Ġdem ands
n ame
i nn
Ġaccess ories
ĠVictori a
Ġout comes
Ġauth ors
ric ulum
ac her
Ġsuggest ions
Ġb acter
Ġpre m
ĠH ou
ar ry
ĠP ot
Ġmount ains
Ġdish es
p any
Ġlist ing
t ired
D ele
Ġst ead
Ġpers ons
ail able
Ġfas cin
ig s
Ġpublic ation
Ġcharacter istics
ĠR ef
f rom
Ġpack aging
ĠN ick
ĠSp irit
ed ge
Ġcelebr ation
z ing
ĠL ocal
Ġrec ip
ĠF all
st yle
Ġinvol ving
ĠReg ister
Ġem ails
ĠN on
Ġstr ange
nt ario
Ġf ifth
ific ial
ne ys
T ake
Ġprep aring
Ġtrack ing
ĠPr ime
t ie
ĠA S
Ġintro duce
Ġsh ips
Ġcontroll ed
R C
Ġreg ul
ĠR on
Ġlif etime
ĠT it
Ġinter pret
Ġcampaign s
i ro
Ġhard er
ec ks
Ġsuper ior
qu is
c ut
Ġ15 0
ĠUn fortunately
Ġsatisf action
Ġc ater
Ġ tact
ĠGold en
Ġ til
Ġent it
Ġfac tory
Ġfir ms
V D
ant ed
Ġrepe ated
ĠWh ich
ĠPhil ipp
ĠN av
Ġenter prise
Ġdivid ed
ug by
ro vers
Ġl ists
u ine
ĠL ow
Ġther ap
l ot
re ll
nt on
ĠSen ate
Ġg orgeous
Ġbl end
Ġvoc als
Ġwood en
Ġconstruc ted
Ġappro val
Ġg ate
ĠII I
ĠPar liament
Ġelectric ity
Ġiniti ative
Ġp atch
ĠOff icer
h igh
p tions
Ġw arrant
el lect
Ġany more
et ers
ĠSystem s
ĠColumb ia
Ġ tired
Ġrapid ly
Ġ19 50
Ġutil ize
Ġins ights
d ays
Ġsub jects
Ġretire ment
st ar
Ġaccom pan
Ġpot entially
Ġphil osophy
I ns
re nce
ĠComm on
ĠH oly
Ġacc eler
b oy
Ġwant ing
Ġ ;
Ġpromot ion
ĠL at
ĠA li
ĠE s
ĠB on
Ġpack ages
Cont inue
7 6
u ating
Ġbre aking
Ġro ots
L Y
Ġil leg
ĠStud io
Ġforg ot
Ġthous and
ĠY et
gi nes
un a
Ġobject ive
ĠB C
Ġcent ers
man n
Ġcheck ing
ut ies
ĠGu ard
Ġin her
Ch ar
Ġathlet es
Ġb ab
Ġsecond ary
Ġcorrect ly
Ġtalent ed
ĠN iger
ĠJ ean
Ġs auce
Ġbre ast
ĠProfess ional
Ġk il
R S
Ġfund amental
ĠCon nect
Ġab ilities
ĠSh ould
Ġinter action
Ġpainting s
p erson
Ġpass word
ĠC ook
A A
Ġn ights
Ġse eds
Ġdis m
Ġr ush
Ġapply ing
Ġmanufactur er
ter ior
Ġvis its
C r
p ted
ie ve
ay ing
Ġdoc tors
Ġart istic
Ġstay ed
ĠS oviet
ur g
ĠS av
Ġg allery
Ġcas ual
ĠH am
im a
ĠAl bert
Rel ated
ĠL ew
Ġreduc tion
Ġtheat re
d a
ĠQu est
ro t
ĠAp pl
ins on
Ġex ceed
ever al
Ġdr aft
Ġelec tions
nes ota
ian g
ĠNe ed
Ġ198 9
iz za
Ġb lo
ĠR om
Ġh iring
ĠB or
Ġmusc les
Ġless on
Ġsto red
Ġhors es
Ġr ice
C hi
ĠPri nce
Ġen gines
Ġl ift
Ġread er
h ew
exp ected
Ġr aces
Ġw aters
H er
Ġwor ship
Ġm ent
ĠT ar
Ġle ts
ĠR og
Ġsav ings
Ġdeliver ing
ĠCov id
N ote
Ġint ention
ĠR esp
et ts
20 17
Ġcol ours
on ics
Ġcomp liance
Ġimprove ments
ĠDani el
ot al
ĠTr avel
ĠK n
t ap
ĠSaf ety
um mer
Ġout come
Ġgrant ed
Ġfarm ers
Ġag gress
Ġfin ishing
Ġsaf ely
ĠWi nter
ĠB ell
ĠT ok
Ġpain ted
Tw o
M ich
Ġexperi encing
ach us
Ġrestr ictions
Ġfall ing
Ġlov ing
ob s
ten se
Ġdown town
ĠB ol
Ġinter active
est ed
ĠR ose
= #
Ġm ac
um ed
20 10
i our
ĠAcc ount
ĠBer lin
ol ar
ĠF ord
Ġcompos ed
is ement
E A
r ome
Ġbre w
ĠâĢ ĭ
ĠPort ug
Ġcapt ured
ag ers
ĠCon tr
ĠCus tom
um ing
ĠMus lim
V ER
ĠJ en
Ġencoun ter
hes is
Ġg iant
Ġproto col
Ġmaintain ed
Ġsuffer ed
ĠAss embly
viron ments
Ġposs ibilities
st ep
ĠD am
Ġal gorith
ĠM u
ple te
Ġsupple ment
ord an
ol ving
ĠMed icine
Ġphotograp hs
Ġimplement ed
Ġarri val
ĠO ntario
Ġnecess arily
Ġstrong ly
er al
Ġmi xture
li ers
C D
Ġveget ables
ĠS tor
Ġcomb at
Ġro se
Ġthem es
ĠP age
Ġ3 8
ik i
ĠDis ney
al se
Ġinst ant
New s
Ġse es
Ġgener ated
Ġc art
M on
ĠL earn
Dele te
Ġpromi nent
Ġ till
Ġcompet e
Ġc oc
Ġarr ay
ĠA T
Ġinv ite
ĠHe art
Ġkn ock
Ġch ap
l aim
ĠM ess
Ġflow er
Ġher o
b ow
B ecause
ĠTh ink
ĠAri zona
Ġpan els
Ġor ient
Ġinstr uments
ĠEx pl
Ġc ute
Ġpr icing
Ġrep airs
Ġpri ze
20 15
oc ial
Ġelig ible
Ġl oud
Ġspeak er
ĠWith out
ĠB it
Ġmi ner
ĠRo om
ĠC op
ĠSto re
Ġupgr ade
ut er
Ġm old
ad elp
Ġbuy ers
ĠT reat
20 16
ĠCh all
B en
ĠE ff
Ġw eren
tur al
Ġr ising
Ġter ror
Ġh at
Ġexerc ises
Ġrepresent ative
Ġshould er
ĠP ur
Ġamong st
o ir
Ġfl ag
ĠSt ill
C us
or gan
Ġspeak ers
ib utes
U nder
Ġg all
Ġclos ing
Ġb ott
Ġaddition ally
Ġpromot ing
Ġout s
' .
ĠH ung
ĠO h
Ġass et
b b
em an
Ġhop es
Ġrom antic
ĠS ales
Ġim per
ĠChampions hips
w ear
Ġtax es
ĠE ll
ĠEmp ire
ĠM other
ĠM S
Ġinf l
Ġh am
cent er
Ġch ampion
ĠL ady
ĠS S
ĠB ern
ĠW as
ĠPhoto grap
ĠT ai
Ġsold iers
ac on
Ġpercent age
Ġwin ners
Pro f
Ġhe ating
Ġh ate
ĠSm all
Ġlic ensed
achus etts
mi nal
ag en
adelp hia
Ġphen omen
Ġheav ily
ĠS a
Ġf if
Ġun expected
str act
7 9
our se
Ġanaly t
Ġmin ister
Ġdisplay ed
Ġb orrow
ĠAir port
Ġres idence
Ġtem porary
Ġmark s
St art
ĠH elp
Ġin tense
l ar
Ġsk illed
Ġhol idays
ĠM ult
n ie
ĠD id
ĠB rian
Ġres ort
Ġdem ocr
Ġf its
Ġ198 8
it ate
Ġweap ons
ĠB attle
Ġ u
ad i
Ġparticip ated
Ġpropos al
ly n
Ġunders tood
Ġinstr uction
Ġ6 5
Ġexp ressed
Ġs op
Ġ3 3
ĠP sych
Ġwith draw
ild ren
Ġsc ope
Ġcomb ine
Ġext end
n on
Ġcoach es
ĠB ase
S ub
Rep lies
Ã §
E E
Ġatt itude
ĠO regon
Ġtown s
ĠSil ver
Ġequ ival
Ġequ ally
ĠS hi
z ed
Ð µ
Ġp ounds
Ġestablish ments
Ã³ n
p ower
e els
Ġper mit
ow a
Ġplan e
Ġann iversary
Ġsp ray
Ġ vert
Ġin n
Ġpor tra
ĠA k
S w
O K
Ġfall s
ĠS U
ĠCom ment
Ġstrugg ling
Ġref r
M C
h rop
ĠStud ent
ĠH an
E arly
Ġphotograp her
Ġle ct
Ġfootball ers
Ġs ought
t ied
ĠP ut
Ġconv inc
Ġlegis lation
ha ust
e im
Ġhead ing
av irus
erv ice
ĠGover nor
Ġen vironments
Ġse am
Ġind ex
Ġscient ists
ĠN ote
Ġcol umn
Ġstr ike
u er
Ġactiv ely
Ġcomp at
H A
ĠPak istan
ĠVill age
Ġext ent
j o
ĠMag azine
er ts
Ġsub mitted
Ġdiv or
Ġ( )
Ġrequire ment
ars h
Ġg re
F ree
Ġabsolut e
ĠJ ess
if orm
Ġv ocal
ĠR yan
ĠY outh
Ġinstitut ion
Ġpe ak
Ġimportant ly
G reat
ast ed
D av
Ġed iting
Ġavail ability
ĠC er
Ġbeh alf
Ġmove ments
Ġexpl an
Ġcl ock
Ġpil ot
Ġgrap hics
Ġo l
or al
Ġy ield
' ,
ĠD J
ons i
Ġf inger
Ġne ut
R ed
ĠBr idge
if fer
Ġunus ual
Ġcult iv
w a
Ġg ap
ĠF ox
Ġmag n
Ġfunction ality
ĠT ech
Ġdep ression
ĠPr ice
Ġlad ies
Ġrec ipes
Ġconvers ations
ĠPro per
er land
ĠAr m
Ġph ones
ĠBr ad
Ġcat al
ĠAu to
ĠKore an
Ġbrother s
Ġb uck
Ġconcer ning
Ġcomple tion
ĠS ound
Ġdeb ate
Ġterri tory
Ġcabi n
Ġens ures
rup tion
ĠA N
Ġc ul
Ġattemp ts
Ġwond ering
ĠEli zabeth
Ġ tap
ra q
Ġresult ed
re c
ĠS uch
Ġgen uine
ĠCl oud
os is
Ġlay out
ĠCont inue
E l
at to
Ġcontinu ous
for mer
Ġn i
ĠIns urance
Tw itter
Ġdefin ition
Ġ tent
Ġsqu ad
Ġbrill iant
Ġestablish ment
Ġemot ion
K eep
Ġo w
Ġbook ing
Ġadministr ative
R L
ĠDemocr atic
aw s
ĠBar b
ĠWil son
Ġobs erved
at al
Ġcontribut ions
Ġte x
Ġwork place
Ġcompar ison
ĠG reg
Ġun certain
ty pe
Ġben ch
isc onsi
ches tra
ut ter
ĠSm art
Ġevery body
Ġto x
Ġre nd
Ġco al
e ve
t um
ĠL as
Ġcontrol s
Ġhas n
ĠF OR
ĠM ajor
Ġepis odes
tr um
ol ly
isconsi n
Ġcompos ition
Ġcont aining
ĠTr ail
D isc
ir k
Ġdist ingu
ĠC bd
ĠC orn
im b
ĠC ou
og ether
Ġrelig ion
Ġhon ey
Ġcontribut ion
V is
Ġab road
ĠD ave
Ġch est
Ġform ation
Ġdef ine
ĠH D
Ġb oss
Ġauthent ic
if ted
20 14
ĠBro ther
Ġ aer
Ġlay ers
p ool
Ġrece ption
ĠH ay
et ary
at ile
Ġop ens
ĠMin nesota
ĠDav is
Ġc inem
Ġfr anch
d ed
Ġconsist ently
ĠUkr aine
Ġex port
ch ar
il ation
od ing
Ġparticip ating
Ġf illing
ĠPri nc
Ġmat hem
i ning
Ġher itage
Ġb old
Ġpack ed
Ġstat istics
ĠM A
Ġtrans action
ĠE ar
Ġlegis l
Ġwe igh
Ġsur ve
Ġpod cast
Ġs en
roduc t
ĠL ED
on i
Ġhor iz
ĠR ome
tor al
ĠL abor
ĠC P
ĠS earch
Ġsh apes
on avirus
RE E
e ater
Ġbo ards
Ġtr im
ordi nary
Ġengine er
Ġeval uation
ou ri
Ġtemper atures
Ġyour s
ĠL iving
Ġchampions hip
inc luding
ĠD og
ĠR est
y al
ĠMem orial
ĠMo on
Ġpriv ile
Ġgrap hic
Ġres id
ĠIn sp
Ġdevelop er
Ġra ising
ĠSe ason
s pe
ĠE ver
on ia
pro of
Ġass ume
ir a
ĠT ax
Ġsurround ed
h u
Ġpopular ity
Ġinj ured
ĠAd am
Ġgot ten
ĠE ric
l og
ag a
ĠEd ward
ĠMass achusetts
t ension
Ġsurv ive
eder ation
Ġover se
Ġ tie
a qu
e z
Ġperiod s
Eng lish
ps on
ĠBr and
Ġb ills
ĠH o
Ġpurs ue
Ġcirc le
ether lands
ĠE mer
Ġobject ives
ĠD ark
ĠFin ancial
Ġex ists
arr ing
p arent
L a
Ġemploy ed
T y
tr ack
S te
Ġp epper
Ġ âĢĻ
ro g
Ġor ange
ĠHou ston
str uc
Ġcont rovers
C S
Ġc otton
Ġc ow
ĠSqu are
ass ion
Ġo kay
ig ious
Ġw ake
id i
ig inal
Ġcr u
ĠL ater
Ġsc reens
3 00
omet hing
Ġo ven
Ġsett led
ĠSto ck
or ous
Ġput s
Ġcrit eria
ĠAg ency
h ou
Ġprov ed
ĠG ard
Ġold est
F F
f oot
Ġtrans formation
li ns
Ġmist akes
ov a
orm al
ateg orized
Ġhab its
Ġpar ish
Ġsh r
Ġsm oke
Ġacqu is
Ġh anging
Ġto ile
Ġmeaning ful
aur a
Ġgener ations
Ġimp ression
ĠOlymp ic
ugh t
Ġpray er
ĠT an
Ġ198 7
Ġm as
ĠBook s
Ġev olution
s en
ĠP it
Ġcou ples
Ġdef end
ĠP ers
Ġrail way
Ġun p
Ġwor n
Ġh ip
ĠO cean
Ġpoet ry
le ft
es is
Ġc ats
Ġcomput ers
Ġmer ely
Ġbur n
ĠHol lywood
Ġstr ip
Ġreve al
In c
Ġtrans actions
Ġl yr
Ġentit led
ah a
Ġloc ally
it u
ĠAdminis tration
ad ition
Ð ¸
Ġmy t
Ã ±
ĠPr im
s m
Ġ <
tain ment
Ġper mission
Ġtrust ed
Ġover come
ĠPart ners
ĠSup reme
ĠSc iences
Ġgold en
Ġrespect ively
Ġper m
Ġsatisf ied
Ġag ed
ĠE P
Ġess entially
af ter
L ink
Ġind icate
Ġart work
Ġpow ers
ĠEvery one
Ġmin istry
Ġ198 6
ĠV ice
Ġorganis ations
erv ative
Ġconnect ing
bo ards
E X
a ho
Ġdistribut ed
ic ide
W elcome
Ġsup por
ĠBe aut
Ġop posed
Ġmake up
Ġmet ers
un ate
ian ts
m ont
quar ters
Ġ198 4
p ur
Ġhigh lights
Ġproduct ivity
is ms
Ġvirt ually
Ġdestroy ed
Ġp ocket
Ġh ide
ĠSar ah
20 13
Ġvictim s
Ġdis pos
ig ue
r an
Ġinterview s
ĠG er
ĠC lin
ĠO S
Ġacqu ire
ot ive
Ġn ose
Ġw rap
ĠT ony
Ġc am
Ġdesign ing
B I
Ġcan cell
Ġad mit
Ġunivers ities
Ġsettle ment
ĠFi nally
ĠW ars
writ er
Ġenjoy s
Ġdocument ary
ĠUn ivers
Ġj azz
Ġscul pt
i nity
ĠF A
ef t
Ġtw ist
net ic
9 8
ĠD ue
i nch
" )
Ġen emy
Ġiniti atives
ĠMi ami
ĠDie go
ac ular
Ġo ught
ph ones
Ġcomp are
f ound
Â ·
ĠC ry
ĠO ak
h ed
are n
Ġspecial ized
Ġcheck ed
Ġst ro
Ġdocument ation
end a
ĠRepublic an
ĠM ind
nab is
Ġrare ly
Ġind oor
Ġprov ince
Ġdifficult y
book s
Down load
ĠA z
ĠHar ry
Ġdefe ated
Ġhapp iness
G A
i i
Ġke ys
ĠInd ustr
Ġstre aming
Ġtext ure
ig e
ĠC ond
Ġto urs
Ġ ~
ĠPhil adelphia
ĠN atural
Ġdr ain
ĠSh ort
on ies
2 000
Ġjew elry
ĠStep hen
Ġcli p
lud e
Ġtransfer red
Ġp ets
epend ent
In tern
av or
ĠO ct
ĠF ather
Ġne ither
h our
Ġcomple ting
ob b
all as
Ġhy dro
Ġres ident
Ġp ul
e em
ĠWe bsite
t ape
ĠPro cess
Ġsi nk
Ġground s
Ġad equ
Ġwe ird
os a
Ġinf ection
ER E
Ġpass es
Ġint ellect
20 12
Ġapparent ly
r ite
ĠRep resent
Ġnav igate
Ġdescri bes
eng ers
Ġcollec tions
ĠM achi
Ġentreprene urs
Ġinven tory
Ġoper ational
Ġ( "
os ystem
Ġex haust
Ġcop ies
ĠMar c
abet es
ĠBu ild
Ġbreak s
Ġeleg ant
Ġowners hip
ĠEx p
Ġneigh b
ĠVe gas
ĠB an
Ġconsequ ences
Ġinvest ing
ou st
ĠK evin
ĠR ub
Ġs ed
B O
Ġ198 5
ĠS olutions
ark s
Ġpl ain
Ġf uck
Ġsign ing
grad uate
Ġmort gage
Ġlap top
ĠCor poration
ĠV ery
ĠL es
ĠOx ford
Ġet hn
Ġref und
Ġcon ce
ĠM iller
Ġdur able
ĠI raq
ĠM obile
Ċ ĠĊ
Ġmist ake
ĠD rive
Ġenjoy able
Ġsac r
re m
erv ations
ĠS C
ri ving
ĠA ustin
Ġr anging
ib l
ĠRem ember
ĠC R
d rop
Ġpred ict
Ġre tr
Ġhy per
AR T
ĠCap ital
Ġmind s
M E
Ġcompet itors
ĠW isconsin
Ġcomp rom
Ġglo be
Ġsign ature
en ess
D is
Ġgather ing
Th rough
Ġju ice
Ġpolit ician
ĠK h
ĠO t
Ġsam ples
Ġcamer as
un ct
ĠPer haps
Ġrel ative
Ġpor tr
ĠP A
Ġtit led
J oin
Ġcooper ation
Ġtre m
Ġ3 4
ĠN etherlands
ĠR ights
Ġse vent
ĠTh ings
ĠHistor ic
Ġsc ar
az a
ĠSt aff
ĠD ur
Ġ tons
ĠInd ones
k ing
AT E
ch ing
m outh
Ġpr ime
Ġ3 7
Ġn erv
ult ane
Ġpub lishing
ang ers
ĠPol and
Ġb one
ĠK ansas
Ġautom atic
Ġequival ent
es tr
gh an
Ġco at
Ġtiss ue
ĠMore over
ĠScott ish
Ġal ter
igen ous
Ġw ider
Le ave
o z
ac les
xt h
Ġdr ag
Ġr hyt
ĠEv ents
ĠTrans port
Ġh az
Ġquant ity
Ġb omb
ĠM om
F urther
Ġaccommod ate
Ġpush ed
Ġlo ose
B el
ĠAlex ander
Ġcur riculum
ĠLe vel
Ġs our
Ġcert ificate
Ġfrequ ency
ĠHaw ai
Ġlet ting
s ec
Ġfrequ ent
ĠH a
at ri
Ġhol es
irt ual
ĠC redit
ĠTur key
ĠE state
Ġsoc cer
| |
b ul
Ġrequest ed
Ġprincip al
yc les
20 11
nam ed
d on
Ġinvest ments
Ġman if
se x
Ġoccas ions
Ġsm ell
L ife
Ġas ks
l ook
Ġ tape
ĠQue ens
ĠMel bourne
Ġfin est
os h
m akers
ĠCap tain
Ġcontr acts
Ġshort ly
ub lished
M embers
Ġre ject
ial s
Ġannoun ce
id ae
Ġnuc lear
Gener al
p rint
h ro
us ive
ĠB BC
Ġchar ity
Ġwal ks
6 8
Ġr ib
ash ed
ĠT ool
Not es
Ġst ain
âĢ ³
Ġse gment
Ġ tied
ĠLe ave
Ġlo op
Ġvi nt
Ġc ro
Ġv ine
Ġpolit icians
ĠMar sh
ac ious
ab ling
re ct
Ġl ens
Ġform ula
em et
ag ra
Ġcontain er
Ġref uge
Ġhar vest
Ġproduc es
ol s
Ġfund ra
ot ing
Ġclass ical
al ian
ĠO wn
Ġcomple ment
Ġrepresent ing
Ġfollow ers
Ġc her
ĠSt one
Ġcelebr ated
Ġarrest ed
ist a
C re
ĠCh ap
Ġfulf ill
ent h
an na
ĠM ission
Ġoppos ition
Ġd ancing
Ġhot els
Ġaim ed
Ġcollect ive
B et
ĠP S
A v
ur se
Ġc rown
Ġphys ically
u to
ĠProv ince
ĠIndian a
Ġun iverse
Ġqu e
ĠWord Press
Ġinsp ection
M od
Ġst ability
el ve
Ġengine ers
re ts
ĠEmp loy
Ġob lig
ors hip
Ġtro ops
un es
Ġsubsequ ent
ĠP DF
ĠMet hod
Ġ ax
Ġh ired
ol id
Ġinst antly
for ward
Ġal umin
it ement
Ġs orry
Ġfol k
Ġmen tor
ĠAd vis
i ac
Ġin hab
Ġdecl ared
ĠB ir
ĠR oss
ond er
Ġten nis
Ġab und
ĠAnt on
ok ed
Ġsc oring
ĠP ain
Ġs an
Ġsleep ing
ĠK i
Ġdiscuss ions
ĠH al
IN E
ĠA ge
Ġi P
Ġchron ic
Ġâ Ĥ¬
ĠF ollowing
od a
ĠD I
ich e
Ġefficient ly
Ġv ice
N ational
ĠS at
Ġcap tain
6 4
Ġp uzz
thr ough
n cess
ĠC ub
Ġbehav iour
7 2
ĠA ction
ĠE sp
Ġarg ument
Ġm ild
Ġh ill
Ġpick ing
ĠSe attle
qu ire
Ġper f
ĠPol it
Ġd ipl
w er
ĠJ ava
Ġbr id
te es
Ġpoint ed
ĠD ance
ĠC amer
Ġaccount ing
L S
Ġmir ror
ĠR aj
Ġpub lish
ud es
ĠR out
olog ists
Ġp ip
li x
Ġcut s
Ġd irt
Pl ay
ĠEvery thing
Ġel der
Ġsc rew
ĠJ ordan
Ġrele ases
L O
Ġcook ies
Ġcan cel
Ġnut ri
ag an
ĠG row
z ech
Ġk illing
Ġproduc ers
ĠF le
Ġp add
ef its
ĠAP I
over ty
i ner
ĠJ am
Ġpregn ancy
P N
ĠN ations
Ġsit uated
Ġconven ience
Ġref ers
ĠAtl anta
Ġh ockey
Ġnarr ative
Ġf alse
ick ing
uc tural
i ate
Ġchurch es
Ġb att
is er
empl oy
Ġacc ord
Ġrepresent ation
Ġb aking
Ġle af
H aving
Ġer rors
ĠCast le
ĠF inal
ĠAtl antic
ĠMal ays
h eater
ĠRes ources
iz z
ĠJ ay
Ġ1 000
Ġrep ly
Ġvent ure
ĠIs lands
am ic
l an
ab il
Ġalle ged
ĠC S
Ġc odes
Ġhear ts
Ġw aves
Ġsome how
Ġh ell
Ġf ingers
s ized
Ġwork out
m ers
d am
D ay
Ġleg it
Ġdang er
Ġs orts
G E
Ġeas tern
Ġhost s
Ġspecial ists
Ġcontribut ed
Ġres erve
Ġelimin ate
ĠMod ern
ĠD aily
Ġpoll ut
Ġland ing
ch ain
ĠWh it
ĠN ame
ĠAm ong
f ish
Ġfew er
Ġprom pt
ĠLew is
Ġsubstant ial
d s
v ia
Ġ( @
Ġcont ained
T ime
Ġsh irt
ĠL A
A ct
Ġvulner able
ew here
ĠPr om
g ener
lim ited
Ġmechan ical
Ġsurf aces
Ġcon clusion
w orth
ĠBu y
Chr ist
n ish
Ġhome own
Ġconvent ional
Ġb io
Ġimp ressed
nc y
ant i
olit an
ĠJ ane
Ġtr ies
Ġsubsequ ently
ĠJ un
Ġhad n
Ġextra ordinary
B usiness
Ġclick ing
m ates
l ah
h eim
Ġper ce
Ġpub l
an ches
Ġflo ors
um ental
Ġpost ing
ĠSof tware
Ġilleg al
Ġev il
Ġwor ried
Ġcert ification
Ġsop hist
ang ed
ĠMar ia
Ġed it
l usion
ĠC ome
ik a
ĠAd vent
ĠF C
n st
Ġroll ing
g al
ness ee
ĠPremi er
Ġdef eat
Ġvint age
Ġsur ge
ĠFurther more
Ġpleas ant
imi nation
Ġto ys
Ġtrans lation
aw are
ĠN FL
Ġen orm
Ġhun ting
ĠA ug
d is
Ġpar alle
hi er
Ġr ou
Ġsec tors
Ad vert
Ġtarget ed
Ġ198 3
Ġtow er
og en
Ġstr ive
Ġgro cer
Ġemer ging
t heater
k es
ad er
Ġdemonstr ate
au x
Ġdes tr
Ġpark s
Ġord inary
Ġs anc
emet ery
ĠH ind
S pe
Ġrepe at
ĠReg ional
c or
Ġw are
f ather
Ä ĩ
Ġleg acy
Ġconvers ion
ĠE xt
un ity
to red
ĠF riends
Ġinsp ire
P ar
Ap p
ĠD ead
Ġsw ing
Ġsupp liers
ĠExper ience
ĠCo ach
Ġout fit
on ze
Ad dition
Ġfr uits
ĠH as
Ġaud iences
S ource
Ġ198 2
M en
Ġdon ations
Ġacknow led
Ġor al
Ġdisc overy
Ġdri ves
Ġfinanc ing
L ab
Ġw ing
ĠMan chester
ĠMex ican
L og
is l
ath on
Ġnerv ous
y es
Ġnot able
ĠC her
P ersonal
Ġgather ed
Ġm aps
P op
Ġpromot ed
Ġ5 5
e a
Ġcent uries
n f
um er
Ġrelax ed
Ġun com
ĠCons ider
a ith
Ġin ch
ĠPlan ning
ĠReg ion
Ġdesign ated
Ġcraf ts
Ġsustain ability
Ġwar ning
Ġexc itement
ĠB aby
c end
Ġsure ly
ĠD u
Ġlast ing
Ġacc um
r at
Ġmo on
w ho
c ine
ĠI owa
Ġdispl ays
Ġs ne
ĠV ar
ĠCol lection
Ġfr aud
ĠH old
AN D
G O
Ġaccompan ied
ĠT owns
Ġsto ps
ĠInd ustry
R et
9 6
i ot
Ġtarget s
Ġob st
c asts
Ġr um
Ġsim ultane
C al
S ports
Ġdecre ase
l ass
Ġgr ace
Ġs id
m ans
Ġprinc iple
n ance
ore t
Ġrob ust
Ġdes erve
ĠP ersonal
Ġgen re
it ting
ĠF low
Ġl on
Ġec osystem
min ute
Ġcustom ized
ĠQ uality
ĠPh D
ĠH ills
Ġthorough ly
Ġs ke
iv a
Ġconsult ing
ac ent
Ġin duc
as ion
ĠB ry
ĠPri ze
Ġsequ ence
ĠD O
Ġ197 9
ĠTur k
m onth
Ġoutdo ors
al ia
ĠH ur
ĠRep ly
Ġdon ation
Ġprec ious
Ġloss es
. '
Ġcar ing
ĠAs k
cep tions
Ġmunicip al
Ġ theater
Ġfit ting
lec ts
pi ece
Ġcr ack
Ġproduct ive
Ġcirc uit
ĠPat rick
ou b
Ġbacter ia
ĠAr gent
Ġl aser
Ġdirec tions
inc ol
Ġass embly
Ġmed ication
r un
Ġp ione
Ġb ub
w orld
Ġre bu
umb ing
Ġcon vert
Ġj unior
ro it
Ġto ler
ĠE t
Ġnetwork ing
cri be
Ġcompens ation
ĠIn nov
M O
ch o
Ġutil izing
Ġun like
Ġd ies
se ason
Ġrespons es
Ġsp an
ĠS ite
Ġvot es
Bl ack
ĠR oy
Ġw rest
Reply Delete
ĠMO RE
ol t
Dav id
ĠAnn ual
S outh
ch i
Ġd uties
ol k
f ire
Ġmi ning
Ġguarant eed
Ġbo ot
Ġbel t
Ġ tum
t une
Ġinc ent
Ġexpand ing
Ġremov ing
Ġp ic
Ġang le
Ġremark able
Ġnew est
Ġend less
ĠK ids
c omm
Ġrepresent atives
Ġdifficult ies
Ġd il
Ġpublic ations
ab ri
Ġ2 50
Ġcur ious
b acks
Ġ: )
Ġbal anced
Ġappear ances
ĠM s
Ġste am
Ġintegr ity
ĠD VD
ĠW y
Ġf lip
Ġpract ition
Ġlyr ics
ĠT alk
Ġrat io
sc ale
Ġdet ect
ĠChan ge
D P
Ġthink s
] .
Ġpl acing
Ġst ir
ĠD ream
Ġscore s
ĠC ape
Ġcred its
C L
ĠS elf
200 9
ĠP ict
Ġl ou
ĠB a
K ey
Ġstr uck
Ġincor porate
ĠJos h
Ġbur ning
M et
Ġwis dom
ĠEx press
ĠM ap
Ġsubs cription
C all
Ġpro port
ĠProduc t
ĠE c
on ly
now ned
Ġeval uate
ĠD or
Care er
Ġview ing
Ġrank ed
Ġwild life
U M
Ġmoist ure
Ġ !
ĠJ unior
Ġemploy er
Ġwell ness
Ġsome body
ĠÂ ·
ĠB ed
Ġarrang ements
Ġex terior
Us ing
Ġexpl o
win ning
P res
C or
B i
P al
bre ak
ĠMiss ouri
it r
P at
w hat
Ġn ic
ĠE ag
ES S
Ġappreci ated
Ġ19 30
Fi nally
gr ade
ĠK elly
ail ing
Ġb es
Ġoccasion ally
d ri
Ġdirec tors
let te
c m
ch arge
ĠE arly
ĠG olf
Ġgard ens
ĠMary land
Ġconfig uration
Ġrel ation
ĠAll en
Ġbank ing
tom ach
Ġexpl os
Ġ3 9
Ġ4 2
ĠAu tom
ĠJ ason
Ġart ificial
Ġtrem end
Ġ1 20
Ġd ash
ul ator
Ġfil ed
ĠTy pe
Ġoverwhel ming
Ġsh ell
Ġinvolve ment
ĠG il
ĠG un
ĠM un
s k
Ġmo lec
Ġdevelop ments
Ġfascin ating
Ġres tore
ĠH im
Å į
8 6
ĠMon ey
Ġ6 4
ĠAssist ant
7 3
E duc
ĠAnd erson
Ġm ath
iz ations
Ġfacilit ate
Ġke en
ĠR ap
Ġarrang ed
ĠDown load
Ġoil s
Ġhope fully
mm a
Ġequ ity
j ection
Ġaddress es
Ġdoll ar
Ġ197 2
ĠRo ber
ĠS port
B o
Ġven ues
Ġest imate
ĠFr ont
ail ed
ĠN ature
ĠLe on
Ġun n
Ġfor um
7 4
ĠSim on
ĠA gr
ut her
u ates
I ST
Ġcom ic
ĠGr ant
Ġch ecks
Ġ tension
Ġsmart phone
so le
W orld
Ġw ard
p ot
Ġsent ence
7 1
Ġgu ides
Ġg ay
Ġtrans mission
Ġp ushing
r aft
Ġwh eels
Ġad mitted
Ġg ummies
Ġ198 1
C ho
Ġhor ror
ny l
Ġex ch
ĠT able
N S
ail and
200 8
Ġrough ly
d ale
Ġopin ions
Ġreg ards
els on
Ġton ight
Ġsub tle
Ġwork er
B ar
Ġin fect
Ġch ips
ĠP ier
Ġwish es
ĠC hen
__ __
D espite
Ġmemor able
b ound
ĠDoc tor
ĠSwed en
Ġresc ue
Ġemphas is
i nations
Categ ories
ĠCas ino
Ġh o
Ġcar pet
Ġcult ures
ĠI V
ce eds
Ġfranch ise
ĠPol ish
ĠCo oper
Ġwrit es
ĠM ove
ab ama
ĠMar g
Ã Ĺ
ou ver
ĠH ous
Ġ {
ab s
Ġstat ements
Ġch ef
ĠFin ance
ĠOb ama
Ġch op
Ġvibr ant
all ow
rop h
ak h
Ġfind ings
Ġan ch
ĠCon struction
ĠTen nessee
ĠH R
ĠD allas
Ġinflu enced
g iving
ades h
Ġchemical s
ĠâĢ Ŀ
Ġmod ule
Ġflu id
Ġdram atic
Ġun cle
lah oma
Ġhis tori
o a
ĠEn joy
ĠMatt hew
ĠAn ne
Ġcon j
Ġb id
Ġ els
Ġfle et
ĠC ulture
Ġrelax ing
AC T
if ier
ĠCon n
ĠWork ing
Ġd rove
Ġcouns el
Ġg reet
ĠH op
Ġ194 0
ask et
il er
int end
Des cription
Ġun h
iffer ent
ĠH u
Ġ197 6
pl ed
ĠAff airs
w as
Ġre treat
Ġdial ogue
Ġclin ic
Ġfab ulous
Ġpersonal ized
Ġicon ic
ĠN ap
Ġwhere as
Ġrespons ibilities
Ġrec on
Ġro yal
air y
Ġaddress ed
Ġansw ered
e ven
ĠM ade
Ġwas hing
Ġ197 8
ĠProduc ts
ĠLa ure
Ġmusic ian
ĠO R
ĠT ips
Ġcons ervation
ĠMod el
ĠW H
ĠT ogether
ig ure
ĠUn c
Ġcos m
8 5
ĠH om
Ġover view
ĠRev olution
Ġser vers
Ġsk et
Ġoper ates
Ġview ed
A ustr
D I
8 00
ret t
Ġcur rency
t ube
Ġi OS
Ġtrail er
l on
4 00
Ġimp lic
ĠN ic
Ġut ility
Ġn ations
Ġpregn ant
ĠB ody
ure au
D C
itz erland
Ġb ind
ĠAt hlet
Ġter min
Ġres ume
to x
az ed
Ġ19 20
Ġimp acts
W H
Ġvend ors
Ġcontr actor
Ġdes per
eth eless
Ġen forcement
old s
Ġpro tec
Ġman ip
ĠSchool s
Ġtr i
Ġbr ick
Ġgovern ments
av i
Ġmag ical
D ep
ĠM onth
is ely
Ġh orm
ĠCl ark
F ollowing
Ġtele phone
v ard
ĠH appy
ĠP RO
xy gen
S et
Ġhand y
ĠSy mp
are st
ĠN ob
ĠG i
sc reen
ay ed
h irty
C han
ĠO K
uct ive
af ted
be an
Pre vious
Ġachie ving
t hirty
W rit
est one
az ines
Ġgrad ually
Ġencour aging
Ġsp are
ĠChan nel
Ġg rey
ugg ed
ĠL LC
Ġemploy ers
amil ton
Ġal ike
Ġfant asy
Ġre ferences
Ġad min
Ġen abled
Ġbound aries
P P
Ġhy brid
ur er
ĠFe b
Ġentreprene ur
Ġexam ine
ist ent
Ġaccur acy
r ist
Ġbreat hing
% )
Ġinter actions
Ġass emb
ul i
Ġspect acular
Ġdifferent ly
ĠPer formance
Ġagric ultural
ĠArch itect
ĠGirl s
Ġbo ats
Ġels ewhere
Ġaccompl ished
onom y
u v
Ġ196 8
Ġexecut ion
Ġmechan ism
ĠCho ose
Ġwind s
Ġmatch ing
ĠB lo
Ġconsider able
Ġcount less
Ġs ons
off s
uss ion
ĠC hat
ĠSt adium
Ġterri ble
Ġcour ts
Ġ197 5
Ġpass engers
to ps
ĠD uke
Ġli p
ĠD NA
ĠUS B
ĠAr k
Ġp unch
Ġodd s
Ġpro test
ĠS H
ĠCam bridge
iat ric
writ ing
anc ouver
Ġb ic
N C
augh ters
Ġann oy
Ġcomp assion
ĠF uture
ĠW W
Ġrestor ation
Ġpen al
Ġc aut
Y ear
Ġcompl iment
Ġimp l
Ġc ensus
Ġs tomach
ĠH art
Ġexcell ence
Ġrout es
Ġbeautiful ly
Ġdis aster
Ġcr icket
om ed
S ign
og nis
m other
ĠT oy
ish ment
Ġdepart ments
ĠD er
Ġarrang ement
Re view
ĠG ive
Ġd ual
Ġbr anches
Ġ4 9
Ġtour ist
Ġweap on
Ġsu its
Ġtour ism
Ġvers us
ĠW olf
ol ves
Ġtack le
Ġde leg
ĠTem ple
Ġ4 4
Ġexami nation
Ġm m
ĠN umber
ĠPri or
% ,
Ġscen ario
Ġcon vey
ord on
Ġal arm
ĠPro tection
Ġinter s
ĠM as
ĠLit er
T P
Ġbuy er
Ġassoci ate
Ġmult ip
Ġcap s
t hro
ar o
re ach
en ix
ĠB ird
D ef
f unction
Ġ197 4
Ġce iling
ĠT ree
Ġtr ails
ĠL em
Ġtem ple
Ġbab ies
row se
Ġp overty
S earch
Ġmed itation
ĠCor ps
Ġqual ities
p ri
Ġrub ber
ĠB ot
arm a
Ġprotect ing
Ġbe gun
ĠTr ade
ĠC hem
ar ia
Ġfem ales
Ġcabi net
ĠL yn
Ġmar ine
est ing
ĠðŁ Ļ
Ġref used
Ġind icated
Ġaccommod ation
ĠKent ucky
Ð ½
200 7
Ġimm ers
Ġindepend ence
Ġprec ise
Ġ thirty
Ġse al
ĠR ain
id t
Ġinsp iring
Ġe ager
ĠEnter tainment
ĠL O
Ġm ad
ĠCh amber
ĠE sc
ĠAnt hony
Ġexclus ively
d isc
re p
per or
Ġgr at
i as
Ġb other
id en
Ġbur ied
ĠAl ong
ph a
Ġd ive
ĠO w
Ġeduc ated
Ġb ull
m ind
Ġj e
Ġapp lies
ĠHigh way
Ġbare ly
ĠI ron
Ġb ug
Ġres olve
Ġsi n
ĠHer itage
ĠComp et
Ġintellect ual
Ġh iking
ng e
Ġoper ators
ĠK it
Ġoptim al
ell ite
f its
we ek
Ġhit ting
T R
Ġcompet itions
V I
Ġconver ted
Ġre wards
d ef
ĠS ac
Ġsubst ance
B M
B rit
Ġdec line
ĠS hip
c ow
ag u
ĠStud y
ĠPhilipp ines
Ġgener ous
b ot
Ġvill ages
il ty
g ie
er k
com merce
ĠM D
ag ger
Ġresp ective
Ġed ges
ĠSwed ish
Ġintim ate
ĠR ol
ĠL incol
Ġacquis ition
Ġabs ence
Ġh a
Ġcont acts
Ġdesk top
Ġis lands
Ġdistr icts
ĠY ears
Ġimm une
ĠMi x
ang el
ĠRel ations
Ġr ust
ig a
ĠS ex
ĠP ho
st s
Ġlow est
Ġnurs ing
Ġter minal
Ġoper ator
Ġexp ense
ĠH ub
Ġend e
Ġvert ical
Ġ197 7
Ġmotiv ation
Ġloc ks
ĠDe ath
up id
ful ness
ĠP ow
sh e
Ġgri p
Ġaest hetic
ĠTok yo
ĠB esides
ĠP or
Ġp izza
ĠE le
Ġ tune
ĠC zech
Ġk iss
ĠC L
Ġvo ices
ĠC ateg
Ġattemp ted
Ġenhan ced
Ġenorm ous
A uthor
Ġconcentr ation
ĠChall enge
Ġmy ster
Ġapp et
Ġsty lish
Ġsh ade
do or
f lix
Ġin quir
Ġfi ber
A nt
Ġpre ced
ĠGre ece
Ġ197 3
m od
Ġg ig
Ġ tube
on ut
N et
Ġindic ates
Ġgun s
Ġlaw yers
ĠM ov
ol o
Ġshel ter
Ġcan nabis
ĠStand ard
Ġabandon ed
Ġgu ided
Ġs emin
Ġdel ivers
Ġkey board
Ġhe al
Ġpro hib
Ġf ought
Ġutil ized
ĠN C
' '
ri x
Ñ Ģ
c ycle
cri bed
Ġ196 9
Ġhospit als
ot y
ĠL ess
ent er
ĠC ON
ĠB uff
Ġback up
en na
d ated
osp el
ĠI de
ĠM uch
Ġgrow s
H ello
D id
Ġnov els
Ġadv ise
Ġtradition s
ĠInt egr
ip ping
Ġpres erve
Ġh ence
t hod
es y
Ġclim b
ĠW ould
m aker
Ġsurv ived
Ġg al
H L
f ers
fort able
Ġtempl ate
ĠP il
t ong
Des ign
Ġsumm ary
ĠN ik
ĠK al
Ġp our
Ġdiagnos is
L ooking
ĠDon ald
h ill
Ġmod ified
ĠR ick
ol as
Ġrec all
ĠB rew
Ġre hab
Ġh ub
Ġdivor ce
Ġaff ects
t atto
On line
S W
z o
ĠS om
ĠMar ine
ĠCreat ive
Ġkne e
it ual
e art
Ġorgan ize
Ġse lecting
Ġphr ase
Ġdism iss
ĠR ound
ĠHarr is
Ġwire less
ĠAl abama
ro ck
Ġlaw n
F O
ĠF ederation
Ġm art
Ġvers atile
Ġlike wise
ĠPe ace
8 9
amp ton
; "
t ender
ĠS ri
ĠP ed
L ove
ax y
ĠD om
ĠTh ailand
Ġs oup
Un iversity
Ġshow case
Ġexplan ation
Ġdur ation
ĠF ive
Ġover night
Ġex ec
ey ond
b et
Ġstake holders
/ /
Ġautom ated
m ith
Ġannoun cement
ie val
ad ays
p ack
Ġprov inc
Ġ197 1
Ġarchitect ural
Ġwi nes
Ġsusp ect
ash es
Ġass ured
Ġch airs
ĠB ear
t ale
b ass
n ost
ob e
S ocial
ĠM and
P aul
Ġc ous
nt il
Ġem issions
ĠBre ak
U ST
w all
200 6
Ġche aper
Ġprof its
ows hip
Ġj ur
A g
Ġsec ured
u um
Ġhard ly
Ġear s
ĠCle an
ĠUt ah
Ġan gr
Bl og
ipp i
Ġem bed
i nf
av ity
ĠOff icial
GB T
Ġfound ing
Im age
om as
n ia
Ġvot ed
ĠB us
lus ive
ĠT el
ĠP od
ĠDe an
ĠSw itzerland
c alled
ĠCus tomer
Ġbul k
Ġ tatto
Ġass ault
H ey
p a
ate ur
ok es
iv ities
Ġrespond ed
li est
lot te
ĠCont i
Ġrhyt hm
Ġd ensity
6 9
Ġtail ored
Ġcook ed
ĠP ick
h ot
c ard
Ġdi abetes
h ome
Ġobs erve
Ġsp ir
Ġ tang
Ġround s
Ġconsult ant
app er
Ġmy stery
l anguage
Ġimag ination
Ġbott les
P ublic
Ġview ers
IV E
T HE
Ġchar ts
Ġspok en
ather ine
Ġm ature
Ġm it
Ġscholars hip
Ġle an
Ġpre st
Ġsophist icated
P ay
Ġnews letter
Ġd ys
Ġch a
Ġbelief s
ĠAl liance
Ġb oun
F l
Â Ń
ĠG all
c ure
ĠK han
T ER
Ġball s
Ġded ication
ĠR ot
b ird
ĠAuthor ity
os ure
Ġchar ging
Ġentertain ing
Ġsi xth
Ġpos it
ĠB h
U C
Ġlab els
Ñ Ĥ
H P
Ġre nowned
Ġstr uctural
ĠOk lahoma
Ġs its
est y
Ġcompos er
Ġincorpor ated
Ġreduc es
ĠReview s
ĠB B
Ġcool ing
Ġtim ely
Ġloc ate
it ative
ĠCour se
Ġro cks
Op en
Ġbeach es
Ġenhan cement
ĠN az
ĠAnd re
Ġun iform
Ġconf used
Ġmanufact ured
Ġfeed ing
isto l
Ġsurv ival
Ġg onna
Ġvar ied
ĠD ick
Ġle mon
Å ¡
Ġwh is
ial is
Ġprev ention
Ġbe ef
Ġkil omet
ĠI ss
ĠC ow
ess ional
Ġcup s
Ġjournal ist
ĠK ind
ĠFore ign
elf are
Ġdelight ed
pr ises
ach ed
Ġwhere ver
Ġcontinu ously
V ideo
Ġbre ed
ap olis
Ġcommun ic
Ġat h
C P
Ġin ev
Ġst eep
t ags
ĠP oly
Ġg ang
Ġw ise
Ġvac ci
rop olitan
Ġfold er
Ġ tender
um my
Ġaltern atives
ĠJew s
Ġf ake
Ġreal istic
j u
Ġsc rap
br a
St ar
ĠV ers
el and
Ġcor onavirus
ĠMo ore
en to
E v
ĠP ear
ĠDet roit
Ġtw elve
Ġh ills
ĠEm ail
h ard
Ġliter ary
L o
ĠI ll
Ġprocess ed
Ġ( $
Ġtr ains
Ġpsych ological
Ġautom ation
Ġcollec ting
Ġret ro
Ġtr ucks
Ġpri nts
Ġ196 7
ĠMe an
Ð ²
Ġgr id
Ġpower ed
m us
nam ents
Ġdef ensive
ant e
Ġre act
Ġneut ral
ĠR h
Ġcont ents
f e
igh ters
M o
ĠE dition
Ġarr ange
Ġneigh bour
ĠAf ghan
ed In
ĠC ount
Ġat tain
Ġadvent ures
ĠPri nt
ĠGr ad
Ġport al
ĠD ays
Ġstraight forward
Ġrec ognis
iss a
lin ary
im onial
Ġqual ify
Ġembr ace
ĠSp ot
Ġsh aped
E m
Ġadop tion
Ġinstruc tor
ĠF REE
Ġcollabor ative
Ġmotiv ated
ĠB ased
av al
Ġaccom pany
Ġrepl acing
ĠE nt
em a
Ġdis order
Ġvac cine
Ġb eds
ĠWrit ing
Ġex it
Ġsole ly
Ġcomp act
Ġshe ets
enn ifer
Ġol ive
net t
v o
Ġd ear
Ġcour age
n as
Ġwork force
ĠB ag
ĠS ix
enc er
ĠSt ew
n ite
Ġdon ated
Ġcare ers
Ġg ently
Ġsp o
Ġload ed
ist ance
Ġsh orter
lik ely
ĠB achelor
Ġwid t
Ġgar lic
Ġparalle l
Ex per
ĠCh apter
Ġ9 9
Ġdisc l
Ġfa ult
edd ings
ĠP a
Ġ194 5
v ens
r ont
Ġs ust
ĠH amilton
ĠMay or
ĠRail way
Ġblog s
ĠPl aces
Ġvot ing
Ġimplement ing
EC T
ĠB eck
ĠN AS
Ġadap ted
ĠV ancouver
Ġsy nd
ĠAn na
Ġoverse as
Ġout er
ĠD omin
Ġneighb ors
pos ition
ĠC ut
Ġacc used
ĠC ore
Ġan ces
Ġpurch ases
ĠS everal
Ġdemonstr ated
ĠF er
Ġparam eters
Ġcap ability
Ġhand led
Ġcompet ing
w estern
t ire
ĠB ishop
ĠS now
ĠA B
Ġ6 00
omi nation
k ind
Ġvar ieties
ĠN ative
M I
t ears
Ġbel oved
Ġspeak s
Ġsimultane ously
et ry
Ġmeas ured
Ġclim bing
K E
Ġcar ries
Ġ tong
P L
ĠLead ership
Ġrel ating
AL L
e ath
Ġcle ans
Ġpar ad
Ġreve als
f ly
Ġdrop s
Ġfund ed
es a
h rown
ĠL u
ĠMor gan
Ġf oster
an try
ĠN O
as hi
Ġrank ing
Ġbe ans
ĠFor um
t hrown
D oes
x id
Ġp ipe
ĠJ u
il itation
ĠBow l
Ġexpl oration
Com ments
Ġtour ists
Ġan ger
Ġsuppor ters
Ġval ley
on ing
t ast
Ġspec trum
ri p
Ġextr act
Ġn om
gi um
gu ard
atch ing
Advert isement
Ġl ung
af ts
Ġdepend ent
ĠMc K
ĠR ow
Ġcompat ible
it ects
Ġshow c
ed ral
ĠChair man
ĠSw iss
Ġhousehold s
Ġknowledge able
Ġdo zen
is ure
W est
inc tion
ã ĥ
Ġst em
ĠHow ard
Ġst ones
Ġ tears
ĠðŁĻ Ĥ
act ic
b ally
Ġhead quarters
Ġsepar ated
Intern ational
Ġo xygen
D em
Ġpass enger
ĠBet ter
ur ious
ĠSh are
im ens
Ġw ings
ĠB ush
se a
ĠS ab
Ġann ually
Ġgr an
Ġdis orders
IC E
ĠPort land
Ġtra uma
Ġsh ore
Ġpain ful
Ġmor al
Cl ass
Ġaggress ive
Ġear ning
r ad
Ġphotograp h
Ġattend ance
g ree
ell i
Ġadequ ate
Ġp ig
Ġsupp lier
be at
i ology
Ġbatter ies
IG H
Ġthreat s
e ves
Ġprec isely
ap se
ĠS D
Ġm ales
t ear
ar c
Ġsupp lied
Ġharm ful
Ġunder lying
g ame
pl ing
Ġreview ed
Ġ tast
Ġadv ised
Ġmas ks
Ġrefr iger
ĠAl f
Ġtrop ical
a uction
ĠU C
ĠLim ited
Ã© e
Ñ ģ
Ġc m
ĠL ic
engt h
us al
Ġforgot ten
Ġre verse
ĠUnc ategorized
b ian
get s
ĠI mm
Ġcoi ns
Ġ196 4
Ġvari able
Ġcontr actors
Mus ic
Ġswe at
Ġb ay
Ġtex ts
im s
Ġaff airs
add y
Ġref lection
Ġtechn ological
ac o
Ġbut tons
Ġachieve ment
st an
Ġhe alt
Ġref resh
Ġ4 6
Ġsl ide
Ġdev oted
ĠR a
lud es
ĠAb b
Be ing
ĠPal est
Ġir rit
Ġcamp ing
ĠN E
ĠComp uter
nation ally
cl aim
Ġv ib
Ġlight weight
ist ed
ag ine
Ġhigh way
er ted
Ġsupple ments
Ġphys ician
other apy
red ited
1 50
Ġfast est
Ġdig est
ĠSur vey
z ens
De velop
ape ut
Ġder ived
ĠEnvironment al
ĠE X
Ġinstall ing
M M
200 5
Ġagric ulture
loy d
Ġsal ary
ĠArt hur
T E
Ġac res
ĠB ab
ĠB ull
Ġwarrant y
ĠClass ic
Ġassign ment
Ġfi red
ĠMo tor
l ad
ĠK y
Ġtrial s
Ġregard ed
ĠComp an
Ġflo oring
Ġsc al
Ġg ut
ĠMiss iss
W omen
ĠAnd y
ĠF alls
Ġnob ody
top her
Ġlo vers
Ġinter nationally
ĠOr ange
ĠPh ill
R P
Ġexhib it
Ġsil ent
Ġc ogn
ic ut
own ed
ibut ion
Ġcelebr ating
Un ited
ĠT s
ĠBl ock
ĠN ut
ens ing
Ġ auction
ĠI ng
âĤ¬ âĦ¢
j an
Ġso ap
ish es
ĠBit coin
M ain
n ote
Ġg low
Ġr ival
Ġsy n
ĠEd i
OU R
ĠV o
Ġg aining
und ry
ond a
ecess ary
ĠY oga
ĠN ich
Ġdr um
Ġoff ensive
ĠSte el
B oth
Ġglass es
Ġs isters
Ġh ack
Ġcompet ed
ĠH ans
ĠPriv ate
ĠS ure
Ġlock ed
Ġprof iles
ĠL anguage
Ġ8 00
uis ine
is hers
ock ets
ĠSim ply
Ġd ess
Ġtrav elling
Ġsymbol s
, âĢĻ
Ġfr ames
ĠA h
Ġcl ar
or ient
Ġapplic able
Ġnomin ated
ĠCar ib
ĠWith i
ĠWithi n
Ġconc luded
ĠV eter
ur i
Ġbo ots
Ġattemp ting
ow een
ĠS uccess
Ġoffer ings
Ġdisc r
Ġ tire
Ġvis ibility
Ġinvestig ate
Ġ Î
hy dr
ĠM erc
Pro v
Ġpl acement
Ġsm oking
Ġd ressed
j ack
itut ional
m aster
ig o
ĠTher apy
T echn
Ġmix ing
Ġangr y
ĠVis it
Ġpr on
ĠF ollow
Ġgu ilty
Ġfl ags
Ġen abling
ĠM aine
Ġrece ives
ĠS ection
Ã Ĥ
ĠO m
ĠJ oy
Ġd ump
Ġ tear
Ġgover nor
ĠZ oom
Ġrob ot
ĠQu ick
Ġrecord ings
Sec ond
Ġkn ife
ĠS O
ĠCol l
ĠCont ent
Ġbonus es
Ġin k
Ġanim ation
Ġ Å
ĠMe eting
Ġprov ision
Ġload s
Ġtw e
Ġprogress ive
ir i
ĠMalays ia
Ġwel coming
ĠD iet
t el
over ed
Ġ196 5
Ġtoile t
Ġd ivers
Ġstead y
Ġestab lishing
w ick
g ement
Ġpo em
Ġapp le
li ances
Ġcast le
it ations
ĠM itch
Ġmin im
h av
Ġst ays
Ġregul atory
Ġres il
at us
Ġref lects
Ġcomplex ity
ĠLincol n
D et
pi n
id ity
Ġfit ted
Ġch ip
ur u
ĠDel hi
ĠU RL
Ġb udd
ib li
Ġr ings
Ġun fortunately
Ġstr ain
Ġcor por
T O
Ġmag azines
Ġsupport ive
ĠPl ant
Ġeffect iveness
em or
Ġgr ain
Ġoccup ied
Ġconvinc ed
ect ives
ĠMos cow
Ġfarm ing
c ements
Ġam en
r u
Ġben eath
ĠNiger ia
an ne
Ġcolle ges
ĠS E
Ġfl ights
Ġbar rel
ĠP aper
ĠAl tern
Ġappreci ation
Ġd ough
Ã ¸
Ġunivers al
ĠG P
ept h
Ġbless ed
Ġanalyt ics
? )
Ġn ick
ach t
a a
Ġsh it
Ġpl ates
Ġ thrown
ĠNor way
al g
le ans
H on
Ġpull ing
Ġstr iking
ĠAL L
Ġtal ents
ur d
Ġintegr ate
Ġst itch
Ġob l
ĠGl ass
m ate
Ġk nit
adition al
omm y
u ana
ĠĊ Ċ
anc ers
um ble
en i
IT Y
Ġc ig
Ġanaly ze
ard less
ann ah
Ġremember ed
ĠE asy
Ġb ite
han a
Ġant ib
Ġsand wich
Ġconst itu
Ġspec ified
t hy
Ġflow s
Ġdes cent
Ġto y
Ġdiscip line
Ġsign als
Ġreg ulation
n ut
ĠT R
ĠN ash
V P
itar ian
ĠEconom ic
ĠTr ack
Ġprom ised
os c
Ã© s
ĠĠĠĠ ĠĠĠĠ
Ġexp ed
Q L
6 7
Ġf emin
Ġsens or
Ġd owns
Ġen cl
ĠIndones ia
if i
Ġhand ful
Ġdiscuss ing
Ġdr ums
Ġexcess ive
Ġsport ing
r ison
Ġident ical
Ġd aughters
ĠBrook lyn
as te
Ġst amp
Ġchair man
al so
em ies
ĠB ureau
Ġfriends hip
ĠDe ep
Ġunder ground
Ġinst ances
Ġas tr
Ġfro zen
W ater
ĠUn like
Ġaccord ance
Ġtrans parent
ĠB uck
Fil ms
ĠUn it
Ġsu ited
ab lished
Ġpresent ations
ĠBr ig
ĠJ i
Ġ0 9
Ġar med
Ġun lock
ĠI ce
Ġpar liament
He alth
ĠMed ic
ĠL iver
ĠR ey
Mich ael
N orth
Ġvot ers
ane an
Ġup set
it tle
Ġ196 6
ĠE aster
ĠL ie
ĠA y
d ie
ĠAl an
ĠUl tim
Ġpre ferences
ch ildren
S U
Ġs lic
Ġtable t
ĠN BA
z i
Ġfil ters
e on
Ġcon ferences
Ġadop t
ĠNot hing
Ġalumin um
Ġco ating
Ġst eal
V A
Ġrep lied
Ġcar p
Ġpost er
atch ed
am an
Ġun likely
n ian
ĠP erson
am ous
Ġtreat s
D irec
ĠConti n
ĠL ane
or p
Ġhe aven
ut ical
Ġany time
Ġf ence
V al
Ġinfl amm
ĠM ort
Cus tom
ĠPhil ip
ĠD iam
â Ĩ
ĠOrgan ization
Ġdistinct ive
Ġsh ield
qu er
Ġh arsh
Ġsh ed
Ġtremend ous
Ġm ouse
Ġtrou bles
ĠComm and
Ġall erg
ĠTh ird
Ġed ited
P ublished
r s
re qu
t ier
ĠD ate
ĠBe at
W i
m issions
Ġpath s
Ġlimit ations
G R
Ġadvoc ate
ĠNet flix
bur n
ĠB E
Ġre ven
Ġhuman ity
Ġcons ent
Ġvess els
ra ig
ĠK ings
Ġsn ap
ĠSpr ings
work ing
Ġreach es
Ġp ants
Ġintellig ent
Ġident ifying
ĠAnton io
Ġsu ite
ard o
Ġsuper b
Ġjack et
gl as
Ġpeace ful
Ġfall en
Ġoverl ook
ĠEx cell
is ode
Ġvari ations
Ġ9 5
Ġwidt h
Ġadd iction
Ġag enda
Ġinvest ed
Ġs uck
Ġmed ications
Ġr itual
Ġdeal er
Ġinhab it
Ġdel icate
Ġrel ate
ĠAgr icult
n ic
ing e
ain ian
ĠPhotograp hy
Ġh i
Ġv on
Ġflav ors
ĠL am
pare ncy
Ġlabor atory
Ġb its
Ġtem por
Ġcolor ful
Ġres erved
Ġgr ants
Ġsatisf y
ĠWalk er
ĠBel ow
ĠIslam ic
ĠF lo
ĠB apt
ĠR O
Ġhand ed
B re
ibu tor
Ġveter an
Spec ial
Ġb und
ĠG ary
Ġv el
Ġb atch
ĠVal ent
Ġrem od
Ġdead line
Ġexecut ed
ĠD ri
Ġcontribut ing
Ġscreen ing
Ġ4 3
Ġen rich
Ġsh oe
iff s
part y
ĠPost s
Ġpenal ty
ĠMag ic
ĠHall oween
ĠS ide
ĠMil itary
w ind
Ġteach es
ĠC rit
Ġ thro
Ġess ence
Ġmount ed
elt a
ch em
id al
ĠS oul
200 4
ch eck
it utes
Ġhes itate
Ġp p
Ġmed ic
Ġn urse
ĠN ation
ĠC os
Ġgrocer y
ograp hical
Ġsh adow
ri ne
form ing
Ġm att
ams ung
ĠBr uce
Ġb ones
m l
Don ald
Ġf ancy
Ġmob ility
Ġsignific ance
Ġsem ester
at ical
Ġfest ivals
ĠJ oin
s uch
Ġ0 8
ĠDen ver
Ġbu ff
Ġinter ns
ĠL ot
ĠCon cer
as ant
9 7
we gian
Ġretail ers
ing le
S y
Ġd ose
Ġlab our
Ġ tale
o to
Ġconf ront
] ,
ĠM ust
Bu y
oust ic
Ġattract ed
Ġcar rier
B ig
Ġ4 1
uten ant
Ġcross ing
F ollow
Ġd irty
Ġstop ping
ad vant
Ġcombi nes
Ġdim ensions
ĠRes erve
Ġent ries
2 50
Ġal ert
Ġg host
K now
iz able
Ġportra it
Ġtreat ing
Ġg ene
t ile
pr ing
C reat
ĠMachi ne
F ull
Ġcy ber
ĠRec ord
mans hip
ĠL ooking
ĠRout e
Ġev olved
Ġev ident
ĠPal ace
C ON
com ed
ace utical
Ġb out
ĺ ħ
Ġseem ingly
ĠRober ts
Ġport able
S ometimes
ie v
Ġtr icks
Ġfig ured
Ġb ump
Ġcar to
ĠE lement
omew ork
Ġacc idents
ick ed
ĠPit ts
Ġexper imental
ĠC ab
ĠT u
oc a
6 00
us ions
all ing
ĠC ase
Ġdri ed
Ġcru ise
ĠH ERE
ĠStud ios
Ġle ak
oth s
Ġm erc
Ġtim ing
Ġinter vention
Ġle ase
ĠV it
Ġform ing
A ir
Ġnutri ents
Ġmunicip ality
Ġshould ers
ĠP os
Ġar c
ĠF ab
Ġover s
ĠF L
ĠBet ween
ĠG ene
p ting
Ġbe ings
Ġattack ed
tim ore
Ġfre el
Ġcop per
H z
ĠLouis iana
ĠLin ux
IL L
ĠM asters
h aw
ĠBr un
U D
Ġres tored
Ġcompan ion
Ġbuild s
ĠTurk ish
ij uana
Ġbr onze
Ġpe er
Ġgen etic
ĠJ azz
Ġtransform ed
ul us
ĠPer fect
Ġ5 2
ivid ually
Ġdec iding
Ġtravel ed
Ġroll ed
Ġvi nyl
ĠS ource
ap h
eff ective
ĠA ut
Ġli ps
at ar
ĠIsra eli
ick ets
Ġstep ped
Ġpat ience
em es
Ġweak ness
ĠTr ain
rup ted
Ġdes ert
Ġafter wards
Ġign ore
ĠF ine
Ġconsist ing
ĠT ower
-- --
L ook
C ap
s hine
S H
Ġfoot age
ĠA ns
Ġattr actions
Ġ ties
Ġc af
Ġhonest ly
ĠSpe ed
Ġcross ed
ĠC and
Ġexpect ing
Ġclean ed
ĠL E
Ġbrief ly
sh op
or er
ĠPe ak
Ġemer ged
Ġpresident ial
ĠF I
Ġcons ecutive
Ġany body
ĠCommun ications
ĠAp pro
ĠChar lie
w w
Ġrequ iring
ĠCur rently
Ġpass age
ting s
Ġw ax
ĠArt icle
qu es
ĠA ch
os i
Ġprof ound
Ġgrad es
Ġcreat ures
Ġapproach ed
ĠInt ellig
Ġcan vas
em ail
ĠV irtual
Ġche er
Ġspons ored
M il
Ġass umed
Ġdraw ings
ĠCom ple
ĠUr ban
Ġpresent ing
ĠD ak
Ġh al
ĠA qu
ir able
Ġpract icing
cel ona
Ġrestr icted
t hesis
Ġr ivers
h el
Ġwr apped
ĠB os
Ġh unt
tr ans
ĠE D
ab ad
Ġpartners hips
Ġl ying
ĠYOU R
P D
ĠAl ways
to gether
Ġinc om
ĠRest aur
is an
qu et
S L
Ġuncom fortable
ĠG ordon
Ġbrand ing
Ġr anges
Ġo k
Ġst adium
Ġinc lusion
as i
it err
Ġ3 60
ne ath
ĠTai wan
Chr is
Ġlog i
yt hon
eli hood
ec es
ist ical
P ol
Ġc ord
Ġinter pre
Ġsacr if
Ġmet ab
Ġalgorith m
Ġlogi n
J ul
Ġlegend ary
Ġd up
dri ven
Ġcy cl
g ments
ĠCarib bean
Ġd rew
Ġwork flow
Ġback ing
Ġvess el
li ning
S k
A ng
ĠK er
Ġsh ine
Ġf ool
Cre ate
Ġprom ises
Ġadj acent
Ġprogram mes
ĠL ib
Ġ0 1
ĠAdv anced
g ate
ĠSe lect
ens ively
Ġmeasure ment
Ġoppon ent
ew s
ĠChar lotte
Ġin aug
u ity
ĠC ash
Ġback ed
Ġcommission ed
ĠB ath
enn ial
Ġappeal ing
im m
ĠO bs
Ġdisappoint ed
Ġfore cast
od ed
Ġli ability
6 3
om atic
ĠS M
Ġbas ics
Ġident ification
Ġmet res
Ġinflu ences
Ph il
ĠS ad
Ġhum or
om y
Ġrecip ient
H y
Ġad or
ĠPrinc ip
Ġm akers
Ġad mission
Ġr ated
Ġdemand ing
an z
onom ic
ĠIn v
ĠH ell
Ġn ail
Ġh ike
ĠUS D
ĠOr leans
igi nally
Bu ild
Q U
9 2
ĠG ro
ĠCo le
arr ass
uro pe
Ġdev ast
Ġl over
ĠC ancer
Ġlog ic
ĠJac ob
Ġbr ide
Ġen emies
ĠHar vard
op es
Ġseason al
ĠSt re
ĠIn n
ĠNe v
ĠH ugh
? !
ĠS A
Ġthrow ing
Ġdiam eter
Ġdig it
ar ound
Ġdo zens
Ġdem o
6 2
E mp
s up
Ġmyt h
Ġeas iest
ic ting
ill ery
ĠPract ice
Ġspecial ty
Ġappoint ments
L i
ĠProper ty
Ġ thesis
Ġmarket place
ĠAd ams
Ġmax imize
ess ed
Ã £
Ġam pl
ĠS el
Ġsp ouse
i ance
Ġcrypto cur
Ġstain less
ĠD E
Pri v
ordi nation
Ġep ic
8 7
Ġb ust
ic on
Ġcoast al
Ġstart up
ĠK am
ĠGr ace
p en
Å Ĥ
om er
Ġcost ly
yc led
Ġcontain ers
ari os
Ġfac ial
Ġcl arity
ĠP ath
vel and
ĠS top
Ġfo am
Ġfootball er
Ġcol ored
ĠCom mercial
p ay
Ġster e
ac c
Ġhom eless
row ing
ĠC a
ĠT am
Ġgrad uation
v et
Brit ish
and ra
id o
nis hing
Ġ196 3
Ġprosp ects
Ġorgan ised
Ġd ying
ĠAl aska
ĠiP ad
Ġinterpret ation
ater al
Ġbi n
ĠG ate
ĠD ad
U K
u ins
Ġaffili ate
ĠL GBT
st e
ĠAppl ication
ĠTh ai
ĠMississ ippi
ĠF ast
t ends
Ġrad ical
ĠIndustr ial
d em
Ġref lected
ĠConnect icut
d ers
ĠCre ate
ĠDub lin
S ur
Ġswe ep
ĠAustr ia
B L
W atch
Ġper ception
Ar ch
ĠC C
Ġanim ated
Ġpe ers
Ġwel comed
ĠF ly
Ġremind er
Ġremind ed
ĠE N
Ġag ing
ĠSt ay
Ġsp ell
ĠDub ai
Ġpossess ion
Ġsc ream
medi ate
Ġref res
ĠPho enix
ĠEx change
Ġjud ges
ĠDI Y
Ġbet s
g ical
Ġmut ual
F S
6 1
R ich
Ġrom ance
Ġper mitted
li ver
Ġ( âĢľ
ast ics
le e
Ġsc roll
Ġprior it
Ġpri zes
CA A
H ead
Ġdes ires
9 4
Ġ %
u ese
Ġl ighter
ĠHawai i
200 3
ĠT ro
ĠR ab
ec tors
ment ed
Ġ194 4
ĠM aking
ĠTechn ical
Ġint ensity
Ġpur ple
Ġc ycling
Ġ196 2
ĠCat al
B ased
Ġ8 5
Ġsal ad
Ġvol umes
ĠAnal ysis
Ġcorrespond ing
ĠSim ilar
Ġdent ist
v als
thi nk
ep tion
ag i
iterr anean
Ġprot ective
ĠElectr ic
J ames
o is
A lex
h rive
Ġgen us
Ġarg ue
t hrive
Ġmod ules
Ġ tends
Â »
m ad
Ġlog istics
Ġsurv iv
ĠW edding
Ġb oring
8 2
c ore
ĠDef ense
F amily
Ġdestr uction
Ġhealt hier
ĠN a
Ġstrengt hs
Ġcritic ism
an ia
Ġear liest
Ġl y
oun try
form ed
Ġprec ision
Ġland ed
Ġread ily
ĠPlay er
ĠBel gium
n ished
Ġcamp s
Ġdest inations
Ġhon ored
ab out
Ġcrit ics
ir s
Ġcal ories
Ġch amber
Ġviol ent
ĠF ish
ĠL isa
Ġ thrive
ener y
greg ation
Ġne at
Ġ4 7
Ġtw i
Ġclos est
b at
ĠIm ages
Ġg est
Ġ ts
Ġconcer ts
Ġb ell
Ġc ab
9 1
Ġethn ic
Ġval ued
Ġtrain er
ble m
n en
Ġachieve ments
Ġstr aw
Ġinn oc
Ġtransl ated
Ġformer ly
ĠC over
Ġind ividually
Ġforest s
ĠL ank
Ġf et
Ġve gan
Ġb ikes
M ag
ĠN ep
r ons
ĠF ell
Ġto ss
Ġform ats
M L
Ġd ow
Ġpain ter
ĠSc ient
Ġspecific ations
Ġsk ip
Ġrid ers
Ġden ied
ĠMe et
Ġar ise
Ġsu icide
Ġdet ection
Ġtwi n
TM L
Ġres on
ĠR ace
W S
Ġfavor ites
ĠG as
is p
Ġcry stal
Ġmagn ific
ĠBoy s
Ġmain stream
g ood
op les
ke e
D R
Ġde le
Ġw orthy
ĠCent ury
ĠM ail
Ġpollut ion
Ass oci
apeut ic
ĠG ulf
ep lay
Ġne uro
8 4
Ġaccept ance
ĠCle veland
ar ms
ĠThom pson
i el
Ġqu it
Ġrece ip
ud s
our t
is d
Ġl es
Ġd ict
ĠY an
Ġeduc ate
Ġge omet
ĠB lood
R uss
Ġf ed
Th ree
Ġdis ag
Ġtil es
Ġinc lusive
C ent
Ġess ays
ĠH ost
Ġpublic ly
Ġsh out
esp read
Ġst upid
ĠM unicip
Ġnic ely
Ġloc als
bit r
O b
ĠL ock
j e
tell ing
Ġreject ed
ĠAt torney
ĠL uck
Ġtrav els
ĠCo ffee
ĠF u
Ġprevent ing
t age
ĠTowns hip
Ġinter f
ĠHon or
Ġfun eral
Ġprest igious
ic op
Ġbas ement
ĠL ux
ĠOf ten
aud i
ĠV ent
Ä ±
ane ous
ĠUp on
Ġg ross
ip linary
con f
T om
Ġcur ve
ul ates
ĠOr chestra
Ġapp liances
Ġworld s
Ġprosp ect
oc ate
ĠH i
am bo
ĠL ad
ĠJ ose
ĠB eth
ĠB irth
tor neys
ĠRuss ell
Ġintegr al
Ġconscious ness
b n
Ġsil ence
ĠM ic
D ue
Ġst ack
Ġstrugg les
Ġlong est
Ġse ating
G reen
er ick
Ġm ul
Wh ich
D ata
Ġn urt
Th ose
Ġdon ate
Ġbl ame
Ġre un
Ġav o
9 3
ir ates
ĠD a
Ġcondition ing
ĠE V
ĠMc G
Ġdraw s
Ġelec tro
ĠStr ateg
Ġesc ort
Ġvit amin
ĠS ep
C le
Ġoff ense
ĠK o
Ġsol ving
ĠB M
Ġtong ue
ĠInd ependent
Ġfunction ing
Ġsell er
Ġcorn ers
Ġorgan izing
ĠMar s
Go ogle
ĠLaw rence
pl ant
ĠLeg al
et ed
im mer
Ġbar riers
ĠW at
Ġpres cription
v ation
n burgh
p han
W A
Ġkey words
Ġreli ability
Ġhomeown ers
Ġsh ame
Ġcr imes
iv ia
ĠMet ro
Ġunn ecessary
Ġaddress ing
Ġconf usion
Ġprofession ally
ĠP L
Ġmeasure ments
Ġsc atter
Ġdeli ber
Ġdu o
p hy
Ä į
AC K
ĠV inc
ĠM ath
Ġpop ulations
ĠCou ns
Ġass ists
Ġsat ellite
Ġwood s
erm al
ĠH ad
Ġreg ime
uer to
Ġpri est
sh ore
Ġdisc ounts
ĠW ard
ĠArt ist
ĠDr agon
ĠLeg isl
ã ģ
Ġch ains
h rew
Ġcar go
Ġdirec tory
ĠG M
Ġdiam ond
ac hers
Ġdepart ure
Ġg room
Ã¡ n
Ġship ped
Ġmeas uring
Ġman ages
Ġemb arrass
Ġcons ume
ĠD ol
Ġthr illed
as is
ĠI C
Ġc ub
Ġre actions
ĠN elson
Ġsmooth ly
Ġp ays
ĠF al
Ġlibr aries
Or gan
Ġr ugby
ĠCh el
ĠO ri
Ġcontin ually
Ġpros per
ĠC ool
ĠF at
s chool
Ġj am
ĠS ale
Ġab stract
ell ers
t hrew
Ġmerch and
iss ance
Ġfort unate
Ġprofit able
Ġr anks
Ġqu otes
Ġhy gi
p ost
ĠN urs
Ġreward ing
Ġdis ability
Ġvis itor
ĠSqu ad
8 3
P ort
Ġh ood
ĠP ap
ĠK ate
ad ows
ĠTh or
ĠR y
Sup port
ĠH air
On ly
Ġathlet ic
Ġsurround ings
ĠK ay
ĠT i
oub ted
ĠBarb ara
Ġbi ological
Ġdam ages
S chool
e astern
ĠM all
Ġath lete
Ġencour ages
Ġaccept able
ĠQueens land
Ġneed ing
ned y
Ġrecommend ation
m g
Ġc uisine
am el
Ġinv al
Ġ0 7
P G
ĠEd itor
au ge
Ġre ign
ĠInst all
Ã º
ĠE ns
U RE
E nter
spec ific
Ġpo ems
ĠT un
n an
Ġoptim ization
Ġking dom
Ġelder ly
Ġoper a
Ġloyal ty
S er
ĠW oman
Ġinf ections
Ġsecret ary
Ġunder neath
Ġman ually
Ġcl ay
Ġhy dr
Ġorder ing
ĠSh el
Ġassist ed
ĠC N
ĠChrist ians
ĠV ision
Ġprior ities
Ġtre as
i nst
ber ries
Tr ack
Ġcr ush
ĠR oll
Ġf ears
laim ed
ĠDirec tors
E p
Ġstro ke
uit ive
ĠF ant
ĠJ ob
ĠOper ations
Ġtox ic
OR T
t ails
Ġmind set
Ġmin imize
Ġ196 1
Ġspec ially
ont al
ĠMar ie
ĠDemocr ats
ĠMount ains
ĠC ass
Ġrenov ation
Ġunder graduate
V C
Ġ7 2
Ġbar rier
end ment
Ġl ately
hold er
Ġnut s
Ġsee ks
Ġroof ing
Ġb esides
ĠInnov ation
ĠCh ampion
Ġcomp elling
sp ace
ĠLiver pool
n ell
ĠMean while
Ġpl umbing
Ġwell being
ibu tors
ĠD ist
ac co
f und
bu ilding
ric ane
ct ic
ĠL aura
u y
Ġexper iments
Ġp ond
ĠWe ight
Ġcons olid
Ġhop ed
200 1
Ġenthusi asm
Ġre ass
Ġmoder ate
Ġexpl icit
L ocation
ĠL ang
d epth
Ġe co
Ġpot atoes
Ġb orders
Ġdis abled
aw l
ĠHun ter
ĠF ame
Ġconduc ting
ari n
Ġmiss ions
Ġgener ic
wh ite
Ġenc ry
Ġoccas ional
Ġw ag
Ġpsych ology
bor ough
ĠMed al
ĠD irect
Ġsp a
Ġagre ements
B R
V ol
ĠM aterial
Ġlaunch ing
and o
id y
Ġmatt ress
Ġwid espread
ĠT rop
are nts
Ġm aker
Ġmanufact ure
ĠL uke
T er
Ġrid ic
w ing
ai k
Ġprom ising
Ġcinem a
Th ough
Ġaccep ting
S am
um bers
Ġmar ry
hi nk
200 2
Ġchar m
ĠBr ight
ĠW ant
Ġhighlight ed
ĠBrother s
ming ham
ĠF ashion
Ġunderstand s
Ġamen ities
Ġm g
erv ices
ĠBar celona
Ġimmigr ation
We b
Ġhas s
!! !!
Ġpre ference
pl an
tain ing
u h
pl us
Ġas t
ĠWal ter
Ġb om
ĠI an
oun ced
Ġtherap ist
Educ ation
ĠTr ue
Ġbur den
Ġst arring
ĠCert ified
Ġread s
Ġr ides
t anks
Ġinstr umental
d owns
ĠFe atures
ĠWay ne
Ġbro ker
ï ¼
! ).
oubted ly
Ġpropos als
Ġgr ay
Ġsaf er
Ġ194 8
Ġj ail
am ins
Ġent ity
Ġc oin
ĠN ord
ĠM L
Ġn iche
ĠDet ails
ist ing
Ġver ify
Ġsusp ended
Ġjud gment
Ġintr ig
Ġisol ated
ĠO cc
we alth
Ġconsist ency
ĠSch olars
ĠDou glas
Ġc ave
ĠSt ars
Ġf t
ĠK itchen
Ġn am
ing o
Ġ194 2
ter ing
Ġvac uum
Ġp airs
ĠGr an
br is
Ġgri nd
ĠQuest ions
ump h
ĠGet ting
Ġmay or
Ġsn acks
Ġsubst itute
Ġ threw
mark s
D i
ĠW ine
Ġware house
Ġcitiz en
Ġreg ret
ĠJust i
Ġin take
Ġp ine
Ġcoc onut
Ġelectr onics
Ġfrag r
ĠIS O
Ġconn ects
ibut ed
if le
ĠR i
Ġplant ed
AN T
and al
Ġdiagnos ed
Ġattend ees
ential s
Ġrec ycling
l av
Ġcompl aints
h um
Ġintroduc ing
Ġmus h
ĠMi ni
Ġbook ed
Ġappear ing
Ġcle ver
Ġel ite
d f
ĠSch ed
P E
Ġemp lo
hous es
ĠStr ategy
ot hy
Ġexec ute
on el
S ch
ol ine
Ã¼ r
ĠSus an
ster dam
ĠB eng
S tre
sh irt
ul u
Ġphys ics
Ġbackground s
Ġobtain ing
ĠTur n
Ġglo bally
ĠIm age
ĠSi n
Ġ tile
Ġsh ades
Ġun employ
C R
ĠBal timore
ograp h
8 1
Ġpers u
ĠJo han
c al
g reen
e oret
Ġfre ely
Ġsqu ee
asket ball
ĠBrazil ian
Ġfundra ising
Ġ tanks
Ġapart ments
h eoret
Ġw ore
Ġv ig
Ġattr ibutes
Ġimpro ves
ĠY eah
Ġrun ner
F inal
ĠL if
ĠC art
ĠCon c
t heoret
br and
Ġaccur ately
Ġvend or
Ġstre ams
Ġgrad uating
Ġplug i
Ġplugi n
Ġear nings
tec h
sc ar
und ay
T im
Ġlux urious
P olit
ĠPortug al
sh aped
G S
Ġcons ervative
ĠThe ater
orient ed
Ġun re
Ġgirl friend
Ġtechn icians
Ġpen etr
ĠJim my
Ġresp ected
s ky
H ar
... ]
ur ring
Ġexist ed
Ġconstr uct
âĢ¦ âĢ¦
ĠA le
Ġsucceed ed
Â ©
Ġhon our
ĠN ear
ĠA ren
re ement
ĠS ay
Ġpo ison
Ġrespons ive
ĠAv ailable
ĠAm y
Ġoppon ents
Ġcorpor ations
L ong
Ġsens it
Ġhospit ality
Ġwe bin
e or
ĠA then
Ġhand les
Ġ5 1
Ġab ort
ag rap
Ġcreat or
ĠJon athan
ĠFac ulty
Ġscen arios
Ġchem istry
Ġsens ors
ĠAb d
Ġsh elf
Ġun limited
em porary
Ġh omework
Ġgener ating
Ġ195 6
com pass
Ġcatal og
Ġprem ises
ĠA br
ĠPitts burgh
ĠAl b
Sh op
ch air
Ġrecruit ment
Ġestim ates
Re al
Ġde em
Ġbu zz
Ġconfirm ation
ĠCon vention
E nd
Ġcontact ed
ĠMan ufact
ĠH ence
asc ular
ĠAss ess
ic ular
Con clusion
ĠS alt
Ġfinish es
ĠCom merce
p ired
Ġre h
Ġpri nter
Ġst ating
Ġconv ention
B E
Stud ents
T ech
ĠC hile
Ġg ains
ill o
Ġti res
ĠC elebr
ĠSto ries
Ġresist ant
Ġcourt esy
b rew
ï »
re ck
Ġclean er
L D
ĠP ic
isc al
ĠOper a
Ġser ial
u ki
ĠBase ball
ro be
av an
over nment
ĠCamp bell
ĠBe gin
ip ment
Ġher bs
Ġsto cks
s ervice
Ġs ized
Ġattr action
Ġcom ed
Ġhabit at
Ġsex y
Ġchar ming
Ġro d
Ġsub mission
ĠRog er
M c
Get ting
P ower
Ġup s
Ġr ack
ĠW right
Ġstruct ured
p op
h umb
ĠStew art
Ġarri ving
sh ot
ount ain
Ġdis advant
Ġrac ial
Ġr uled
ĠC old
sp an
B orn
Ġ tan
Res earch
r ise
ĠMed iterranean
ĠV erm
eli very
ĠDen mark
W orks
ing ing
Ġadv anc
k ers
ĠS ustain
ion ed
w alk
ĠLab our
Ġfl aw
ĠChris topher
Ġb ugs
Ġoption al
Ġam id
Ġsusp ension
J apan
Ġ195 9
Me et
ĠTo o
ther e
Ġdrop ping
er gy
ĠP ad
hat tan
Ġcustom ize
Ġspe eds
em ade
ï» ¿
Ġres emb
ĠD ental
Ġflo ating
ĠLead er
T ur
Ġpra ise
Ġtouch ed
ert h
ĠB ou
ĠNY C
Ġperm its
ur ities
Ġvari ables
ef e
Ġsi nc
Ġc ure
ĠR ather
Ġle ver
Ġn est
Ġm os
ĠW ords
Ġassoci ations
Ġpremi er
Ġsc ary
Ġ tags
Mi n
Ġload ing
Ã£ o
Ġas h
ĠSing h
Ġ195 8
ho le
Ġz oom
Ġla undry
ĠCol omb
le ton
Ġw elfare
Ġbe ating
Ġli ver
ĠJusti n
Ġfar ms
ĠUs er
ĠH end
p ically
Ġmar gin
Ġcombi ning
ĠL ands
N ame
int h
g ence
rol og
Ġy eah
Ġbelong ing
Ġthere by
ins ula
ĠIm per
ĠPet ers
ĠY ellow
iv ic
Ġtr ibute
ĠUkr ainian
ĠE C
ĠA st
ĠBapt ist
Ġwal let
Ġrefres hing
ĠGu y
ĠR s
ĠEdi nburgh
ĠF M
Ġprivile ge
Ġmuseum s
ĠA BC
Ġm aj
ĠLo ading
H D
ĠAl ice
Ġtrans parency
Ġfail ing
Ġgovern ance
ĠCar ter
Ġpup py
Ġde lete
Ġdetermi nation
Ġtast es
Ġwa ist
Ġb ol
Ġnewsp apers
Ġpack ing
ĠZ one
Ġmigr ation
Ġaffect ing
back ground
M att
S an
Ġ194 1
Ġle isure
ĠR V
Ġpersp ectives
L ead
Ġcand y
Ġstrugg led
Ġvary ing
ĠOther s
Ġmemor ial
ri k
Ġul tra
ĠGr aham
Ġz ip
ĠC rown
Ġcon sole
Ġdem ol
et a
ĠB aker
F rench
Ġexpl aining
ep s
Ġcraf ted
Ġarg ued
Ġsculpt ure
Ġ es
w orthy
ĠBen efits
imonial s
Ġcrop s
Ġw ool
Ġsc ared
Ġ 00
ĠNever theless
L P
ia h
Ġaccording ly
Rem ember
Ġr ip
Ġweek ends
b ably
Ġ5 4
t humb
ĠF el
Ġappet ite
ĠSo on
ĠSt age
ĠMad rid
Ġindepend ently
Ġener g
op en
ĠK night
ĠV ac
Sh ow
ĠKen nedy
Ġtor n
ĠN ag
ĠTe xt
Ġstress ful
Ġtr ace
for ced
am ine
Ġdecor ated
199 0
Ġclass ified
Ġcoi nc
Ġcomp ound
Ġsup pose
Ġmyster ious
Ġlock down
OU T
Ġsen iors
Ġanticip ated
st ick
Ġmechan isms
ĠWhat ever
Ġback s
ling ton
Ġp ose
Se lect
em en
ĠId ent
ĠC T
ĠCommun ication
Ġexp atri
l ace
to oth
ĠNev ada
Ġsepar ately
ĠA G
D oc
S cript
Ġint end
Ġ theoret
Ġbatt les
ĠCli nton
T ele
is or
ĠB io
Ġet hical
Ġparticip ant
Ġvar iation
ios ity
um ns
Ġhung ry
Ġ0 2
st age
bre aking
âĢĶ âĢĶ
p roduc
Ġk its
amm ar
Ġman us
Ġveget able
Ġhaz ard
Ex pl
ĠG ib
ĠAfghan istan
Ġper pet
and i
Ġinv itation
Ġqu ar
arch y
Ġrele asing
Ġmother s
Ġblock ed
Ġle verage
ĠFre edom
ac ies
ĠImp ort
Ġpurs uing
ĠAn im
Ġtatto o
ĠCompan ies
Ġf ails
ĠGreat er
ĠGr ade
Ġ0 4
Ġfi rew
ĠS op
Pl an
ik er
Ġassign ments
is b
Ġp ound
Ġ194 3
ĠS amsung
ĠE nc
Ġwarm t
ĠRob inson
Ġwarmt h
Ġjump ing
Ġre named
ĠDep uty
Ġrelax ation
Ġpen is
M art
ĠF err
ĠL oss
Ġjournal ists
ong s
ĠCro at
ĠB illy
f irst
Ġpup ils
Ġadvis or
Ġde alt
ĠProduc tion
ĠPri ncess
M ean
ĠðŁ ĺ
Ġp orts
tit ude
ĠS leep
ĠF ur
spe ed
idt h
Ġsto len
Ġgrand mother
ri ors
Ġst roll
Ġthreat ened
L ocal
Ġpartic les
tal ion
hib ition
Ġcirc ulation
Ġaud it
Ġ195 7
as ive
tr al
opy right
mi nation
keep er
ĠM E
Vis it
Ġel abor
ĠCost a
ĠTer ri
ĠPrim ary
Ġcopy right
Work ing
nter est
S O
Ġd ub
Ġ193 9
ĠT agged
ix ed
C ast
Ġp ad
Ġd iving
el ong
Ġdec e
Ġtact ics
Ġacc ent
ĠArk ansas
ĠK az
Ġspons or
An n
R ob
Ġauthor ized
ĠL ar
ĠJud ge
ĠC ultural
ĠE ye
ĠW E
Ġencoun tered
ĠMont real
Ġcomput ing
Ġtempl ates
Ġchalleng ed
Ġenter prises
G en
ĠS weet
ĠSt yle
t asty
ĠM C
Fr iday
Ġclaim ing
Ġsevent h
n ormal
Ġuncertain ty
Ġsoon er
ĠW A
amp a
b us
Ġ194 6
ĠL ower
Ġb rowse
ĠP resent
ĠNor wegian
ĠSaf e
ij ing
ec urity
Ġappro aching
N ov
t ure
Ġcoun ts
ĠS ave
OM E
Ġbur st
Ġcollabor ate
ĠD al
Ġprosp ective
Ġpick s
Ġacknow ledge
ĠMor ris
Ġarri ves
Ġ194 7
ĠR io
Ġtr ash
Ġend ors
Ġexhib itions
IT H
Ġlegit imate
â ĺħ
hi bi
ĠF ocus
ĠP uerto
ĠC emetery
Ġm asc
Ġavoid ing
Ġbl ade
Ġdim ension
c ies
Ġcompl aint
Ġd airy
Ġfab rics
Ġz ones
Ġp ockets
ĠG O
Ġr uling
Ġbank rupt
G erman
Ġj et
Ġbes ide
Ġinc idents
Ġre vers
Ġrun ners
Ġd ated
ĠN am
Ġ0 3
en z
Ġadvert is
Ġpress ing
r ated
Ġinflu ential
Ġr amp
Ġcancell ed
Ġw eddings
Ġo d
Ġ \
Ġsur gical
ene z
Ġrecover ed
Ġgrand father
Ġor g
ud a
Ġinform ative
ĠF riend
Ġfer til
co very
Ġ tasty
ap or
Ġvi agra
IC K
ro gen
get ic
han g
M ax
Ġcent res
ĠG lo
Ġpas te
ĠA w
Ġent ities
ĠM ul
Ġp ipes
Ġvis a
T ry
Ġg ad
ĠBr id
Ġobst acles
ĠRep air
. [
Ġne arest
ĠIntellig ence
ĠPark er
Ġphenomen on
Ġpromot ional
Ġrec onstr
Ġjur isd
aun ting
ab ul
ĠPortug uese
ĠArgent ina
ĠBeaut y
Ġh obby
ĠM ason
Ġte ens
ĠT ob
Ġspons ors
ĠG rey
ott age
ĠG PS
âĢĿ )
Ġnon profit
Ġ0 6
Ġdemocr acy
els h
Ġbroad er
ĠP O
RE AD
ĠSc reen
n ar
Ġrel atives
Ġbehav iors
Ġ202 3
Ġconsist ed
ĠS ept
ĠJ ennifer
** *
ĠBroad way
ĠFin land
ĠH um
Ġun iqu
V AC
Ġbul let
ĠPlay ers
ĠMarg aret
Ġdis abilities
Ġbr ut
ĠJ uan
ĠL uther
Ġperform s
Ġr ational
Ġback yard
Ġsing ers
U I
Ġrad i
Ġpart ially
ĠG ot
ã Ĥ
Ġtable ts
keep ing
ĠDak ota
T ax
Ġdevelop s
Ġw ound
Ġdisapp ear
Ġdark ness
Ġther mal
Ġstress ed
ĠCamp aign
ard i
Ġthank ful
Ġen compass
Ġb ree
g ow
ĠD rop
ch en
Ġs ights
ĠF resh
Ġplant ing
ĠH it
Ġnation wide
ĠP un
Ġspir its
h aus
b ase
ĠS ony
ĠR acing
Ġen velop
Ġbit ter
Ġgrap h
Ġblock chain
Ġf ut
Ġb onds
ature d
Ġpre view
ami nation
ress ing
Ġ5 6
ĠFrank lin
act ing
ĠC raig
u rop
Ġautom otive
Ġmar ijuana
ĠSol ar
I AL
as a
ĠFe el
h eart
ĠR ou
Ġcount ies
tr as
Ġs aves
mp h
Ġch ore
ĠD h
list ed
Sup er
ĠN FT
Ġmand atory
Ġinhabit ants
Ac cess
ĠAn imal
Ġ thumb
F ood
Ġpubl isher
Ġh ug
us c
ĠEnter prise
Ġdec ides
I d
Ġpr iced
Ġm ater
ĠMur ray
Ġcalc ulated
ĠS omething
Ġconcentr ate
ĠVol unte
is i
Ġelement ary
H appy
Ġnot ion
Ġwond ered
Ġde bris
ĠC ould
ĠDe b
p ir
Ġclos ure
ĠRes ort
I B
Ġfi res
Ġrem ed
ĠAssoci ate
ĠU V
a que
Ġ195 5
Ġsp acious
Ġd ock
Ġs ung
ĠBir mingham
Ġtu torial
Ġyoung est
AR D
ĠEsp ecially
Ġmotor cycle
Ġr aid
Ġsac red
Ġinf lation
Ġs ake
Ġcur tain
Ġprocess or
Ġarg uments
ĠV el
Ġsw ord
ĠH TML
Ġd a
ĠPart ner
Ġsepar ation
ĠTri p
Ġadapt ation
ĠRob i
Ġsn ack
I O
Ġsail ing
Ġal ien
Ġperce ived
Ġdef ence
Ġprotocol s
o vers
Ġcomment ed
i nite
Ġcontem pl
Ġconf idential
ĠEv ans
ĠB ond
Ġpart ial
Ġcomp ly
Gr oup
Ġdynam ics
Ġg em
Ġcirc les
ig ma
S un
ĠAm sterdam
Ġveter ans
ĠG ill
Ġjump ed
ĠOver all
ĠS ud
Ġpat io
bor ne
Ġtun nel
Ġg el
Ġrefer ring
Ġmagnific ent
art en
ĠAp art
nost ic
Ġdis k
oc ese
ĠT ow
s ize
Ġdomin ant
ile y
c at
ist ant
amps hire
Ġrecognis ed
ĠM aj
Ġcl uster
Ġpract ically
Ġdownload ed
Ġh int
k g
ĠK l
b ie
Ġdress es
ĠHol iday
Ġtun ed
Ġc attle
ĠF ern
Ġtre asure
Ġoptim ize
Ġmod es
Ġcirc ular
writ ten
Ġspread ing
Ġf oss
Ġsh orts
Ġrem ot
Ġanal ys
Ġcus to
W ind
ĠJ e
Ġw ars
ĠMet al
ĠV PN
Ġh em
ĠN OW
ĠS W
Ġli ned
ond ition
val ue
Ġsurve ys
Ġrepeated ly
Ġbe ars
urch ase
are l
g on
Ġdetermi ning
ud son
Ġl akes
ĠOf fer
Ġshe ep
ĠF ace
ĠMan hattan
Ġsun ny
ĠBl ues
S l
Ġ195 2
Ġembed ded
Ġlist ened
ÃŃ a
Ġpromot ions
Ġm ere
Ġout let
Ġliber al
Ġrenew able
ĠVis ual
ĠA er
Ġst abil
enc il
Ġo h
Ġ5 3
Ġc ath
Ġlif ting
Ġrating s
Pro ject
St ate
Ġir re
it ime
f are
W ar
Ġdes erves
ell ar
Ġpart ly
Ġincor rect
Ġ19 00
ĠAr men
ĠKen ya
ĠL oc
Ġnew er
ond e
gr oup
Ġminer al
Ġspecial izes
ĠElement ary
C amp
Ġbre eding
E st
ĠJohn ny
ĠCo ordin
L ive
Ġadjust ments
Ġres et
Ġown s
T ok
ĠP ink
ĠDou ble
ĠHous ing
ĠMont ana
im ony
H ot
ĠPh one
ific ates
Ġbur ned
Ġmoment um
oles ale
ĠR idge
Ġapplic ants
ĠF R
Ġv et
Ġexecut ives
Ġ0 5
Ġobs ervation
Ġ aqu
ĠEmer gency
C ome
Ġcogn itive
Ġtim ber
Ġbr ace
Te am
N on
ĠHistor ical
Ġun pre
xt ures
Ġout line
D igital
Ġinves tor
Ġw eld
Ġst airs
ĠAdminis tr
iz ers
ĠInd ividual
Bl ue
Ġdist ant
Ġfif teen
D E
ĠLink edIn
Ġacc us
ip her
Ġout lets
Ġexpl ored
Ġgam ers
ash a
Ġfle w
n ected
Ġund oubtedly
Ġconj unction
Ġb ored
I E
t asting
ĠT a
ew ay
199 9
Ġcontrovers ial
j amin
Ġinv iting
ĠMor ning
Ġpo le
ĠF an
Ġaltern ate
Ġf ond
at ility
s hire
Ġg aps
ĠTr av
aut hor
Ġind igenous
Ġmax im
S aturday
Ġenroll ed
ĠMove ment
Ġbelong s
Ġfif ty
ĠBang l
em ale
Ġn ails
Ġd iver
ĠEm ily
Ġconsider ably
ĠG R
ĠPi nterest
Ġpractition ers
Ġh aul
ĠMad ison
ĠA nc
Ġdil ig
ĠPl atform
Ġarch ae
yn asty
Ġap olog
ermal ink
ĠSer ver
Ġto ll
Ġp ale
het ics
Ġdelay ed
Ġcloud s
I ES
ĠV oice
ĠSe an
i nitely
Ġbl ues
Ġchap ters
Ġac oustic
Ġpal m
ĠR ing
ĠReg iment
ĠRobi n
G od
Ġgrat itude
Ġinters ection
Ġprev ents
ĠPh arm
Ġpat ent
mind ed
Ġbad ly
W ant
Un fortunately
les h
Ġj oints
ĠK an
T ri
Ġsec rets
ĠPat ri
ĠT ell
Ġtour naments
sequ ently
Ġdress ing
st airs
Ġfin ances
tor ic
Ġbreath e
Ø §
ibl ings
Ġaut umn
Ġmed ian
ĠD elta
â ĸ
Ġ195 4
ĠAlbert a
Ġdeploy ed
Ġinstall ations
Ġsurprising ly
L ight
T est
ĠTele vision
ĠThanks giving
= =
ĠDiam ond
Wh ite
alt ies
ect ing
Ad v
Ġp ie
Ġe uro
ĠD at
iv an
i torial
Ġnever theless
ĠGr ay
Ġcous i
Ġpi x
ĠSte ven
Ġcousi n
Ġnav ig
Ġw and
Ġaff air
Ġj oke
ig m
imi nary
Ġorganiz ational
ĠInd eed
ĠK a
ĠF aith
ĠW orth
Ġmess aging
t uary
ĠDep ending
Ġgrad uates
ĠCol lins
ĠJ erry
Ġst ap
ĠRepresent atives
Prof essional
Ġinv asion
Ġisol ation
w ill
Ġb or
ĠCle ar
ĠMarsh all
ĠT X
ĠD anish
S M
ibli ography
ang a
Ġconsum ing
ant on
Ġmerchand ise
usal em
Ġabund ance
ĠCare er
Ġbrid ges
ur able
ĠCl ay
Ġo ak
Ġdisc om
Ġvar ies
Ġorient ation
ĠF ro
ĠB eyond
Ġcatch ing
ĠSum mit
found er
O ld
ĠOp tim
Ġsur re
board ing
ĠN orm
Ġdispos al
Ġp ile
Ġje ans
S il
ĠR achel
ĠN CAA
pro f
ĠEm peror
Ġsun light
: #
Ġrad iation
ĠGard ens
M ult
Ġag greg
Ġher oes
Every one
ĠSam uel
ĠC V
Ġgam eplay
ĠCamp us
ug u
Ġwatch es
Ġmanif est
Ġto uring
ĠH ampshire
AS E
ĠTour nament
ĠF isher
Ġk iller
Ġrecre ation
x x
ĠLe ban
ĠBr on
ĠL anc
Ġam bit
Ġreported ly
i nis
Ġemb ark
Ġcontroll er
ĠA ld
Ġ6 6
Com merce
Ġproport ion
v ol
ĠA pr
ĠL arry
ĠE ve
B ro
Ġflow ing
Ġdram atically
Ġtrans it
Ġhass le
Ġcomm ander
ĠUp per
ĠRestaur ant
ĠSen ator
ĠUs ually
ĠMitch ell
Ġsuggest ion
ch ant
Ġpool s
Ġp ear
quis ite
Ġpromot es
ren cies
ĠQue bec
Ġterr ain
Ġsp rink
ĠA ve
Ġminer als
aff e
h eld
cel and
Ġdur ability
ĠAt t
ĠB ud
Ġimpact ed
o op
ĠU ntil
ĠArchitect ure
k ward
Ġh iding
Ġd ip
Ġbr ains
Ġf isher
Ġare na
f il
l iving
Ġvol tage
ĠD ig
R ight
h t
ĠSim ple
ĠPro gress
ĠC arm
ĠD ise
os ity
er ie
ĠWood s
Ġ thy
ĠCompet ition
ĠAr ound
ri or
Ġabsor b
el der
Ġdisp ute
Ġremind s
U E
k ar
Ġar bitr
Ġsub ur
Ġ195 3
Ġther apeutic
Ġst atic
un s
Ġadjust ed
ĠConst itution
Ġex ams
. -
Ġm ud
Ġelev ated
Ġ194 9
Ġcharacter istic
Ġ10 1
ĠE M
ele b
ĠT ouch
Ġboy friend
Ro bert
ï ¸
Y eah
ĠCle aning
ĠTre as
ĠÂ ©
ĠP ope
Ġpro l
ĠA aron
Ġmag netic
G old
ĠGl as
E urope
r ical
P O
ham mad
Ġinflamm ation
Ġlot tery
Ġscient ist
Ġprote ins
Ġres olved
Ġsched ules
ow ed
ont i
Ġir r
Ġstr ings
Ġs ends
Ġign ored
m art
ay an
Ġperform ers
Ġn erve
ank ing
Ġfe as
Ġingred ient
ĠL odge
Ġsatisf ying
ĠProgram s
ĠC ars
Ġnegoti ations
Ġsl ides
ecut ion
Ġat e
Ġrec ycled
ĠFor ces
ĠG abri
Ġeconom ics
D el
Ġp aired
Ġmaintain s
ĠSe ven
V ery
ĠZ e
af ood
Ġline ar
Ġmet er
le i
Ġgl or
e enth
Ġat torneys
St and
Ġsubst ances
ag ic
ĠAnal yt
ĠWar ren
Ġr ally
Ġvac cin
Ġtr iang
en h
land o
Ġexplore s
Ġdistingu ished
Ð º
ĠPart icip
ĠPar ish
Ġcost ume
ub a
ĠP osted
Ġfirm ly
ĠPro jects
ĠTreat ment
Ġsp ins
Ġsimpl er
ĠU g
Ġqu een
Ġlandsc apes
d oc
Ġperf ection
Ġenthusi astic
hy l
Ġpuzz le
ill ance
T hink
Ġto ken
esp oke
Ġeduc ators
ov an
Ġdr unk
Ġthro at
ĠUp date
B as
Ġdescri bing
Ġimplic ations
Ġint ensive
Ġtrans mit
Cho ose
K S
al ities
Ġmon ster
ĠM atch
Ġdup lic
N ever
ĠMar vel
Ġroll s
F M
ĠRich mond
tw o
Ġadv ances
Ġsched uling
S al
ĠAr c
B ur
âĢ¦ âĢĿ
ov ak
Ð »
ley ball
ac re
am ples
idd ing
ĠB ai
ĠRo of
Ġwh it
D ou
Ġgen uin
Ġr ab
ang o
Ġgl ory
ĠK u
m ill
ĠB iden
Ġfr idge
Ġfil ing
ed ed
by e
ĠH IV
Ġhyp oth
Ġl enses
Ġdec lined
Ġsh y
Ġnurs es
S unday
Ġsp at
M onday
ment ation
l est
is ons
Ġsynd rome
Ġun ve
ĠTe a
Ġprop ag
im ming
Ġro ster
Ġpast a
ĠT es
Ġtrad em
ag ne
Ġremot ely
Ġcus h
Addition al
Ġcol umns
Ap pl
ĠInvest ment
x ide
ard ing
ĠResp ons
ĠG iven
Ġass ort
Ġsy nc
Ġcom ics
art z
ĠRes ults
Ġhe ated
ĠCor porate
Ġf ame
An onymous
Ġre ver
Ġ5 7
ĠQ ual
ĠNep al
af ting
Ġende av
Ġnot ably
Ġqual ifying
Ġaw a
Ġ3 50
Ġtrick y
ĠE ld
i nian
ĠGal axy
Ġcontroll ing
ĠH ear
thod ox
ĠP ills
or us
ĠK aren
to ur
Ġbas es
Ġcharacter ized
ĠBe ijing
Ġgl oves
We ek
ĠKr ist
ĠEar l
Ġdist inction
Ġmart ial
II I
ĠT ig
ĠB our
Ġbl ast
ĠFl ore
Ġte lec
ched ule
Ġpar agrap
Ġener getic
Ġf ate
t v
b en
Ġambit ious
Ġbe aring
Ġmet rics
ĠB O
Ġmachi nery
ĠT ik
atin um
igr ation
Ġhold er
st art
gi nal
Ġsust ained
Ġtarget ing
Ġcol onial
Ġpan ic
Ġclass ification
ĠBuff alo
Ġsp ine
Ġdepos its
Ġwa ited
Ġlect ure
ĠIn iti
Ġcomp iled
Ġalgorith ms
ĠP ool
P oint
Ġsc iences
ĠVi enna
ĠPark s
ĠBar ry
Ġin fer
Ġdomin ated
Ġsil k
Ġcle ared
t agged
Ġobl igation
Ġr ul
j ud
Ġanch or
Ġreal m
Ġp ork
Ġtr iple
ĠG T
Ġharm ony
C ity
Ġins ects
to l
ess ions
ĠImp act
F P
Ġam ateur
Ġnecess ity
Ġdecor ative
Ġch ill
ĠS audi
h ir
Ġsh ake
M s
Ã ł
Ġroll er
Ġpres erved
Ġconv ince
Ġvar iant
ĠB art
Ġch ew
l ooking
Ġmon etary
Ġoccup ation
b one
Ġpip eline
el ed
ĠK id
ĠGr iff
Ġline up
Ġfort une
M el
F I
Ġdocument ed
Ġblog ging
ĠMil an
ĠTer ry
Ġmeant ime
ĠK il
Ġsum mit
Ġval ve
ĠN EW
Ġev olving
Ġmodel ing
Ġton es
ry lic
á »
Ġperman ently
May be
Ġrep et
c tor
Ġwitness ed
D ate
ĠB R
Ġlif ted
Ġhor ri
i Äĩ
y our
on ts
Ġvit amins
ĠUnivers al
Ġcomm ands
Ġalign ment
Ġcock tail
Ġred es
Ġbr ack
ĠSing le
mark et
ats on
let t
ĠO d
Ġdiscom fort
Ġst iff
ĠPre p
Ġ18 0
Ġcouns eling
Ġbr ass
Ġrece iver
ĠD oll
ard ed
Ġj ury
Ġ5 8
Ġo z
ĠNash ville
Ġpray ers
f old
og an
e ories
ĠRe ally
ĠKe ith
Ġcomplic ations
ĠD ynam
Book s
ĠN at
estr ian
h eories
ĠHor se
t heories
ĠR ange
c ode
Pl ace
Ġtom atoes
ĠT ol
Ġdeal ers
Ġfinanc ially
M al
Ġse gments
S D
ag h
er ness
ĠGl en
Ġmed ieval
Lab els
ĠT on
Ġdeploy ment
Ġnow here
Ġun ited
C ong
M ike
Ġpet ition
ĠM aur
add le
ĠVictori an
ĠB ass
Ġd amp
Qu est
Ġsynt hetic
ĠV R
Ġpurs uit
f eed
ĠPal m
ed ar
ĠT otal
Ġgenuin ely
Ġminor ity
Ġlight ly
Ġphr ases
Ġsuperv ision
Ġal leg
Ġcha os
Ġ aus
Ġaccess ed
ĠM ack
s ome
ĠG on
Ġan ime
Pres ident
A E
Ġ theories
Ġ195 1
Ġni net
Ġext ends
Ġc ope
ĠIn side
Ġsacrif ice
Ġsm iled
Ġunw anted
Ġ tasting
Ġcor poration
ĠJer usalem
Ġrecre ational
Ġpe oples
Ġactiv ists
Ġcool er
Ġcon gr
ĠS uz
ĠP ast
Ġh emp
ĠA bs
Ġstrict ly
Ġfl oral
Ġmod est
erm ark
F ound
ĠFort unately
Ġmechan ics
Ġkne es
ĠCl ar
it udes
P T
ch a
Ġan k
Ġtempor arily
Ġsid ew
Ġemotion ally
Ġdeem ed
Ġw age
Ġfund ament
ĠK ir
ĠHe at
Ġtr ap
Sc ott
Ġswitch ed
r ac
Ġphotograp hers
li a
li nder
Ġconf using
Ġfor ty
Ġelimin ated
ĠL arge
Ġpress ed
ĠAl bum
Ġsc ent
Ġins ulation
ĠAnt i
ant hrop
Ġlog ical
ĠBar on
Ġout reach
ON E
ĠP el
Ġlect ures
an im
f ive
T agged
ĠH us
Ġkick ed
Ġimag ined
Ġf ung
d ra
ĠP y
unt ary
P rint
ĠCommon wealth
ĠO tt
Ġaud i
ĠP ul
M D
us ts
ens ely
Ġdiv ine
ĠL en
Ġqu eries
ĠStan ley
Ġgr ave
ĠGr ap
Ġobs ervations
R ef
Ġprov isions
P ER
Ġproduc tions
ĠG B
ĠA id
Ġco ordination
G l
Ġtradition ally
ĠD ry
U nc
Ġcur iosity
w hen
Ġinstitut ional
rat ulations
Ġaw kward
ĠW ik
ĠR ic
AS S
ĠDe al
Cons ider
Ġland l
uck er
Ġp ier
Ġint uitive
Ġhol istic
Ġur gent
Ġg rief
ĠV A
ĠClin ic
Ġqu ery
Ġdist ur
Ġfe ather
Ġstud ios
Ã ¥
Ġon ion
Ġspecial ize
ĠCirc le
Â ´
ec raft
ĠRepublic ans
199 8
is co
b age
Ġsoc ks
Ġtim eline
Ġoverwhel med
re ase
Ġlengt hy
Ġac ted
t ens
Ġswitch ing
ĠL P
ĠTransport ation
und ers
Ġlear ners
Th eir
Ġc ited
p ies
ĠG ift
c ape
Ġconflic ts
p resent
ĠH ab
Ġ1 10
Ġdiv isions
umb led
Ġanx ious
uff y
Ġg auge
Ġassist ing
Ġf are
s ur
Ġseam less
onom ous
s top
Ġcor ruption
ĠEd ge
ĠT aking
os oph
ĠH E
ĠL ost
Ġspot ted
Ġleg ally
ĠN ar
f iction
b ly
Ġcomprom ise
ĠT odd
Ġban ned
Ġas leep
v ar
ĠY e
Ġro pe
Ġcount ing
Ġment ally
Ġgrand children
ier ra
Ġlist ings
e ing
Ġs iblings
Ġcol on
Ġdiscip lines
ĠH omes
ĠP ages
Ġmod ify
Ġbless ing
Ġ19 18
Ġwh eat
b ine
Ġjournal s
ĠB ec
Ġd ot
Ġp acks
Ġst icks
Ġnam ely
m n
omet er
Ġdiscr imination
In f
Ġprot ests
Ġhel icop
ĠD est
ac er
ĠC inem
oot s
ĠImper ial
ĠH at
Ġconnect ivity
Ġbed rooms
ish a
Ġbel ly
Ġviol i
Ġimmigr ants
Ġ tagged
ĠRich ards
ĠH ockey
Ġvioli n
T T
ĠC itiz
omm un
Ġdiscover ing
ĠTe acher
le ased
Ġres ervation
Ġcabin ets
EL L
Ġchop ped
ĠW elcome
Ġc ov
Ġdisapp eared
Mean while
ag g
Ġgr ill
A wards
ĠH il
Ġhapp ily
bu ilt
Ġret ention
ĠImp rove
Ġtouch ing
Ġmatch ed
ĠF ried
or ters
S R
ĠAren a
Ġl amp
Ġc oding
Con f
any on
Ġcomm emor
ĠD ent
Ġ7 00
ĠH alf
Ġavo ided
re tion
ĠTool s
ĠC abi
Ġch ick
et ics
ett es
Ġprev al
ĠR ivers
Ġview er
C ost
Ġoblig ations
Ġhas h
Ġtouch es
ĠLe x
ĠMov ie
Ġcater ing
Ġaccess ibility
br aska
F ort
ĠL ion
te x
Ġbo asts
ab a
hes ive
Ġhistori an
Ġactiv ist
Ġfrustr ating
Ġconsult ants
l iminary
Ġbo oth
" |
Ġvib e
Ġcombi nations
ĠGr ound
ĠE mma
eff icient
ĠDo or
Ġp el
Ġnon etheless
Res ults
i ated
ĠS kin
ĠProf ile
ung le
Ġtop s
Ġsh ifts
Ġoff line
Ġpoint ing
Ġbuild er
ĠInd ians
le ading
Ġj ar
Ã ´
Ġadvoc acy
li ant
Ġarch ive
Ġover head
ĠC ad
ell ery
ch anging
Associ ation
Can adian
Ġpred omin
Ġcast ing
Ġbus es
Ġsket ch
Ġwe althy
red ients
ĠL akes
R ad
Ġemb ro
Ġdes cend
Ġcent ered
F OR
J ack
Ġchar ter
ĠPi n
Ġfar mer
ĠU I
Ġexc use
Ġbic ycle
erv atory
Ġpremi ere
er ver
Ġplay ground
ĠF ight
Ġjoi ns
s ki
ograp hics
Ġquick er
ĠO liver
ĠH VAC
Ġposition ed
Ġ ĠĊ
IGH T
Ġvan illa
For mer
Ġupgr ades
Ġex otic
Ġhygi ene
Ġadjust able
ĠMur phy
Ġst air
Ġind ul
Ġcry st
Ġearth qu
Ġb achelor
Bi ography
se ud
Ġnot ification
e u
h ave
l asting
id el
ĠCo al
Ġc ere
ĠReg istration
rit ies
Ġinfect ed
Ġconsum ed
Ġdel ays
O lymp
Ġf ont
Ġcell ular
Ġhapp ier
Ġclos et
Ġhand made
F R
Ġco zy
ĠEconom ics
ĠWh eel
w idth
Ġrail road
umb ai
Ġmathem atics
Ġstr ikes
Ġannoy ing
Ġ/ /
Ġl iv
ĠPriv acy
Ġlaws uit
Ġsh elves
Fi n
P roduct
ĠCh ef
ac tory
ĠH udson
Ġrot ation
m ap
Ġrefuge es
ĠValent ine
ĠR ud
ĠL an
ĠÂ «
ĠTri b
ĠF ile
ĠM ale
Ġprotec ts
O per
Ġsold ier
. ).
Ġorig ins
199 7
Ġprob ability
AC E
Ġreal ise
erv oir
ĠChr ome
ĠH P
Pri or
reg ular
Ġlast ed
P eter
ĠR anch
E lectr
Ġmen tors
Ġj unk
ĠB Y
em on
ĠCath edral
ĠCon vers
A h
H el
Ġiniti ated
ĠStor m
M ac
Ġ193 6
Ġde er
ĠLank a
ey er
oc c
Ġres ign
ist ically
ĠCommission er
Ġfound ations
ĠP ok
ĠG ay
Ġres erves
Ġ tel
ĠSh ep
ai nder
ĠSc r
Ġfrustr ation
ĠMar i
Ġfor k
b ank
Ġassess ments
Ġcelebr ity
ĠNorth west
un c
Ġun m
Ġbi ology
Ġout break
ĠPub lishing
Ġretain ed
Ġd ign
ps y
Bel ow
ĠI celand
Ġut ter
Ġpro ceeds
ĠAud io
m illion
amil ies
ind a
op ing
N O
ump s
I ng
ID S
ur dy
Ġcli ps
uit ar
V er
ĠLind a
ĠR and
Ġn ost
Ġsmall est
eleb rities
ĠK um
Ġenthusi asts
Ġnation ally
ĠD ifferent
ĠU P
Ġbound ary
Ġcreat ors
ul ly
Like Like
Ġlegisl ative
Ġshock ed
ig g
ĠAdvis ory
ĠB arr
Ġhon ors
Ġ ug
Ġcook ie
roll ed
ĠM ak
Ġl obby
inc inn
ugg ing
Ġenjoy ment
ĠI L
Ġn an
Ġh ind
od s
ik h
Ġcapt uring
: //
a very
Ġ193 8
ĠG host
ĠS ER
ĠMich elle
ur red
Ġwr ist
ĠT ags
h eft
Ġext ensions
Ġtend ency
Ġhom emade
Ġ aired
Wi n
D en
ĠA x
Ġwithdraw al
Ġcompr ised
ab lish
Ġsell ers
Ġgu ards
Ġp ian
ĠHe aven
Ġ5 9
Ġdescri ptions
Ġcoll apse
M ary
Ġ eld
Ġgener ator
ĠSy ria
Ġdess ert
Back ground
Ġcompar able
Ġph ases
ĠInf o
Ġbind ing
19 80
Ġenhan cing
ĠNe g
ĠFl ash
Ġtrad es
Ġoccur ring
m ons
Ġillustr ations
Ġupd ating
inter est
ced ented
ent ry
ĠW elsh
âĢĭ âĢĭ
Ġvi able
Com p
t heft
Ġimp lies
Ġward robe
Ġten ants
Ġhar ness
ĠPolit ical
ĠVal ue
Ġk ay
im en
Ġsil ly
Ġarch itects
7 00
el ia
ĠK irk
Ġr h
Ġpartner ed
Ġal together
d iv
Fil m
Ġquant ities
I ts
Ġrepl ies
Ġb er
ain ted
ĠP arent
Ġnow adays
ĠW onder
ĠThrough out
ĠCl imate
ĠHol land
Ġgl ue
thi op
Ġst yl
Ġad her
ĠM ot
D O
ub er
B ay
Ġp y
Ġp iv
ï¸ ı
if iers
ĠW ire
Ġm ock
ĠGlas gow
olog ically
iz ard
Ġbegin ners
Ġre vel
Ġh oly
intend o
ð Ŀ
Ġbo il
Ġmethod ology
Ġsc enery
ĠE T
ĠO scar
A u
ĠC oc
gh ai
Ġfat igue
Ġfre ight
Ġflav our
Ġcosm etic
Ġsensit ivity
incinn ati
a vers
Ġlou nge
Ġent ers
str ong
ĠPri x
ĠBangl adesh
ĠIn it
M B
ĠW OR
ograp her
Ġwar ned
Ġexp end
Ġhar ass
Ġtw eet
Ġpro xim
Ġcou ch
Ġref ined
Am ong
ĠDoc ument
ĠC ell
p oints
C OM
Ġupgr aded
ĠK ap
app ropri
ed i
imens ional
Ġnob le
Ġprovinc ial
ast ically
cl ick
Ġbuck et
ĠM echan
Ġsew ing
EN TS
ĠR A
Ġtra its
Ġresear cher
M aster
Ġb aked
Ġsun set
Ġinnov ations
o ard
D ear
Ġinform al
Ġcomm od
ak u
Ġcomp ounds
ĠEgypt ian
Ġprison ers
ĠL ag
m ath
Ġlack ing
p ine
Ġun for
ĠN J
D istr
per ed
Ġart ic
Ġdr ill
Ġautom obile
ĠPer ry
Pr ice
Ġrem ainder
p aper
ĠF ellow
epend ence
Ġexpatri ate
ubs cribe
Ġexami ned
Ġst ew
Ġn it
Ġsell s
grap h
Ġgl ance
Ġcustom s
ĠS r
Ġsens es
ab e
ĠHel en
Ġcalc ulate
Ġen lar
ĠN an
Ġdash board
Ġn aked
N G
Ġext ensively
ĠCom plete
Ġch i
Ġresearch ing
ĠS it
Ġpharm aceutical
Ġrep orter
Ġc ement
ĠPhys ical
Ġbr ides
ĠCons ervation
Ġinc on
Ġtax i
Ġbar g
Ġhold ers
N T
Sh ould
ess a
Ġac ids
Ġm esh
199 6
Ġed itorial
Ġsound track
Ġfinal s
Ġl ane
ĠS tra
Ġc ycles
ĠOther wise
ION S
Ġvis ually
rol ogy
bec ca
us er
Ġillustr ated
ĠDr aw
ĠL ith
Ġshe er
ĠN ancy
Ġkind ness
n ik
ĠN ad
Ġassemb led
ĠS old
now n
ĠOp tions
Ġrecruit ing
ĠF itness
ĠN athan
Ġw ounded
Ġround ed
ew ater
cri pts
pe are
ĠTh r
ĠBut ter
ĠPict ures
ĠG ri
Ġim aging
hys ical
Ġpro st
Ġconsequ ence
ĠBr istol
D an
vent ions
Ġ6 2
Sh ort
Ġsubscri bers
Ġour s
ak y
H ol
r ange
Ġphys icians
ĠK on
Â £
orks hire
J im
ĠH igher
ow ing
ĠR ams
Ġcou pled
Will iam
Ge orge
Ġthick ness
ĠAp ps
Ġsch emes
M obile
ang le
Ġf ert
Ġf iscal
Ġbe ats
Ġn our
ĠTur ner
ĠChel sea
ĠWorks hop
ĠL ay
Ġsh ifting
Ġeat en
Ġgen res
ĠSh ah
ĠH ours
isb ane
Ġfound ers
Ġfr act
ĠBr anch
Ġgl oss
ĠC anyon
Ġdies el
Ġbet a
Ġn eph
Ġfrustr ated
S ar
b ach
ĠJ ama
Ġm amm
Ġstat ue
ĠG am
Ġsubs idi
tori als
Ġsal mon
ĠAd vert
Ġfil med
S ervices
Ġref use
ĠW alt
ĠS id
Ġwash ed
Ġv iral
Ġpra ised
Ġd read
U P
Ġback drop
Ġcre ep
ĠCert ificate
c ap
ĠTit le
f ocus
Ġsimpl icity
im age
Ġtr aged
Ġinv ent
ĠS ugar
Ġto dd
G ive
C y
reat h
> >
Ġtravel ers
Ġcer amic
Ġtail or
H elp
Ġover h
Ġlay ing
Ġed itors
ol ia
Ġsh irts
St ill
ens is
Ġemer ge
Ġs ore
U l
n nam
Ġproto type
ĠBeaut iful
Ġsimilar ly
Ġadministr ator
u art
D ani
Ġbe es
c ia
ĠSymp hony
en ne
fol k
Ġor chestra
Ġc ables
ambo o
Ġfe ver
eli n
Ġreal ised
d ep
ress es
Ġr ider
Ġev olve
f amily
Ġcris p
ok a
ĠE ther
ĠC ream
ico le
Ġbub ble
ĠF ed
s ub
ĠM t
ĠVinc ent
Ġcap ac
N eed
Ġdisc on
enez uel
sen al
Ġep id
ĠX box
Ġm apping
ĠEqu ipment
Cl oud
M iss
ĠW ing
Ġen gr
cl usive
Com ment
um atic
Ġcelebr ations
Ġdecre ased
Ġcoll aps
Ġtow el
Ġinstruc tors
ĠNe il
Ġl av
Ġslow er
h resh
( )
Ġinev itable
Ġamb ass
ĠPet e
ĠR isk
Ġequ ality
Ġf u
t hresh
Ġinv is
199 5
Ġmet als
akes peare
Ġthought ful
Ġadjust ment
Ġwor ries
En joy
ust ed
tori ous
Ġhoriz ontal
Ġur ge
ph ant
Ġprofessional ism
ĠT ib
Ġ193 7
Ġ tens
ĠUs ers
ĠAr n
Ġrank ings
ĠMain tenance
tec hn
ĠOr lando
Ġqu ad
ĠR ules
Ġ6 3
Ġpoor ly
Ġsol ved
ito l
Ġtheoret ical
Ġguitar ist
or f
ur ers
Ġill umin
h ad
ut ers
H and
Ġr i
Ġrevolution ary
ĠH az
Ġpr one
Ġform ally
ĠComm ander
ĠConsult ing
Ġguarant ees
ĠSouth east
un ks
ĠCh oice
Ġgrab bed
Ġsim ulation
Ġdemonstr ation
Ġacknowled ged
Ġet hics
al ph
Ġd ancers
Ġmetab ol
Ġj aw
ĠP enn
ĠNor man
Ġ19 14
Ġl id
ĠBen jamin
Ġh ect
Ġ umb
F iled
Ġfor ums
ĠCateg ories
Ġunpre cedented
Ġstar ter
i nnam
ĠRes ource
ĠHarr ison
ĠCor p
Ġsp ite
Ġcommunic ating
Ġexc av
Ġsubscri be
ĠP ython
em ption
re ction
Ġ aug
Ġrenew ed
W E
Ġ9 00
E asy
Ġdist ancing
Ġair line
ĠReg ardless
ĠAnalyt ics
Ġbeat en
ĠW ITH
ar an
uk a
Ġins ert
De ath
no x
ĠF oot
Ġador able
ac i
Ġd ull
ot ional
Ġcont amin
ĠAgricult ure
Ġref i
cast le
Ġfoot print
Ġfilm ing
St ation
Ġext ending
onti n
ĠH app
ĠInd ex
iction ary
Ġver ification
ĠA RE
Ġreview ing
op ic
or ms
app ro
n ters
Ġ1 30
Ġ theft
Ġposit ively
Ġlaugh ing
ows ki
ĠAg reement
Ġstory telling
Ġtu ition
Ġf ighter
Ġrehab ilitation
ĠHung ary
ĠKar l
Ġrep ay
Ġreceip t
Ġtransl ate
ĠTechn ologies
Ġcand le
Ġper c
ĠBr ing
exp ensive
Ġinquir y
Ġdesper ate
Ġto b
Ġin nings
Ġintent ions
Ġtu tor
Ġs ang
nch ron
ĠAm bass
ict ive
ĠTri nity
Ġcontr ary
le m
Comm unity
uli n
Ġd ense
Ġele ven
bu ild
ĠEvent ually
â Ĺ
Ġj ersey
Qu ick
Ġm asters
ĠNov a
Ġdep uty
b led
ĠVic tor
ĠCarl os
oli n
ĠVol ume
c ity
Ġmid st
ours es
Ġinterview ed
Ġaw ful
Ġalign ed
P erson
Ġportra its
Ġfor cing
Ġ Ä
ĠW es
as ia
Ġimag ery
Ġdys function
ĠMon itor
c amp
ĠProgram me
ĠStor age
ĠNe braska
T weet
s ong
ĠPay Pal
Ġsuggest ing
ĠMet ropolitan
et on
Ġunder go
Ġblank et
Ġor ches
Ġtrad ed
Ġtrib e
c ill
Ġ6 8
c re
f alls
ĠV IP
Ġbr ave
ĠEag le
ĠOp portun
Ġang el
ĠCl are
Ġcryptocur rency
ĠJess ica
ass i
M ad
à ¥
tor m
Ġgard ening
Ġass ure
Ġbe am
ke ley
Ġpick up
ĠInter view
Ġpro long
Ġenvironment ally
ert ation
Ġquiet ly
Ġsp am
Ġnot ing
ĠSp a
p tor
ut ing
ĠG A
ced es
Ġd ont
ut t
Ġcare s
ĠTy ler
Ġopt ical
ĠDen nis
Ġshort age
ov o
Ġcreat ure
Ġactiv ated
Ġ19 17
Ġsearch es
au er
Ġbreak down
k ens
ĠId aho
ĠR ico
Ġabs ent
s App
Ġh ier
ĠS ter
Ġeight h
Con nect
Ġse aled
or por
ĠChap el
ĠP H
Cur rent
Ġdr agon
Th ursday
Ġtim eless
ĠLe v
au kee
c ers
Ġste ering
ĠH unt
ĠHar bor
Ġ thresh
ĠT ed
ĠEag les
ĠStr ong
Ġpersonal ities
tori a
Ġcond em
Ġlaugh ed
Ġreh ears
Ġsum mar
Ġneighborhood s
ĠÃ ¢
ĠR at
abul ary
Ġl asts
ĠT ag
Ġg um
Ind ian
Ġreason ably
ĠOr iginal
Ġproud ly
Ġ 000
Ġdistr ibute
ĠAdvent ure
ide os
atter y
ĠFl ight
pare nts
j ections
Ġless er
c ost
Ġsh ifted
ne x
ĠB A
Ġlit igation
Ġreput able
Ġwrest ling
Ġembro ider
Ġstrong est
Ġimport ed
ĠT as
Ġdef ending
Ġmerch ant
Ġsl ice
ĠStart ing
ĠM B
rell a
ud ge
esp ecially
M aking
on ed
ĠC amb
ĠS atur
at able
Ġpred icted
Ġproceed ings
Ġw ages
ĠIn struc
ine a
ist ence
Ġpas tor
ĠNot es
R esp
Ġi ter
Ġcon gress
ĠY u
S I
our cing
Ġpot ato
m ay
Ġtr apped
Ġfr action
av il
Ġfr ight
Ġ19 19
Ġ9 8
Sm all
ĠG hana
ator ies
Rec ent
Ġn ode
ĠH orn
Ġmer ged
S everal
om o
p res
Off icial
Ġlif elong
ĠM ob
ibl ical
ĠM alt
B ill
Ġski ing
Ġattr ibuted
L ou
F lor
Ġrel uct
ĠSu ite
Ġcompliment ary
iz on
g irl
ĠNav al
Ġtrans fers
ĠGrad uate
oc ity
qu al
Ġan ten
ĠM ong
fr ame
ĠY am
r als
Ġshall ow
ĠG rove
st ud
ab el
ĠM ans
ĠSk ills
re ne
ĠH A
Ġapp rent
Le g
ĠS ize
F ore
ĠW ag
Ġpro ph
S ummer
ĠDan ny
Bu ilding
P ass
ip edia
Ġc akes
As k
Ġaff ection
r age
Ġher b
ĠP le
Ġl ending
Ġyear ly
Ġwarm ing
Ġl ively
le en
Ġmet ap
Ġb espoke
l ings
ĠTe aching
ĠR ice
et ta
ĠEngine er
S ources
Ġf ights
m are
Ġsoc ieties
Austr alian
f an
ĠAny one
A ud
ĠD ow
Ġpract iced
Ġrespond ing
e b
Ġf led
ĠHon ey
ĠS aints
ĠSoc cer
wh eel
hol m
ĠM BA
ĠB und
ĠM ental
innam on
Ġp est
s tory
ho ot
Cur rently
Ġprogress ion
ĠG a
Ġcred ited
IT E
ĠK el
ĠColumb us
Ġliter acy
ĠCr ime
o ors
Ġmem br
Ġtrav elled
Ġmic roph
Ġer r
power ed
Ġsurv iving
Ġtop ped
Ġind ication
Ġw ai
Ġpaper work
Å «
S ervice
F ire
ĠW r
Ġcho ir
Ġ7 6
. ),
g ary
Ġ tier
disc iplinary
ĠWild life
ĠJul ie
ĠTh under
id ency
Ġdis tor
ĠRec overy
t ic
p al
ĠR AM
Ġindic ating
ĠY orkshire
Ġn omination
ĠV ik
um per
199 4
ung e
Ġpay day
s i
ĠCh and
Ġsmart phones
ĠBill board
y ards
ĠSh aw
ĠPar ad
Ġcan al
og g
Ġintim id
duc t
ĠMuslim s
ĠArab ic
ĠL ions
Ġev ac
ĠC AN
c ourse
ĠCr u
qu i
b ia
Ġfulf illing
Ġencour agement
ĠMor oc
Ġcry ing
C B
Ġgall eries
ĠPsych ology
m ain
ĠT ab
Ġbankrupt cy
S ave
Ġst urdy
Ġhum ble
Ġart if
op l
Ġimm ense
v or
ik ed
Ġdes c
anc ies
ĠSn ap
ĠCub a
Ġcompet ent
Ġ6 7
Ġd imin
ĠC atherine
ĠComm ons
N or
ĠCustom ers
at isf
Ġcomfort ably
Ġgr asp
ĠGu ild
ĠAlf red
Ġansw ering
Ġresil ience
Ġout lined
Ġav iation
Ġg er
ar us
ĠW a
Ġincorpor ating
Ġ193 5
Ġabort ion
ĠDe gree
Ġaffili ated
ĠRe lease
Ġmar ble
Ch ildren
Ġsens ation
1 000
iv ated
ĠT amil
Ġprot agon
Ġconcentr ated
ĠPhoto s
ĠTr uth
ing les
N Y
ĠG ummies
ĠB asketball
ĠCli ent
Ġcomment ary
d ing
se en
Ġcoordin ator
Ġinv oice
Ġneed le
bor o
s l
ĠZ ero
ĠVerm ont
ĠMat hem
Ġwater proof
ĠS em
Ġcontrovers y
F un
Â «
Ġre nder
Ġqual ifications
an ium
Ġactiv ate
Ġp ads
Ġpres ervation
ã Ģ
ĠWe ather
Ġoff set
ke ys
Ġgod s
Ġdiv ide
Ġbegin ner
P an
ous es
T able
Ġ8 8
Ġd os
Ġun to
K en
ĠSh ar
od ium
Ġdelight ful
Ġuns ure
? âĢĻ
Ġpic nic
Ġf lesh
ĠAct ive
ĠBern ard
ver e
Ġam azed
ĠD rink
w oman
ĠLe o
ad ers
Ġsoc ially
Ġrem inis
Ġsup ermark
Ġstart ups
ĠArt ists
m at
ĠCont emporary
M icro
ĠG h
Ġcoordin ate
Ġcert ificates
Ġhorri ble
ĠRod r
ri al
Q ue
Ġdemonstr ates
G C
ro v
ĠG aming
. :
Ġtr io
ĠCur rent
H C
Ġdam n
bo at
ĠInter est
c ountry
ĠW ang
est ablished
Ġli ning
Ġimp rison
ĠRog ers
Ġban ner
Ġh orn
aster y
Ġbar n
ĠC E
d ue
Ġbo om
Ġinsp ir
e g
Ġcomp ilation
P ut
ĠQu arter
ĠOper ation
P et
V ic
ĠGrow t
s or
t uck
ĠAssess ment
Ġcusto dy
Ġsal on
L at
Ġcarto on
Ġreve aling
Ġgood ness
Ġ19 29
Ġconsider ations
DA Y
ĠM umbai
Ġ19 10
Ġcrowd s
b ad
ĠP ent
ĠAthlet ic
Ġreli eve
ĠR ugby
ĠSc ar
ĠAthen s
u ition
Ġrow s
ĠF o
E vent
Ġsomet ime
Ġp ec
Ġcar riers
Ġpal ette
Ġproxim ity
Ġhum idity
ĠG or
Ġm all
ĠP arents
ĠCoordin ator
Ġtechn ically
Ġfix ing
ĠL ate
po ons
ĠCr uz
Olymp ic
ĠAud i
ent i
Ġin expensive
Ġm ate
Or der
Ġgl am
Ġam ple
all ic
ĠOtt awa
n els
Ġappro x
AC H
f illed
Ġre per
Ġprec aut
ĠEl li
itch es
Ġsurge on
Ġl od
Ġtrad ers
w aukee
ĠF itz
ĠE thiop
Ġjournal ism
uck land
ĠGrowt h
ĠLiber al
Ġexp ans
Disc over
ĠK os
ĠS pl
Ġelev ation
Ġnutrition al
P roduc
Ġg ates
Ġsurve illance
Ġpun ct
Ġgen ius
Ġvine gar
Ġbal con
Cl ub
T uesday
ĠInter ior
T alk
Ġbe verage
c os
ĠK yle
ĠD A
ĠT iger
ĠSo ft
Ġham mer
Ġmi nt
ĠS L
Ġdow nt
Ġacqu iring
ĠAl most
ĠS ens
Ġkey word
ĠCry stal
Fr ank
Over all
Ġspec ify
an as
o T
ĠAd ult
Ġw rink
uss els
G M
Ġn odd
ĠN one
+ +
Ġnot ifications
Ġconstr aints
ĠGu id
Ġexhib its
Ġsurviv ors
ĠCamer on
x ual
w atch
ĠJour ney
ĠEd wards
Ġexch anges
Ġrac ism
Ġb illing
Pl us
Ġens emble
C li
ĠSh akespeare
Ġcountry side
ĠMan aging
Ġpump s
Ġsc ales
b ast
Ġdecor ations
Ã «
ĠFred erick
sec ond
erc ise
Ġwond ers
Ġharm on
Ġsty ling
Ġcons iders
Ġ193 3
Ġstr ap
Ġgo ogle
Ġ7 8
ĠE ither
ĠExper t
olut ely
Ġfe eds
ĠCl aud
er ic
ĠBr isbane
Ġfiction al
ĠFA Q
Ġunemploy ment
Ġsent ences
n at
Ġelectr on
pl aces
ĠIde as
am ili
Ġrad ar
Ġac ute
imp se
Ġpol ar
ĠPlan et
Ġ[ ...]
ĠLiber ty
ĠMo z
ch ild
Ġexhib ited
roduct ive
Ġdry ing
Ġ9 6
Ġgl uten
ĠB L
Ġhe els
Ġseason ed
ir atory
Ġs q
Ġel astic
ĠTar get
Ġf og
Ġdon ors
Ġl ender
T our
erg arten
ĠBB Q
US A
Ġsusp ected
ac a
Ġpure ly
Ġincent ives
** **
Ġappropri ately
Ġal tered
Ġrou lette
AR N
Ġbree ze
Ġcoll ar
ĠMc Donald
ex per
ĠSched ule
Ġc elebrities
ĠHealth care
ĠAssoci ates
Ġper former
Ġwork outs
ĠJam ie
Ġlik elihood
Ġterr ific
Ġang les
fer red
Ġlear nt
Ġcongr at
oph om
h l
Ġprompt ly
ĠAddition al
Ġstr ips
ĠMag n
ĠV I
Ġtext ures
Ġhard est
re f
Ġk i
or ph
.. ...
Per haps
ĠTe ams
Ġn u
io xid
B ER
Ġcomp aring
ĠP D
ĠClin ical
me ga
ĠUn iverse
ĠC incinnati
Fe atures
Ġ6 1
Ġdecor ation
Ġy arn
Ġprop ri
Ġmod ifications
Ġport ions
K ing
Ġdam aging
Ġhung er
ĠLO VE
Ġbe g
Ġdes irable
Ġpre liminary
Ġbe e
ĠG ospel
E ar
aj a
Ġacc redited
Ġindic ator
ĠAp pe
Ġcred entials
ĠBel gian
ĠN BC
Ġfr ied
W ednesday
Ġcr uel
Ġdark er
Ġcrowd ed
Ġinv ented
ĠS R
Ġmoist ur
ĠGo ing
ĠL amb
L earning
Ġcle aring
ĠExcell ence
Ġpharm acy
load ing
Ġhome town
Ġhistor ically
c ue
ĠE ight
Ġsch olar
ar ations
Ġmil it
Ġillustr ation
ĠMon te
Ġdefi ning
ĠS ant
Ġten ure
ĠAv oid
Ġno on
Ġaccount ability
199 3
Ġbr ake
old ing
am bers
ĠLuck ily
ĠDisc over
ĠB un
ĠL ap
de velop
Ġfi xtures
, '
P RO
Ġm es
Ġcolle ague
ĠHind u
R ock
ĠO z
P i
199 2
Ġqual ification
Ġind irect
H R
asp oon
F orm
Ġtob acco
ĠBas ic
Ġsp ice
Ġsequ el
Ġwebin ar
Ġdemocr atic
cure ment
ĠJ ar
ĠN A
Ġexpress ions
Ġgar bage
ĠJ a
Ġfore most
Ġquarter back
on al
ĠSquad ron
uc ci
ĠL ac
ela ide
Ġ7 7
ĠTig ers
ĠHope fully
Ġprom pted
ĠV illa
ar ts
Ġ19 28
Ġindic ators
Ġpass ive
ĠChristian ity
Ġmail ing
Ġpred ecess
Ġl bs
ore n
Ġp anc
ĠAustr ian
ĠRoman ia
g ov
Ġb on
EN D
l it
h orn
Ġl as
Ġinnoc ent
Ġreli e
V e
We bsite
get table
arth a
ĠDou g
Ġti n
com p
Ġwh olesale
ĠStep han
Ġp ause
ow ers
ĠDise ase
ĠN y
Ġch ase
ĠB orn
Ġcontr ibutes
ĠH ey
Ġinvestig ating
Ġp ension
ĠDes k
Ġinj ection
ĠR ural
qu arter
Ġcompr ises
Ġcul inary
as ma
ĠVen ice
n ai
H ouse
Ġon ions
Ġscholars hips
Ġblow n
as tr
row ave
AR S
Ġdet ected
ĠCer tain
ĠĊĠĊ ĠĊĠĊ
Ġass uming
ĠMar io
ĠW atson
Ġinterns hip
Ġpal ace
oi ns
ĠJava Script
Ġbi as
ĠGuard ian
Ġdisc our
Ġra ises
Ġb ark
ĠAp ply
Ġsk irt
Ġvacci nation
ĠD elivery
ĠK ath
oy s
Ġi cons
Ġattach ment
Ġteen ager
Ġdeter ior
om on
Ġh ats
ĠM end
Ġinvis ible
Ġover see
Ġpill ow
Ġinv ites
Ġsupp ress
ĠT ip
ĠBob by
ĠB udget
Ġpol ished
ĠS end
ĠHer o
ĠSte vens
ĠD im
ĠS MS
Ġch ees
Ġgl impse
ĠJ ake
B ox
Ġblock ing
Ġanal og
Ġtal es
Ġfuck ing
Ġstep ping
ĠMult i
Ġaccident ally
ĠAcadem ic
Cus tomer
m ir
ĠT ak
b est
ast rop
Ġbus h
Ġtom ato
Ġclin ics
l ength
Ġsec uring
ĠE S
Ġres ur
Ġv ivid
os hi
Ġposition ing
Ġal lev
Ġorg ans
Ġsp ices
lect ive
L ater
Ġtr ay
ĠAd obe
W alk
Ġb od
W ould
Ġfaith ful
ĠI R
Ġvar iants
ĠDr ag
Ġc od
Ġaim ing
ĠBM W
Ġmid night
E ast
P rom
Ġequ ation
di n
ĠAct ually
ĠNAS A
ĠL eft
Ġcon gregation
ĠAb u
H ub
ro le
Ġug ly
Ġdele ted
ĠHung arian
Addition ally
ĠC ards
Ġso y
Ġstrengthen ing
Ġinvestig ations
ĠShan ghai
Ġqu iz
ĠPro to
Ġlic ensing
ĠL is
ian e
Ġve gg
Comm un
Ġgu iding
ĠNich olas
ĠInd igenous
Ġpres cribed
Ġtiss ues
ĠJul ia
ĠIran ian
h all
ment ioned
Ġpat ri
Ġlim iting
19 70
pr ising
Ġl enders
Ġadvis ory
Ġse afood
ĠPro t
pr om
Ex p
Ġm elt
Ġtun es
ĠSt ream
Ġcard i
Ġmar athon
ĠPrincip al
ib les
Ġexception ally
ĠN intendo
ret ty
Ġfor b
bs p
Ġdiscuss es
ĠY ang
ĠToy ota
Ġnot ified
ĠCh ev
uff icient
cri ptions
eal ous
Ġg inger
h riving
t hriving
Ġexpend it
ok u
Ġcontin ent
h h
Ġpat ron
Ġab oard
Ġ193 4
ĠS or
ĠColomb ia
Ġread ings
ix on
Ġinval uable
ĠSup ply
Ġfell owship
op ard
ĠFlore nce
Ã© r
ort on
ĠSet tings
Ġtransport ed
Ġloc om
Ġsh iny
Ġst ats
N E
Ġdest ro
St ay
Ġattack ing
ĠE SP
L ittle
Ġreg ulated
Ġdead ly
Ġfreel ance
Ġn ap
Ġsubmit ting
Ġse lections
P s
Ġmedal ists
Ġconst itution
Ġsemin ar
a unt
Ġunc omm
Ġpost ers
K A
Ġrev ised
ĠE at
ĠS ession
Ġaid s
bro ok
Ġhydro gen
Ġqu arant
ĠBlo om
inc are
ia o
ĠC M
Ġind oors
Ġsto ve
Ġw ished
Ġproject ed
Ġsun shine
Rich ard
s ay
ĠV enezuel
ĠHe avy
Ġflood ing
s ource
Ġres igned
Ġsw ift
Ġk g
Ġincent ive
Ġteen agers
Ġwe ed
Ġsm iling
Inst ead
Ġo un
ĠC ob
Ġsculpt ures
ĠSpec ific
Ġexplos ion
Ġscatter ed
ĠIniti ative
Ġportr ay
em pt
it ty
a ac
1 20
ĠT ampa
cons cious
Ġtre k
ai ro
ĠEn han
Ġenroll ment
ul ously
Ġaccount able
Ġrush ed
m el
ĠS ue
Ġf iring
ĠMin or
li ps
Ġwag ering
Ġ6 9
Ġw oke
ĠBer keley
Ġb ou
Ġpar ade
ĠPremi um
T en
heim er
Ġelimin ating
Ġimp osed
ĠR S
L aw
ĠWe i
ĠGr am
Ġpun ishment
ĠAl pha
ed a
f fer
Ġrel ies
M ajor
ĠSh ore
Ġout look
ĠStan ford
F our
or o
tr act
ĠTest ing
Ste ve
E r
Ġ thriving
Ġrec tang
e ur
ĠArab ia
Ġmedic ines
pt ic
Ġcr acks
Ġch im
ĠR uth
ĠC SS
ĠM I
p ace
v ity
ĠLie utenant
ĠJ oint
Ġasp ir
Ġridic ulous
ĠHe brew
be it
Ġtub es
Ġte aspoon
g om
Ġref lecting
ĠW ol
ĠP ix
ĠF est
Ġ193 2
b oth
is hi
Ġterri tories
Categ ory
ĠKnow ledge
Ġreg ener
Ġcor rid
ĠPer u
Ġdis charge
Ġdrain age
U B
h uman
Ġmolec ular
ĠSp ac
Ġther m
Ġf ost
ĠCh icken
Ġl ac
Al ong
or ie
st ation
ĠD R
Ġg reens
Ġconv icted
Ġs oda
n av
Ġsur name
et ric
ĠSpecial ist
ĠL uis
osi tory
ĠAdd ress
ah l
ĠL ov
Ġneighbour hood
Ġimpro v
ĠGener ation
ĠS ierra
ĠMun ich
Ġaddition s
Ġch ol
Ġsur pass
ĠCar r
Ġcompos ers
bl ock
Ġmark ing
uccess ful
ĠSw itch
T otal
Ġver se
Ġsl im
Ġam p
Ġbuild ers
pl ane
Ġquar ters
Ġfire place
ĠP ine
Ġqu oted
Ġout fits
Ġts p
ĠMembers hip
ĠArt icles
Ġplay offs
Ty pe
ĠFe ed
aw ays
Ġgr avity
ĠSimilar ly
ĠW ays
Ġfoss il
om ic
ĠPear l
ĠFil ip
ĠPict ure
Ġlog s
Ġunder taken
Ġfl ush
Ġcoal ition
F E
E ff
Au tom
Ġsy rup
Part icip
ĠR ent
ĠLink s
char ged
Ġc um
hav ior
ĠC elt
ĠWell s
hor a
ĠOr thodox
ĠDel aware
Ġbehavior al
ĠLiter ature
ere k
Ġclass rooms
199 1
nk nown
Ġalleged ly
Ġtradem ark
ical s
s a
Ġlengt hs
Ġeven ings
Ġmar ch
Ġ tes
ĠL ikes
Ġadvanc ement
ĠWar ner
ĠRep orts
ci ation
Ġelabor ate
Ġprevent ed
Ġmount ing
Ġspok es
Ġpubl ishers
Ġpost ure
Ġdr one
Ġspr ings
Ġdistingu ish
Tr avel
ĠM ead
ĠWork ers
ĠJeff erson
Ġcompl ain
Emp loy
ĠInf antry
Every thing
ĠE gg
att a
j ar
Ġall ies
ov al
Ġcost umes
amp ed
i y
Ġp unk
ĠTour ism
M ass
Ġac ne
Pro gram
ac ements
g ae
ot ics
X X
Ġl aughter
em ia
Ġsy nchron
Ġsoul s
Ġfail ures
Ġsof ten
Ġdoub les
fort unate
Ġinf ant
Ġfree ze
ĠCy ber
ĠFr ances
ĠIm agine
I r
ĠCirc uit
P I
Ġstr anger
Ġsever ely
Sports people
red ict
Ġto kens
F ac
ĠL loyd
Ġfro st
dra ul
Ġpil ots
str a
Ġst ems
ĠAsh ley
Ġreven ues
ar re
Ġapp e
Ã¶ r
it ated
ĠLet ter
ĠRet urn
m ile
Ġ19 12
Ġphil osoph
Ġ9 7
Ġcompan ions
Ġeval uated
J on
Ġsound ed
Ġ3 65
ĠCh art
Ġjurisd iction
Ġrem edy
aki n
Ġch lor
Ġdevast ating
Ġbath rooms
ĠForm ula
ĠS hen
ĠD M
W ood
ĠW end
L ow
IN D
Ġin ject
ĠH em
Be aut
Ġwi res
Ġten ant
et ti
Ġjew ellery
Ġher bal
w al
ĠR ac
ĠL ud
qu ired
Ġcur ated
Spe aking
ĠDr aft
appropri ate
sh irts
Ġad vers
Ġnorth east
r ings
ĠH arm
Ġunc over
Ġapp les
ĠR angers
o ids
Ġgu ilt
Ġscri pts
Ġkilomet ers
ie g
Ġun ity
es to
Ġrecip ients
cl ock
ĠM ut
Ġcontr ad
Ġoverlook ed
Ġhoriz on
ĠSU V
Ġun e
Ġstretch ing
Ġac rylic
ĊĊ Ġ
ĠFle et
Ġeduc ator
ĠB anks
p it
Ġdefi nes
ĠLa unch
Ġmed i
Ġworry ing
ĠL iz
Ġcand les
Ġupload ed
ĠZ en
Reg ister
Ġsemin ars
Ġrob ots
ĠFound er
us tees
ĠHe althy
Direc tor
itch ens
Ġsl ave
Ġdismiss ed
ĠE ug
Ġassess ed
ĠH amm
us ters
m und
ott a
low er
Ġcar ved
Ġretail er
Ġan onymous
ĠH onda
Ab stract
ĠPas tor
Ġunder take
boy s
ĠBat talion
ĠFac tory
uc ed
Ġpat rol
ĠPhill ips
ĠG iants
Ġphys i
ĠT ask
Ġh ilar
Ġcomp ost
Ġe cho
Ġro de
ull ivan
Ġ7 4
Ġwar mer
Ġrout ines
B esides
rit ical
Ġcher ry
B ibliography
writ ers
Ġ19 24
Ġdiet ary
om p
ĠW rest
ĠS F
Ġadvoc ates
ĠThe ory
Ġdemand ed
ĠA uckland
Ġg ifted
Ġ19 27
qu ito
ber y
Ġrec k
ĠH ack
Ġdatab ases
Ġl azy
his m
Ġbrows ing
Ġexped ition
Ġp ap
Ġpor ch
ĠAg ent
Ġpro pose
Ġsle eve
an ut
art hy
ul ative
Ġtr ump
ick er
ĠNut rition
Ġfl ies
ĠJo an
H ope
ag ging
Ġl ingu
Ġbudget s
io let
or ia
Ġunfor gettable
Ġrest art
Ð Ĥ
ĠCB S
Ġboard ing
- )
Ġ8 2
ĠH ob
Ġse as
az i
ĠSome one
Ġcare d
Ġrefer ral
Ġunder way
Ġun ions
Ġadministr ators
Ġspin ning
Ġtechn ician
is ch
ro e
ĠNe igh
ĠTh an
P H
amb ig
ards hip
c us
w en
Ġtraged y
unct ure
Ġpain ters
Ġto es
ĠT ommy
Ġnorth west
S chedule
le ys
T I
M or
Ġsk ate
Ġwe ights
umb ling
Ġall iance
ĠVers ion
her ic
ĠLuc as
des ign
IM E
Ġmed als
Ġsp ends
ĠFin nish
Ġant ique
ern ame
Ġphil osop
p ical
tom y
G H
obb ies
Ġportr ayed
b ai
M er
Ġsw allow
Ġconcept ual
Ġlic enses
âĺħ âĺħ
ĠBr ain
Ġpros ec
al one
V ill
Ġstere oty
Ġden y
Ġteen age
e althy
aho o
Ġabund ant
Start ing
Ġ tuck
Ġinaug ural
Ġand roid
Ġstat istical
h alf
ĠH our
ĠL il
ĠB ever
her d
ĠStand ards
Ġcaut ion
ĠWell ness
T unes
Ġy og
Ġ18 00
oun ce
enc ers
Ġexhaust ed
Ġuncle ar
Ġencoun ters
B ob
Ġp orn
ĠF O
ĠI M
ĠA A
d imensional
d irec
ĠHar vey
Ġst un
Ġsl iding
ĠN AT
Ġ19 22
Ġcompos itions
uss y
ĠBrig ade
ĠN SW
ĠB onus
ver ages
Ġchar itable
Ġsh rink
g ot
ĠSc out
ĠPen insula
Ġhe ater
ĠDown town
Ġ19 16
B B
Ġesc al
Ġmo tors
ĠEx cel
ak ery
Trans port
Ġtrigger ed
Ġimm un
R ail
T reat
Ġaccompany ing
C as
ĠS K
Ġkid ney
Ġf erry
ĠCom ics
ĠGu est
ĠS ki
Ġl os
Ġpatch es
Ġ193 1
Th omas
ul ent
Ġknock ed
Ġcon ve
ĠFell owship
ĠDr ug
Ġ19 15
yl an
Ġvacci nes
c am
Ġd Ã©
Ġbe ers
z el
ĠBut ler
Ġhighlight ing
O kay
ĠBudd hist
k h
Ġgen es
f lies
Ġtest imony
Ġsle ek
ĠCr icket
ĠK ill
T re
ĠLabor atory
m ount
Ġmin isters
Ġadminis tered
d ec
Ġd ancer
ĠUltim ate
itr us
" ).
hr itis
Ġinst itute
Ġmar ginal
ad os
ĠR aid
Ġincorpor ates
Ġhe ights
ĠRepresent ative
pro v
ĠDesign er
ĠB ald
Ġuncomm on
ĠF it
Ġcr ust
Ġr am
it ably
k ov
Ġsc am
Ġcons ensus
ĠBirth day
ĠL ocation
cl usions
ĠL or
ĠEd die
Ġwh ist
ic acy
ĠGener ally
ip ed
ĠBlue tooth
ank ed
ĠAd elaide
Ġ19 25
on aut
Ġad verse
Ġpione er
ĠRec re
Ġsour ced
Ġut most
Ġpay roll
Ġflo at
Ġcancell ation
Ġorigin ated
M ade
Ġhous ed
Ġpriv ately
ĠK itt
Af ric
Ġrecomm ends
Pro s
Ġsof a
Ġs igh
ĠCo aching
Ġg ospel
ophom ore
Ġthem ed
ĠM ol
ĠMedic are
uff le
h end
Ġviol ation
Ġb un
Ġatt itudes
Ġlog ging
O k
ĠR C
Ġnost alg
Ġuniqu ely
ĠM Y
Ġdownload ing
ĠCan al
amili ar
ĠProduc tions
Ġgu it
ĠP erth
RE S
ĠTer ms
at hi
ĠWeek ly
Ġsle eves
Ġant ioxid
af ford
ĠJer emy
ĠS emi
ĠAm anda
ĠP ill
heart ed
ĠR aw
Ġsouth west
Ġpass port
198 9
ag le
os lav
ng t
Ġ19 21
Ġscen ic
Ġm aid
ĠCR M
ĠG y
Ġhorm one
ĠP oker
ic ers
ĠPod cast
Ġch rom
er i
orpor ated
ĠBl u
Ġ14 0
Ġnegoti ate
Ġintrig uing
Ch e
ĠLe eds
Ġanticip ate
Ġav id
Ġ7 3
Ġfemin ine
ĠEx tra
Ġcorre c
Ġf ighters
Ġbelie ving
amp agne
ah u
par ts
Ġr ifle
ĠP ure
Ġgreen house
to w
ĠM oving
Ġw reck
Ġperc ussion
Ġbe verages
Ã ª
ĠC afe
E xt
Ġoptim ized
an qu
ex pl
ĠSher iff
Ġquant um
Ġpractition er
ĠLuc y
Ġtrib es
Ġoff shore
Ġc afe
Ġdom ains
Ġstor ing
Ġ19 26
ĠC ensus
Ġp encil
iv ation
Ġs ax
IS S
ĠScholars hip
Ġintroduc es
A ug
Ġstick ing
Japan ese
ĠSt y
Ġscr ub
Ġass urance
f ef
Med ia
Ġbund le
Ġw ishing
ut ed
amp oo
Ġrecogn ise
ĠSac ram
H en
bl og
ĠM az
Ġstar red
ĠPier re
Ġbout ique
ĠS N
ĠCommun ist
ĠPan el
W ow
t read
ĠAlex and
alt hough
Ġb ang
Ġint act
F ootball
ĠGon z
ĠAl ban
ĠD ogs
Ġrock et
Ġb end
ĠS olution
aus es
ĠSp ider
Ġ tv
Ġunc ons
Ġacc laimed
e lectr
Ġfl ame
hi ns
Ġgather ings
Ġresid ency
ick y
Ġinquir ies
m ic
Ġris es
Ġd uck
ed ic
li ness
Ġgr ams
Ġble eding
cl op
V R
Ġsn ake
Ġr ays
Ġlisten ers
ĠF lex
Ge ography
Ġen vision
Ġspecial izing
ĠW rite
Ġrenew al
Ġdebut ed
L ocated
ĠCr is
Ġapplic ant
Ġcapt ures
J os
Ġc emetery
to ire
Ben efits
Ġguit ars
Un like
Ġpremi ered
Ġst ains
L and
Ġd well
Ġassoci ates
Ġdiss ertation
quire ments
Ġblack jack
il ia
Ġhonest y
Ġabsor bed
ll a
ester ol
Ġtrain ers
ish ops
Ġchampions hips
Ġthreat ening
Ġcommit ments
Ġun fortunate
f ood
ĠK ick
Ġle c
Ġbl oss
Ġb ake
gom ery
ĠSpe aker
n ate
f inals
ĠMo tors
ugg age
port ed
Ġn odes
Ġdipl om
ĠH aven
Ġrend ering
Ġexpect ation
Ġrec urring
ĠRes cue
pr actic
ĠRe ed
ro ke
ĠSur v
ĠComple x
Ġed itions
Ġhel met
ĠTe achers
ab ase
app le
Ġm im
ĠM ills
c hat
ĠE L
FA Q
f a
ĠBry an
Ġpen alties
Ġex empl
Q uality
N OT
l arge
A ns
J un
avor ite
iet h
ĠP am
Ġsurpr ises
en ic
Ġrel ates
Ġrebu ild
In formation
Ġch ess
B N
d ates
Ġcre ations
Ġlandsc aping
ĠTrans fer
r ams
ĠDef ence
pan ic
Se ason
Ġto e
ĠRail road
ĠR d
P ark
Ġb ent
l ate
9 00
Ġex ceptions
erm at
omm ended
Ġind ie
Ġmat rix
ĠB omb
Ġdr ummer
Ġrep aired
ĠBl ake
Ġthread s
ag ar
In vest
Ġqu ot
Ġmarket ers
Ġor t
ĠL ocated
Ġdisp utes
Ġrec alled
f inal
Br and
ena issance
bers ecurity
Ġdang ers
Ġle agues
R un
Ġc ough
S end
Ġdisp ers
Ġn a
ĠEp isode
ĠT ot
ĠPh ase
ĠNaz i
Ġ16 0
ach ment
her o
Ġseam lessly
ĠSy l
ĠPre vention
ĠSur gery
Ä ĥ
Ġfore front
Ġcompet itor
Ġen light
Ä «
ĠN HL
Ġgr ammar
ĠMer cedes
Ġj okes
Ġunder taking
Ġinc oming
Ġbrand ed
h rows
ĠAir lines
Ġcalc ium
Rec ently
ĠR alph
ĠT all
Ġmunicipal ities
Ġcomp ression
ĠAgain st
ĠB ent
Ġus eless
oth ic
t hrows
Europe an
Ġinter ventions
ĠF oster
Ġmathem atical
f y
Sm art
ĠOb viously
Ġs atur
Ġp ars
G ame
Ġlo os
flow er
Ġ7 1
Ġ tread
Ġ19 11
Ġgl uc
Ġreal izing
ĠMil waukee
Ġver ified
Ġpos es
Ġcheck out
Ġdet r
Ġdiag nostic
Ġcr unch
s im
ph abet
ĠEduc ational
) )
AS H
ok en
e lection
Ġres ervations
ĠSong s
ĠN HS
Ġnom ine
ĠLeg end
ĠFI FA
ĠK un
S pring
Ġ9 2
Priv ate
n se
ro ts
ing ham
ĠI van
Ġmac ro
Ġab ol
u tor
ĠBr ussels
Ġmi ns
Ġorient ed
pat ient
Ġvolunte ering
Â ½
ĠCal gary
Ġwe aken
Ġparent ing
Ġcol ony
Ġdiam onds
ĠL ots
i enced
Ġl uc
Ġthresh old
lo e
ĠAny way
ĠN Z
Ġ19 23
ĠR edd
Ġlink ing
ĠI F
ĠG it
Ġrefriger ator
Ġfr ank
C ard
Ġmon ument
ĠSt uart
Ġfree zing
Ġg aze
Ġso vere
aun a
ĠN ice
Ġmush rooms
n ative
Ġassort ment
Ġnodd ed
Ġtransform ing
w y
Ġ8 4
Ġw ounds
Ġsouth east
" ),
ĠMaterial s
IG N
Ġplan es
ĠEl ite
Ġdist urb
an Ã§
Ġtouch down
Ġer up
f u
ĠCh ester
Ġsm iles
ov ascular
ĠLegisl ative
Ġclick s
T or
ĠR u
Chi na
br ush
Ġp ots
S elf
Ġad here
Ġ12 5
Ġspot light
Ġle aks
ĠAct ivities
Ġbreath taking
Ġvoc abulary
ĠC hip
l ifting
tom an
Ġscan ning
ĠPl aza
Ġlad der
Ġfur n
ĠD aw
ĠReg ular
ann el
Rep ort
Ġref urb
Ġtow ers
Ġtr unk
ĠCP U
Ġm um
Ev ents
fef efe
id ad
Ġopen ly
Ġank le
ĠA CT
ĠS cript
Ġl ush
Ġpropri etary
Ġun con
ĠAmbass ador
ĠHugh es
Ġsp ont
Ġelec t
Ġgener ates
Ġfavor able
Ġfl uct
Ġworth while
Ġprohib ited
Ġd umb
esp erson
ĠBr andon
Ġweb page
F igure
ĠC ialis
Ġstr angers
igi n
Ġnotice able
ĠPot ter
ik o
Ġle f
n h
Ġrend ered
Russ ian
Ġec ological
ĠOrgan ic
Imp ort
Ġover ly
Ġstap le
Ġmanus cript
ant ine
ĠLaure n
Ġphil anthrop
Ġinc ons
Ġmis con
Ġsh adows
ĠNew ton
Ġrest ing
Ġpar as
ĠS aw
Ġpump kin
Ġcrit ically
Ġdist ances
ĠCh ase
Ġimper ative
Ġk ills
l ift
is ive
Ġdis rupt
Ġacceler ate
Gr and
Ġball ot
im ir
Ġbreak through
Ġp ep
Ġbe et
ĠR T
ĠTw i
ĠKat ie
Ġextr action
Ġp ins
f ix
Th ings
Ġpro active
R oman
ĠRem ove
ti n
ee ks
ĠBrook s
Ġop ted
Ġmul tim
ew orks
T it
Ġsuccess es
is y
Ġor ch
ĠRet ail
ĠÃ ī
Ġle ap
Ġcount ed
Ġbusiness man
ĠN atal
ĠH ait
ens on
Al ways
M ember
Ġsp oon
Ġinvestig ated
f our
Ġcommit tees
Ġment ions
ĠU nd
P roduction
Ġneg lig
Pop ulated
Ġre els
J eff
Ġglor ious
ĠInt el
Ġprov es
Ġar row
Ġlon ely
Ġfresh man
ĠF DA
Ġkid n
ĠDes ert
ĠCateg ory
elling ton
ĠA ur
ĠLeban on
Ġro oted
ĠHe ights
Ġeleg ance
ĠDis covery
Ġvirus es
ol ence
Ġmon itors
lest on
te enth
Ġsent iment
O ct
ĠEnt reprene
ĠE ston
Ġer ect
Ġcomp ress
F re
pir acy
Ġ throws
ĠC urt
out ube
air ie
Ġd aunting
Ġfair y
ĠV ine
Ġc ottage
ĠNurs ing
Ġwith stand
Ġn ons
Ġsp icy
el o
Ġcivil ian
ar ious
Ġsafe guard
ĠSh adow
S us
ĠSal v
ĠBat man
s ort
d ig
c over
ĠTre nd
Ġfresh ly
Ġbox ing
ster one
ĠM T
ĠAv iation
ĠSub s
Ġcons c
ĠCal c
Ġmult itude
ne e
Ġappro ve
uff s
ill i
Ġm ould
T aking
our nal
Ġexc urs
Ġbre ach
b ecause
Ð¾ Ð
ĠL ives
Ġign or
es ters
ĠScient ific
I Z
on ge
ĠTy pically
ĠArch ives
ĠTer r
quar ium
Ġtrust worthy
Ġas ton
u j
Ġdetermi nes
f lo
Ġdisplay ing
v ic
Ġexp ose
oph one
Ġr ug
ĠL ip
Ġveget ation
Ġbut t
ĠV lad
Ġhook ed
ut i
Ġaccomplish ments
Ġboun ce
Ġplay ful
Ġearthqu ake
Ġcritic ized
ĠTik Tok
ĠPl ans
ER Y
ĠS ax
ump tions
S top
ri ages
Ġb acon
ĠTib et
ĠCond itions
Ġk icks
ub ric
intend ent
ĠSp encer
Ġvol untary
Through out
âĨ Ĳ
Ġnurs ery
" :
Ġback pack
Ġinf inite
Ġcollect ively
ĠOak land
ĠĠ Ġ
ĠCol onel
Ġp ics
Ġall ocated
Ġ9 3
Ġfest ive
Ġins ect
L uc
Ñ ĥ
âĢ¦ ..
Ġinter mediate
w elling
Ġre op
198 8
Ġdead lines
Ġ8 6
ire ction
Ġbl ades
Ġexpress ing
ĠJ obs
Ġwas ted
ĠS QL
Ġhead er
ĠV ir
Ġsh red
Ġ q
ĠInd ependence
ĠPay ment
we b
Ġhi nts
Ġterr ace
ĠG ov
ĠGroup s
ĠD ipl
ĠWy oming
ĠAng els
ain es
Ġunf air
Ġvol leyball
Ġflags hip
st ad
Ġretain ing
With i
Ġtight ly
Ġr ushing
Ġr uin
Withi n
ĠA uth
i ating
ble ms
Ġmurder ed
Ġattract ing
F ast
Ġadm ire
Ġinc ar
ĠR ush
ins pired
ĠV as
Ġwilling ness
Ī Ĵ
Ġb ail
tur n
ĠR av
p hoto
Ġpo ets
s al
B ring
ĠLith uan
Ġmy st
ĠT E
ood les
ĠAppl ications
Ġmind ful
Ġaest hetics
m atic
ĠRead y
ĠColl abor
Ġmass es
ĠArch ive
fi elder
Ġup side
M ess
ĠBeng al
or se
ĠP E
Ġallerg ies
Ġsent enced
Ġdig ging
Ġrent als
H ard
cast ing
Ġsuccess or
Ġdirec ting
ĠR ES
ĠB ach
ĠUl tra
ĠBo at
Ġcollabor ated
ed u
Ġsubsidi ary
ri en
ĠA ub
ĠCal endar
ĠRec ently
quir y
Ġstim ulate
Ġr ivals
Ġincon ven
ĠA V
Ġl ime
ĠShi eld
Ã¨ re
ĠW his
Ġsequ ences
ĠCli ents
bel iev
Ġimag i
Ġv oid
ĠI BM
Ġbro ch
S af
Ġtr agic
Ġlight ning
ĠStat istics
Creat ing
ĠNew castle
Ġ19 13
ek ing
ĠPr adesh
Ġgover ning
Ġtow els
icult ural
ĠEx hibition
ĠWhen ever
ĠA CC
ĠTr uck
Ġmentor ing
CO VID
J oe
ĠS we
art et
Ġaer ial
Ġl oses
Ġd are
ĠE co
ĠP oints
Ġactress es
ĠFood s
ĠIll ustr
te i
Ġplay off
Ġir regular
Ġremark s
Ġaccess ing
Ġpol ish
Ġc ad
am ar
Ġch ic
ĠIndustr ies
Col or
t ide
ĠM ode
t high
Ġb apt
Ġsimpl est
Ġapp ra
ĠTwi n
à ¹
cr afted
o ons
ues ts
lei n
Ġeven ly
mar ine
Ġch iro
ĠAnc ient
ar ians
ement ia
! ),
t ly
Ġo v
Ġv oy
Ġswitch es
ĠSup erv
Ġdetail ing
Ġvent ilation
Ġi Tunes
Tele vision
ĠK as
ĠPalest inian
Ġaw aken
Ġnum er
ĠS EC
Ġdat as
ĠPan ther
ĠPartners hip
Ġpull s
Ġ18 90
s ch
Ġres ide
ass is
ĠS ara
Ġchar ities
ĠBe er
ĠCl aire
Ġst ub
Ġstre ak
Ġesc aped
Ġreg ulate
Ġby pass
ĠCol le
Ġpers istent
Ġun av
Ġtur key
Ġlit ter
ath etic
av ier
Ġ15 00
ĠFant asy
Ġsuperv isor
Ġrou ter
il ateral
ĠB ears
Ġdon or
Ġre ef
ĠM iles
ĠSh ir
iv o
Ġsh ook
Ġins ured
With out
p ersonal
Mil itary
Ġesc orts
ĠIn j
Ġpro claim
N ET
Ġacadem y
ĠB S
Ġhorm ones
ĠH ood
c orn
Ġwe ars
Ġanaly zing
Ġalleg ations
AR K
ĠVeter ans
ob ic
VI EW
ood le
L ondon
oi ning
Ġarch ives
âĢ ²
Ġcock tails
Ġb iz
Ap ply
ĠMe g
ed uc
Ġav en
Ġresp iratory
Ġcontact ing
Ġoverl ooking
f eld
ĠLyn n
Ġmar vel
Ġfeas ible
roll er
Ġspons orship
Ġant hrop
m iral
Ġspat ial
Ġemp athy
Ġre lying
ĠPolit ics
Ġances tors
Ġpre y
nis m
Ġkind ly
hand ed
Ġn inth
ĠCol i
c ott
ade qu
You ng
ĠON E
ĠUg anda
ĠRec e
t les
ĠBur n
net h
p his
N EW
ĠAl t
on ey
Ġ à¤
Ġtoler ance
t hir
Ing redients
avil ion
aun ted
ĠEngine ers
af il
ĠPhys ics
Ġhelicop ter
Ġcar tr
ito red
Sim ilar
umb ent
Ġbi ography
ĠD ash
Ġnav al
ĠT ap
Ġhalf way
b ek
Ġbal ancing
int age
ĠPhil osophy
Ġpi nch
D ev
Ġadvertis ements
ĠB ee
Ġc ialis
Ġheav ier
ic hi
dr awn
List en
ĠAthlet ics
ĠH amb
D B
Ġconvenient ly
ĠB uch
arm ing
k ok
ens en
xt on
Ġcelebr ates
Ġfragr ance
Ġapp liance
Ġconv iction
G allery
Com mercial
Ġpr ic
Ġclear ance
Ġtr aff
ĠCh ocolate
Ġsecure ly
Ġr anch
Ġmi nes
M ENT
ĠW u
Ġinv o
Ġmob il
Ġprofess ors
ici encies
art a
ĠW ool
b ling
Ġchap el
im eter
Ġcoordin ated
ac cess
Ġiniti ate
Ġb ishop
198 7
Ġsam pling
ĠTre k
uls ion
Ġcat aly
Ġconst itutional
ros ion
od i
Ġinher ent
Ġelec toral
ĠFind ing
ĠTr aditional
Ġtw ent
Ġlabel ed
Ġro ok
ĠS ask
Ġqu ilt
ĠRe becca
Re quest
Ġmod ular
it ted
n to
Ġparagrap h
ĠJ ur
Ġv ag
Ġemp ire
Ġan at
zer bai
Ġl ol
Ġkind a
Ġex quisite
Ġbit coin
Ġnomin ations
Ġw ipe
Ġcream y
net te
ĠCom ing
Ġ8 7
ĠTH IS
os ition
Ġterror ist
Ġstret ched
ain er
IN T
min ster
Ġhead aches
Ġrib bon
ew atch
Ġp end
ĠCons umer
Ġrig orous
ĠRe quest
Ġlog ged
It alian
ID E
ĠCr ack
ÃŃ n
Ġqu il
ĠLic ense
ec onomic
Ġanaly st
ĠT ang
b ig
Ġv ou
ĠR hod
Ġdisappoint ment
bo hydr
ĠStrateg ic
ĠF ig
ĠCl ose
A nal
ĠF BI
Ġwrit ings
ĠCh uck
ĠPro s
C ert
ĠR unning
ĠT ours
Ġdoc tr
Ġur ged
ĠDer by
op tion
R en
ĠPer iod
ĠC apt
ĠRock y
Ġple asing
ĠEx c
AN CE
Ġ uk
P interest
Ġneighbor ing
us k
ĠAbb ey
gi ate
ould er
Ġeval uating
Sp ace
Ġow ning
And rew
Ġreform s
Ġfat al
19 60
ir ate
um en
Ġdial og
Ġp ending
udd y
Ġinsp ections
G P
Ġ7 9
ĠM illion
Ġsubstant ially
ĠPr ide
ĠCap itol
Ġbe ads
b ag
ĠK ur
Ind ividual
A I
d u
ĠH annah
ĠMarc us
Ġdoub led
ĠMP s
Ġsupply ing
ĠCroat ia
Ġgrand parents
Ġcom merce
ĠC row
Ġal erts
Ġsus cept
ut ton
grap hy
Ġsw ap
n ival
p ad
er tion
ĠBer g
Ġnot ify
im o
Ġlec tur
Ġdisc retion
Ġmir rors
Ġex h
Ġdign ity
Ġmic rowave
Ġgr av
B al
ĠB og
Ġcrew s
ĠPun j
Ġsub missions
Ġconc lude
inc ome
Ġbe an
Ġst aring
draul ic
Î ±
Ġbelong ed
Ġadv ancing
ĠH av
Ġc innamon
ĠBar n
Ġ thigh
focus ed
ho e
ĠMethod ist
ss on
Ġbl ended
Ġcl ue
Ġaccess ory
to sterone
Ġdrive way
Ġg y
Ġstor ms
play ing
ond o
Ġgr ains
Ġpri ncess
Ġut ilities
o j
Ġthr iller
gar ia
ĠShop ping
ĠMc L
Ġinv ention
ĠB ike
Ġbrut al
irst y
Ġbroadcast ing
Ġrep ro
Ġ8 9
Ġteam mates
Ġpost pon
Ġsk ull
Ġdece ased
ĠMont gomery
Ġjack pot
Ġquestion ed
Ġmil estone
ĠShip ping
op ath
res so
Ġshoot s
ĠAndre a
ĠB ark
Ġ8 3
Ġmicro sc
ĠX i
st ones
ĠSustain able
Ġshow ers
K at
Ġsp y
198 6
Ġbudd y
Ġb ucks
Ġ8 1
h ma
Ġli b
ch t
Ġrecover ing
ĠC oup
od ia
Ġfac tories
ĠâĢ ł
Ġcorre ction
ĠWik ipedia
erv atives
op al
Ġmon sters
ĠR enaissance
A sh
ig ion
Expl ore
Ġland mark
ric ing
Ġ thir
Y et
Ġacadem ics
Ġsad ly
qu are
ĠB end
ĠCr iminal
Christ ian
Ġrig id
Ġ9 4
Ġres i
Ġcomp liant
Ġintegr ating
ĠPr ague
Ġblow ing
Ġd ynasty
Ġj ealous
iling ual
ol esc
ĠSpot ify
ĠLem mon
ĠMus ical
Ġagre es
az er
ĠG ym
Ġrele v
Ġ ..
Ġrel ocated
Comm on
Ġres ervoir
ĠAnn iversary
Ġredes ign
ĠK end
ĠProfess ion
Ġ190 8
ĠB ri
ĠQuest ion
ĠSte am
Ġl ace
Ġr uins
am as
ĠD awn
ug o
lev ant
ĠL ights
ĠTrop hy
Ġmolec ules
Ġstick y
< /
um ably
Ġ( ,
ĠY ale
e er
h ology
ĠCons ervative
pt ical
ĠOr iginally
Ġinher ited
R ay
Ġin ception
row ning
Ġmand ate
Ġbenef ici
ĠPop ular
Ġplug ins
... "
Ġstuff ed
Ġintr icate
Ġf ocal
ne apolis
Mod ern
ĠM ist
Ġsh aft
and ed
Det ails
ĠM ig
f ill
Ġcollec tor
Ġe ternal
Ġdr afted
ĠR af
ist on
Ġanaly zed
Ġresi n
ĠSo x
Ġpres erving
ult an
Fe b
ign ment
Ġdri p
Ġaut onomous
Ġfo il
Ġunder water
Ġcr aw
Ġshop pers
ĠLGBT Q
iet al
Ġh alls
Ġref ere
Ġcalc ulations
198 5
ĠColi n
ĠH ook
c aster
b ishop
ĠResp onse
E ver
ĠSpac ewatch
ĠPort al
Ġsk incare
Ġclass ics
Ġsl ope
. ;
Ġsh aping
Ã© t
ĠJos Ã©
ĠS uit
ĠB less
ĠE VER
n est
Ù Ħ
ĠWi Fi
ĠBen nett
Ġgr ands
ĠWall ace
Ġoptim istic
ĠNiger ian
Ġg amb
arent ly
ĠP ump
Ġlear ns
ĠIs aac
Ġimper ial
Ġhilar ious
Exper ience
198 4
ĠR ib
F ive
head s
ĠStat ement
Ġl uggage
Å Ł
Ġpul se
Ġdecl are
ĠBai ley
ĠM ik
role um
Ġal titude
L ess
Ġs aus
p oon
ĠAbr aham
Ġpl ag
ĠT ank
Ġr ape
sy stem
Ġmem oir
OW N
Ġout dated
Ġanalyt ical
Ġactiv ation
c s
F ar
Ġgrap es
ĠHar per
ic ion
ĠA W
ĠM ine
ĠF iction
ĠC ities
ad min
Ġr apper
ambig uation
Ġempower ing
ĠOut door
li nt
Ġexp ects
d ict
Dani el
Ġz omb
anch e
ĠSte i
Ġn erves
Ap ple
J ess
ok o
Ġc ass
Ġsettle ments
G L
ĠL INE
Ġfree zer
Ġslic es
Ġne ur
ĠC i
ĠJo el
ĠR F
Ġlic ence
ĠC F
Ġviol ations
Ġmen us
Ġgad gets
ath a
ĠFor mer
Ġ ï¿½
Ġconfig ured
er ce
rie ved
ĠCh es
Char les
Ġfulf illed
ĠCom bi
ĠMen u
ĠG ur
ĠC ock
Ġmess y
Ġvulner ability
Ġf ing
Ġem igr
Ġmon itored
Ġmot if
M at
ĠD ress
ĠAm azing
ĠSer ge
ent e
Ġmerch ants
ĠPo etry
ĠCond ition
res istant
w r
ic one
ĠWar riors
Ġrenov ated
ĠSp i
ĠBre nd
affe ine
ĠCoal ition
U pon
Ġhe y
Ġmark ers
hat e
Not able
ĠSer bia
Ag ain
ĠFlo or
Ġaccep ts
ĠRes tor
ĠK ai
Con tr
Ġobs erving
il iation
ĠR ah
bl ack
amp ire
Ġpath way
ĠArn old
Ġwitness es
Ġsearch ed
y st
Ġtr aces
ju ven
ĠW ait
Ġtu torials
O O
ĠI gn
Ġ9 1
ĠOut side
Ġfr amed
ĠLeon ard
ĠW ear
sh eet
tei n
Ġtri umph
Ġord i
Ġo xid
w right
Ġprovinc es
ill es
Ġres orts
RE AT
or ro
ĠRub y
d og
k it
Ġmetabol ism
ĠIss ues
ĠPal mer
ĠElectr onic
j s
ang ered
C AR
Ġthr u
Ġhead phones
Ġcol oured
Ġaff irm
IS H
ĠWi nn
Ġc age
ĠCo x
Ġp seud
ant h
oot er
ĠC ord
aur us
Ġb ats
N atural
Ġcon form
han e
Ġattr ibute
Ġpadd le
Ġillness es
ĠMunicip al
Ġsens ible
ĠP HP
g ender
Ġenvelop e
en berg
aff le
Ġtrop hy
ĠChe ap
At l
ĠMu hammad
Ġch asing
ĠO bl
Ġhistori ans
Ġfur nishing
Ġanalys es
ĠNor folk
Ġdep icted
Ġquarant ine
Ġpress ures
iod iversity
ĠD ame
Ġillustr ate
Ġblog ger
est ones
ĠGabri el
Ġch orus
ĠManufact uring
ĠSp ons
ĠBal i
ĠM ight
E ss
ĠN icole
Ġsoc io
Ġvol can
Ġ ted
ric ia
Ġc ents
ĠAr ctic
Ġcoll ision
Ġelig ibility
ĠSouth west
ĠR ule
Ġb ore
Ġsl opes
ĠÂ ½
Ġdef ender
ĠS ister
Ġstead ily
ar se
ĠR ide
Ġbalcon y
Ġl aps
aret te
ĠVit amin
are tt
r um
ĠBreak fast
Ġrecogn izes
Ġtrend y
Stud ent
Ġsong writer
Ġsing ular
Ġoppos ing
Ġspl end
Ġimpl ant
ĠW ash
en os
Ġcompos ite
atch es
Ġhand ic
Cont ent
ple asant
Ġneg lect
ĠGerm ans
ph alt
ĠDiv ine
ill on
Ġ aka
Ġm ice
Ġrep ository
Ġst ance
ĠVolunte er
fi n
Ġoff s
ĠA j
Ġmin is
ag n
Ġ18 80
b usiness
ĠP up
Med ical
ĠG ang
Ġball oon
Ġobs essed
ĠR ever
up uncture
aver se
Id ent
Ġtrib al
stan bul
ĠEss ays
WH AT
Ġche ek
avi n
Ġmark er
Com pany
Ġpath ways
) ?
Ġmod ification
ĠM AN
Ġpit cher
Ġmicroph one
at ra
con tr
Ġam end
Ġbal let
Ġdiscip les
Ġbot an
Ġteaching s
aval ry
ĠSand y
ĠB oot
Ġconfig ure
ĠCh ain
Ġcy linder
Ġman eu
Ġtem ples
ĠM ai
ell ation
L ine
h arm
Ġdeb ts
Ġrep orters
uc lear
Ġunp redict
ok i
Ġcitizens hip
Ġimpl ants
ĠHe ather
ĠS hin
Ġenhan ces
Ġsett ling
Ġgl ac
link s
ist ani
ĠP and
Ġfire f
ol lo
ass y
A K
Ġgood bye
ĠM aps
Ġchol esterol
n ja
Ġpromi n
ĠAssist ance
p us
ĠP red
ey e
Ġhope ful
h ee
Ġr ui
ĠH ors
Ġeconom ical
Pro per
Ġcred ibility
Ġtang ible
ap ist
val uation
S n
Ġgr avel
Ġoptim um
ĠF ri
Ġprov ing
os it
Ġdecor ating
Ġh ips
K ar
Ġremod eling
red itation
ĠFil ms
There fore
ĠA way
ĠUnder standing
ces ter
Ġsign age
ĠD od
Ġear rings
re asing
Pl ot
Ġd ol
B T
Ġarm or
Ġst all
Ġfriends hips
ro c
ĠVietnam ese
Ġcompassion ate
ĠBro s
Ġproblem atic
ĠP T
C oll
met ics
AG E
ngt h
Ġconc ur
Ġse ated
ri um
Ġdis ruption
ĠCr aw
Ġcollec tors
F und
Ġg ly
J ew
âĢ į
ĠCh ad
ie ge
Ġstr aps
Ġcrush ed
Ġ tide
ĠD rew
Ġmorning s
ĠSup ple
r idge
Ġreason ing
ĠDo ing
Ġh ose
ĠC rew
lass es
Ġtext ile
Ġend urance
ĠJ et
Ġb amboo
nit ude
Ġrele g
ul atory
ĠRE AL
Ġgar ner
ĠLead ers
S ubscribe
ĠM is
l ove
t apes
ro d
Ġtherap ies
ĠM es
ri ad
S i
Ġcatal ogue
S enior
Ġdownload s
Ġopen ings
Ġty ping
âĹ ı
ĠUs ed
Pre p
Sar ah
ou x
Ġexp orts
Ġsh ar
Ġprosper ity
Ġdoub ts
ĠMan ual
Ġins erted
u ite
re a
mont on
ĠW ellington
pt ive
ĠN GO
à ¦
ĠO g
Ġrep roduc
e very
Ġneck lace
E qu
Ġsp here
Chi ef
Ġjust ify
ĠList en
ĠA ware
Ġp ave
ĠMass age
pl ate
Cent ral
er d
Ġthere after
Ġauthent ication
Ġvaccin ated
B rian
Ġass umptions
sh ow
ĠCh a
P resent
Ġve ctor
iv ating
act ice
Ġte as
Ġste ak
ĠPeters burg
if ty
gener ation
gr ass
ĠA mp
Ġambass ador
Ġimpress ions
Ġeuro s
ho oting
ĠLo an
ĠElectr ical
ty ard
ac ey
ĠMem phis
Ġ ta
ĠST EM
Ġinter vals
Ġvisual s
oun ter
Ġstick ers
Ġmom s
Ġlives tock
Ġcalc ulation
ĠKn ights
ĠA ber
fect ure
ĠSy rian
ĠU AE
ĠFour t
ĠCabi net
Ġg odd
os ium
ĠC e
Not hing
Ġinteract ing
F eel
ĠDemocr at
re z
Ind ia
ĠWrit er
lev ard
Ã ¦
Ġhard wood
Ġn od
Ġweakness es
ĠI RS
Ġattr acts
Ġdist ress
ĠP ermalink
p se
ĠR ica
I X
Ġclar ify
Ġfold ed
Ġlung s
am o
Ġpharm ac
Ġemplo ying
ĠWhat sApp
Ġf el
Ġcard board
P DF
e ating
Ġf usion
ĠConcer t
Find ing
H uman
ĠDi nner
vent ional
ĠF ill
ĠB oss
K im
Ġcur ves
ĠC ort
Ġman ga
G iven
rep resent
Ġquestion ing
ol ation
G lobal
ens ation
Ġdi n
ĠA str
Ġrebu ilt
ĠFourt h
ĠFl at
Ġsp elling
Ġey el
R T
Ġremov es
Ac adem
Ġn aming
Ġdef ects
Ġrent ed
ux e
Ġfi bers
EM ENT
ĠEll en
Ġsc andal
ĠD ock
ĠIn to
ĠW aters
Ġreward ed
Ġpres ently
ĠK ash
Ġdefe ating
. ]
ĠBi ology
Ġsens ory
ew an
ind ing
Ġlaunch es
Ġsuc c
ĠCar bon
b ial
ĠK B
gr and
ĠMar athon
ĠTen nis
Ġf ats
Ġrel ay
Ġc ows
Ġdecor ate
Ġax is
Ġanten na
ĠC af
ĠF irm
ĠE b
ĠW ake
Ġvalid ation
Ġhur d
Ġscal p
lip se
ĠMed ium
ĠMar ina
ĠS ame
yl on
Ġexplicit ly
p ath
Ġinsp ect
imb urs
Ġspecific ation
ĠSol id
Ġp ests
Ġinst inct
C ry
osp ace
Ġstret ches
Ġ tapes
Chi nese
Ġsanc tuary
av o
ĠOr t
ĠF E
Ġreb ell
W C
ar ag
198 3
Ġl ob
Ġground ed
B ec
Ġunve iled
ĠPro test
S of
ĠFr am
ĠO kay
tt p
ĠS ak
ene g
act ical
Ġexp on
Ã© n
Ġlocks mith
ĠSw ift
cell ent
Ġdisag ree
ĠVis a
Ġexami ning
Ġreven ge
AM E
ĠN ike
ĠH ip
Ġte e
ĠB uc
Ġdec ay
ace ae
ĠFl ag
Ġver bal
ĠC el
ĠRecre ation
put er
Ġun st
ĠDri ver
Ġveget arian
Ġperce ive
Ġconstitu ency
ĠE lection
Ġf res
Ġop ener
L L
Ġd oses
est ly
Ġpat rons
ĠOwn er
ĠJul ian
Ġco ats
Ġe go
pr us
Ġarg u
Ġaccum ulated
e us
ĠKnow ing
ĠF lying
Ġclim bed
Ġmet ic
Ġinput s
dis ambiguation
Ġpe aks
Ġcorrespond ence
Ġdesper ately
ĠConf eder
ĠClass es
Ġdemonstr ating
s elling
ĠR an
ĠLou ise
Ġrem ix
lec tor
ĠCinem a
Ġf art
Th ird
Ġende avor
Ġartif acts
Ġbe ast
Ġemphas ize
Ġsurf ing
Ġgran ite
ĠCent ers
Ġpup pies
Review s
ic ating
ĠLad ies
Ġbelong ings
all i
Ġc ivic
p tors
U r
Ġs ophomore
Ġappe als
od ied
Ġhor r
Ġst ip
Ġbet ray
Ġsubs id
Ġadop ting
Ġthr one
ab we
p ic
Ġproceed ed
Ġumb rella
Ġmotiv ate
Ġprotagon ist
ĠAnn ie
ĠP epper
Ġkick ing
ris k
Ġdevelopment al
Ġper taining
Ġsm ells
Ġadjust ing
ĠBor ough
any a
Ġfrag ile
ĠStei n
Ġfr iction
Ġsh ining
ĠChr on
ĠPre vious
T ips
ĠInstall ation
od ic
Ġsystem atic
aw i
Tr aining
Ġcl an
Ġmetap hor
Ġcraf ting
Ġl anes
Ġco ated
Any way
ĠGil bert
ĠDev on
ĠStart ed
Ġlef to
Ġl odge
Ġpain ts
ul se
C am
Ġtheat rical
ĠG ear
Ġaccommod ations
Ġpreval ent
Ġmembr ane
ĠSe bast
Ġencry ption
ĠD iana
qu o
cel ain
Ġup wards
Ġbl ends
Ġbow ls
Ġtrans plant
Ġ }
ĠAd s
b ear
) "
ĠD ylan
Ġhead ache
man uel
zz le
ik ers
Ġinv asive
Ġk et
Ġrequest ing
ĠR ating
Ġsp rint
Ġgate way
Ġin adequ
Ġcolour ful
ant ha
Ġinter val
ĠCor ner
w rite
ĠOw en
h os
Ġdiag n
s to
ĠPers ian
P en
Ġcont ing
ĠMah ar
ĠNot ice
Ġgreet ed
Ġcheck list
Ġatt ent
Ġship ment
ĠO UR
p ark
Ġdef icit
ox y
let ters
ul ators
ĠN ine
ĠLe af
Ġp oured
Ġinstall ment
ĠAnt ar
omet ric
AN S
Ġauthent icity
Ġsl aves
Ġdecl aration
so ver
Ġred eem
ĠMem ory
Ġmir acle
E ns
ab lo
Writ ten
ĠNon etheless
x i
Ġinspir ational
Bet ween
ater nity
Ġpuzz les
Ġhur ry
ĠHop kins
ound ing
min ent
Ġ190 5
ĠH emp
ĠMess age
ol ph
Ġsp inal
T ex
an ic
Ġab normal
Ġscream ing
ĠGrand e
Ġdeliver ies
ĠP urchase
n fect
Ġamb ition
Ġ( ;
ĠSt ir
Ġanaly sts
Unc ategorized
Ġfat ty
te am
Ġlap tops
Ġcur ved
O s
Ġbeh ave
AT ED
Ġengine ered
ĠU ns
Ġexc el
Ġapp arel
Ġelev ator
Ġso othing
Ġhe el
Ġsh ells
Ġrev is
Ġn asty
Ġpil gr
en o
Ġarg ues
i nfect
Ġjour neys
ĠHol mes
ĠT ickets
e velop
Ġ3 000
Ġirr igation
Ġargu ably
Ġpod casts
Ġsynt hes
Ġmet allic
imb abwe
D M
ĠD ale
Ġph osp
ort ium
Ġrandom ly
ĠJess e
Ġhaz ards
ĠM otion
ce ans
Ġcryst als
ĠH ands
ĠJosh ua
re nal
co al
Ġ> >
Ġutil izes
n ely
gl ass
ĠK or
Ġd ye
Ġdr illing
Com pan
Ġprem ise
Ġsquee ze
Ġin ver
ĠM artha
ĠA F
Ġthr ill
Up date
ĠBas ically
L im
Ġeconom ies
own ers
T ACT
Ġdesign ation
ĠWrit ers
ĠQu ant
ĠF olk
ĠI oT
Ġins isted
ĠStep s
Ġpurs ued
3 50
Ġtr anqu
ĠIndian apolis
g rowing
Ġlon ge
Ġsw elling
ĠExp ect
Ġinter ven
ĠIss ue
ar is
ĠEll is
M a
Ġsad ness
Ġl acks
reg n
c ross
Ġw ager
Ġy east
Le vel
M ont
Ġsusp icious
G overnment
ĠR andy
hi eld
Ġfe ast
198 2
AR Y
Ġgeomet ry
Ġmill enn
ĠSecond ary
Rec eption
Ġpred ictions
Ġtr action
Ġhead lines
hr a
E li
ed o
Ġjump s
ĠEng agement
am y
Ġhazard ous
Ġflav ours
Ġinev itably
Ġbr akes
ad der
ĠBrad ley
ĠAh med
Ġc ried
own er
Ġessential s
Ġcul min
Ġun believ
ĠOt toman
ĠWalk ing
ĠZ oo
Ġs ug
rolog ical
ĠT ong
ĠLog an
Ġ190 6
Ġint ens
ur ous
Reg ular
A pr
Ġin box
ĠCamer a
Ġrent ing
Ġcontr ibutor
Cont i
ĠA zerbai
Ġ( ),
Ġc ort
Ġc el
St at
g ivers
ĠS ic
Ġvel ocity
Ġ `
Ġair ports
it ic
Ġf ade
ĠAch ieve
ĠIn ternal
os ion
Ġb iking
Ġdr ought
ug oslav
ĠPain ting
Ġimp art
Ġcontinu ity
ĠPro bably
Ġproto ty
eir a
o il
ĠPlay ing
ĠY i
ĠMin neapolis
Ġb ure
Ġer ected
ĠO UT
Ġcerem onies
ĠProv inc
our met
Ġcur b
yl um
Ġadvert ise
O l
Ġar oma
Ġ ]
ro se
Ġfi erce
vent h
ĠD j
G I
Ġas c
im an
Ġwild erness
Ġtrig gers
Ġge ographical
i nely
Ġcal ibr
Ġrust ic
ĠPow ell
E conom
Ġl amps
Ġw oven
Ġpredomin antly
Ġin ability
Ġins ane
ch y
Ġaw e
G ET
S ure
Ġdeb it
P ack
Ġban ana
Ġexceed ed
RE D
Ġfashion able
1 10
ĠOb ject
ĠS isters
Ġturn over
Ġro s
ĠL unch
P o
z one
ĠAl z
Ġmag net
Ġcounter parts
Ġr age
it as
ĠAnd r
â ľ
Ġmel ted
Ġpass ions
Ġvic tories
ĠHun ting
ĠSl ovak
y on
Ġlong time
ĠL on
ĠGu inea
Ġmer ger
Ġresil ient
ĠEx amples
Ġplan ner
Ġris ky
Ġconver ting
Ġphotograp hic
l ain
Ġdev ote
Ġfinal e
ĠU til
r ate
w ent
Ġh ay
ĠIs le
N ick
Ġfu els
Ġlonge vity
Ġcatch es
Ġroof s
Ġreconstr uction
ĠClar ke
less ness
ĠTr affic
ĠCar p
Ġro asted
ĠN ak
Ġsy mm
12 5
en es
Ġcompat ibility
Ġtherap ists
m un
Ġbre eds
Ġsexual ity
ĠE R
Ġpan or
ĠL iqu
Ġbench mark
ĠMo to
Ġhel m
ĠTes la
Ġhands ome
ĠCub an
ĠF ear
Ġprep arations
ĠDr ama
ĠCarol ine
Ġparam eter
ĠL ed
Ġadvis ors
st ed
OR D
ĠTe en
Ġcush ion
Ġbr ighter
e alth
Ġconsequ ently
Ġpro curement
ĠHy per
g rown
Ġparad ise
Ġdisappoint ing
f est
Ġorganiz ers
g one
Ġk itchens
ĠP izza
ĠHur ricane
ĠLeg acy
ĠR ip
ur ry
ĠHe i
Ġinher it
Ġpitch ed
Ġso ak
Off ice
ĠTri ple
Ġdem on
ĠS ullivan
lu ence
ĠAltern atively
Ġloc ality
ĠD ating
ĠC u
H ER
ĠHis panic
Ġl amb
Sm ith
Ġshowc asing
ĠBur g
Ġpray ing
pat ri
Ġdisc ontin
ĠCreat ing
Ġaggreg ate
Ġinter im
off icial
Ġcivil ization
Ġpron ounced
B U
Ġhum id
ay ette
ĠCr aft
ric ular
ĠTest ament
Ġped iatric
cer t
W ild
B er
Ġun pleasant
ĠDun can
A Z
Ġcollabor ations
P LE
Ġfig uring
Ġrelev ance
T ip
ĠHar old
ĠBu ilt
Ġscrew s
Ġle v
ar u
Ġsw ept
Ġs or
ĠBur ns
iv ate
Ġlandl ord
n z
Ġdr astically
Ġyield s
Ġ190 9
ĠG uitar
thod ont
ĠP aint
ĠAs ide
ol an
B ad
end um
Ġto ured
Ġsl am
Ġrev ision
Av ailable
ĠPlay Station
Ġsuppor ter
Ġmag nitude
Ġ190 7
Ġconduc tor
w ig
ĠW el
ĠR osen
ĠS ites
es ar
Ġchat ting
Ġcr acked
B ot
ĠV ideos
ĠM atter
ĠHe ath
Ġk not
Ġface book
ĠS ew
ĠUn less
Ġharass ment
Ġaw ake
Ġsandwich es
Ġprolong ed
Ġide ally
g ue
Ġst akes
Ġl ion
pro fits
Ġam er
Ġrenov ations
Ġconvinc ing
K e
ĠW ave
ĠN H
ĠCont est
ĠHigh land
ĠW is
ĠSh aron
Ġp oin
av ings
Ġco ff
Ġmal ware
Ġinc lined
19 50
Ġmist aken
Ġrein forced
Ġ ×
Ġber ries
n olds
c uts
aj i
ely n
Ġbr ig
Ġdigest ive
Ġinter nally
ur ally
ĠESP N
ĠJ ak
ĠGreg ory
nos is
ĠDev il
D ave
O G
197 9
ĠB od
Ġ ais
ĠSud an
ocal y
Ġmet ric
ur ations
Ġdem ographic
Ġper ipher
ĠS uff
Ġserv icing
hy ll
Ð² ÐĤ
Ġtrans mitted
ĠDesign ed
ommun ications
ĠL ect
ment al
Ġcoup on
ful l
Ġgluc ose
Ġremed ies
ĠEconom y
ops is
Ġinterf aces
Ġvegg ies
ĠO H
Ġpartner ing
Ġli nen
Ġexerc ising
Ġit iner
Ġsynt hesis
step s
Any one
ĠStat us
Ġmor ph
an al
ch ief
Ġback wards
Ġcooper ative
ĠAngel a
ch et
ĠD y
Ġstr ives
Ġhuman itarian
P ac
Ġbro t
Ġpos ed
Ġfram eworks
Ġrespect ful
ari us
ir rel
Ġcollabor ating
S K
ĠBudd ha
Ġl ubric
row t
ĠR ew
ifi able
S umm
ĠH ospit
Ġgar ments
cent ric
Ġe cc
ĠChar ter
R oyal
ili ary
Ġmain land
Ġsurre nder
ĠF a
Ġus ername
EN CE
Ġmit igate
ad al
Can ada
Ġcrash ed
U CT
ĠC ul
g io
ĠP eng
ĠWrest ling
Ġass umption
Ġannoun cements
ĠF erg
ĠSl oven
feed ing
Ġembr aced
ĠHy dro
Ġband width
Ġun if
Ġserv ant
Ã Ł
ĠZ ach
Ġcondition er
Al tern
Ġtr act
Ġadvert isement
ĠPl ate
ĠT inder
Ġcriminal s
ou ns
Ġsl avery
S ongs
O wn
dem and
Ġb ri
Ġcom bo
Ġpack aged
ad ors
ĠR ate
Ġunh appy
ĠS low
ĠF emale
l iter
Ġw ander
Ġgener osity
T ell
ĠApp arently
ĠBul garia
Ġw itch
b ons
Ġtor que
Ġplan ets
ĠBal let
ĠMel issa
ke es
ear chers
ĠAdvert ising
ĠHend erson
Ġun anim
Sp anish
el ier
V i
Ġj ungle
Ġpres chool
Ġwheel chair
e ight
ig ator
Ġadvis able
ĠR M
ĠEss ay
Ġpian ist
Ġar ises
ĠRh ode
Cl ose
Ġl ig
ou ble
ĠC ec
Ġparliament ary
ĠPhilipp ine
ĠGl enn
ĠC od
Ġl end
ĠSacram ento
Ġcross es
Ġtum or
Ġpossess es
Ġbul bs
ĠT roy
Ġbl u
ind y
Ġrecogn izing
Ġrot ating
ĠF amilies
n stein
Ġsinc ere
Ġce ase
Ġwas ting
Ġrepl ica
Ġvers atility
ĠSy nd
Ġpl aque
if ference
198 1
g reat
ĠL av
ĠCouns el
Ġpot ent
Ġne u
Ġill usion
ĠP orter
ĠCert ification
Ġfulfill ment
Ġcancel ed
Ġdry er
Ġmy riad
g ard
ĠR ut
Ġsol ic
ĠWeek end
Conti n
Ġnight mare
á º
ĠSER V
ĠKeep ing
eter mi
C er
Ġwel comes
ĠKum ar
ĠInt roduction
Ġinter change
Ġcomm issions
ĠEff ect
Ġfl or
Be gin
Ġchef s
P age
Ġh eter
ĠMon ica
Ġur ine
ĠEx po
ĠS essions
r ant
C ut
ĠEs sex
Ġupgr ading
ĠMathem atics
Ċ ĠĊĠĊ
ĠLeg ion
is ers
Int egr
Ġsinc er
ot echn
Ġnot ch
Ġbre asts
az or
ĠU b
re ased
Ġprem ature
Ġpop ulated
itut ed
d aughter
un ar
Ġbur ial
Ġde tox
Ġmet ro
OU ND
Ġthr illing
Lat est
g encies
tra it
Ġw aking
t z
ĠAm endment
ĠJama ica
ĠCon sequently
ĠB ug
Ġh obbies
Ġtown ship
Ġhomeown er
Ġident ifies
Ġsc out
ĠAdvent ures
ĠO P
k an
ĠF igure
ul iar
ĠAll ow
ĠPack age
ĠFun eral
Ġmel ody
M ur
ĠT at
Post s
Ġor bit
Ġweld ing
Ġsex ually
Ġd io
Ġy acht
S orry
roll ing
ĠRe b
Ġathlet ics
ĠS anc
Ġcan t
Ġdeliber ately
Ġd ug
Ġli able
Ġpret end
ĠChem istry
ĠCher ry
ĠW als
Ġmet ropolitan
Ġcultiv ation
Ġnew born
ĠGene va
Ġpass words
Ġup right
Ġw iring
S ty
ven ile
ĠLuther an
Ġcardi ovascular
ĠCan on
Ġoccur rence
ust ing
ĠU ber
Ġemplo ys
m oon
OR Y
rowt h
ĠBang kok
us able
n aire
ĠPhoto shop
D iv
Å ¾
ĠPar ts
arett es
Ġgym n
o os
Ġshare holders
ami na
Ġeye b
Ġveter inary
aver n
f urt
ĠInit ially
v able
Ġinter ference
Ġfascin ated
ĠA ven
ĠJen ny
oc ating
Ġaf ore
Ġconce ived
Ġprec ip
Ġyoung sters
Ġcontract ed
ĠC it
ĠC otton
u ador
Ġpe as
ĠRay mond
Us er
lect ic
ĠTan z
Ġdestro ying
ĠApp lied
Ġc ens
ĠT N
ĠMoroc co
Com plete
Ġsanc tions
Ġform ations
Com pet
Ġro ses
Ġpark ed
tom ed
Ġdi agram
ĠB rent
former ly
Ġcon clusions
Ġal beit
Ġdis asters
Ġprecaut ions
ĠRe ality
Ġ190 4
er ting
Ġsc oop
h ealth
Ġpri ests
ĠM ile
ĠMid west
Ġsoc i
Ġspl ash
Ġdef enders
ĠBar nes
ul as
tex ts
ĠU E
Ġl ith
vers ion
ĠGlo be
ru ited
Ġint est
ĠT D
Ġm our
Techn ology
ĠVe hicle
Ġunh ealthy
ĠSuper ior
ĠW R
Ġreal ization
Ġblo ody
Ġdi ary
ĠB ac
Ġaud ition
Ġquarter ly
Ġregister ing
mi ns
ĠTas man
ĠI G
ĠDec or
Ġforth coming
Ġsuccess ion
work ers
Ġsquare s
Ġover d
Ġcl iff
ĠTerri tory
S port
Ġvibr ation
uct ible
ĠPan ama
ĠT C
oy le
Ġrock y
ĠTr ading
ĠS ah
Ġun ified
Imp ro
Ġqu ir
S ep
Ġfurn ace
Ġunf amiliar
Ġrain y
ĠDur ham
ĠK ol
is ans
C opyright
ĠCom edy
ĠD erek
G ar
per formance
Ġinfect ious
ĠShe ff
ĠE y
Ġbom bs
Ġpreced ed
ĠCitiz ens
Ġhe ir
ĠUltim ately
ĠG ates
Ġbu ffer
tre ated
am ents
ĠChan g
Ġd awn
Ġsports people
Ġhot test
head ed
es ity
Ġo we
ali n
Ġdemonstr ations
Ġf ills
Ġsimilar ities
k ill
ot iation
od or
e ology
ĠR id
ĠCo hen
ĠFlow er
ack er
IC ES
What ever
ĠChrist ine
ĠG ir
d ied
Ġun aware
Un ivers
Å Ħ
Ġconsult ancy
Ġencl osed
J ud
str uct
enc ia
Ġbe ard
par alle
Ġsimpl ify
ĠBe havior
Ġmar gins
Ġ4 50
Ġli ner
ĠVar ious
ĠN as
ĠDes cription
) (
Ġs ou
Ġres olutions
Ġrab bit
ĠFort une
inc orporated
Ġslic ed
Ġun ch
ĠCry pto
Ġbo iler
Ġdistur bing
ww w
Ġtel esc
C redit
ad ata
Ġg ems
Ġlist ener
ĠQu ote
ĠG and
Ġdistr acted
Ġbutter fly
ord e
ĠSch w
Ġd ile
Ġbefore hand
Ġcleans ing
enh agen
Ġinter iors
Col lege
Ġlower ed
R ound
Ġmat urity
ĠLike wise
ant ing
Ġabsor ption
sw ick
Ġmort ality
ĠConsult ant
Ġ18 70
ĠN S
ĠAccount ing
oth e
ĠRec ruit
at em
Ġag ile
O H
ap a
Ġd ots
Ġ190 1
Ġfor wards
act ly
ĠAl umni
ĠK iss
Ġm ars
ant le
il ant
ĠMich el
ir ical
k ed
ĠP retty
Ġsh ampoo
Ġmer ge
al is
ĠC MS
Polit ical
Ġimmers ive
S ir
Ġapp l
ĠG ambling
Mark eting
ĠHol ly
Ġdec ks
b ands
gi na
ĠHigh ly
Ġanticip ation
Ġobs erv
OL D
Ġsew er
Ġdipl omatic
pt on
ĠRoman ian
Ġk ern
p ublic
Ġv est
Ġtransfer ring
Ġassess ing
____ ____
ĠBer ry
Ġutil ization
Ġsort ed
ĠCy prus
Read y
Ġremember ing
Ġ aunt
ast ro
ĠUn cle
im ated
ĠV iv
Ġst ained
f ounded
Ġcon qu
ĠGib son
Ġto ast
ĠDay ton
ĠM oss
Ġass emble
Cong ratulations
Ġsever ity
Ġmos quito
asp berry
ĠGo als
Ġal phabet
Ġder iv
ĠMunicip ality
p ots
Ġto mb
Ġped estrian
M id
ĠSh a
Ġrespond ents
Te xt
uch i
ĠE i
ĠParad ise
ĠG az
Ġsub urb
E ric
ĠVenezuel a
ĠHe aling
Ġnutri ent
Ġs hat
Ġident ities
Ġcolor ing
A ge
ĠG iving
ĠAndrew s
Ġtables poons
Ġintent ional
ĠQ U
Ġjud icial
Ġfi xture
ĠAd miral
Ġbook ings
omm end
Ġrein for
Ġres ides
ĠB order
l ene
Ġsk ies
con nected
ĠV ista
ific ant
Ġneg lected
Ġrain bow
Ġbiz arre
Ġapp ar
Ġvill a
ĠBl anc
Eng ine
Ġkey boards
l ists
ĠSund ays
ĠR us
ĠS ed
Ġrum ors
ĠP ont
ĠKr ish
Ġshock ing
Ġyouth ful
Ġblog gers
Ġwrink les
Ġg eared
ĠPol l
Ġcaut ious
ball s
od ore
ĠF unction
ĠR ank
ĠC av
ĠSp ark
Ġtor t
pl ess
il ings
ĠR ust
el iness
Ġrec ruited
Ġc itrus
Ġin ning
urg ical
Ġreflect ive
Ġcho oses
AN G
ĠMon ster
Ġuncons cious
Ġac re
al ore
s er
Ġdept hs
Ġmot to
Fin ancial
ĠOF F
Ġneg atively
ĠY outube
Ġfert ility
Ġh ated
Ġj unction
ĠAdvis or
ĠRe venue
Ġmar i
Ġl amin
ĠMult iple
M uch
Ġtransl ates
ĠS ounds
Ġnew com
Sec urity
N umber
Ġsh aking
Ġst ellar
ĠB il
Av oid
ĠEmploy ment
Ġdis rup
Ġm isc
Ġcr ap
Ġsne ak
ĠF loyd
Ġcar bohydr
de gree
ĠC ork
by ter
Ġart hritis
Further more
ĠBet ty
ĠK w
ody nam
f riends
Ġpredecess or
ĠK urt
ugg ling
ĠStephan ie
Ġ- >
Ġgest ure
ator ial
Ġh ull
ĠRO I
Ġev angel
M ill
Ġr im
Ġstar ters
ĠH ass
Inst all
S hip
on o
ec a
ĠIndones ian
Ġbi nary
ĠNe eds
Ġcomm enced
enz ie
ĠCl aim
Ġcurtain s
Ġinterpre ted
ĠM old
app ers
Ġy a
n j
ĠTh em
Ġsk ating
K evin
ĠW id
Ġphilosoph ical
Ġcons piracy
Ġdepend able
Ġcrafts manship
Ġtun ing
ĠDr ake
Ġrecon cil
Ġjoint ly
ĠV ern
des igned
ĠWind ow
Ġab str
ĠStock holm
Ġwork load
Ġsub str
Ġlegisl ature
Ñ ı
Ġ190 3
Writ ing
C ross
ĠExpl orer
c ultural
Ġchi n
Ġgr ape
ĠFire f
Ġsle pt
U ntil
Ġgl itter
ĠTw enty
IC S
ĠMos es
Ġcompre hend
il ogy
aly mp
;" |
Ġp H
Ġenerg ies
ĠRo chester
Re v
ĠQ i
Ġspark ling
S uch
Ġrestor ing
C at
ĠG reens
l as
ĠBe hind
Ġb arr
Ġrain fall
Ġabs urd
Ġempower ed
Ġcompre hens
Ġphotograp hed
Ġblo om
197 8
ĠB ah
Ġgri n
T urn
p g
Ġintention ally
ne g
Ġd orm
Ġbad ge
al ks
Ġover time
Ġre el
Ġeduc ating
ĠEd monton
Ã¡ s
Ġv om
Ġconf ined
ĠL ear
Ġque ue
om al
Ġb unk
ĠM N
Ġpolit ically
ĠSheff ield
ose xual
Ġins ulin
K O
n atural
Ġge ographic
ri ved
ĠL ak
Ġr ugged
Ġall ocation
Ġd ances
ĠLat ino
Ġcheap est
Ġpictures que
Ġnavig ating
vel t
Ġpri nters
Ġob esity
Ġtheat ers
Ġpol ls
ef it
Ġbas i
read ing
á ¹
ĠD eck
ĠArm strong
ad ians
ĠImport ant
Ġfl ock
ĠH ang
ĠP iano
ĠW are
assi n
Ġnick name
ĠJ ill
ĠNot ting
Ġsuscept ible
Ġdiscount ed
Ġart illery
Add ress
W inter
Bet ter
ĠOcc up
ats u
Ġdef ended
Ġre imburs
Ġcollaps ed
Ġcon gest
Ġch assis
Ġfl aws
ĠRe form
Ġinsp ires
ĠRE AD
Ġp ains
Ġdeleg ates
Build ings
Ġlif ts
it us
ĠCelt ic
ĠR eds
f ashion
un i
ĠCand id
sp ect
ĠTH AT
ĠMan ito
ĠBright on
Ġdi nos
s ens
ĠTal ent
Ġdep ressed
aut h
Ġch rist
ĠOl ive
ĠH ai
ĠF ix
Ġtab s
Ġfilm maker
Ġin appropriate
ed e
ĠSoc orro
ĠF ul
Ġcan s
Ġbro kers
ĠK ub
ĠGe off
ĠWW E
Ġkilomet res
ĠDesign s
ĠC ake
Ġs ulf
Ġinstruc ted
Ġclos es
Ġyog urt
Ġp df
Inst agram
Ġsacr ific
Ġallev iate
Ġshoot er
ĠPed ro
Ġsp ac
ĠDat abase
Over view
Ġdecent ral
sp ective
Ġair lines
ĠB I
Ġtrack ed
Ġreper toire
Ġpl aint
Ġsil hou
Ġshr imp
Ġend ure
P ain
Cle an
ON G
ge bra
A uto
ids on
Ġresearch ed
Chan ge
Pro t
ĠSum m
ĠC AD
ĠY ahoo
ĠI stanbul
ĠCop enhagen
ic her
Ġpl ed
ans om
ĠD ial
ĠAd rian
Ġfold ing
uc ted
Ġbasi n
Ġterror ism
pri v
ĠS orry
ĠDis play
was her
ĠV AT
Ġse ized
g overnment
Ġret iring
ĠHer bert
Ġdigit ally
Ġmasc ul
ĠD uch
col ored
Ġmind fulness
hibi tors
Ġexc luded
car at
Ġsupermark et
ĠAlz heimer
ĠSpe aking
ä ¸
Ġbo iling
p ings
aid s
Ġentrepreneur ial
ord ered
ĠG DP
Ġmis er
ĠP ere
Ġdefin itions
ĠMerc ury
c ards
oca ust
Ġafore mentioned
Ġlog os
Ġp estic
Ġevent ual
ĠWho le
Ġreminis cent
Ġgrands on
Ġrep ublic
ri ka
Ġincom plete
Ġrul er
Is ra
Ġdefend ant
Ġc ache
Ġresc ued
Ġcor al
Ġnor ms
J ac
ĠMar x
ors che
ĠRe id
ĠâĢ º
Ġen force
C ook
Ġadvent urous
Ġtodd ler
Ġcar b
Ġbas k
Ġreb ounds
B ase
Ġdistr ibutor
Ġmer it
197 7
Ġtact ical
ipl ayer
Ġmap le
Ġimmigr ant
Ġre juven
ĠSc ore
m os
Ġhome page
Ġeffort lessly
ĠEff ects
Ġprivile ged
Ġsy ll
Ġdub bed
Ġbow ling
Ġleg ends
M R
Ġgentle man
bird s
Ġcontr ibutors
oy a
ĠWh ilst
Ġsubur bs
ĠS ally
ĠAr senal
ĠA ges
is ors
Ġcompr ising
Ġr idge
ĠTh ing
Ġlik ing
Ġup ward
art ments
Ġsp ear
Ġcl utch
ĠSim pson
Ġst amps
spe aking
Ġarg uing
Ġpers ever
ĠU FC
ĠSee ing
ATION S
ĠPub l
Ġdes erved
cl osure
Ġsymb olic
ĠChem ical
S QL
ros se
id ian
ĠApp oint
ĠK oh
Ġpred iction
Ġam endment
Ġsupposed ly
ĠPr ices
Ġexplos ive
Ġprom o
to k
ĠThink ing
Ġreg iment
li ner
ĠRe i
Con struction
Ġcow ork
ĠAware ness
them ed
on ian
ob a
Ġped al
Ġmerc y
and ro
ri na
ĠJi n
ĠL ily
H as
Ġretr ieve
I l
ĠAut umn
Ġ um
h ea
Ġborrow ed
bal ance
Ġs ued
ĠChar leston
Ġjud ged
ĠR iv
Ġunder going
Ġrestr ict
Ġcl og
Ġm ug
ard on
cons uming
Ġrev ival
ĠNAT O
Ġpriorit ize
Ġwonder fully
Ġunpredict able
19 75
ĠZ imbabwe
ĠC ourses
Ġpl aster
ĠR oth
Ġem peror
Ġ190 2
ĠMalt a
ĠSom ers
r il
Ġcor rosion
ĠAny thing
Ġcounsel or
Ġd welling
Ġs iding
Ġbless ings
ĠLINE AR
ĠAb ove
Mr s
es an
Ġmight y
Ġn as
Ġbi om
Ġdemol ished
ĠS z
Ġfix es
Ã³ w
Ġn avy
um erous
Ġsound ing
Ġpropos ition
Ġdipl oma
ĠHar bour
d ev
Ġer g
c ock
Ġfoot wear
i nit
Al bum
Ġphenomen al
Ġro ast
Ġex agger
Ġuns uccessful
ĠGl ad
ĠE yes
ĠB T
Ġres iding
Ġsup ern
cell or
us a
ĠRep l
iot ics
R est
Austr alia
ĠI g
Ġreg istr
l ated
Ep isode
E nt
ĠGram my
zy me
d el
ĠC ult
oc ado
Ġchick ens
Ġutter ly
nes ium
Ã ¯
Ġens ured
fi nished
Ġteam ed
Ġmechan ic
Ġpack et
ĠGar cia
Ġexpl or
Ġbr a
IS E
ĠRec ogn
Ġmid field
law s
ren ts
J ean
ĠRey nolds
Ġvocal ist
ĠT erm
Ġlab s
ob ia
Ġbar bec
ĠJ ump
Ġv irgin
ford able
M ex
fl amm
Ġ Ø
Ġrel ent
eng ine
ĠIt ems
ĠNew port
ES CO
ĠGet ty
ĠEld er
ĠZ h
Ġaut ism
Ġhug ely
Ġstr ains
ĠTri al
at on
Ġdomin ate
ĠM ull
us ually
Summ ary
w ait
ĠB attery
a ults
ĠV M
Ġorganis ms
Ġd ementia
ess or
Ġcom fy
ĠAr med
Ġrook ie
app a
Ġout rage
ĠBou levard
to o
ĠSand ers
ĠF ut
Ġpri nce
ĠSpi n
ĠG C
lic t
te br
G reg
amin ations
W O
ĠDep ression
ĠMil k
ĠTrav is
Å ĵ
Ġs odium
Ġgar ment
Ġwr apping
ĠC anc
Ġprofit ability
Ġobst acle
ĠLyn ch
p aced
S ound
Ġpe el
Rad io
ĠBen ed
Ġsand y
Ġpec uliar
Ġmon astery
Ġbur ns
Ġrec ession
l ov
Ġsweep ing
iss an
ĠPro blem
ĠCar roll
ĠIn come
ĠOff icers
M ah
ĠLes lie
v d
AT A
197 6
andi nav
ĠExper ts
nis ter
Ġhum our
Ġpe ek
Ġc affeine
Ġhur ricane
Ġentertain ed
est eem
st ead
Ġb link
ĠX ia
" ;
i ber
an mar
rown ed
Ġrefuge e
ĠAt tr
Ġdis gu
Ġsett lers
Ġrefer rals
ĠC opyright
ĠHamb urg
Ġcour tyard
ĠCont ents
sc ience
Ġvac ant
t art
G irl
j ah
Ġe Bay
g arian
p roduction
ple x
Ġrun way
ĠPub lished
Ġinf amous
Ġunf old
Mart i
Ġlower ing
Im agine
197 4
Ġm ast
Ġcivil ians
S ystem
Ġshut tle
Ġcapac ities
Ġad olesc
ĠRem ote
Ġsec ular
Priv acy
Ġrec alls
Ġe Commerce
Ġpublic ity
Ġsc i
ĠAre as
ĠH S
Ġfi bre
us tee
Ġveter i
tori um
ip ing
Develop ment
ram id
ist ine
Ġcultiv ate
Pr im
Ġcarp ets
Ġop p
Ġsp ider
col m
ĠCard inals
ĠM aced
patri ate
ĠPro p
S at
Ġcorrid or
Ġtes tosterone
il let
Ġre jection
Ġblank ets
Ġst ab
Ġclean ers
Ġul tr
us ement
Ġphenomen a
ĠBr ady
Ġafter math
ĠIn str
Ġtox ins
In it
n uts
Ġf oul
Ġfl ick
ĠRon ald
Ġreal ities
Ġtem pt
so ever
Ġtriang le
Ġalumin ium
Ġinter rupted
ĠCas ey
T Y
ĠN g
Ġin hib
anti ago
Ġrelie ved
Ġse iz
ĠCorn wall
Ġb olt
Ġdepart ed
Sub mit
Ġglow ing
c ano
Ġpep pers
Ġaspir ations
S afe
F requ
v ideo
Ġc a
Ġhead line
Ġk ings
s ight
Ġshowc ases
ĠCris is
Ġovers ight
Ġimm unity
icular ly
it an
war f
ĠA ce
Ġvill ain
Ġred und
hur st
Ġastr onom
Ġrh e
Ġ18 60
ĠGr ass
Ġgrind ing
Ġreli ed
ĠSus sex
Ġcateg or
Ġannoun cing
omed ay
Ġentrepreneurs hip
us on
ĠSch m
ĠH T
Ġbarrel s
m onds
Ġapprent ices
P ict
Ġup stairs
Ġsufficient ly
Ġel imination
Ġmaster piece
e ous
Ġrepair ing
Ġcoach ed
Or iginally
Ġst agger
ĠM ond
ĠB lind
p hins
Ġtwist ed
Ġpl at
b low
f acing
ĠGe or
iz a
Ġdisc overs
Ġcomprom ised
chem ical
og ical
Ġve ins
ĠP ars
?? ?
ĠL ucky
bb ie
ĠNe uro
ĠWal mart
Ġnumber ed
b as
ĠFlow ers
P ub
ĠB ub
Ġvic inity
Ġf ox
Ġsch ol
ĠOut standing
ĠCurt is
d al
Ġor b
E mer
Ġpro jection
ĠOp ening
Ġcon cess
Ġel bow
ĠT A
Ġpol ite
ĠCN N
ĠMo h
aus s
L arge
Art icle
ĠA na
Ġepid emic
ĠChar acter
Ġtur f
Ġpro ps
Ġbrid al
Ġcy bersecurity
Ġfemin ist
als a
Ġpartic le
Ġcomed ian
ile e
Ġcommit ting
o que
ĠRol ling
Ġge ography
Ġneph ew
Ġc iting
irc raft
197 2
En vironment
ĠArmen ian
Compan ies
Ġcop ied
Ġl ing
.... ....
not es
Ġrespond s
Ġtw ins
Ġnote book
Ġp ens
Ġcontest ed
1 30
ĠU X
ĠBel arus
ĠPr ison
load ed
Ġconfig urations
ĠLouis ville
Ġtreat y
ĠNo ah
Ex cellent
Ġm ansion
st at
Ġfrequ encies
Ġdefin ite
Ġsix teen
ĠL aser
Ġcustom izable
Ġjack ets
: :
Ġfirew orks
ĠD reams
Ġ ail
Ġritual s
ĠHer ald
ĠP ull
Â Ŀ
ĠU T
ĠM IT
Ex patriate
B ul
ĠN u
Ġtreas ures
ĠBrun swick
Ġins ufficient
Ġp c
Ġdiet s
em ary
ĠNorth east
ĠSy n
ĠTreat y
Ġmon uments
Ġrad ius
ĠLab s
Ġout lines
Ġm uff
S ex
Ġdis g
Ġg i
ĠB ert
ĠCoun ter
Ġble w
to ok
Ġh ollow
amb a
Ġthir teen
rop olis
Le ague
F ocus
ĠSt ick
ĠPro ced
Ġhy draulic
Ġaccomplish ment
ĠF ishing
ĠE ST
ĠB elf
Ġs her
aj ec
Ġfold ers
Ġmention ing
ose velt
Ġsymp tom
ĠNob ody
T ar
Ġtw itter
udden ly
-- -
Ġprogress ed
ĠV P
Ġcont amination
ic ism
Ġsp ill
ci nation
em br
Ġh edge
ĠJack ie
Ġweigh ing
Ġextr acted
oi ned
Ġas y
Ġmar itime
Ġst aged
Ġgas oline
z ym
Ġpen ny
A bs
ĠFor ward
ĠAct ivity
G erm
ĠEqu ity
ex cept
F red
esp an
ĠEv an
Ġgodd ess
Ġstir ring
Ġce ilings
Marti n
Ġcoordin ates
u tory
Ġf encing
ĠTy pes
ĠRe quirements
cont i
Th us
M AN
Ġfour teen
Ġentire ty
ĠM ang
ĠR oc
atch ewan
ĠMap le
Ġsuit es
Ġnot ices
ĠThank fully
Ġwe eds
ĠAz ure
ĠTH C
Ġelev ate
Ġp ne
Ġwho ever
W al
ĠI v
ĠHit ler
Ġpe anut
b ucks
Ġhook s
W as
ĠEthiop ia
e h
ĠChar ity
ĠRichards on
Ġdev otion
Ġcomp uls
ĠEx ercise
ĠProper ties
Ġoccup y
ĠJan et
Ġ10 5
Ã ī
197 3
at ivity
am ation
ap est
ĠC edar
Ġneighb ours
ĠL ars
ĠP on
Ġasp iring
F ile
Ġstaff ing
ĠMan uel
ĠFur niture
Ġun le
ĠScot ia
Ġdiff ers
Ġh ust
ĠKer ala
lear ning
ĠFram ework
ĠM VP
Ġbur nt
ĠProfession als
Ġdio xide
Ġpair ing
Ġknit ting
Re lease
Ġcop ing
Ġarchae ological
ĠH off
Ġtrans itions
id ges
ĠChe ese
S omething
ĠT rent
Ġbill ions
Ġsm arter
Ġor phan
it als
Ġdent istry
l ane
ĠRet ur
Ġembr acing
Ġang els
Ġch uck
s ign
ĠEss ential
Ã± a
S ite
our g
Ġexplo it
Ġpart ition
Ġwh isk
ĠÃ ł
ĠPrinc eton
en ary
W ay
S en
Ġdiss olved
ĠNews letter
pur pose
Ġexc er
pro cess
ĠS AP
Ġten se
Ġreluct ant
F resh
Ġpour ing
Ġeld est
Ġtor ture
ĠC ave
Ġw anna
song writer
Go ing
arr ison
Ġele phant
Ġair plane
m ake
Ad am
Ġp udd
ĠMay a
Ġsubject ed
Ġtraff icking
ĠW ide
tras ound
OU S
ĠY ugoslav
et e
h ops
ĠLi u
ĠPr ayer
IN K
t idy
Ġsm ok
Ġre organ
k al
Ġcustom ization
Ġrout inely
s aving
ĠC ay
ĠB U
og ene
ĠLe ices
Ġpres umably
Ġf onts
ĠW ald
year s
Ġtr illion
op ed
Ġbul b
ĠMig uel
ut hs
Ġjud gement
Ġsp ans
ĠLaw s
E nergy
av as
Wind ows
Ġod or
Ġbub bles
x iety
Ġstory line
Ġcommercial s
Ġbit es
Ġtack les
e o
Ġcl usters
ĠW er
Ġslip ped
Ġlo ops
ĠPut i
ĠW ILL
Ġsp iral
Ġcome back
ĠP oss
Ġ5 000
ĠKen ny
w ers
Ġw olf
Ġorgan ise
Dr aw
ĠG em
Ġo re
paralle led
Ġe g
Ġwater ing
Ġbrows ers
ĠL az
est a
Ġdilig ence
ĠJ ets
ĠF acts
ĠG ust
Ġtask ed
Ġexplan ations
ad ia
Ġcert ifications
Fr ance
Ġwar rior
ĠMar co
Ġsp her
EX T
Ġcon texts
ĠMe gan
to uch
m ine
Ġdestr uctive
Ġspo il
ĠF ew
ĠL af
Ġspokes man
V an
00 00
Ġemphas ized
ĠReg ulations
ĠRhod es
Ġr ains
ĠAd vant
ĠSpring field
Ġpl asma
Ġmiss ile
ĠDi ocese
Ġafter ward
ĠEmploy ees
Am azon
B aby
et ically
Ġest eem
ogen ic
ĠRen ew
Ġbeginning s
Ġmid fielder
ĠSh oot
cl ub
ĠJ S
Ġsum mon
Ġm ph
Met hod
Ġmanip ulation
Ġde af
Ġ50 1
ĠM au
ĠMon roe
ĠHind i
ĠD ys
ĠBl air
Ġnuc le
ch or
emi ni
ĠTreas ury
ĠâĢ ŀ
S ize
ĠOr acle
un ky
ĠFor bes
ĠR ag
ĠSur f
ov ich
L ee
Ġb ait
ĠAl ger
S ingle
Ap pro
M ale
Ġdream ing
Sim ple
ĠLight ing
Ġw ives
Ġreg ain
ĠQ R
T her
ans on
ĠWars aw
s omething
Ġat op
Ġc reek
Ġneg otiation
c reat
ĠL aur
ĠL ines
at ts
ĠS ey
Ġce ased
Ġnit rogen
M ount
e quality
ĠDon na
R Y
Ġcig arette
, ...
Saf ety
ree ks
ĠPur ple
Ġamb ient
Ġboost ing
ĠP oor
Ġjud ging
Ġover flow
Ġrein force
AN K
: -
ĠPalest ine
ĠEc uador
Ġmini ature
Ġconvers ions
Ġdream ed
Ġpitch ing
ĠRos a
ĠW ish
Ġb uds
Ġdev il
ĠK nox
int egr
7 50
Ġsolid arity
Ġvirt ue
Ġsail ed
ĠP orts
ĠIraq i
Ġpl ots
Ġste er
Ġdivor ced
Ġcaf Ã©
Ġf aint
Ġdecre asing
Ġd ice
Ġpict ured
Ġnurt uring
S ix
el ic
ĠM ach
Ġemer gencies
Ġdet ective
Ġref uses
ĠDav ies
Ġpredict able
v ie
Ġforg ive
ĠAgricult ural
ĠMov ies
Ġadm issions
Ġb ir
Ġtrail ers
Ġdess erts
ĠN W
i h
ev ille
ĠMan n
ĠSur rey
Christ mas
ĠHer oes
ĠField s
Ġwhere by
ĠH erm
Ġcal ming
Ġprepare s
Ġstr ang
Ġvent ures
Ġpre jud
Ġ( +
x it
Beaut iful
ĠE PA
M ap
ĠOr ch
Ġrac ist
Ġliqu or
ĠPl astic
ot on
Ġre charge
gr av
ĠMor rison
ĠP ep
O A
ĠC yr
ĠM it
Ġp igs
t apping
ope z
âĢĿ ?
Ġsour cing
ĠRec ent
ĠEn try
Ġcan on
ĠZ hang
r im
ĠRain bow
Ġcircumst ance
L es
Ġsick ness
Dep ending
Ġretr ie
Ġ tart
ir med
Ġexperiment ing
Ġlock ing
Ġgot ta
ort al
ĠT B
ĠM akes
Ġval ves
Ġwind ing
ĠCO MP
ĠPre c
Ġon site
ĠWest minster
Ġp aved
Ear lier
Ġpe aked
d ia
l ab
Ġast hma
ĠA bor
ĠArch itects
Ġmultim edia
Ġgeomet ric
Ġme ats
Y S
Ġimp air
ĠJohan nes
Ġn ude
Ġh ello
Ġones elf
Ġv ault
ĠWas te
Ġwhat soever
ĠGrow ing
ans k
merc ially
Ġpostpon ed
Ġpop s
Ġend angered
Ġstro kes
Ġf ountain
Ġf asc
ch urch
Î ¿
Ġconn ector
ĠInf rastructure
ĠDomin ican
Ġso ils
Ġdecre ases
Ġval uation
ĠRel ief
Ġs addle
3 60
w hy
Ġcricket ers
Ġwh ites
ĠCru ise
Sp ot
Ġsil icone
ĠK et
Ġeconom ically
ĠPuti n
M T
eng es
Ġinflu encers
W rite
rit z
ĠG ren
ĠExpl ore
Ġtouch downs
We ight
ĠWend y
Ġfundament als
ĠSt ress
Ġbroad band
Ġinter disciplinary
Ġcomm ence
Ġnut rit
Ġ189 8
ĠFr aser
Ġassist ants
Ġcare givers
ĠEd en
erv ille
ĠTh eme
ĠH ire
ool s
c ats
Hen ry
ais y
197 1
Ġstim ulating
Techn ical
st en
Get ty
ne a
ĠConn ection
Ġl b
prof ile
Ġspec ulation
Ġsc are
Ġtent h
ĠB alt
Ġrep roduction
n u
Ġserv ants
ĠWind sor
Ġbrack et
n ames
Ġrev ital
S ales
en za
R a
M em
Ġfart her
Ġbor ough
Ġform ulated
196 8
Ġh atch
Ġmaneu ver
Ġunderstand able
Ġad ore
âĸ º
F it
Ġrepe ating
es us
m ember
ĠUn ity
ĠB elt
Ġdesp air
Ġneed les
ĠWi nner
ĠP ione
ĠBal ance
ĠR iley
ĠMe asure
oll ar
Ġdel ic
ĠFilip ino
Ġcar rots
tor ical
More over
W il
n us
At t
Ġve i
Ġaccus tomed
ĠGar age
ĠYan kees
Ġduplic ate
W ord
ĠNap ole
Ġaw hile
Ġend uring
ĠSad ly
Ġfulf il
im port
Ġadvert ised
Ġbroad ly
Ġexami nes
Rail way
F lex
N ear
Ġgo at
ĠFre qu
ĠD uck
ly mouth
ĠS B
Ġsung lasses
ĠProto col
Ġan est
Ġbrew ing
str ing
ĠHen ri
à ®
ĠCom pos
Ġreun ion
% ),
RE SS
ĠPat ients
Ġal tar
Ġon set
) -
Ġris en
ĠTe lec
Ġme g
ro ots
Ġ2 20
n umber
Ġdisc ourse
b ay
ĠBr ah
Ġpat ented
Ġforg iveness
not ch
Ġdoctor al
Afric an
Ġon wards
Prov ide
Ġfacilit ating
Med al
Ġday light
Ġamb ig
Ġconvent ions
l ore
ĠAsk ed
Ġ7 50
Ġconst itute
al am
Ġsubur ban
ĠUp dates
ĠP erc
ĠBas i
ĠWes ley
Ġb og
Ġcl ues
bet ween
Ġbr aces
Ġsket ches
Ġco her
ept ic
Ġadequ ately
OR S
Ġs ip
ĠW ere
Ġfl ames
ĠS ultan
Ġsqu ash
Ġcont ests
Found er
ĠPro ph
osp ice
Ġsystem ic
ĠPunj ab
Ġfi b
ass ium
ĠBul ld
ĠLands cape
and em
r ano
Ġsteal ing
Ġh alt
ĠJ al
Ġnurt ure
ĠOr d
Ġsoc ietal
ĠSing les
Ch air
ai a
ĠC ats
n ition
H ung
EC H
Pol ice
Ġlectur er
ĠK ab
p ol
Ġfundra iser
it ating
Ġsol itary
ĠParticip ants
ĠA Z
auc r
ĠS ons
Ġbl iss
Ġdeb ates
og ram
ĠIntegr ation
ight ing
Ġcommand ed
Ġblind s
Play ers
Ġterr ifying
Ġcent r
ĠGr ab
F all
ĠG L
ey ed
196 9
Ġst aging
Ġb isc
ĠD iversity
Ġatmosp heric
ur as
ĠV C
Ġcol onies
Ġhun ter
ĠA WS
ĠKing ston
ĠA nk
Ġacceler ated
ĠHawai ian
ĠPres byter
ĠE k
Ġwh olly
ĠVi agra
ĠRestor ation
ĠQ atar
ĠThough ts
ĠPre fecture
ĠSh ot
Ġb iodiversity
Ġm oth
Ġlay ered
Ġenthusi ast
ĠSe oul
ĠSop hie
Ġwrap s
Ġdownt ime
Ġdon ating
Ġs auc
ĠSac red
ail ure
Ġcy lind
Ġgre ase
is en
Ġfin ely
ĠAd min
cent ered
ĠSer bian
Ġunc overed
m iss
Ġfr aming
pi eces
ĠK erry
ustr ial
B rien
ĠAm ber
ĠM aid
ĠF inals
Ġend emic
Ġstrateg ically
Ġab d
Car l
ĠRo osevelt
t ents
Ġpush es
ĠC ant
Ġcycl ists
Ġinterf ere
Ġresign ation
Ġal i
Ġg ums
ner g
keep ers
Ġacc ents
ĠB av
Ġstr ipped
ĠAmeric as
ac cept
Ġsp ells
ĠC red
w ave
ĠS V
Ġvei n
ST R
iff e
Ġtransl ations
ov ic
ĠQu inn
i nition
and ing
Ġstub born
Ġnegoti ating
od er
Ġsecret ly
Adv anced
Ġc ob
ĠH ello
Ġcl erk
il o
ĠDe uts
ĠCD C
bor g
Ġelimin ates
Ġallerg ic
ĠAc tor
Ġtr ajec
Ġinf antry
ĠC ater
Ġcur rencies
Ġbrush es
Ġhur ts
E t
lo o
Sim ply
V EL
Ġcrash es
uls a
Ġconstruc ting
Al umni
ĠD riving
Ġ18 50
ĠD S
Ġwid ow
ĠBeat les
] ]
ol ics
ĠR ise
rec ord
ĠSh ell
ns ic
Ch urch
Ġly ric
ĠBasi n
Ġpol es
Ġtr aps
Ġne on
Ġspan ning
Ġexch anged
Ġh over
al ong
ĠNet works
ĠDevelop er
on ica
Ġperiod ically
Ġad renal
Ġcr ude
ĠML B
Ġne ural
Ġautom ate
Ġdisp ens
Ġsimpl ified
Ġas phalt
Ġp ores
Ġfavour ites
ĠAdministr ator
H ost
Ġin equality
Bo ard
Ex ample
ĠM aker
ale igh
est ablish
umber land
Ġoverh aul
is o
Ġg own
Ġswe ater
Ġemer gence
ĠTrans it
qui n
ly s
Ġcoordin ating
Ġpar cel
ol ith
Ġse als
Ġdiscr imin
ĠOpportun ities
FOR M
ĠD ES
Ġhier archy
ies el
ĠK N
Ġhypoth esis
Ġrem embers
ath lon
ĠBel le
Ð ´
han tom
Ġmyt hs
it at
Ġec lectic
ĠNot re
Ġrelig ions
ern et
Ġsusp ects
Ġweigh s
Ġb ells
ĠMan ila
Ġinj ust
Ġsuper f
Ġthick er
Ġbrace let
Ġper ks
ac cur
on er
Ġun even
ĠEug ene
W ashington
ĠP ush
Ġup hol
s tore
oc ol
ĠX L
Ġch alk
Ġon board
b read
Ġr ugs
EN S
ĠD NS
if les
Ġrestr iction
ĠM ask
Ġmod elling
W estern
Ġgover ned
Ġbr icks
og o
Ġpl astics
Ġun paralleled
Ġempower ment
Under standing
y cl
Ġinadequ ate
Ġam ino
Ch apter
c ycles
ĠLat est
f elt
Ġbuff et
Ġgener a
m etic
Ġschool ing
Ġpod ium
Int roduction
ĠH ig
Ġdiscl osure
Ġlaugh s
h ai
Ġpal ate
Ġhar bor
Ġwinning s
ĠJ up
Ġrepet itive
Ġgreet ing
Ġm a
Ġcl ergy
ĠTr a
Ġpersonal ised
h art
le ments
Ġ tents
Ġtoile ts
Ġres emble
Ġbur ger
lu x
Ġ9 11
Ġflow ering
ĠPar ade
ĠEx ped
Ġlook out
ĠTer minal
Ġcan oe
ec c
Ġsh ark
Ġtim er
l oss
ĠPaul o
ĠFarm ers
ugg le
Ġaut onomy
Ġecosystem s
ĠGen esis
ĠEv il
Ġr ipe
Ġunif orms
J ason
fil m
ip ation
ĠSh ut
Ġan onym
h ms
t am
Ġre j
ĠCorn ell
Ġcoll agen
V irtual
ĠD one
kins on
Ġs ings
ĠU m
Ġwar fare
igue z
Ġmyth ology
Ġresemb les
Ġtables poon
Ġmult if
Ġhabit ats
Ġ12 8
r ice
ĠLet ters
s ocial
Ġbond ing
Ġclear er
ĠLeg ends
stand ard
Ġbl onde
Ġbel ts
I K
Ġj og
Ġn ause
Ġmal icious
M oving
Vill ages
ĠS ul
ĠVlad imir
ĠMan or
ĠAzerbai jan
ĠRo le
Ġvisual ization
pay ers
ĠFe ature
Ġsm oked
19 40
ver ts
P ur
Ġbrot h
an ie
Ġup front
Ġp let
Ġbe ams
Ġpump ing
ĠB le
ber to
Ġcr awl
Ġamb ul
ĠExcell ent
l ater
Ġtheir s
agi n
ic able
Ġsort ing
Ap art
Ġ18 99
ĠBusiness es
mun ition
ĠChan ges
Ġcoup ons
ĠSc an
Ġfurnishing s
ĠFr uit
Ġsix ty
Ġhost ile
Ġtr out
R os
ĠRab bi
ĠG iant
ĠP orsche
Ġcor ps
ĠGu arant
Ġdisp ar
Ġencompass es
Ġpop ped
ĠR EC
oul try
ĠI b
le igh
Ġdep icts
Ed it
oni n
Ġbrew ery
lic an
ild a
Ġfrag ments
ĠCol lective
Ġpill ars
ĠSc andinav
Ġb ingo
ĠL ub
Ġinf ants
ingu ished
fore st
Ġcirc uits
Ġcompl ained
Ġinvo ices
ĠMil ton
T el
clop edia
ĠR ising
ber ger
i nto
Appl ication
B ank
ĠEv olution
Ġcomplement ary
ig rap
Ġdistr ibutors
am ics
ĠWire less
ĠProvinc ial
V ers
ĠEv angel
ograph ies
Ġpresent er
itch ed
Ġ[ [
Ġtr am
Ġw ow
Ġpoly mer
ĠVen us
m and
Men u
Ġart works
Ġwand ering
Ġstr iving
Test imonials
h ort
Ġacqu aint
ĠJud y
10 1
ĠON LY
Ġwall paper
re view
ĠE RP
ĠR AF
ĠSalv ador
ĠCaf Ã©
t bsp
medi ately
Fe atured
Ġeffort less
Ġdeep est
c ro
resp ons
ĠAltern ative
Ġins ult
ĠAl lied
ĠSask atchewan
m or
ĠS ang
Ġab rupt
Ġl ord
Ġfl ora
Ġl ent
Cho osing
Ġvot er
ĠRe ach
pl aced
ĠAp ollo
Ġhun ters
Ġimpro per
ĠdÃ© cor
ĠFac ility
Ġcalc ulator
Or iginal
r ative
Ġcompr ise
Q ual
ĠKaz akh
Ġco il
av our
V en
ĠRom ans
ĠBird s
ĠNord ic
ĠG U
ĠA K
struc tions
Sc ience
ĠPresident ial
Ġpill ows
ĠS IM
isc opal
occ up
r r
h eology
Ġtra umatic
ĠMonitor ing
ĠAll ah
Stand ard
it ives
ĠPatri ots
Ġflood ed
ĠKen neth
Ġpur se
Ġf ax
ĠAng lo
Ġcultiv ated
Ġdeleg ation
ĠPer forming
ĠC lo
Ġ18 95
ĠRes idential
Ġbl ending
id as
ig or
ĠAlb any
ĠMar ion
Bre ak
ĠCor onavirus
19 20
Ġobs c
ĠÃ Ĺ
Ġdiscover ies
ĠCan adians
ĠH ern
man ent
Ġinf r
Ġcomp artment
Ġ189 6
Ġplay list
bor hood
ĠPak istani
Ġv ow
abb age
Ġwater fall
Ġcompet ence
Ġantib iotics
Ġfun nel
ĠN est
ĠTh ous
Ġgroom ing
Ġspok esperson
Ġpossess ed
Ġ17 0
Ġfilter ing
amp ing
Ġmel ting
o other
Ġliber ty
ĠOver view
Ġinter course
Ġfundament ally
M aterial
Ġdowns ide
d ry
Ġv apor
Ġexpans ive
Ġdiagn ose
f ar
ĠV ari
ĠShan non
ĠRec ipe
Ġcomp ose
C hat
Ġdisadvant ages
âĢ¦ )
Ġdraw er
Ġnutrit ious
Ġfabric ation
ĠL iv
ili ate
Ġcommod ity
ĠBu zz
ĠY ard
ĠMar riage
D eep
ĠW et
ĠSol omon
Ġsl ate
ĠBul let
itz er
a S
Ġcan ine
Ġstand ings
R on
Ġcar amel
ig ger
Ġplet hora
Ġfather s
ĠRead er
t heology
ĠD ee
ĠBur ton
ĠWag ner
L ED
Ġslow ing
olit ical
Ġher d
il ot
Ġad hesive
Ġself ish
Ġpor celain
field s
Ġspeech es
Ġdire cto
ĠEnhan cement
Ġpro j
Ġvers es
out e
Ġsec urities
ters hire
Ġhack ers
Com ing
ĠCh op
ĠF ee
ĠPharm acy
J P
Ġperm issions
Ġmet a
uk u
ĠSpe ech
le an
Ġun used
Ġpropag anda
C and
Ġstim ulation
W R
ĠImprove ment
itch ing
T D
ĠCong o
ĠGu atem
ĠMy anmar
Ġmet eor
Ġpay out
Ġadv ising
im er
Ġconstr uctive
Cont ents
Ġexplo itation
Ġprison er
Per fect
Ġl an
A V
ĠOut look
Ġrep roductive
ĠJ as
ten ham
ĠL CD
Ġconfront ed
Que en
uff ed
Ġhy pe
omin ated
Ġrib s
Ġwar nings
ĠInsp ector
ĠCommun ities
Ġdeal ership
OC K
ĠFl u
Ġpro be
ut a
ĠAtl as
ĠNe ither
ĠRem oval
Ġsal aries
ĠC ove
quarter ed
ĠG entle
Br azil
ĠP om
Lou is
Ġcous ins
Ġmon op
ĠW on
Ġg ases
Ġintim acy
196 7
Ġconsult ations
Ġobs ession
Ġrep s
ĠBe ast
b red
road s
se at
Ġp a
ĠElli ott
ĠShort ly
ĠLem on
ĠPre viously
ull ah
ĠF ifth
Ġo ste
ĠShep herd
Ġbright ness
our ced
Ġr up
ĠO ption
ĠS antiago
Ġshel ters
Ġpro xy
ĠStr at
Ġfol i
Sof tware
Ġgr illed
Ġtermin ology
ĠProduc er
Ġcom mercially
ĠA IDS
ĠP irates
Ġs ab
ĠAll an
ĠGriff i
ĠN urse
ĠY a
Ġinstruction al
Ġspecial s
ĠP OS
ĠDec ision
ĠBr onze
oc ations
ie u
ĠDirec tory
h un
ent ric
ĠO dd
Ġpop ping
agon al
ĠFe at
Ġmix es
b ags
Ġcon do
Ġcompl aining
Ġpossess ions
ĠPar am
ĠBas il
Ġsign atures
Ġhar bour
ĠKat hy
ĠGriffi n
È Ļ
ĠF ol
Ġin quire
Ġrectang ular
ĠMe ga
ia z
Ġ ub
ĠGod d
v ine
Ġawa iting
ĠSp art
F ounded
Ġsumm ers
Quest ion
Ġamb itions
ĠGeorg ian
Ġnarr atives
Ġexpendit ure
Ġ tidy
n formation
Ġi on
c ot
Ġacquis itions
Ġtrou bled
Ġspec imens
Ġsim mer
ĠSebast ian
Link edIn
Ġn oodles
icult ure
st ated
amm ers
Ġobs cure
P ot
âĢĿ ).
ĠF ont
arm ed
Ġz oo
hol es
E F
Ġsc aling
ING S
Ġpot tery
duc tor
ĠD ana
b irth
en burg
Ġcorre lation
Ġfav ored
un ing
ĠL ing
ĠM add
med ia
Ġstream line
tle ment
He art
Ġembroider y
Ġborrow ing
cher y
and ez
ĠSw an
Ġbat ting
ĠE rin
ĠD iane
ĠC ivic
Ġemail ed
Pre mi
C ase
ĠIndividual s
t ensions
mi na
dom inal
ib an
Ġvis ions
ĠCho ir
ad ic
Ġfur nished
Ġo ct
Ġmean while
w yn
UL T
Ġde hydr
is ional
Ġst acked
Ġbarg ain
Ġque er
D am
Ġsuff ers
Ġfl atter
G rap
ĠPat ient
ĠHait i
Reg istration
t asted
ĠFerr ari
Ġ theology
C K
Ġdoctr ine
ĠLou nge
Ġrot ate
l ived
ĠV a
Ġinc umbent
ĠDo ors
d ata
Ġbod ily
IL D
H OW
ur ved
H F
Ġteam work
Ġwell s
AB OUT
ipe g
Ġlay outs
M ission
Ġfacilit ated
oc o
Ġgam ble
Ġrui ned
ĠCamb odia
Ġmix er
ail ability
Ch ild
ĠArgent ine
Ġcl ause
Ġcompet it
ĠÃ Ĥ
Ġinvestig ators
ĠTun is
Ġmean ings
19 30
ĠP erm
Ġcor rupt
Ġst umbled
Ġspecial ised
Lo ading
Ġer osion
ot ions
Ġint ends
Ġspread s
ad vert
ĠW ow
is al
Ġchar ger
Ġresp ects
ear d
Ġsur real
ĠBegin ning
ĠChr onic
uis er
d istance
C elebr
ĠA i
Ġ ain
Ġprol ific
ĠL iga
Ġau x
ĠG ross
At hlet
D irect
tr ained
ĠAdv ice
ĠC ycle
ĠSomers et
M ir
Ġscreen ed
ĠEmploy ee
if ax
Ġirrit ation
Ġ tensions
Ġ189 7
Ġcontract ing
ĠL G
Intern et
N P
ĠSal on
A round
ger ies
Ġeff icacy
ĠLanc aster
ĠBank ing
ĠT ales
Ġun int
Ġpl edge
f red
ag ain
ĠS ME
To o
ĠSpecific ally
Ġref lections
ĠOl ivia
ĠC auc
Ġstick er
Y esterday
Ġd uct
idel ity
Ġexp ired
edi n
ug a
Ġimp orts
Ġsuperv ised
ĠShan e
Ġv ague
ĠCl if
ĠM olly
Ġget away
Ġstr ipes
iss ue
ĠAN Y
spec ial
Ġm ural
ĠMir ror
Ġcampus es
B it
ĠRoberts on
ĠManito ba
ĠRe hab
Ġd ermat
om ag
Ġc ros
Ġemb ell
ĠOper ating
B eyond
ĠSec ure
ĠJ unction
Ġal ly
w ife
ak o
ĠUE FA
Ġpix el
Ġbask ets
Ġflu ids
Ġsur plus
Ġ24 0
n flamm
Ġkn ives
ĠBu ying
Ġ tasted
l ast
Ġluc rative
Ġbatt ling
ĠB IG
yt h
ĠMod er
ĠC able
ĠLegisl ature
ol ent
a ic
em er
ĠS emin
J en
Ġsm oother
que z
f air
sc ill
Ġguess ing
So ft
Ġbr u
ĠAR T
Ul tim
Ġboost er
ĠGuid elines
E V
Ġdos age
Ġvoy age
Ġcon quer
Ġh av
Ġbomb ing
Ġres umed
Ġrem n
ĠB rett
i nflamm
ĠLess ons
Ġinter n
Ġtuck ed
Ġb iblical
Ġfeather s
Ġimm ensely
Ġguard ian
ĠEVER Y
P ick
ĠRegister ed
T ogether
Ġst alk
Ġsal ads
ĠM ick
ĠW ond
Ġdescend ants
Ġfut ures
ĠCrit ical
per ing
ĠJoy ce
Ġar ising
ĠSch eme
D rive
Ġsup reme
S ky
Ġ tbsp
Ġbr ushing
Ġmigr ants
ĠF ighter
ĠHol ocaust
ĠMy t
Ġjoy ful
CON TACT
ĠB ey
ot ives
Al most
Ġcr ab
ĠM eyer
Ġexecut ing
Ġcommun al
put ed
D om
B rown
Ġeval uations
ĠImp ro
Ġvit ality
Ġpsych ologist
Ġwhere i
b ee
Ġwherei n
Ġcoll ateral
Ġcomp osing
ne eded
Ġs ir
IC AL
ĠR B
Ġtem pted
s ey
st y
ĠFrank furt
Sk ip
ec o
Ġdish washer
Ġsaus age
ĠF ry
ĊĊ ĠĊ
ĠLe ather
Ġapolog ize
Ġprof icient
Ġarr anging
Ġdefin itive
Ġcompens ate
ĠH ampton
ĠM Ã¼
Ġfe ared
r ays
ĠD B
mal ink
ĠSh arp
ĠAn at
Jos eph
Ġlegit im
ay e
ĠK aw
ĠP ER
ant is
ĠAt tend
Ġconc ludes
Â ²
Ġbul lying
Ġhair s
Ġmort ar
Ġdep icting
ĠT M
bl ue
ĠAppro ach
ĠGer ald
ĠF eder
Ġign oring
Ġkind ergarten
enn el
d rew
ĠInter active
Ġout right
R yan
B ird
Ġreal izes
au f
Ġmatch making
Ġexp ands
Ins ide
Ġcath edral
ĠPark ing
ai res
Ġb ip
nt y
ĠAr ms
Ġv ene
ĠBro ck
Ġbure aucr
Ġdin ners
ĠStrateg ies
ĠRap id
b ike
ag ara
Ġpas try
r ill
em ony
Ġpione ering
ĠR ally
Ġd ar
a quarium
Ġre use
ĠMc N
Ġex ceeds
W D
18 0
olog ic
Ġfoli age
s ince
Ġclass mates
L iked
Ġcon greg
ĠPat ricia
ĠTom orrow
ĠN eck
ĠN ormal
B ody
ĠArch bishop
ĠJeff rey
ĠFR OM
ĠD up
Ġcl utter
ĠSol o
ham med
ell or
Ġfrank ly
Ġcaps ule
ec d
U G
ĠH od
Ġcommun e
Ġd azz
Ġlater al
ji n
on ne
ĠPil ot
und y
ĠMar ian
isc her
c z
St aff
Reg ardless
ĠZ ion
ĠL oren
ĠM ing
19 45
tur ned
ĠX P
ĠGr ill
ĠTanz ania
Ġst ared
Ġr ails
Ġfacilit ates
Ġ tapping
Ġquant itative
Ġdifferent iate
ĠHay es
Ġretain s
ĠV intage
Ġprivile ges
mus ic
Sw ed
Ġun i
Ġunder est
Ġwas t
s ix
Ġal pha
n ement
roduc ing
Ġsaf est
Ġshow room
ĠEp ic
Ġun r
ĠClass ical
T ony
Ġl ump
pl o
ĠYour self
s ided
oc ative
ĠNob el
J osh
ĠT ier
r ah
est ead
ĠMy stery
ĠChief s
ĠMi ner
Ġslow ed
ĠEns ure
Ġhe x
il ight
Ġdest iny
Ġm ol
Ġind ef
Ġinf ring
Ġspark ed
ĠAbd ul
its u
Ġc uc
ĠT ac
ĠExt ension
Ġremind ers
Ch icago
Ġall ot
ĠL opez
ĠBroad casting
Ġtem pting
Ġtest ament
Ġchar coal
ĠAutom ation
Ã¤ r
ĠV ia
g t
Ġdef iciency
Ġe ther
en ch
ĠHot els
ĠS ou
ĠPublic ations
ĠW ade
Ġrefer endum
Ġdr ones
ĠBy z
ĠR PG
ĠV end
ĠL aud
Ġflow n
Ġmanip ulate
Ġorganiz er
ĠMy ers
al er
Ġover c
Ġfilm makers
S ection
ĠSe ed
ĠSaf ari
Ġs ul
st atic
Ġflour ish
Ġpreced ing
ĠR um
Ġpros ecution
Ġen zym
Ġthr ust
Ġup hold
e lected
Ġhur ting
[...]
