{
  "version": "1.0",
  "truncation": null,
  "padding": null,
  "added_tokens": [
    {
      "id": 0,
      "content": "<s>",
      "single_word": false,
      "lstrip": false,
      "rstrip": false,
      "normalized": false,
      "special": true
    },
    {
      "id": 1,
      "content": "<pad>",
      "single_word": false,
      "lstrip": false,
      "rstrip": false,
      "normalized": false,
      "special": true
    },
    {
      "id": 2,
      "content": "</s>",
      "single_word": false,
      "lstrip": false,
      "rstrip": false,
      "normalized": false,
      "special": true
    },
    {
      "id": 3,
      "content": "<unk>",
      "single_word": false,
      "lstrip": false,
      "rstrip": false,
      "normalized": false,
      "special": true
    },
    {
      "id": 4,
      "content": "<mask>",
      "single_word": false,
      "lstrip": true,
      "rstrip": false,
      "normalized": false,
      "special": true
    }
  ],
  "normalizer": null,
  "pre_tokenizer": {
    "type": "ByteLevel",
    "add_prefix_space": false,
    "trim_offsets": true,
    "use_regex": true
  },
  "post_processor": {
    "type": "RobertaProcessing",
    "sep": [
      "</s>",
      2
    ],
    "cls": [
      "<s>",
      0
    ],
    "trim_offsets": true,
    "add_prefix_space": false
  },
  "decoder": {
    "type": "ByteLevel",
    "add_prefix_space": true,
    "trim_offsets": true,
    "use_regex": true
  },
  "model": {
    "type": "BPE",
    "dropout": null,
    "unk_token": null,
    "continuing_subword_prefix": "",
    "end_of_word_suffix": "",
    "fuse_unk": false,
    "byte_fallback": false,
    "vocab": {
      "<s>": 0,
      "<pad>": 1,
      "</s>": 2,
      "<unk>": 3,
      "<mask>": 4,
      "!": 5,
      "\"": 6,
      "#": 7,
      "$": 8,
      "%": 9,
      "&": 10,
      "'": 11,
      "(": 12,
      ")": 13,
      "*": 14,
      "+": 15,
      ",": 16,
      "-": 17,
      ".": 18,
      "/": 19,
      "0": 20,
      "1": 21,
      "2": 22,
      "3": 23,
      "4": 24,
      "5": 25,
      "6": 26,
      "7": 27,
      "8": 28,
      "9": 29,
      ":": 30,
      ";": 31,
      "<": 32,
      "=": 33,
      ">": 34,
      "?": 35,
      "@": 36,
      "A": 37,
      "B": 38,
      "C": 39,
      "D": 40,
      "E": 41,
      "F": 42,
      "G": 43,
      "H": 44,
      "I": 45,
      "J": 46,
      "K": 47,
      "L": 48,
      "M": 49,
      "N": 50,
      "O": 51,
      "P": 52,
      "Q": 53,
      "R": 54,
      "S": 55,
      "T": 56,
      "U": 57,
      "V": 58,
      "W": 59,
      "X": 60,
      "Y": 61,
      "Z": 62,
      "[": 63,
      "\\": 64,
      "]": 65,
      "^": 66,
      "_": 67,
      "`": 68,
      "a": 69,
      "b": 70,
      "c": 71,
      "d": 72,
      "e": 73,
      "f": 74,
      "g": 75,
      "h": 76,
      "i": 77,
      "j": 78,
      "k": 79,
      "l": 80,
      "m": 81,
      "n": 82,
      "o": 83,
      "p": 84,
      "q": 85,
      "r": 86,
      "s": 87,
      "t": 88,
      "u": 89,
      "v": 90,
      "w": 91,
      "x": 92,
      "y": 93,
      "z": 94,
      "{": 95,
      "|": 96,
      "}": 97,
      "~": 98,
      "¡": 99,
      "¢": 100,
      "£": 101,
      "¤": 102,
      "¥": 103,
      "¦": 104,
      "§": 105,
      "¨": 106,
      "©": 107,
      "ª": 108,
      "«": 109,
      "¬": 110,
      "®": 111,
      "¯": 112,
      "°": 113,
      "±": 114,
      "²": 115,
      "³": 116,
      "´": 117,
      "µ": 118,
      "¶": 119,
      "·": 120,
      "¸": 121,
      "¹": 122,
      "º": 123,
      "»": 124,
      "¼": 125,
      "½": 126,
      "¾": 127,
      "¿": 128,
      "À": 129,
      "Á": 130,
      "Â": 131,
      "Ã": 132,
      "Ä": 133,
      "Å": 134,
      "Æ": 135,
      "Ç": 136,
      "È": 137,
      "É": 138,
      "Ê": 139,
      "Ë": 140,
      "Ì": 141,
      "Í": 142,
      "Î": 143,
      "Ï": 144,
      "Ð": 145,
      "Ñ": 146,
      "Ò": 147,
      "Ó": 148,
      "Ô": 149,
      "Õ": 150,
      "Ö": 151,
      "×": 152,
      "Ø": 153,
      "Ù": 154,
      "Ú": 155,
      "Û": 156,
      "Ü": 157,
      "Ý": 158,
      "Þ": 159,
      "ß": 160,
      "à": 161,
      "á": 162,
      "â": 163,
      "ã": 164,
      "ä": 165,
      "å": 166,
      "æ": 167,
      "ç": 168,
      "è": 169,
      "é": 170,
      "ê": 171,
      "ë": 172,
      "ì": 173,
      "í": 174,
      "î": 175,
      "ï": 176,
      "ð": 177,
      "ñ": 178,
      "ò": 179,
      "ó": 180,
      "ô": 181,
      "õ": 182,
      "ö": 183,
      "÷": 184,
      "ø": 185,
      "ù": 186,
      "ú": 187,
      "û": 188,
      "ü": 189,
      "ý": 190,
      "þ": 191,
      "ÿ": 192,
      "Ā": 193,
      "ā": 194,
      "Ă": 195,
      "ă": 196,
      "Ą": 197,
      "ą": 198,
      "Ć": 199,
      "ć": 200,
      "Ĉ": 201,
      "ĉ": 202,
      "Ċ": 203,
      "ċ": 204,
      "Č": 205,
      "č": 206,
      "Ď": 207,
      "ď": 208,
      "Đ": 209,
      "đ": 210,
      "Ē": 211,
      "ē": 212,
      "Ĕ": 213,
      "ĕ": 214,
      "Ė": 215,
      "ė": 216,
      "Ę": 217,
      "ę": 218,
      "Ě": 219,
      "ě": 220,
      "Ĝ": 221,
      "ĝ": 222,
      "Ğ": 223,
      "ğ": 224,
      "Ġ": 225,
      "ġ": 226,
      "Ģ": 227,
      "ģ": 228,
      "Ĥ": 229,
      "ĥ": 230,
      "Ħ": 231,
      "ħ": 232,
      "Ĩ": 233,
      "ĩ": 234,
      "Ī": 235,
      "ī": 236,
      "Ĭ": 237,
      "ĭ": 238,
      "Į": 239,
      "į": 240,
      "İ": 241,
      "ı": 242,
      "Ĳ": 243,
      "ĳ": 244,
      "Ĵ": 245,
      "ĵ": 246,
      "Ķ": 247,
      "ķ": 248,
      "ĸ": 249,
      "Ĺ": 250,
      "ĺ": 251,
      "Ļ": 252,
      "ļ": 253,
      "Ľ": 254,
      "ľ": 255,
      "Ŀ": 256,
      "ŀ": 257,
      "Ł": 258,
      "ł": 259,
      "Ń": 260,
      "an": 261,
      "er": 262,
      "on": 263,
      "re": 264,
      "Ġi": 265,
      "Ġs": 266,
      "at": 267,
      "Ġw": 268,
      "Ġo": 269,
      "en": 270,
      "Ġc": 271,
      "es": 272,
      "to": 273,
      "al": 274,
      "ou": 275,
      "ng": 276,
      "ing": 277,
      "Ġf": 278,
      "Ġan": 279,
      "Ġb": 280,
      "or": 281,
      "ed": 282,
      "Ġp": 283,
      "ar": 284,
      "it": 285,
      "Ġto": 286,
      "as": 287,
      "Ġm": 288,
      "Ġh": 289,
      "Ġand": 290,
      "Ġin": 291,
      "Ġof": 292,
      "is": 293,
      "Ġd": 294,
      "ic": 295,
      "le": 296,
      "ion": 297,
      "om": 298,
      "il": 299,
      "ent": 300,
      "ac": 301,
      "âĢ": 302,
      "el": 303,
      "Ġl": 304,
      "Ġy": 305,
      "ro": 306,
      "Ġre": 307,
      "us": 308,
      "Ġn": 309,
      "Ġe": 310,
      "et": 311,
      "Ġg": 312,
      "Ġyou": 313,
      "ĠI": 314,
      "ve": 315,
      "ĠT": 316,
      "ad": 317,
      "Ġis": 318,
      "ĠS": 319,
      "ec": 320,
      "am": 321,
      "ur": 322,
      "ly": 323,
      "hat": 324,
      "Ġon": 325,
      "Ġfor": 326,
      "ut": 327,
      "ay": 328,
      "ot": 329,
      "ow": 330,
      "ĠC": 331,
      "ĠA": 332,
      "id": 333,
      "st": 334,
      "ol": 335,
      "ver": 336,
      "ig": 337,
      "ith": 338,
      "Ġbe": 339,
      "are": 340,
      "her": 341,
      "ation": 342,
      "tr": 343,
      "that": 344,
      "Ġthat": 345,
      "Ġwith": 346,
      "ir": 347,
      "nd": 348,
      "ab": 349,
      "ter": 350,
      "ĠM": 351,
      "âĢĻ": 352,
      "em": 353,
      "ch": 354,
      "im": 355,
      "ag": 356,
      "Ġit": 357,
      "Ġal": 358,
      "Ġas": 359,
      "ce": 360,
      "ĠB": 361,
      "ul": 362,
      "ĠP": 363,
      "ĠTh": 364,
      "Ġwh": 365,
      "ers": 366,
      "un": 367,
      "ap": 368,
      "Ġst": 369,
      "ill": 370,
      "Ġare": 371,
      "Ġpro": 372,
      "ke": 373,
      "ĠW": 374,
      "ts": 375,
      "ess": 376,
      "Ġ1": 377,
      "ĠH": 378,
      "Ġcon": 379,
      "os": 380,
      "Ġcom": 381,
      "ai": 382,
      "Ġat": 383,
      "Ġ2": 384,
      "Ġwas": 385,
      "est": 386,
      "and": 387,
      "Ġor": 388,
      "ĠD": 389,
      "Ġfr": 390,
      "od": 391,
      "ain": 392,
      "ĠF": 393,
      "Ġr": 394,
      "ĠR": 395,
      "Ġ(": 396,
      "if": 397,
      "Ġyour": 398,
      "ore": 399,
      "Ġsh": 400,
      "ave": 401,
      "igh": 402,
      "Ġex": 403,
      "op": 404,
      "ate": 405,
      "up": 406,
      "art": 407,
      "Ġwe": 408,
      "ĠThe": 409,
      "um": 410,
      "ĠL": 411,
      "ld": 412,
      "ity": 413,
      "Ġv": 414,
      "ew": 415,
      "qu": 416,
      "ri": 417,
      "Ġch": 418,
      "his": 419,
      "ure": 420,
      "ĠG": 421,
      "ort": 422,
      "Ġfrom": 423,
      "Ġcan": 424,
      "ne": 425,
      "ies": 426,
      "Ġhave": 427,
      "ĠN": 428,
      "ear": 429,
      "ĠE": 430,
      "Ġby": 431,
      "oc": 432,
      "ment": 433,
      "uc": 434,
      "ĠâĢ": 435,
      "ther": 436,
      "ive": 437,
      "ant": 438,
      "Ġtr": 439,
      "iv": 440,
      "this": 441,
      "Ġthis": 442,
      "Ġus": 443,
      "tion": 444,
      "end": 445,
      "all": 446,
      "out": 447,
      "hi": 448,
      "Ġnot": 449,
      "ome": 450,
      "Ġpl": 451,
      "Ġ20": 452,
      "ĠO": 453,
      "ard": 454,
      "ep": 455,
      "Ġac": 456,
      "ud": 457,
      "Ġhe": 458,
      "Ġwill": 459,
      "ost": 460,
      "Ġle": 461,
      "Ġwor": 462,
      "ial": 463,
      "nt": 464,
      "res": 465,
      "av": 466,
      "our": 467,
      "ell": 468,
      "gh": 469,
      "Ġsp": 470,
      "ey": 471,
      "ist": 472,
      "Ġse": 473,
      "ight": 474,
      "Ġab": 475,
      "te": 476,
      "ok": 477,
      "ĠJ": 478,
      "Ġall": 479,
      "ak": 480,
      "ould": 481,
      "ack": 482,
      "tor": 483,
      "ous": 484,
      "Th": 485,
      "Ġde": 486,
      "li": 487,
      "ect": 488,
      "Ġj": 489,
      "Ġk": 490,
      "ally": 491,
      "Ġli": 492,
      "ust": 493,
      "tim": 494,
      "app": 495,
      "ough": 496,
      "ge": 497,
      "ich": 498,
      "Ġgo": 499,
      "Ġcomp": 500,
      "af": 501,
      "Ġdo": 502,
      "Ġne": 503,
      "Ġhas": 504,
      "age": 505,
      "ast": 506,
      "hing": 507,
      "ound": 508,
      "Ġen": 509,
      "ere": 510,
      "eir": 511,
      "ake": 512,
      "Ġad": 513,
      "ide": 514,
      "heir": 515,
      "their": 516,
      "Ġbut": 517,
      "ong": 518,
      "Ġtheir": 519,
      "per": 520,
      "The": 521,
      "Ġhis": 522,
      "ub": 523,
      "Ġout": 524,
      "ice": 525,
      "'s": 526,
      "Ġup": 527,
      "ĠU": 528,
      "ber": 529,
      "Ġme": 530,
      "Ġour": 531,
      "ated": 532,
      "og": 533,
      "very": 534,
      "ook": 535,
      "Ġfi": 536,
      "mp": 537,
      "so": 538,
      "fer": 539,
      "hey": 540,
      "Ġso": 541,
      "they": 542,
      "Ġmore": 543,
      "Ġthey": 544,
      "able": 545,
      "ip": 546,
      "Ġtim": 547,
      "Ġwork": 548,
      "Ġres": 549,
      "âĢĿ": 550,
      "Ġmy": 551,
      "ail": 552,
      "iz": 553,
      "Ġone": 554,
      "ans": 555,
      "ĠK": 556,
      "ĠIn": 557,
      "ame": 558,
      "ire": 559,
      "aw": 560,
      "for": 561,
      "ish": 562,
      "Ġman": 563,
      "00": 564,
      "ace": 565,
      "ence": 566,
      "ia": 567,
      "Ġalso": 568,
      "ign": 569,
      "ib": 570,
      "Ġun": 571,
      "act": 572,
      "Ġwhich": 573,
      "ue": 574,
      "ance": 575,
      "ite": 576,
      "ĠY": 577,
      "ary": 578,
      "ach": 579,
      "here": 580,
      "Ġabout": 581,
      "one": 582,
      "se": 583,
      "ition": 584,
      "Ġcl": 585,
      "reat": 586,
      "ations": 587,
      "ass": 588,
      "Ġinc": 589,
      "ents": 590,
      "Ġ19": 591,
      "Ġapp": 592,
      "han": 593,
      "und": 594,
      "Ġtime": 595,
      "Ġwho": 596,
      "ays": 597,
      "ely": 598,
      "erv": 599,
      "uch": 600,
      "ĠIt": 601,
      "Ġyear": 602,
      "ĠV": 603,
      "hem": 604,
      "ick": 605,
      "hr": 606,
      "ical": 607,
      "Ġqu": 608,
      "Ġother": 609,
      "hen": 610,
      "ase": 611,
      "Ġev": 612,
      "duc": 613,
      "now": 614,
      "mer": 615,
      "ĠâĢľ": 616,
      "Ġdis": 617,
      "ose": 618,
      "Ġper": 619,
      "ark": 620,
      "them": 621,
      "ine": 622,
      "Ġget": 623,
      "Ġthem": 624,
      "Ġcont": 625,
      "Ġ201": 626,
      "ese": 627,
      "ov": 628,
      "Ġsome": 629,
      "Ġther": 630,
      "Ġnew": 631,
      "ff": 632,
      "Ġher": 633,
      "ult": 634,
      "ll": 635,
      "ning": 636,
      "ness": 637,
      "pl": 638,
      "ild": 639,
      "ĠSt": 640,
      "Ġpart": 641,
      "ree": 642,
      "Ġwere": 643,
      "Ġhad": 644,
      "form": 645,
      "Ġte": 646,
      "Ġar": 647,
      "Ġgr": 648,
      "ond": 649,
      "Ġwhen": 650,
      "port": 651,
      "Ġbeen": 652,
      "Ġimp": 653,
      "Ġany": 654,
      "Ġop": 655,
      "Ġpe": 656,
      "Ġpr": 657,
      "Ġover": 658,
      "Ġneed": 659,
      "Ġthere": 660,
      "Ġrec": 661,
      "gr": 662,
      "nk": 663,
      "Ġlike": 664,
      "ress": 665,
      "ian": 666,
      "Ġro": 667,
      "Ġhel": 668,
      "ting": 669,
      "Ġwhat": 670,
      "cess": 671,
      "ople": 672,
      "Ġpre": 673,
      "tw": 674,
      "ens": 675,
      "irst": 676,
      "ions": 677,
      "Ġfe": 678,
      "ove": 679,
      "Ġag": 680,
      "Ġbec": 681,
      "ord": 682,
      "ater": 683,
      "Ġinter": 684,
      "Ġ3": 685,
      "lec": 686,
      "lo": 687,
      "Ġknow": 688,
      "Ġ\"": 689,
      "wn": 690,
      "Ġif": 691,
      "vel": 692,
      "..": 693,
      "ie": 694,
      "ind": 695,
      "ĠâĢĵ": 696,
      "Ġdes": 697,
      "Ġinto": 698,
      "vers": 699,
      "ang": 700,
      "ont": 701,
      "ty": 702,
      "Ġwould": 703,
      "enc": 704,
      "Ġaf": 705,
      "Ġoff": 706,
      "ĠWe": 707,
      "Ġhow": 708,
      "Ġits": 709,
      "oi": 710,
      "than": 711,
      "ile": 712,
      "Ġsc": 713,
      "Ġam": 714,
      "Ġjust": 715,
      "Ġbr": 716,
      "Ġpeople": 717,
      "aus": 718,
      "ade": 719,
      "Ġthan": 720,
      "Ġcomm": 721,
      "thing": 722,
      "Ġhelp": 723,
      "Ġfirst": 724,
      "ns": 725,
      "air": 726,
      "thr": 727,
      "ted": 728,
      "ks": 729,
      "Ġstr": 730,
      "ĠHe": 731,
      "ry": 732,
      "Ġtw": 733,
      "low": 734,
      "ual": 735,
      "ug": 736,
      "Ġthr": 737,
      "ĠThis": 738,
      "Ġsup": 739,
      "Ġcol": 740,
      "ool": 741,
      "lud": 742,
      "ons": 743,
      "Ġmake": 744,
      "Ġmost": 745,
      "ful": 746,
      "ious": 747,
      "Ġplay": 748,
      "les": 749,
      "Ġprov": 750,
      "ood": 751,
      "anc": 752,
      "amp": 753,
      "Ġthrough": 754,
      "ĠCh": 755,
      "Ġserv": 756,
      "Ġbet": 757,
      "ount": 758,
      "aid": 759,
      "Ġevery": 760,
      "Ġwell": 761,
      "own": 762,
      "nal": 763,
      "Ġlook": 764,
      "old": 765,
      "hy": 766,
      "lic": 767,
      "ob": 768,
      "rit": 769,
      "Ġonly": 770,
      "Ġadd": 771,
      "Ġund": 772,
      "oun": 773,
      "Ġ-": 774,
      "ates": 775,
      "Ġbu": 776,
      "Ġind": 777,
      "Ġinclud": 778,
      "ating": 779,
      "Ġshe": 780,
      "ĠSh": 781,
      "Ġcons": 782,
      "Ġmay": 783,
      "ife": 784,
      "Ġback": 785,
      "Ġno": 786,
      "Ġuse": 787,
      "ities": 788,
      "ause": 789,
      "red": 790,
      "Ġexper": 791,
      "Ġproduc": 792,
      "Ġsec": 793,
      "ily": 794,
      "Ġco": 795,
      "Ġdif": 796,
      "Ġtwo": 797,
      "Ġmany": 798,
      "ned": 799,
      "hese": 800,
      "these": 801,
      "oy": 802,
      "Ġthese": 803,
      "we": 804,
      "ings": 805,
      "Ġyears": 806,
      "hip": 807,
      "iness": 808,
      "hn": 809,
      "ices": 810,
      "Ġunder": 811,
      "oth": 812,
      "Ġwant": 813,
      "ise": 814,
      "uring": 815,
      "ors": 816,
      "then": 817,
      "iss": 818,
      "Ġafter": 819,
      "ments": 820,
      "Ġsee": 821,
      "elf": 822,
      "Ġvery": 823,
      "ational": 824,
      "20": 825,
      "fore": 826,
      "Ġwhere": 827,
      "ĠYou": 828,
      "In": 829,
      "ific": 830,
      "ten": 831,
      "Ġ4": 832,
      "Ġstud": 833,
      "ĠUn": 834,
      "iew": 835,
      "Ġway": 836,
      "ss": 837,
      "Ġact": 838,
      "tions": 839,
      "Ġbus": 840,
      "Ġacc": 841,
      "Ġloc": 842,
      "Ġsy": 843,
      "alt": 844,
      "ience": 845,
      "Ġdec": 846,
      "any": 847,
      "Ġ5": 848,
      "Ġreg": 849,
      "xt": 850,
      "Ġke": 851,
      "row": 852,
      "ased": 853,
      "Ġbl": 854,
      "Ġpos": 855,
      "tom": 856,
      "Ġthen": 857,
      "aking": 858,
      ").": 859,
      "erson": 860,
      "Ġmi": 861,
      "tory": 862,
      "Ġsm": 863,
      "Ġhigh": 864,
      "Ġass": 865,
      "ner": 866,
      "Ġrem": 867,
      "velop": 868,
      "ics": 869,
      "ular": 870,
      "Ġinv": 871,
      "nce": 872,
      "),": 873,
      "Ġeven": 874,
      "Ġspec": 875,
      "tain": 876,
      "Ġgood": 877,
      "ible": 878,
      "ember": 879,
      "gan": 880,
      "get": 881,
      "Ġcould": 882,
      "ures": 883,
      "Ġown": 884,
      "ead": 885,
      "als": 886,
      "day": 887,
      "oup": 888,
      "Ġexp": 889,
      "az": 890,
      "Ġgreat": 891,
      "ement": 892,
      "au": 893,
      "Ġstart": 894,
      "ility": 895,
      "tur": 896,
      "ef": 897,
      "ever": 898,
      "tle": 899,
      "olog": 900,
      "pe": 901,
      "ath": 902,
      "ms": 903,
      "chool": 904,
      "Ġshould": 905,
      "Ġent": 906,
      "its": 907,
      "Ġinst": 908,
      "Ġthing": 909,
      "Ġbest": 910,
      "Ġgu": 911,
      "ĠCom": 912,
      "ited": 913,
      "Ġdiffer": 914,
      "Ġnow": 915,
      "19": 916,
      "Ġset": 917,
      "Ġfam": 918,
      "atch": 919,
      "ied": 920,
      "hough": 921,
      "take": 922,
      "ho": 923,
      "ork": 924,
      "ward": 925,
      "Ġ200": 926,
      "Ġday": 927,
      "Ġsaid": 928,
      "though": 929,
      "Ġsto": 930,
      "other": 931,
      "Ġbusiness": 932,
      "ener": 933,
      "ange": 934,
      "Ġins": 935,
      "Ġcar": 936,
      "Ġrel": 937,
      "stem": 938,
      "try": 939,
      "Ġmuch": 940,
      "Ġlong": 941,
      "Ġfind": 942,
      "Ġdon": 943,
      "land": 944,
      "line": 945,
      "Ġdesign": 946,
      "aut": 947,
      "ower": 948,
      "Ġtake": 949,
      "Ġhim": 950,
      "Ġcre": 951,
      "Ġbecause": 952,
      "Ġart": 953,
      "Ġ&": 954,
      "Ġsuch": 955,
      "Ġaw": 956,
      "ĠAr": 957,
      "thi": 958,
      "Ġmade": 959,
      "ren": 960,
      "Ġbeing": 961,
      "Ġteam": 962,
      "ble": 963,
      "omet": 964,
      "Ġhome": 965,
      "br": 966,
      "bs": 967,
      "Ġdown": 968,
      "Ġlife": 969,
      "Ġdevelop": 970,
      "ually": 971,
      "Ġpri": 972,
      "tec": 973,
      "Ġatt": 974,
      "nes": 975,
      "Ġid": 976,
      "ct": 977,
      "ject": 978,
      "Ġdid": 979,
      "ĠPro": 980,
      "Ġbefore": 981,
      "Ġperson": 982,
      "ative": 983,
      "Ġshow": 984,
      "'t": 985,
      "Ġthi": 986,
      "Ġread": 987,
      "We": 988,
      "io": 989,
      "ollow": 990,
      "Ġend": 991,
      "ivers": 992,
      "ull": 993,
      "pt": 994,
      "ĠAl": 995,
      "ĠIf": 996,
      "Ġsur": 997,
      "ason": 998,
      "Ġ|": 999,
      "ek": 1000,
      "Ġagain": 1001,
      "Ġsim": 1002,
      "iet": 1003,
      "Ġworld": 1004,
      "Ġsi": 1005,
      "Ġrequ": 1006,
      "der": 1007,
      "Ġpres": 1008,
      "ĠAnd": 1009,
      "man": 1010,
      "Ġsub": 1011,
      "ank": 1012,
      "Ġused": 1013,
      "gram": 1014,
      "Ġcall": 1015,
      "ather": 1016,
      "Ġbel": 1017,
      "ax": 1018,
      "Ġcr": 1019,
      "oint": 1020,
      "ah": 1021,
      "Ġtrans": 1022,
      "Ġim": 1023,
      "Ġeff": 1024,
      "Ġ6": 1025,
      "Ġrep": 1026,
      "Ġwhile": 1027,
      "Ġcare": 1028,
      "Ġav": 1029,
      "ality": 1030,
      "Ġmark": 1031,
      "Ġhand": 1032,
      "Ġthink": 1033,
      "ouse": 1034,
      "lish": 1035,
      "Ġhere": 1036,
      "Ġcommun": 1037,
      "mi": 1038,
      "ters": 1039,
      "Ġeach": 1040,
      "Ġdisc": 1041,
      "alk": 1042,
      "ĠRe": 1043,
      "Ġcomple": 1044,
      "ues": 1045,
      "Ġdifferent": 1046,
      "led": 1047,
      "Ġmed": 1048,
      "Ġmod": 1049,
      "hose": 1050,
      "Ġvis": 1051,
      "ives": 1052,
      "Ġnum": 1053,
      "Ġright": 1054,
      "tern": 1055,
      "Ġsystem": 1056,
      "those": 1057,
      "earch": 1058,
      "Ġthose": 1059,
      "Ġaround": 1060,
      "Ġdr": 1061,
      "Ġsk": 1062,
      "ĠNew": 1063,
      "ee": 1064,
      "ven": 1065,
      "pr": 1066,
      "els": 1067,
      "Ġfin": 1068,
      "na": 1069,
      "ock": 1070,
      "Ġdoes": 1071,
      "Ġmin": 1072,
      "akes": 1073,
      "Ġbo": 1074,
      "Ġinform": 1075,
      ".âĢĿ": 1076,
      "ton": 1077,
      "ĠFor": 1078,
      "ages": 1079,
      "Ġlit": 1080,
      "ale": 1081,
      "ash": 1082,
      "Ġlead": 1083,
      "Ġed": 1084,
      "Ġfollow": 1085,
      "Ġfl": 1086,
      "str": 1087,
      "ences": 1088,
      "Ġser": 1089,
      "Ġeas": 1090,
      "ider": 1091,
      "Ġchar": 1092,
      "Ġmus": 1093,
      "ween": 1094,
      "Ġplan": 1095,
      "Ġprof": 1096,
      "Ġcur": 1097,
      "ient": 1098,
      "ĠAs": 1099,
      "Ġfound": 1100,
      "Ġcus": 1101,
      "âĢ¦": 1102,
      "Ġchild": 1103,
      "ĠMar": 1104,
      "Ġfil": 1105,
      "Ġadv": 1106,
      "ways": 1107,
      "ĠThey": 1108,
      "âĢľ": 1109,
      "tors": 1110,
      "meric": 1111,
      "Ġmet": 1112,
      "ĠFr": 1113,
      "ames": 1114,
      "Ġpol": 1115,
      "gi": 1116,
      "Ġpub": 1117,
      "Ġsupport": 1118,
      "Ġboth": 1119,
      "ional": 1120,
      "Ġfac": 1121,
      "Ġsomet": 1122,
      "Ġimport": 1123,
      "Ġ18": 1124,
      "ects": 1125,
      "Ġvar": 1126,
      "Ġbuild": 1127,
      "Ġplace": 1128,
      "ĠTr": 1129,
      "alth": 1130,
      "ists": 1131,
      "Ġear": 1132,
      "Ġbetween": 1133,
      "ature": 1134,
      "eld": 1135,
      "Ġ10": 1136,
      "Ġtec": 1137,
      "ets": 1138,
      "Ġform": 1139,
      "ize": 1140,
      "olut": 1141,
      "Ġreally": 1142,
      "...": 1143,
      "bers": 1144,
      "Ġem": 1145,
      "Ġstill": 1146,
      "Ġlear": 1147,
      "Ġ7": 1148,
      "Ġprocess": 1149,
      "Ġsame": 1150,
      "Ġsign": 1151,
      "Ġdet": 1152,
      "over": 1153,
      "Ġduring": 1154,
      "Ġthough": 1155,
      "Ġfeel": 1156,
      "orn": 1157,
      "Ġmon": 1158,
      "ized": 1159,
      "read": 1160,
      "Ġcour": 1161,
      "Ġfew": 1162,
      "Ġcle": 1163,
      "Ġdep": 1164,
      "Ġdef": 1165,
      "aving": 1166,
      "Ġprogram": 1167,
      "Ġresp": 1168,
      "eck": 1169,
      "arm": 1170,
      "Ġlot": 1171,
      "Ġlast": 1172,
      "rop": 1173,
      "Ġtop": 1174,
      "Ġ$": 1175,
      "cc": 1176,
      "Ġrun": 1177,
      "oot": 1178,
      "Ġmain": 1179,
      "âĢĵ": 1180,
      "ata": 1181,
      "Ġoffer": 1182,
      "iving": 1183,
      "Ġbook": 1184,
      "Ġexperience": 1185,
      "ple": 1186,
      "Ġdri": 1187,
      "Ġ8": 1188,
      "Ġfun": 1189,
      "ict": 1190,
      "Ġgoing": 1191,
      "Ġlar": 1192,
      "Ġprovid": 1193,
      "ved": 1194,
      "ĠSp": 1195,
      "view": 1196,
      "Ġty": 1197,
      "Ġtechn": 1198,
      "orth": 1199,
      "This": 1200,
      "Ġfamily": 1201,
      "ital": 1202,
      "Ġdire": 1203,
      "Ġschool": 1204,
      "lease": 1205,
      "Ġmem": 1206,
      "hree": 1207,
      "three": 1208,
      "Ġkeep": 1209,
      "Ġhapp": 1210,
      "ft": 1211,
      "onth": 1212,
      "Ġcoun": 1213,
      "ling": 1214,
      "urch": 1215,
      "Ġinformation": 1216,
      "Ġ202": 1217,
      "ĠBut": 1218,
      "Ġgener": 1219,
      "Ġthree": 1220,
      "ident": 1221,
      "nc": 1222,
      "Ġorgan": 1223,
      "ody": 1224,
      "Ġposs": 1225,
      "Ġdel": 1226,
      "Ġopen": 1227,
      "Ġthings": 1228,
      "Ġreal": 1229,
      "Ġalways": 1230,
      "ross": 1231,
      "ric": 1232,
      "ĠGr": 1233,
      "Ġallow": 1234,
      "Ġcent": 1235,
      "ĠShe": 1236,
      "iver": 1237,
      "ĠThere": 1238,
      "ars": 1239,
      "Ġsmall": 1240,
      "Ġlist": 1241,
      "outh": 1242,
      "iversity": 1243,
      "Ġpost": 1244,
      "Ġpartic": 1245,
      "Ġlove": 1246,
      "ĠAmeric": 1247,
      "Ġtoo": 1248,
      "Ġusing": 1249,
      "Ġcompany": 1250,
      "ants": 1251,
      "hoto": 1252,
      "ology": 1253,
      "ĠLe": 1254,
      "ying": 1255,
      "gy": 1256,
      "Ġwater": 1257,
      "ator": 1258,
      "ural": 1259,
      "Ġ9": 1260,
      "rent": 1261,
      "uss": 1262,
      "Ġimportant": 1263,
      "Ġint": 1264,
      "Ġwi": 1265,
      "It": 1266,
      "Ġconti": 1267,
      "Ġcontin": 1268,
      "self": 1269,
      "be": 1270,
      "Ġsoc": 1271,
      "por": 1272,
      "ĠCl": 1273,
      "iend": 1274,
      "Ġgroup": 1275,
      "ves": 1276,
      "Ġcap": 1277,
      "iqu": 1278,
      "Ġfriend": 1279,
      "Ġrece": 1280,
      "Ġexc": 1281,
      "ired": 1282,
      "ĠAd": 1283,
      "Ġclass": 1284,
      "Ġmonth": 1285,
      "aj": 1286,
      "ĠHow": 1287,
      "cri": 1288,
      "ustr": 1289,
      "Ġpass": 1290,
      "ĠBr": 1291,
      "Ġavail": 1292,
      "ially": 1293,
      "ĠAn": 1294,
      "fect": 1295,
      "Ġwrit": 1296,
      "Ġmarket": 1297,
      "ision": 1298,
      "stand": 1299,
      "ically": 1300,
      "Ġval": 1301,
      "Ġweek": 1302,
      "Ġcome": 1303,
      "Ġemp": 1304,
      "Ġgame": 1305,
      "uck": 1306,
      "Ġtur": 1307,
      "Ġlittle": 1308,
      "Ġcho": 1309,
      "Ġservice": 1310,
      "Ġter": 1311,
      "Ġperform": 1312,
      "cer": 1313,
      "Ġide": 1314,
      "Ġincluding": 1315,
      "Ġable": 1316,
      "Ġbetter": 1317,
      "000": 1318,
      "Ġnumber": 1319,
      "ards": 1320,
      "tre": 1321,
      "omm": 1322,
      "ger": 1323,
      "Ġfree": 1324,
      "no": 1325,
      "irt": 1326,
      "Ġob": 1327,
      "ared": 1328,
      "Ġcer": 1329,
      "ys": 1330,
      "Ġsit": 1331,
      "Ġcli": 1332,
      "aining": 1333,
      "Ġsomething": 1334,
      "Ġsay": 1335,
      "Ġsure": 1336,
      "Ġsuc": 1337,
      "Ġmov": 1338,
      "ex": 1339,
      "ĠAf": 1340,
      "ĠPl": 1341,
      "Ġwithout": 1342,
      "ĠZ": 1343,
      "Ġonline": 1344,
      "ĠInd": 1345,
      "Ġpop": 1346,
      "Ġmanag": 1347,
      "Ġcor": 1348,
      "Ġavailable": 1349,
      "oin": 1350,
      "ĠCol": 1351,
      "ands": 1352,
      "Ġput": 1353,
      "reen": 1354,
      "ention": 1355,
      "Re": 1356,
      "Ġhead": 1357,
      "Ġnext": 1358,
      "Ġinf": 1359,
      "uary": 1360,
      "Ġsecond": 1361,
      "Ġest": 1362,
      "less": 1363,
      "Ġsince": 1364,
      "ik": 1365,
      "ĠSo": 1366,
      "Ġold": 1367,
      "Ġconf": 1368,
      "Ġprovide": 1369,
      "til": 1370,
      "If": 1371,
      "Ġiss": 1372,
      "con": 1373,
      "Ġorder": 1374,
      "ately": 1375,
      "Ġworking": 1376,
      "omen": 1377,
      "Ġanother": 1378,
      "ute": 1379,
      "Ġmight": 1380,
      "Ġmust": 1381,
      "Ġservices": 1382,
      "ĠQ": 1383,
      "ury": 1384,
      "ier": 1385,
      "Ġpay": 1386,
      "aff": 1387,
      "Ġbig": 1388,
      "Ġarea": 1389,
      "Ġprofess": 1390,
      "ivid": 1391,
      "ĠâĢĺ": 1392,
      "nis": 1393,
      "Ġstre": 1394,
      ",âĢĿ": 1395,
      "Ġpat": 1396,
      "ĠBe": 1397,
      "Ġlevel": 1398,
      "ĠSc": 1399,
      "pos": 1400,
      "Ġbro": 1401,
      "Ġcustom": 1402,
      "Ġspecial": 1403,
      "inal": 1404,
      "Ġgrow": 1405,
      "Ġhard": 1406,
      "Ġexpl": 1407,
      "Ġaddition": 1408,
      "ior": 1409,
      "joy": 1410,
      "Ġnever": 1411,
      "Ġsl": 1412,
      "Ġquest": 1413,
      "Ġoper": 1414,
      "Ġdata": 1415,
      "ike": 1416,
      "Ġsing": 1417,
      "Ġinterest": 1418,
      "Ġwin": 1419,
      "Ġpower": 1420,
      "Ġcontr": 1421,
      "Ġgive": 1422,
      "eng": 1423,
      "Ġlet": 1424,
      "Ġconsider": 1425,
      "ights": 1426,
      "Ġgot": 1427,
      "ra": 1428,
      "ĠCon": 1429,
      "Ġincre": 1430,
      "Ġsever": 1431,
      "Ġcost": 1432,
      "Ġwithi": 1433,
      "Ġwithin": 1434,
      "ced": 1435,
      "Ġwebs": 1436,
      "ces": 1437,
      "ains": 1438,
      "Ġproble": 1439,
      "ently": 1440,
      "oss": 1441,
      "Ġ199": 1442,
      "Ġelec": 1443,
      "Ġfull": 1444,
      "loy": 1445,
      "Ġmeet": 1446,
      "Ġpar": 1447,
      "ins": 1448,
      "Ġstand": 1449,
      "ĠBl": 1450,
      "ills": 1451,
      "Ġmusic": 1452,
      "Ġcreat": 1453,
      "Ġ||": 1454,
      "cent": 1455,
      "ĠAt": 1456,
      "esp": 1457,
      "gin": 1458,
      "ball": 1459,
      "ĠJo": 1460,
      "ĠEx": 1461,
      "Ġappro": 1462,
      "Ġstudents": 1463,
      "iety": 1464,
      "Ġevent": 1465,
      "ĠDe": 1466,
      "ction": 1467,
      "Ġask": 1468,
      "Ġeng": 1469,
      "Ġph": 1470,
      "gether": 1471,
      "itch": 1472,
      "ley": 1473,
      "Ġcurrent": 1474,
      "Ġbre": 1475,
      "Ġsuccess": 1476,
      "Ġdays": 1477,
      "Ġref": 1478,
      "hor": 1479,
      "ump": 1480,
      "uit": 1481,
      "Ġmaking": 1482,
      "rol": 1483,
      "ime": 1484,
      "sh": 1485,
      "ism": 1486,
      "Ġspe": 1487,
      "Ġvide": 1488,
      "Ġhealth": 1489,
      "Ġless": 1490,
      "Ġlocal": 1491,
      "Ġactiv": 1492,
      "urs": 1493,
      "ours": 1494,
      "ĠUniversity": 1495,
      "Ġaccess": 1496,
      "Ġproper": 1497,
      "ĠIs": 1498,
      "Ġpract": 1499,
      "Ġphoto": 1500,
      "Ġprom": 1501,
      "Ġpublic": 1502,
      "Ġbas": 1503,
      "Ġcommunity": 1504,
      "ency": 1505,
      "ĠChr": 1506,
      "ĠOn": 1507,
      "Ġenjoy": 1508,
      "Ġalong": 1509,
      "Ġequ": 1510,
      "Ġtogether": 1511,
      "Ġproject": 1512,
      "Ġel": 1513,
      "Ġrecord": 1514,
      "ĠOr": 1515,
      "Ġpain": 1516,
      "let": 1517,
      "Ġfood": 1518,
      "Ġ12": 1519,
      "orts": 1520,
      "ird": 1521,
      "ense": 1522,
      "ocus": 1523,
      "ĠMan": 1524,
      "Ġprev": 1525,
      "une": 1526,
      "Ġsaf": 1527,
      "Ġchildren": 1528,
      "ply": 1529,
      "way": 1530,
      "Ġben": 1531,
      "Ġleg": 1532,
      "aim": 1533,
      "ope": 1534,
      "Ġuntil": 1535,
      "Ġlooking": 1536,
      "10": 1537,
      "ats": 1538,
      "ission": 1539,
      "ny": 1540,
      "Ġoften": 1541,
      "ĠTo": 1542,
      "You": 1543,
      "Ġcas": 1544,
      "Ġunderstand": 1545,
      "ugg": 1546,
      "Ġlink": 1547,
      "ised": 1548,
      "uly": 1549,
      "test": 1550,
      "Ġneeds": 1551,
      "Ġpresent": 1552,
      "by": 1553,
      "ĠEng": 1554,
      "mit": 1555,
      ".\"": 1556,
      "aster": 1557,
      "ĠAll": 1558,
      "atter": 1559,
      "Ġfour": 1560,
      "ems": 1561,
      "ential": 1562,
      "ĠĊ": 1563,
      "Ġimpro": 1564,
      "Ġname": 1565,
      "Ġchang": 1566,
      "augh": 1567,
      "ether": 1568,
      "Ġseason": 1569,
      "Ġpoint": 1570,
      "bo": 1571,
      "ck": 1572,
      "med": 1573,
      "ization": 1574,
      "Ġconn": 1575,
      "Ġaway": 1576,
      "Ġhouse": 1577,
      "aces": 1578,
      "Ġseveral": 1579,
      "Ġgl": 1580,
      "ived": 1581,
      "Ġcreate": 1582,
      "Ġ15": 1583,
      "Ġagainst": 1584,
      "Ġann": 1585,
      "of": 1586,
      "oci": 1587,
      "dition": 1588,
      "ĠMay": 1589,
      "Ġhum": 1590,
      "ĠWith": 1591,
      "Ġmembers": 1592,
      "Ġair": 1593,
      "ĠCan": 1594,
      "ote": 1595,
      "ably": 1596,
      "Ġhaving": 1597,
      "Ġlight": 1598,
      "Ġpi": 1599,
      "ique": 1600,
      "ividual": 1601,
      "yle": 1602,
      "uct": 1603,
      "Ġquality": 1604,
      "ĠWhen": 1605,
      "ected": 1606,
      "tal": 1607,
      "ĠâĢĶ": 1608,
      "ending": 1609,
      "nation": 1610,
      "work": 1611,
      "ory": 1612,
      "Ġlo": 1613,
      "iting": 1614,
      "unch": 1615,
      "Ġjob": 1616,
      "Ġbelie": 1617,
      "aud": 1618,
      "Ġcourse": 1619,
      "Ġbecome": 1620,
      "Ġmoney": 1621,
      "Ġwebsite": 1622,
      "Ġdi": 1623,
      "As": 1624,
      "hile": 1625,
      "Ġchange": 1626,
      "Ġstate": 1627,
      "Ġroom": 1628,
      "Ġview": 1629,
      "ney": 1630,
      "Ġtimes": 1631,
      "ified": 1632,
      "com": 1633,
      "Ġpossible": 1634,
      "Ġfocus": 1635,
      "bi": 1636,
      "Ġsite": 1637,
      "Ġmar": 1638,
      "ode": 1639,
      "Ġdem": 1640,
      "âĢĶ": 1641,
      "ails": 1642,
      "Ġsw": 1643,
      "ĠAmerican": 1644,
      "ĠCent": 1645,
      "Ġproducts": 1646,
      "What": 1647,
      "Ġlarge": 1648,
      "lect": 1649,
      "vir": 1650,
      "Ġmove": 1651,
      "ER": 1652,
      "Ġbased": 1653,
      "portun": 1654,
      "ern": 1655,
      "Ġwhy": 1656,
      "Ġbody": 1657,
      "treat": 1658,
      "tra": 1659,
      "Ġtoday": 1660,
      "Ġaut": 1661,
      "ape": 1662,
      "ery": 1663,
      "Ġeffect": 1664,
      "ots": 1665,
      "ĠThat": 1666,
      "ferences": 1667,
      "ests": 1668,
      "Ġ0": 1669,
      "Ġsocial": 1670,
      "Ġkind": 1671,
      "orm": 1672,
      "Ġmen": 1673,
      "Ġbeaut": 1674,
      "ering": 1675,
      "ateg": 1676,
      "side": 1677,
      "ajor": 1678,
      "lished": 1679,
      "ĠMi": 1680,
      "rap": 1681,
      "Ġindividual": 1682,
      "ample": 1683,
      "uro": 1684,
      "ended": 1685,
      "viron": 1686,
      "ving": 1687,
      "ults": 1688,
      "Ġnear": 1689,
      "Ġlaw": 1690,
      "ability": 1691,
      "Ġdoc": 1692,
      "Ġproduct": 1693,
      "ising": 1694,
      "Ġline": 1695,
      "Ġhear": 1696,
      "ĠCar": 1697,
      "Ġstarted": 1698,
      "Ġfur": 1699,
      "Ġshort": 1700,
      "Ġretur": 1701,
      "Ġcover": 1702,
      "ners": 1703,
      "ept": 1704,
      "Ġeduc": 1705,
      "Ġinclude": 1706,
      "ales": 1707,
      "Ġlater": 1708,
      "Ġeasy": 1709,
      "ĠRo": 1710,
      "ption": 1711,
      "Ġknown": 1712,
      "ping": 1713,
      "Ġopportun": 1714,
      "Ġcase": 1715,
      "Ġrest": 1716,
      "uf": 1717,
      "ele": 1718,
      "iven": 1719,
      "co": 1720,
      "ively": 1721,
      "ances": 1722,
      "Ġsays": 1723,
      "net": 1724,
      "uff": 1725,
      "Ġapplic": 1726,
      "ĠUS": 1727,
      "ĠHis": 1728,
      "illion": 1729,
      "fort": 1730,
      "Ġred": 1731,
      "ped": 1732,
      "Ġgover": 1733,
      "Ġresearch": 1734,
      "Ġtest": 1735,
      "Ġleft": 1736,
      "Ġfollowing": 1737,
      "aterial": 1738,
      "erm": 1739,
      "Ġcalled": 1740,
      "nment": 1741,
      "ush": 1742,
      "Ġbenef": 1743,
      "St": 1744,
      "Ġcheck": 1745,
      "Ġtrad": 1746,
      "Ġocc": 1747,
      "Ġens": 1748,
      "Ġinvest": 1749,
      "Ġdevelopment": 1750,
      "Ġve": 1751,
      "Ġside": 1752,
      "Ġorig": 1753,
      "Ġcompet": 1754,
      "sp": 1755,
      "cl": 1756,
      "ids": 1757,
      "18": 1758,
      "Sh": 1759,
      "Ġemploy": 1760,
      "Ġothers": 1761,
      "tell": 1762,
      "Ġmind": 1763,
      "ection": 1764,
      "icle": 1765,
      "Ġlive": 1766,
      "Ġmakes": 1767,
      "Ġdev": 1768,
      "atures": 1769,
      "Ġtreat": 1770,
      "Ġcamp": 1771,
      "Ġdone": 1772,
      "ĠCo": 1773,
      "utes": 1774,
      "wards": 1775,
      "ĠSe": 1776,
      "olution": 1777,
      "Ġwomen": 1778,
      "Ġquick": 1779,
      "ane": 1780,
      "ured": 1781,
      "Ġfilm": 1782,
      "ĠThese": 1783,
      "ready": 1784,
      "uture": 1785,
      "hod": 1786,
      "Ġvideo": 1787,
      "Ġstep": 1788,
      "uce": 1789,
      "ĠHowever": 1790,
      "50": 1791,
      "Ġgetting": 1792,
      "lection": 1793,
      "ries": 1794,
      "ium": 1795,
      "Ġenough": 1796,
      "Ġpersonal": 1797,
      "ained": 1798,
      "talk": 1799,
      "Ġwr": 1800,
      "Ġever": 1801,
      "Ġtyp": 1802,
      "Ġspace": 1803,
      "Ġrele": 1804,
      "ustry": 1805,
      "Ġstory": 1806,
      "ift": 1807,
      "Ġacross": 1808,
      "ĠWor": 1809,
      "IN": 1810,
      "ams": 1811,
      "Ã©": 1812,
      "ph": 1813,
      "Ġ11": 1814,
      "jects": 1815,
      "Ġword": 1816,
      "Ġmeans": 1817,
      "ony": 1818,
      "Ġperfect": 1819,
      "Ġ198": 1820,
      "vironment": 1821,
      "Ġcomes": 1822,
      "Ġgames": 1823,
      "hys": 1824,
      "Ġwon": 1825,
      "Ġtre": 1826,
      "ĠAp": 1827,
      "ung": 1828,
      "itive": 1829,
      "Ġcity": 1830,
      "Ġpo": 1831,
      "ĠMy": 1832,
      "How": 1833,
      "Ġfoot": 1834,
      "cept": 1835,
      "ĠChi": 1836,
      "Ġtook": 1837,
      "ĠWhat": 1838,
      "Ġmult": 1839,
      "Ġyoung": 1840,
      "Ġcharac": 1841,
      "Ġtalk": 1842,
      "Ġpast": 1843,
      "Ġet": 1844,
      "Ġcertain": 1845,
      "Ġearly": 1846,
      "imes": 1847,
      "Ġbuilding": 1848,
      "Ġpot": 1849,
      "Ġalready": 1850,
      "ĠUnited": 1851,
      "Ġsol": 1852,
      "Ġsch": 1853,
      "alf": 1854,
      "avel": 1855,
      "Ġfar": 1856,
      "ged": 1857,
      "Ġ[": 1858,
      "ĠComm": 1859,
      "ĠFe": 1860,
      "osp": 1861,
      "Ġlik": 1862,
      "Ġmaterial": 1863,
      "Ġmajor": 1864,
      "Ġplayers": 1865,
      "Ġ'": 1866,
      "ĠOur": 1867,
      "Ġcountry": 1868,
      "ental": 1869,
      "Ġdoing": 1870,
      "Ġvers": 1871,
      "Ġ30": 1872,
      "Ġresult": 1873,
      "ps": 1874,
      "Ġbring": 1875,
      "Ġnight": 1876,
      "Ġshare": 1877,
      "30": 1878,
      "aper": 1879,
      "Ġtell": 1880,
      "ret": 1881,
      "Ġcame": 1882,
      "Ġspecific": 1883,
      "tem": 1884,
      "most": 1885,
      "ilt": 1886,
      "Ġinvol": 1887,
      "irl": 1888,
      "Ġbit": 1889,
      "ĠPr": 1890,
      "Ġreport": 1891,
      "ĠRes": 1892,
      "Ex": 1893,
      "idd": 1894,
      "ĠChrist": 1895,
      "ister": 1896,
      "Ġfav": 1897,
      "ĠAm": 1898,
      "ĠAss": 1899,
      "ĠDr": 1900,
      "ips": 1901,
      "Ġactually": 1902,
      "resent": 1903,
      "Ġext": 1904,
      "For": 1905,
      "ides": 1906,
      "Ġfriends": 1907,
      "Ġmom": 1908,
      "Ġseries": 1909,
      "Ġ2021": 1910,
      "ĠNo": 1911,
      "Ġonce": 1912,
      "Ġ.": 1913,
      "Ġhold": 1914,
      "lege": 1915,
      "aps": 1916,
      "ording": 1917,
      "nam": 1918,
      "Ġdidn": 1919,
      "Ġ2020": 1920,
      "acks": 1921,
      "Ġbegin": 1922,
      "iful": 1923,
      "Ġfuture": 1924,
      "ĠSchool": 1925,
      "There": 1926,
      "ones": 1927,
      "Ġnon": 1928,
      "Ġoffic": 1929,
      "Ġcompan": 1930,
      "Ġlim": 1931,
      "Ġtool": 1932,
      "Ġele": 1933,
      "Ġtry": 1934,
      "Ġparticular": 1935,
      "ounty": 1936,
      "Ġrequire": 1937,
      "Ġfund": 1938,
      "Ġclos": 1939,
      "Ġmean": 1940,
      "acy": 1941,
      "oud": 1942,
      "Ġenter": 1943,
      "atic": 1944,
      "Ġcontrol": 1945,
      "Ġ17": 1946,
      "ians": 1947,
      "Ġfore": 1948,
      "uction": 1949,
      "Ġindustry": 1950,
      "Ġcult": 1951,
      "Ġvarious": 1952,
      "Ġexample": 1953,
      "Ġchall": 1954,
      "aring": 1955,
      "Ġey": 1956,
      "Ġkey": 1957,
      "Ġ16": 1958,
      "Ġrelations": 1959,
      "ought": 1960,
      "Ġsum": 1961,
      "Ġfield": 1962,
      "Ġsong": 1963,
      "ĠDis": 1964,
      "Ġclean": 1965,
      "Ġdue": 1966,
      "ĠWh": 1967,
      "Ġprofessional": 1968,
      "ci": 1969,
      "Ġ#": 1970,
      "arr": 1971,
      "rew": 1972,
      "Ġlearn": 1973,
      "RE": 1974,
      "Ġnet": 1975,
      "Ġcontact": 1976,
      "Ġstrong": 1977,
      "ford": 1978,
      "ĠAfter": 1979,
      "room": 1980,
      "Ġwent": 1981,
      "ene": 1982,
      "Ġtem": 1983,
      "Ġestab": 1984,
      "ino": 1985,
      "Ġsound": 1986,
      "References": 1987,
      "ON": 1988,
      "When": 1989,
      "ulation": 1990,
      "Ġcondition": 1991,
      "nit": 1992,
      "roduc": 1993,
      "Ġappear": 1994,
      "Ġeverything": 1995,
      "12": 1996,
      "ĠMore": 1997,
      "Ġmil": 1998,
      "taking": 1999,
      "ĠRep": 2000,
      "Ġener": 2001,
      "abor": 2002,
      "Ġtraining": 2003,
      "Ġthought": 2004,
      "inc": 2005,
      "load": 2006,
      "conom": 2007,
      "atural": 2008,
      "book": 2009,
      "Ġdist": 2010,
      "ĠJan": 2011,
      "ither": 2012,
      "Ġsingle": 2013,
      "ows": 2014,
      "ĠPh": 2015,
      "Ġworks": 2016,
      "Ġclear": 2017,
      "ti": 2018,
      "me": 2019,
      "ilities": 2020,
      "Ġhours": 2021,
      "icult": 2022,
      "ources": 2023,
      "Ġcustomers": 2024,
      "Ġfre": 2025,
      "ral": 2026,
      "ĠSouth": 2027,
      "ued": 2028,
      "Ġwatch": 2029,
      "Ġ/": 2030,
      "ule": 2031,
      "achi": 2032,
      "eter": 2033,
      "pril": 2034,
      "oman": 2035,
      "urity": 2036,
      "Ġstay": 2037,
      "Ġenvironment": 2038,
      "Ġmonths": 2039,
      "Ġlov": 2040,
      "Ġdistr": 2041,
      "Ġenc": 2042,
      "Ġstat": 2043,
      "aken": 2044,
      "cto": 2045,
      "ished": 2046,
      "Ġaccount": 2047,
      "elves": 2048,
      "ert": 2049,
      "ĠDec": 2050,
      "ĠMus": 2051,
      "iod": 2052,
      "AT": 2053,
      "irc": 2054,
      "Ġteac": 2055,
      "Ġ197": 2056,
      "Ġprep": 2057,
      "Our": 2058,
      "Ġrecomm": 2059,
      "ĠOne": 2060,
      "Ġident": 2061,
      "ĠInst": 2062,
      "not": 2063,
      "ecially": 2064,
      "Ġwalk": 2065,
      "Ġfact": 2066,
      "Ġposition": 2067,
      "ĠEuro": 2068,
      "Ġhot": 2069,
      "Ġleast": 2070,
      "Ġpiec": 2071,
      "Ġreview": 2072,
      "Ġhappen": 2073,
      "Ġpurch": 2074,
      "artment": 2075,
      "Ġcompanies": 2076,
      "Ġexperi": 2077,
      "Ġcommon": 2078,
      "Ġ2022": 2079,
      "Ġrange": 2080,
      "ource": 2081,
      "ĠMed": 2082,
      "ugust": 2083,
      "Ġhistory": 2084,
      "Ġess": 2085,
      "ĠCity": 2086,
      "Ġdoesn": 2087,
      "ify": 2088,
      "Ġbeautiful": 2089,
      "ĠNational": 2090,
      "On": 2091,
      "Ġpriv": 2092,
      "illed": 2093,
      "Ġcontent": 2094,
      "hie": 2095,
      "Ġinstall": 2096,
      "ĠYour": 2097,
      "Ġau": 2098,
      "Ġconcer": 2099,
      "Ġaud": 2100,
      "Ġdeal": 2101,
      "eptember": 2102,
      "Ġvol": 2103,
      "ibut": 2104,
      "ask": 2105,
      "angu": 2106,
      "ĠWorld": 2107,
      "Ġdig": 2108,
      "Ġwind": 2109,
      "Ġlow": 2110,
      "Ġpage": 2111,
      "Ġinsp": 2112,
      "ron": 2113,
      "Ġdefi": 2114,
      "ument": 2115,
      "Ġ14": 2116,
      "ecess": 2117,
      "irth": 2118,
      "ami": 2119,
      "ĠSy": 2120,
      "bed": 2121,
      "Ġpack": 2122,
      "Ġgiven": 2123,
      "Ġreach": 2124,
      "tit": 2125,
      "ored": 2126,
      "ĠBo": 2127,
      "ĠX": 2128,
      "Ġdiscuss": 2129,
      "Ġbelow": 2130,
      "Ġdirec": 2131,
      "Ġdiff": 2132,
      "ledge": 2133,
      "Ġfeatures": 2134,
      "ince": 2135,
      "ided": 2136,
      "ctober": 2137,
      "bum": 2138,
      "Ġparticip": 2139,
      "Ġflo": 2140,
      "Ġevents": 2141,
      "sw": 2142,
      "lex": 2143,
      "ĠGo": 2144,
      "Ġstop": 2145,
      "ilar": 2146,
      "Ġimprove": 2147,
      "Ġissues": 2148,
      "Ġmethod": 2149,
      "Ġcut": 2150,
      "Ġgovernment": 2151,
      "Ġdirect": 2152,
      "Ġ2019": 2153,
      "Ġbecame": 2154,
      "Ġmedia": 2155,
      "aur": 2156,
      "Ġreason": 2157,
      "Ġtaking": 2158,
      "Rep": 2159,
      "ĠNe": 2160,
      "nts": 2161,
      "Ġyet": 2162,
      "Ġproblem": 2163,
      "'re": 2164,
      "Ġeveryone": 2165,
      "ni": 2166,
      "ĠGu": 2167,
      "Ġrelationship": 2168,
      "Ġphys": 2169,
      "Ġsomeone": 2170,
      "Ġland": 2171,
      "Ġareas": 2172,
      "15": 2173,
      "Ġesp": 2174,
      "selves": 2175,
      "Ġfive": 2176,
      "He": 2177,
      "Ġwhole": 2178,
      "Ġdescri": 2179,
      "ES": 2180,
      "Ġtype": 2181,
      "Ġbreak": 2182,
      "Ġenergy": 2183,
      "Ġage": 2184,
      "ried": 2185,
      "ges": 2186,
      "ibility": 2187,
      "ival": 2188,
      "uation": 2189,
      "Ġunique": 2190,
      "grap": 2191,
      "ina": 2192,
      "ĠComp": 2193,
      "Ġseen": 2194,
      "bal": 2195,
      "Ġamong": 2196,
      "ference": 2197,
      "ĠStates": 2198,
      "ague": 2199,
      "Ġmatch": 2200,
      "ield": 2201,
      "fully": 2202,
      "ĠGod": 2203,
      "Ġsimple": 2204,
      "ication": 2205,
      "Ġpick": 2206,
      "Ġbuy": 2207,
      "ming": 2208,
      "ĠMarch": 2209,
      "Ġpolit": 2210,
      "Ġbrand": 2211,
      "ĠJohn": 2212,
      "ĠÂ": 2213,
      "ĠEurope": 2214,
      "Ġla": 2215,
      "Ġtechnology": 2216,
      "ĠNorth": 2217,
      "Ġentire": 2218,
      "Ġhuman": 2219,
      "Ġpopular": 2220,
      "Ġoffers": 2221,
      "ients": 2222,
      "Ġperiod": 2223,
      "ases": 2224,
      "mber": 2225,
      "Ġtour": 2226,
      "Ġanal": 2227,
      "ĠTe": 2228,
      "ĠYork": 2229,
      "Ġways": 2230,
      "ĠAustr": 2231,
      "ĠServ": 2232,
      "Ġshop": 2233,
      "Ġwond": 2234,
      "Ġassist": 2235,
      "elt": 2236,
      "Ġbar": 2237,
      "yc": 2238,
      "Ġminutes": 2239,
      "Ġwa": 2240,
      "Ġresults": 2241,
      "Ġhon": 2242,
      "Ġfinal": 2243,
      "Ġris": 2244,
      "Ġface": 2245,
      "Ġstaff": 2246,
      "Ġsearch": 2247,
      "asing": 2248,
      "ograp": 2249,
      "Ġrepl": 2250,
      "Ġidea": 2251,
      "Ġyourself": 2252,
      "200": 2253,
      "AR": 2254,
      "Ġmanagement": 2255,
      "my": 2256,
      "Ġquestions": 2257,
      "Ġelectr": 2258,
      "ĠCal": 2259,
      "Ġmember": 2260,
      "Ġconstr": 2261,
      "ĠJune": 2262,
      "action": 2263,
      "Ġmag": 2264,
      "Ġfit": 2265,
      "ream": 2266,
      "Ġcreated": 2267,
      "ler": 2268,
      "Ġcareer": 2269,
      "aced": 2270,
      "Ġself": 2271,
      "Ġ13": 2272,
      "anks": 2273,
      "Ġpress": 2274,
      "Ġrespons": 2275,
      "Ġespecially": 2276,
      "Ġclients": 2277,
      "Ġvalue": 2278,
      "ĠSup": 2279,
      "tomer": 2280,
      "Ġachie": 2281,
      "Al": 2282,
      "tware": 2283,
      "ison": 2284,
      "ends": 2285,
      "Ġ2018": 2286,
      "roll": 2287,
      "11": 2288,
      "Ġprob": 2289,
      "Ġfront": 2290,
      "hers": 2291,
      "ovember": 2292,
      "oints": 2293,
      "iously": 2294,
      "Ġapproach": 2295,
      "Ġstyle": 2296,
      "ĠFl": 2297,
      "Ġdifficult": 2298,
      "Ġprot": 2299,
      "Ch": 2300,
      "AN": 2301,
      "Ġjour": 2302,
      "Ġz": 2303,
      "Ġabove": 2304,
      "vert": 2305,
      "ĠBro": 2306,
      "ĠCounty": 2307,
      "ines": 2308,
      "ĠPri": 2309,
      "Ġsof": 2310,
      "att": 2311,
      "Ġ196": 2312,
      "Ġ100": 2313,
      "Ġfurther": 2314,
      "Ġcomplete": 2315,
      "Ġmess": 2316,
      "Ġpare": 2317,
      "Ġneeded": 2318,
      "atform": 2319,
      "Ġmo": 2320,
      "Ġtravel": 2321,
      "Ġtradition": 2322,
      "ensive": 2323,
      "osted": 2324,
      "ĠHer": 2325,
      "Ġcal": 2326,
      "Ġcommit": 2327,
      "Ġheart": 2328,
      "ches": 2329,
      "Ġplease": 2330,
      "itor": 2331,
      "elling": 2332,
      "Ġhalf": 2333,
      "Ġfinanc": 2334,
      "ĠDo": 2335,
      "go": 2336,
      "Ġinit": 2337,
      "âĢĭ": 2338,
      "ĠMe": 2339,
      "Ġalmost": 2340,
      "Ġski": 2341,
      "nov": 2342,
      "Ġweb": 2343,
      "resh": 2344,
      "ĠPol": 2345,
      "An": 2346,
      "Ġoffice": 2347,
      "Ġflow": 2348,
      "ĠBar": 2349,
      "ĠIntern": 2350,
      "ternal": 2351,
      "ĠNot": 2352,
      "Ġalbum": 2353,
      "Ġliving": 2354,
      "ĠApril": 2355,
      "Ġcrit": 2356,
      "Ġ24": 2357,
      "Ġperformance": 2358,
      "Ġensure": 2359,
      "Ġpur": 2360,
      "ĠState": 2361,
      "Ġmiss": 2362,
      "!!": 2363,
      "Ġtown": 2364,
      "Ġquite": 2365,
      "Ġcoll": 2366,
      "omes": 2367,
      "Ġemail": 2368,
      "Ġer": 2369,
      "taken": 2370,
      "Ġdeath": 2371,
      "Ġmillion": 2372,
      "vent": 2373,
      "Ġhope": 2374,
      "Ġhowever": 2375,
      "Ġago": 2376,
      "Ġfall": 2377,
      "time": 2378,
      "erc": 2379,
      "Ġret": 2380,
      "Ġeconom": 2381,
      "ĠJuly": 2382,
      "'m": 2383,
      "ators": 2384,
      "ees": 2385,
      "ging": 2386,
      "Ġbuilt": 2387,
      "Ġlearning": 2388,
      "Ġdesigned": 2389,
      "ublic": 2390,
      "Ġwar": 2391,
      "ogn": 2392,
      "aft": 2393,
      "umb": 2394,
      "Ġchoose": 2395,
      "Ġengine": 2396,
      "Ġmor": 2397,
      "ĠArt": 2398,
      "Ġ25": 2399,
      "idence": 2400,
      "Ġnatural": 2401,
      "Ġkn": 2402,
      "Ġvisit": 2403,
      "Ġheld": 2404,
      "Ġclose": 2405,
      "Ġworked": 2406,
      "ĠPar": 2407,
      "ĠGe": 2408,
      "ĠPark": 2409,
      "Ġturn": 2410,
      "Ġauthor": 2411,
      "iple": 2412,
      "Ġdeep": 2413,
      "Ġtrack": 2414,
      "Ġsoon": 2415,
      "ishing": 2416,
      "lin": 2417,
      "Ġprovides": 2418,
      "17": 2419,
      "Ġbirth": 2420,
      "Ġwanted": 2421,
      "ann": 2422,
      "iday": 2423,
      "ecut": 2424,
      "Ġanything": 2425,
      "ĠEd": 2426,
      "ĠSeptember": 2427,
      "To": 2428,
      "ĠAugust": 2429,
      "Ġnecess": 2430,
      "Ġexist": 2431,
      "Ġrepresent": 2432,
      "ĠEn": 2433,
      "hind": 2434,
      "ott": 2435,
      "ix": 2436,
      "ink": 2437,
      "ety": 2438,
      "ada": 2439,
      "Ġinstr": 2440,
      "Ġroad": 2441,
      "Ġwhether": 2442,
      "Ġfeature": 2443,
      "aging": 2444,
      "come": 2445,
      "ĠWar": 2446,
      "Ġansw": 2447,
      "Ġgirl": 2448,
      "Ġcharacter": 2449,
      "Ġrole": 2450,
      "Ġ2017": 2451,
      "ĠAc": 2452,
      "Ġthroughout": 2453,
      "Ġsimply": 2454,
      "16": 2455,
      "Ġtit": 2456,
      "Ġgrad": 2457,
      "bruary": 2458,
      "Ġeither": 2459,
      "Ġdog": 2460,
      "aged": 2461,
      "adem": 2462,
      "'ve": 2463,
      "gress": 2464,
      "Ġdeb": 2465,
      "Ġbelieve": 2466,
      "ze": 2467,
      "Ġpict": 2468,
      "Ġcred": 2469,
      "Ġsignific": 2470,
      "Ġseem": 2471,
      "rom": 2472,
      "lu": 2473,
      "ĠWill": 2474,
      "amb": 2475,
      "eth": 2476,
      "Ġlinks": 2477,
      "Ġvi": 2478,
      "Ġknowledge": 2479,
      "ĠCont": 2480,
      "edd": 2481,
      "oll": 2482,
      "Ġbegan": 2483,
      "Ġwriting": 2484,
      "ĠOctober": 2485,
      "atur": 2486,
      "Ġamount": 2487,
      "Ġfamil": 2488,
      "Ġ2016": 2489,
      "table": 2490,
      "astic": 2491,
      "tar": 2492,
      "ID": 2493,
      "ĠJanuary": 2494,
      "ories": 2495,
      "Ġcoup": 2496,
      "Ġregular": 2497,
      "Ġtaken": 2498,
      "oid": 2499,
      "Ġaddress": 2500,
      "Ġequip": 2501,
      "Ġdraw": 2502,
      "ground": 2503,
      "back": 2504,
      "Ġrequired": 2505,
      "gest": 2506,
      "Ġfavor": 2507,
      "Ġoil": 2508,
      "aver": 2509,
      "pro": 2510,
      "ĠRec": 2511,
      "ama": 2512,
      "Ġusually": 2513,
      "ĠAustral": 2514,
      "ĠBrit": 2515,
      "Ġopportunity": 2516,
      "Ġplatform": 2517,
      "ki": 2518,
      "ĠBy": 2519,
      "Ġbur": 2520,
      "Ġdam": 2521,
      "hird": 2522,
      "third": 2523,
      "Ġreceived": 2524,
      "ĠCr": 2525,
      "ites": 2526,
      "Ad": 2527,
      "Ġeducation": 2528,
      "Ġlog": 2529,
      "Ġoptions": 2530,
      "amed": 2531,
      "Ġblack": 2532,
      "Ġplayed": 2533,
      "ĠReg": 2534,
      "Ġblog": 2535,
      "Ġoriginal": 2536,
      "Ġquestion": 2537,
      "Ġcirc": 2538,
      "play": 2539,
      "Ġforward": 2540,
      "takes": 2541,
      "ises": 2542,
      "Ġprice": 2543,
      "Ġmachi": 2544,
      "azing": 2545,
      "Read": 2546,
      "Ġprojects": 2547,
      "Ġskills": 2548,
      "eal": 2549,
      "Ġhy": 2550,
      "Ġproduction": 2551,
      "top": 2552,
      "ĠMc": 2553,
      "Ġcontinue": 2554,
      "ĠPart": 2555,
      "Ġmeas": 2556,
      "Ġsystems": 2557,
      "Ġlocated": 2558,
      "Ġabs": 2559,
      "ume": 2560,
      "Ġplaying": 2561,
      ".,": 2562,
      "Ġcoming": 2563,
      "ables": 2564,
      "Ġcomfort": 2565,
      "14": 2566,
      "irm": 2567,
      "omi": 2568,
      "Ġtakes": 2569,
      "ĠQu": 2570,
      "ana": 2571,
      "tori": 2572,
      "Ġoutside": 2573,
      "icy": 2574,
      "Ġfunction": 2575,
      "Ġreading": 2576,
      "Ġanim": 2577,
      "Ġbehind": 2578,
      "Ġproblems": 2579,
      "Ġactivities": 2580,
      "Ġupd": 2581,
      "ring": 2582,
      "aul": 2583,
      "ered": 2584,
      "Ġpret": 2585,
      "Ġtrying": 2586,
      "Ġnews": 2587,
      "anguage": 2588,
      "Ġap": 2589,
      "ĠPe": 2590,
      "ĠSome": 2591,
      "Ġstar": 2592,
      "Ġinside": 2593,
      "ĠStud": 2594,
      "Ġclub": 2595,
      "Ġsugg": 2596,
      "Ġsoftware": 2597,
      "At": 2598,
      "elebr": 2599,
      "Ġcomput": 2600,
      "Ġcard": 2601,
      "ĠDep": 2602,
      "Ġport": 2603,
      "urance": 2604,
      "Ġcustomer": 2605,
      "Ġful": 2606,
      "ĠSec": 2607,
      "Ġsimilar": 2608,
      "Ġmodel": 2609,
      "ĠMo": 2610,
      "Ġdeliver": 2611,
      "idge": 2612,
      "Ġprobably": 2613,
      "izing": 2614,
      "ech": 2615,
      "Ġ2015": 2616,
      "tax": 2617,
      "Ġbad": 2618,
      "ĠOff": 2619,
      "olutions": 2620,
      "Ġstudy": 2621,
      "Ġattr": 2622,
      "ĠPer": 2623,
      "ufact": 2624,
      "Ġground": 2625,
      "Ġincludes": 2626,
      "obile": 2627,
      "So": 2628,
      "Ġready": 2629,
      "Ġthird": 2630,
      "Af": 2631,
      "Ġsent": 2632,
      "ĠSw": 2633,
      "ification": 2634,
      "Ġdou": 2635,
      "ĠNovember": 2636,
      "Ġsize": 2637,
      "bor": 2638,
      "Ġgeneral": 2639,
      "ST": 2640,
      "ĠPres": 2641,
      "EN": 2642,
      "minis": 2643,
      "ĠSoc": 2644,
      "Ġsignificant": 2645,
      "Ġproperty": 2646,
      "Ġcolor": 2647,
      "Ġlikely": 2648,
      "Ġexpect": 2649,
      "Ġarch": 2650,
      "Ġpractice": 2651,
      "national": 2652,
      "Ġassoci": 2653,
      "Ġlives": 2654,
      "Ġrather": 2655,
      "\".": 2656,
      "Ġadded": 2657,
      "eds": 2658,
      "ille": 2659,
      "Ġwhite": 2660,
      "ĠTw": 2661,
      "OR": 2662,
      "eks": 2663,
      "ades": 2664,
      "Ġcombi": 2665,
      "Ġtax": 2666,
      "ster": 2667,
      "Ġra": 2668,
      "Ġmatter": 2669,
      ",\"": 2670,
      "enced": 2671,
      "Ġregard": 2672,
      "lement": 2673,
      "Ġetc": 2674,
      "Ġhappy": 2675,
      "reg": 2676,
      "Ġformer": 2677,
      "Ġquickly": 2678,
      "Ġannoun": 2679,
      "Ġskin": 2680,
      "Ġrunning": 2681,
      "ĠĠ": 2682,
      "ucture": 2683,
      "Ġchanges": 2684,
      "Ġcaus": 2685,
      "uge": 2686,
      "aves": 2687,
      "Ġincrease": 2688,
      "ĠSm": 2689,
      "medi": 2690,
      "With": 2691,
      "Ġvariety": 2692,
      "Ġversion": 2693,
      "ĠMark": 2694,
      "Ġtext": 2695,
      "itut": 2696,
      "Ġpoints": 2697,
      "ĠDecember": 2698,
      "ĠWest": 2699,
      "AL": 2700,
      "Ġsix": 2701,
      "And": 2702,
      "Ġsafe": 2703,
      "Ġsat": 2704,
      "Ġtold": 2705,
      "ective": 2706,
      "Ġimpact": 2707,
      "apan": 2708,
      "Ġextra": 2709,
      "AC": 2710,
      "Ġpark": 2711,
      "ules": 2712,
      "val": 2713,
      "sc": 2714,
      "Ġmarketing": 2715,
      "Ġut": 2716,
      "Ġgoal": 2717,
      "Ġtouch": 2718,
      "Ġshows": 2719,
      "ĠHigh": 2720,
      "13": 2721,
      "hic": 2722,
      "Ġ50": 2723,
      "Ġoption": 2724,
      "ĠDes": 2725,
      "Ġvia": 2726,
      "Ġche": 2727,
      "amer": 2728,
      "Ġsle": 2729,
      "Ġ2014": 2730,
      "Ġclaim": 2731,
      "ĠPre": 2732,
      "Ġhair": 2733,
      "Ġmaintain": 2734,
      "Ġcouple": 2735,
      "Ġlonger": 2736,
      "Ġhost": 2737,
      "igher": 2738,
      "Ġsuper": 2739,
      "Ġreleased": 2740,
      "icated": 2741,
      "face": 2742,
      "Ġallows": 2743,
      "istic": 2744,
      "Ġasked": 2745,
      "Ġfootball": 2746,
      "Ġisn": 2747,
      "hib": 2748,
      "sy": 2749,
      "Ġcurrently": 2750,
      "do": 2751,
      "arth": 2752,
      "isc": 2753,
      "Ġweeks": 2754,
      "'ll": 2755,
      "aily": 2756,
      "pose": 2757,
      "Ġprovided": 2758,
      "Ġlay": 2759,
      "Ġtable": 2760,
      "eder": 2761,
      "Ġsex": 2762,
      "Ġnational": 2763,
      "ĠEnglish": 2764,
      "Ġincluded": 2765,
      "Ġchalleng": 2766,
      "Ġgen": 2767,
      "Ġconst": 2768,
      "Ġten": 2769,
      "Ġbox": 2770,
      "agement": 2771,
      "Ġfinancial": 2772,
      "Ġphone": 2773,
      "Ġnetwork": 2774,
      "Ġlate": 2775,
      "ĠWhile": 2776,
      "Ġdate": 2777,
      "Ġpotential": 2778,
      "Ġsummer": 2779,
      "Ġmoment": 2780,
      "ĠChar": 2781,
      "Ġarri": 2782,
      "Ġapplication": 2783,
      "Ġ194": 2784,
      "Ġautom": 2785,
      "Ġcop": 2786,
      "Ġrecommend": 2787,
      "ky": 2788,
      "min": 2789,
      "ĠAb": 2790,
      "Ġdeg": 2791,
      "Ġtrue": 2792,
      "Pro": 2793,
      "Ġpaper": 2794,
      "Ġwonder": 2795,
      "lobal": 2796,
      "Ġaction": 2797,
      "Ġusers": 2798,
      "ĠMich": 2799,
      "cil": 2800,
      "Ġeasily": 2801,
      "Ġrad": 2802,
      "Ġstore": 2803,
      "Ġband": 2804,
      "ĠCO": 2805,
      "Ġround": 2806,
      "asons": 2807,
      "icient": 2808,
      "Ġissue": 2809,
      "Ġcook": 2810,
      "ĠCor": 2811,
      "ĠUs": 2812,
      "ĠFi": 2813,
      "Ġep": 2814,
      "ev": 2815,
      "Ġsess": 2816,
      "Ġfig": 2817,
      "Ġinternational": 2818,
      "Ġleave": 2819,
      "eel": 2820,
      "rench": 2821,
      "son": 2822,
      "Ġfast": 2823,
      "Ġwords": 2824,
      "Ġdigital": 2825,
      "udd": 2826,
      "ĠFebruary": 2827,
      "Ġleaders": 2828,
      "ari": 2829,
      "iction": 2830,
      "hood": 2831,
      "Ġwall": 2832,
      "iddle": 2833,
      "Ġreceive": 2834,
      "Ġinte": 2835,
      "Ġ,": 2836,
      "Ġspeak": 2837,
      "Ġpretty": 2838,
      "Ġparty": 2839,
      "Ġdetails": 2840,
      "Ġphotograp": 2841,
      "Ġremember": 2842,
      "Ġhit": 2843,
      "Ġcelebr": 2844,
      "Ġkids": 2845,
      "IC": 2846,
      "lected": 2847,
      "Ġsecurity": 2848,
      "Ġrecogn": 2849,
      "ĠSch": 2850,
      "ening": 2851,
      "Reply": 2852,
      "Ġexact": 2853,
      "Com": 2854,
      "Ġ2013": 2855,
      "After": 2856,
      "Ġbeh": 2857,
      "Ġinj": 2858,
      "Ġdrop": 2859,
      "IT": 2860,
      "ĠNow": 2861,
      "Ġ2012": 2862,
      "Ġstudent": 2863,
      "ĠJust": 2864,
      "ondon": 2865,
      "21": 2866,
      "bert": 2867,
      "ĠAfric": 2868,
      "airs": 2869,
      "ĠCoun": 2870,
      "avy": 2871,
      "Ġprim": 2872,
      "tration": 2873,
      "Ġwide": 2874,
      "Ġmodern": 2875,
      "Ġsched": 2876,
      "Ġreturn": 2877,
      "althy": 2878,
      "Ġprivate": 2879,
      "Ġpers": 2880,
      "nder": 2881,
      "ĠDon": 2882,
      "Ġfire": 2883,
      "Ġtypes": 2884,
      "Ġmass": 2885,
      "Ġtar": 2886,
      "Ġmanufact": 2887,
      "uel": 2888,
      "Ġexcell": 2889,
      "Ġitems": 2890,
      "Ġdecided": 2891,
      "Ġsqu": 2892,
      "irec": 2893,
      "ĠHere": 2894,
      "ara": 2895,
      "Ġnothing": 2896,
      "Ġsaw": 2897,
      "Ġtreatment": 2898,
      "Ġpan": 2899,
      "Ġsun": 2900,
      "tries": 2901,
      "AS": 2902,
      "Ġreli": 2903,
      "cep": 2904,
      "22": 2905,
      "erous": 2906,
      "Ġintegr": 2907,
      "oke": 2908,
      "reet": 2909,
      "Ġamazing": 2910,
      "merc": 2911,
      "Ġinvolved": 2912,
      "Ġship": 2913,
      "Ġtotal": 2914,
      "ĠVal": 2915,
      "ĠCenter": 2916,
      "Ġadditional": 2917,
      "ender": 2918,
      "Ġnorm": 2919,
      "Ġclick": 2920,
      "epend": 2921,
      "Ġprior": 2922,
      "Ġill": 2923,
      "ĠOf": 2924,
      "Ġsense": 2925,
      "aign": 2926,
      "ĠHar": 2927,
      "Ġboard": 2928,
      "Ġbooks": 2929,
      "Ġhigher": 2930,
      "oes": 2931,
      "Ġlif": 2932,
      "Ġlaunch": 2933,
      "Ġjoi": 2934,
      "Ġelse": 2935,
      "ĠDav": 2936,
      "oice": 2937,
      "ĠKing": 2938,
      "Ġthemselves": 2939,
      "Ġmix": 2940,
      "ampions": 2941,
      "ires": 2942,
      "My": 2943,
      "int": 2944,
      "Ġmeeting": 2945,
      "Ġplayer": 2946,
      "Ġchoice": 2947,
      "Ġsetting": 2948,
      "Ġattention": 2949,
      "Ġbal": 2950,
      "bur": 2951,
      "ĠFrom": 2952,
      "eum": 2953,
      "ror": 2954,
      "Ġability": 2955,
      "Ġrout": 2956,
      "Ġdiscover": 2957,
      "round": 2958,
      "based": 2959,
      "Ġones": 2960,
      "ĠJapan": 2961,
      "ĠMon": 2962,
      "Ġsil": 2963,
      "ED": 2964,
      "Ġple": 2965,
      "Ġtal": 2966,
      "Ġ21": 2967,
      "Ġcannot": 2968,
      "Ġfail": 2969,
      "Ġlost": 2970,
      "Ġupon": 2971,
      "Ġrisk": 2972,
      "Ġsens": 2973,
      "Ġmother": 2974,
      "mm": 2975,
      "ĠDay": 2976,
      "Ġwood": 2977,
      "Ġanyone": 2978,
      "Ġloss": 2979,
      "Ġmorning": 2980,
      "Ġneg": 2981,
      "ux": 2982,
      "Ġarticle": 2983,
      "light": 2984,
      "ags": 2985,
      "Ġtowards": 2986,
      "Ġ2010": 2987,
      "Ġhands": 2988,
      "Tr": 2989,
      "rown": 2990,
      "Ġtools": 2991,
      "Ġsuggest": 2992,
      "irit": 2993,
      "Ġparts": 2994,
      "\",": 2995,
      "year": 2996,
      "Cl": 2997,
      "Ġbi": 2998,
      "attle": 2999,
      "Ġmyself": 3000,
      "All": 3001,
      "Ġbenefits": 3002,
      "erve": 3003,
      "Ġhol": 3004,
      "Ġencour": 3005,
      "ĠEl": 3006,
      "mercial": 3007,
      "Ġ2011": 3008,
      "Ġmedical": 3009,
      "ĠHouse": 3010,
      "ĠSte": 3011,
      "ĠStr": 3012,
      "Ġbot": 3013,
      "ae": 3014,
      "Ġextre": 3015,
      "Ġgrowt": 3016,
      "Ġgrowth": 3017,
      "But": 3018,
      "Ġsales": 3019,
      "Ġitself": 3020,
      "25": 3021,
      "ĠAg": 3022,
      "ĠLondon": 3023,
      "ĠSan": 3024,
      "Ġscreen": 3025,
      "ram": 3026,
      "Ġasp": 3027,
      "Ġcause": 3028,
      "Ġparents": 3029,
      "ples": 3030,
      "Ġprint": 3031,
      "ham": 3032,
      "ogle": 3033,
      "ological": 3034,
      "Ġcell": 3035,
      "Ġlat": 3036,
      "Ġ:": 3037,
      "hus": 3038,
      "Ġbase": 3039,
      "Ġfresh": 3040,
      "Ġuser": 3041,
      "Ġchurch": 3042,
      "Ġinstead": 3043,
      "Ġeffective": 3044,
      "ĠMr": 3045,
      "Ġnecessary": 3046,
      "Ġproviding": 3047,
      "IS": 3048,
      "ĠCollege": 3049,
      "duce": 3050,
      "Ġrecent": 3051,
      "ĠOp": 3052,
      "Ġlocation": 3053,
      "Ġdrive": 3054,
      "Ġwritten": 3055,
      "ĠRuss": 3056,
      "Ġmot": 3057,
      "Ġhelps": 3058,
      "Âł": 3059,
      "Ġaccording": 3060,
      "Ġlab": 3061,
      "ĠAir": 3062,
      "Ġcool": 3063,
      "Ġprograms": 3064,
      "ivity": 3065,
      "itors": 3066,
      "Ġhighly": 3067,
      "Ġplant": 3068,
      "Ġideas": 3069,
      "uk": 3070,
      "ĠAssoci": 3071,
      "epar": 3072,
      "aven": 3073,
      "Ġgroups": 3074,
      "Ġswe": 3075,
      "acing": 3076,
      "Ġrecently": 3077,
      "Ġreduc": 3078,
      "orge": 3079,
      "Ġmultiple": 3080,
      "Ġbed": 3081,
      "Ġcreating": 3082,
      "Ġded": 3083,
      "Ġorganization": 3084,
      "atory": 3085,
      "aching": 3086,
      "Ġimmedi": 3087,
      "lev": 3088,
      "col": 3089,
      "ude": 3090,
      "Ġequipment": 3091,
      "icro": 3092,
      "Ġseems": 3093,
      "iff": 3094,
      "anced": 3095,
      "omin": 3096,
      "Ġsafety": 3097,
      "Ġant": 3098,
      "lood": 3099,
      "Ġworth": 3100,
      "osing": 3101,
      "Ġintroduc": 3102,
      "oring": 3103,
      "Ġcases": 3104,
      "edding": 3105,
      "Ġexpert": 3106,
      "Ġcomplet": 3107,
      "usiness": 3108,
      "ĠAng": 3109,
      "Ġfelt": 3110,
      "Be": 3111,
      "aby": 3112,
      "Posted": 3113,
      "posed": 3114,
      "oming": 3115,
      "Ġstor": 3116,
      "imate": 3117,
      "Ġdeveloped": 3118,
      "Ġled": 3119,
      "Ġcorre": 3120,
      "Ġinflu": 3121,
      "Ġchance": 3122,
      "wh": 3123,
      "iring": 3124,
      "Ġsolution": 3125,
      "hs": 3126,
      "ression": 3127,
      "key": 3128,
      "ĠSer": 3129,
      "atives": 3130,
      "Ġofficial": 3131,
      "imi": 3132,
      "emi": 3133,
      "One": 3134,
      "acebook": 3135,
      "board": 3136,
      "Ġweight": 3137,
      "Ġaff": 3138,
      "Ġsn": 3139,
      "Ġachieve": 3140,
      "Ġsuccessful": 3141,
      "Ġpiece": 3142,
      "Ġ22": 3143,
      "Ġball": 3144,
      "erman": 3145,
      "ĠAmerica": 3146,
      "Ġobs": 3147,
      "Ġvill": 3148,
      "off": 3149,
      "de": 3150,
      "Ġlower": 3151,
      "Ġplaces": 3152,
      "Ġsolutions": 3153,
      "ĠBu": 3154,
      ".)": 3155,
      "Ġmaterials": 3156,
      "Ġborn": 3157,
      "Ġgives": 3158,
      "Ġpercent": 3159,
      "ĠRead": 3160,
      "Ġtarget": 3161,
      "Ġlanguage": 3162,
      "Ġstandard": 3163,
      "lier": 3164,
      "Ġstreng": 3165,
      "ani": 3166,
      "tas": 3167,
      "Ġsold": 3168,
      "Ġresources": 3169,
      "itary": 3170,
      "hold": 3171,
      "Ġcand": 3172,
      "Ġleading": 3173,
      "Ġslow": 3174,
      "OU": 3175,
      "Ġpartners": 3176,
      "Ġgoes": 3177,
      "Ġestablished": 3178,
      "Ġpublished": 3179,
      "cast": 3180,
      "iding": 3181,
      "Ġmention": 3182,
      "Ġfavorite": 3183,
      "ops": 3184,
      "Ġhor": 3185,
      "oul": 3186,
      "use": 3187,
      "Ġrefer": 3188,
      "Ġconditions": 3189,
      "Ġcompletely": 3190,
      "ements": 3191,
      "ha": 3192,
      "nally": 3193,
      "ĠBritish": 3194,
      "Ġqual": 3195,
      "Ġdecision": 3196,
      "Ġindividuals": 3197,
      "Ġson": 3198,
      "ellow": 3199,
      "enty": 3200,
      "Ġteams": 3201,
      "ords": 3202,
      "Ġgoals": 3203,
      "usion": 3204,
      "anch": 3205,
      "right": 3206,
      "hips": 3207,
      "Ġcollection": 3208,
      "echn": 3209,
      "Ġdoor": 3210,
      "ĠInternational": 3211,
      "Ġimm": 3212,
      "Ġvac": 3213,
      "aming": 3214,
      "ĠAcc": 3215,
      "Ġrelease": 3216,
      "imum": 3217,
      "Ġlooks": 3218,
      "illing": 3219,
      "Ġserved": 3220,
      "Ġdest": 3221,
      "Ġtraditional": 3222,
      "Ġfather": 3223,
      "Ġcampaign": 3224,
      "Ġdaily": 3225,
      "Ġconsist": 3226,
      "itions": 3227,
      "Ġapply": 3228,
      "Ġwish": 3229,
      "Ġmoved": 3230,
      "Ġhous": 3231,
      "Ġstage": 3232,
      "Ġemer": 3233,
      "Ġarr": 3234,
      "Ġdocument": 3235,
      "Ġpromot": 3236,
      "Ġsepar": 3237,
      "nter": 3238,
      "ald": 3239,
      "Ġtrip": 3240,
      "put": 3241,
      "Ġpm": 3242,
      "Ġpath": 3243,
      "ĠCommun": 3244,
      "Ġterms": 3245,
      "ĠCons": 3246,
      "Ġplanning": 3247,
      "Ġsometimes": 3248,
      "Ġnamed": 3249,
      "Ġimplement": 3250,
      "Ġbusinesses": 3251,
      "pre": 3252,
      "Ġattem": 3253,
      "Ġcross": 3254,
      "Ġcomplex": 3255,
      "lied": 3256,
      "External": 3257,
      "Ġdrink": 3258,
      "Ġwoman": 3259,
      "ĠBlack": 3260,
      "ĠUK": 3261,
      "eat": 3262,
      "Ġnature": 3263,
      "ĠâĢ¦": 3264,
      "Ġlevels": 3265,
      "iforn": 3266,
      "Ġgiving": 3267,
      "Ar": 3268,
      "Ġgave": 3269,
      "Ġrate": 3270,
      "ica": 3271,
      "nitely": 3272,
      "ĠThen": 3273,
      "Ġdirectly": 3274,
      "Ġ23": 3275,
      "Ġtas": 3276,
      "Ġtrust": 3277,
      "Ġ195": 3278,
      "Ġwrite": 3279,
      "Ġremov": 3280,
      "Ġexcellent": 3281,
      "ĠTV": 3282,
      "Ġmid": 3283,
      "Ġmount": 3284,
      "Ġconsidered": 3285,
      "Cont": 3286,
      "Ġphysical": 3287,
      "pm": 3288,
      "Ġsell": 3289,
      "Ġbank": 3290,
      "âĢĿ.": 3291,
      "arden": 3292,
      "Ġaware": 3293,
      "Ġfeed": 3294,
      "Ġhuge": 3295,
      "ĠPresident": 3296,
      "Ġlatest": 3297,
      "Ġinternet": 3298,
      "ĠII": 3299,
      "Ġstarting": 3300,
      "Ġdetail": 3301,
      "Con": 3302,
      "Ġ40": 3303,
      "Ġsports": 3304,
      "Ġrelated": 3305,
      "haps": 3306,
      "Ġavoid": 3307,
      "ĠHealth": 3308,
      "ĠGener": 3309,
      "eless": 3310,
      "uth": 3311,
      "Ġinnov": 3312,
      "Ġcenter": 3313,
      "Ġpositive": 3314,
      "ibly": 3315,
      "uments": 3316,
      "Ġcountries": 3317,
      "Ġwel": 3318,
      "eed": 3319,
      "icip": 3320,
      "sych": 3321,
      "estern": 3322,
      "ox": 3323,
      "ifornia": 3324,
      "Ġaward": 3325,
      "Ġeyes": 3326,
      "ĠItal": 3327,
      "Ġrev": 3328,
      "Ġnice": 3329,
      "esc": 3330,
      "idents": 3331,
      "ĠWi": 3332,
      "Ġconsum": 3333,
      "EO": 3334,
      "Ġaver": 3335,
      "gn": 3336,
      "Ġvic": 3337,
      "ceed": 3338,
      "enge": 3339,
      "Ġpurchase": 3340,
      "wood": 3341,
      "Ġsurpr": 3342,
      "Ġsituation": 3343,
      "Ġconstruction": 3344,
      "Ġsites": 3345,
      "Ġconvers": 3346,
      "Ġthinking": 3347,
      "ĠGroup": 3348,
      "Ġprevent": 3349,
      "ĠIndia": 3350,
      "rup": 3351,
      "Ġbeginning": 3352,
      "Ġsuit": 3353,
      "Ġculture": 3354,
      "emb": 3355,
      "Ġcosts": 3356,
      "Ġinterested": 3357,
      "acts": 3358,
      "aught": 3359,
      "Ġprogress": 3360,
      "Ġcomputer": 3361,
      "itation": 3362,
      "Ġimage": 3363,
      "ension": 3364,
      "Ġorganiz": 3365,
      "Ġfamilies": 3366,
      "Ġinteresting": 3367,
      "Ġcollabor": 3368,
      "Ġconsult": 3369,
      "igation": 3370,
      "Ġfeeling": 3371,
      "Ġpartner": 3372,
      "Ġfight": 3373,
      "Ġadvant": 3374,
      "AM": 3375,
      "band": 3376,
      "yl": 3377,
      "tee": 3378,
      "Ġopportunities": 3379,
      "Ġstress": 3380,
      "like": 3381,
      "Ġaim": 3382,
      "Ġappoint": 3383,
      "Ġ2009": 3384,
      "Ġdisplay": 3385,
      "aughter": 3386,
      "Ġgreen": 3387,
      "ĠAnt": 3388,
      "ibr": 3389,
      "itute": 3390,
      "nary": 3391,
      "ĠUp": 3392,
      "Ġadminis": 3393,
      "ordi": 3394,
      "ĠFrench": 3395,
      "ĠGl": 3396,
      "Ġagre": 3397,
      "nos": 3398,
      "Ġfully": 3399,
      "Ġsleep": 3400,
      "etic": 3401,
      "Ġdiv": 3402,
      "itter": 3403,
      "zz": 3404,
      "ĠPat": 3405,
      "ashing": 3406,
      "Ġplans": 3407,
      "ĠAct": 3408,
      "house": 3409,
      "Ġcredit": 3410,
      "Ġdark": 3411,
      "udget": 3412,
      "Ġspent": 3413,
      "Ġcode": 3414,
      "Ġclient": 3415,
      "Ġbroad": 3416,
      "aker": 3417,
      "Ġmat": 3418,
      "Ġemployees": 3419,
      "199": 3420,
      "ico": 3421,
      "know": 3422,
      "Ġemot": 3423,
      "hous": 3424,
      "ael": 3425,
      "Ġsal": 3426,
      "Ġmoving": 3427,
      "aries": 3428,
      "olf": 3429,
      "iam": 3430,
      "Ġconduc": 3431,
      "ĠPhil": 3432,
      "Ġsend": 3433,
      "Ġmer": 3434,
      "Ġboy": 3435,
      "Ġ28": 3436,
      "Ġessential": 3437,
      "ysis": 3438,
      "ĠEvery": 3439,
      "ĠFirst": 3440,
      "Ġwarm": 3441,
      "Ġregion": 3442,
      "just": 3443,
      "ĠDirec": 3444,
      "ville": 3445,
      "ĠEm": 3446,
      "oo": 3447,
      "antly": 3448,
      "Ġspend": 3449,
      "Ġsave": 3450,
      "ati": 3451,
      "Ġur": 3452,
      "ipe": 3453,
      "Ġaccom": 3454,
      "icate": 3455,
      "60": 3456,
      "Ġstories": 3457,
      "iment": 3458,
      "Ġbrought": 3459,
      "igr": 3460,
      "Ġwasn": 3461,
      "By": 3462,
      "Ġterm": 3463,
      "Ġgets": 3464,
      "Ġcomment": 3465,
      "Ġanswer": 3466,
      "itect": 3467,
      "Ġrestaur": 3468,
      "ĠSim": 3469,
      "ĠCalifornia": 3470,
      "HE": 3471,
      "Ġrequest": 3472,
      "Ġfix": 3473,
      "ategy": 3474,
      "40": 3475,
      "uate": 3476,
      "wise": 3477,
      "Ġroll": 3478,
      "enn": 3479,
      "ounts": 3480,
      "Ġsource": 3481,
      "Pl": 3482,
      "Ġacqu": 3483,
      "mas": 3484,
      "Ġhealthy": 3485,
      "Ġ2008": 3486,
      "add": 3487,
      "Ġpolicy": 3488,
      "ester": 3489,
      "sequ": 3490,
      "Ġaffect": 3491,
      "Ġfair": 3492,
      "Ġneigh": 3493,
      "Ġmobile": 3494,
      "rest": 3495,
      "Ġgrowing": 3496,
      "Ġlegal": 3497,
      "Ġ27": 3498,
      "ager": 3499,
      "Ġcompleted": 3500,
      "Ġcarry": 3501,
      "Ġinsurance": 3502,
      "Ġcentury": 3503,
      "Ġcasino": 3504,
      "Ġstation": 3505,
      "Ġpolitical": 3506,
      "ban": 3507,
      "Ġsubject": 3508,
      "ĠCour": 3509,
      "Ġstrateg": 3510,
      "Ġeye": 3511,
      "Ġsection": 3512,
      "Ġcommercial": 3513,
      "ĠAre": 3514,
      "isf": 3515,
      "ecause": 3516,
      "Ġpull": 3517,
      "Ġdise": 3518,
      "ties": 3519,
      "ospital": 3520,
      "OT": 3521,
      "ĠCanada": 3522,
      "ĠLa": 3523,
      "lands": 3524,
      "Ġtitle": 3525,
      "Ġâ": 3526,
      "Ġspot": 3527,
      "Ġprofession": 3528,
      "Ġprevious": 3529,
      "Ġdownload": 3530,
      "ĠMost": 3531,
      "New": 3532,
      "Ġpatients": 3533,
      "Ġconnect": 3534,
      "ING": 3535,
      "ĠChurch": 3536,
      "ĠRed": 3537,
      "Ġ26": 3538,
      "Ġrock": 3539,
      "izes": 3540,
      "Sp": 3541,
      "Ġunderstanding": 3542,
      "Ġdefinitely": 3543,
      "Ġhimself": 3544,
      "vey": 3545,
      "ĠTur": 3546,
      "engt": 3547,
      "ception": 3548,
      "ĠGoogle": 3549,
      "ĠIndian": 3550,
      "ĠEast": 3551,
      "Ġfile": 3552,
      "Ġfa": 3553,
      "Ġspeed": 3554,
      "eep": 3555,
      "ĠLeague": 3556,
      "Ġturned": 3557,
      "Ġfarm": 3558,
      "Ġcollege": 3559,
      "ears": 3560,
      "Ġcoach": 3561,
      "dom": 3562,
      "isions": 3563,
      "Ġwife": 3564,
      "Ġgold": 3565,
      "Ġexerc": 3566,
      "ĠProf": 3567,
      "ĠStreet": 3568,
      "ĠLaw": 3569,
      "Ġinterview": 3570,
      "ĠBen": 3571,
      "Ġrequirements": 3572,
      "Ġblock": 3573,
      "ĠSund": 3574,
      "Ġfrequ": 3575,
      "Ġcert": 3576,
      "Ġactive": 3577,
      "Ġexactly": 3578,
      "Ġfinally": 3579,
      "Ġcapt": 3580,
      "arter": 3581,
      "ĠMet": 3582,
      "Ġknew": 3583,
      "ĠMor": 3584,
      "gg": 3585,
      "ĠClub": 3586,
      "ustain": 3587,
      "oyal": 3588,
      "ugh": 3589,
      "onse": 3590,
      "See": 3591,
      "enior": 3592,
      "Ġrace": 3593,
      "aint": 3594,
      "No": 3595,
      "Ġfilms": 3596,
      "Ġhour": 3597,
      "Ġaltern": 3598,
      "more": 3599,
      "Ġlimited": 3600,
      "ancy": 3601,
      "Ġfloor": 3602,
      "Ġjourney": 3603,
      "Ġdeter": 3604,
      "Ġeffort": 3605,
      "Ġheard": 3606,
      "Ġimag": 3607,
      "itchen": 3608,
      "ashion": 3609,
      "ĠAustralia": 3610,
      "active": 3611,
      "ĠLi": 3612,
      "Ġprotect": 3613,
      "ĠBel": 3614,
      "estival": 3615,
      "where": 3616,
      "Ġglobal": 3617,
      "onstr": 3618,
      "emic": 3619,
      "Ġnorth": 3620,
      "Ġschools": 3621,
      "Ġrespect": 3622,
      "Ġul": 3623,
      "ĠInter": 3624,
      "ĠDepartment": 3625,
      "ivil": 3626,
      "Un": 3627,
      "ĠPlease": 3628,
      "Ġcertainly": 3629,
      "Ġjoin": 3630,
      "Ġsurround": 3631,
      "Ġcat": 3632,
      "cr": 3633,
      "Ġprec": 3634,
      "Ġphotos": 3635,
      "Ġx": 3636,
      "Ġtrain": 3637,
      "Ġcompos": 3638,
      "Ġnote": 3639,
      "born": 3640,
      "Ġviol": 3641,
      "nel": 3642,
      "hicle": 3643,
      "ropri": 3644,
      "ography": 3645,
      "onic": 3646,
      "Ġfinish": 3647,
      "Ġmovie": 3648,
      "ĠIr": 3649,
      "Ġpopulation": 3650,
      "Ġpred": 3651,
      "Ġdry": 3652,
      "Ġindepend": 3653,
      "Ġextrem": 3654,
      "unk": 3655,
      "Ġliter": 3656,
      "orks": 3657,
      "Ġdegree": 3658,
      "--": 3659,
      "Ġwrong": 3660,
      "Ġaverage": 3661,
      "ma": 3662,
      "Ġconc": 3663,
      "ffee": 3664,
      "Ġserve": 3665,
      "ĠDistr": 3666,
      "Ġuses": 3667,
      "Ġcreative": 3668,
      "Ġnov": 3669,
      "Ġobject": 3670,
      "ĠChina": 3671,
      "Mar": 3672,
      "que": 3673,
      "Ġexecut": 3674,
      "town": 3675,
      "field": 3676,
      "ĠGreat": 3677,
      "Ġseek": 3678,
      "Ġbehav": 3679,
      "Ġtemper": 3680,
      "Ġobtain": 3681,
      "Ġhelped": 3682,
      "AD": 3683,
      "ĠMag": 3684,
      "ĠOut": 3685,
      "Ġsouth": 3686,
      "Ġmachine": 3687,
      "tection": 3688,
      "Ġproduced": 3689,
      "ĠEuropean": 3690,
      "dr": 3691,
      "Ġdevice": 3692,
      "ĠAssociation": 3693,
      "ĠHol": 3694,
      "Ġblood": 3695,
      "Ġcourt": 3696,
      "ube": 3697,
      "Ġappre": 3698,
      "Ġsus": 3699,
      "set": 3700,
      "Ġcamer": 3701,
      "Ġartist": 3702,
      "ĠRiver": 3703,
      "iation": 3704,
      "Ġcou": 3705,
      "Ġglass": 3706,
      "Ġpassion": 3707,
      "Ġhistor": 3708,
      "Ġfirm": 3709,
      "ĠTri": 3710,
      "Ġcount": 3711,
      "Ġmax": 3712,
      "Ġstra": 3713,
      "mb": 3714,
      "ĠSto": 3715,
      "Ġchanged": 3716,
      "Ġeasier": 3717,
      "unte": 3718,
      "Ġloved": 3719,
      "Ġspirit": 3720,
      "ĠCouncil": 3721,
      "ĠDesign": 3722,
      "ressed": 3723,
      "OS": 3724,
      "ĠPM": 3725,
      "ĠInc": 3726,
      "Ġattack": 3727,
      "ĠAlso": 3728,
      "ĠBusiness": 3729,
      "formation": 3730,
      "Ġexperienced": 3731,
      "24": 3732,
      "ici": 3733,
      "Ġbenefit": 3734,
      "org": 3735,
      "Ġtruly": 3736,
      "Ġlooked": 3737,
      "Ġbudget": 3738,
      "ET": 3739,
      "?âĢĿ": 3740,
      "Ġver": 3741,
      "ida": 3742,
      "ocal": 3743,
      "arant": 3744,
      "ago": 3745,
      "apt": 3746,
      "ĠEven": 3747,
      "Ġpurpose": 3748,
      "apy": 3749,
      "Ġhop": 3750,
      "ĠMinis": 3751,
      "Ġpen": 3752,
      "Ġlic": 3753,
      "Ġactivity": 3754,
      "actions": 3755,
      "ĠFin": 3756,
      "ĠHall": 3757,
      "Ġoverall": 3758,
      "used": 3759,
      "Ġsupply": 3760,
      "Ġorigi": 3761,
      "Ġimages": 3762,
      "Ġ+": 3763,
      "Ġwait": 3764,
      "Ġhelping": 3765,
      "Ġtransport": 3766,
      "Ġdeli": 3767,
      "Ġheat": 3768,
      "Ġmeaning": 3769,
      "Ġdifference": 3770,
      "ycle": 3771,
      "Ġwonderful": 3772,
      "ously": 3773,
      "echan": 3774,
      "Ġvirt": 3775,
      "eli": 3776,
      "aturday": 3777,
      "Ġfine": 3778,
      "Ġfeet": 3779,
      "Ġstraight": 3780,
      "Ġbey": 3781,
      "Ġwedding": 3782,
      "ĠLet": 3783,
      "ĠTechn": 3784,
      "Ġbeyond": 3785,
      "istics": 3786,
      "EC": 3787,
      "arily": 3788,
      "iced": 3789,
      "iles": 3790,
      "ĠMany": 3791,
      "uffer": 3792,
      "porate": 3793,
      "Ġstuff": 3794,
      "oday": 3795,
      "Ġguide": 3796,
      "ĠPost": 3797,
      "Ġmessage": 3798,
      "rote": 3799,
      "ports": 3800,
      "Ġutil": 3801,
      "Ġjud": 3802,
      "mark": 3803,
      "Not": 3804,
      "Le": 3805,
      "ĠAM": 3806,
      "ĠPort": 3807,
      "Ġexhib": 3808,
      "urt": 3809,
      "ulations": 3810,
      "ĠGover": 3811,
      "Ġapplications": 3812,
      "rel": 3813,
      "ĠFacebook": 3814,
      "Ġeight": 3815,
      "Ġwid": 3816,
      "ĠServices": 3817,
      "Ġattend": 3818,
      "80": 3819,
      "Ġaudience": 3820,
      "Ġ193": 3821,
      "Ġoptim": 3822,
      "Ġannounced": 3823,
      "VID": 3824,
      "Ġcorrect": 3825,
      "ĠTrans": 3826,
      "Ġappreci": 3827,
      "ander": 3828,
      "ĠBest": 3829,
      "Ġdead": 3830,
      "vant": 3831,
      "Ġreve": 3832,
      "ĠPaul": 3833,
      "Ġstructure": 3834,
      "Ġeat": 3835,
      "Ġexam": 3836,
      "Ġgar": 3837,
      "Ġcontinued": 3838,
      "Ġparticularly": 3839,
      "omew": 3840,
      "ĠBer": 3841,
      "Ġallowed": 3842,
      "Ġ29": 3843,
      "ĠPlay": 3844,
      "Ġbrother": 3845,
      "Ġfinished": 3846,
      "Ġestablish": 3847,
      "Ġowners": 3848,
      "ĠService": 3849,
      "ĠProgram": 3850,
      "Ġalthough": 3851,
      "Ġartists": 3852,
      "ĠPal": 3853,
      "undred": 3854,
      "Ġexpected": 3855,
      "Ġimmediately": 3856,
      "Ġvoice": 3857,
      "Ġload": 3858,
      "23": 3859,
      "Ġspecies": 3860,
      "omb": 3861,
      "Ġoccas": 3862,
      "ened": 3863,
      "AP": 3864,
      "ĠWell": 3865,
      "ĠGreen": 3866,
      "Ġtried": 3867,
      "Ġ2007": 3868,
      "amm": 3869,
      "Ġprefer": 3870,
      "leg": 3871,
      "Ġreasons": 3872,
      "ware": 3873,
      "Ġstrategy": 3874,
      "ections": 3875,
      "ament": 3876,
      "ocr": 3877,
      "Ġdamage": 3878,
      "Ġsort": 3879,
      "lip": 3880,
      "Ġreduce": 3881,
      "Ġlines": 3882,
      "Ġfem": 3883,
      "Ġoffered": 3884,
      "oper": 3885,
      "BC": 3886,
      "tick": 3887,
      "ĠNews": 3888,
      "Ã¡": 3889,
      "Ġdemand": 3890,
      "Ġgrand": 3891,
      "nner": 3892,
      "unt": 3893,
      "Ab": 3894,
      "Ġextremely": 3895,
      "Ġproduce": 3896,
      "Ġvehicle": 3897,
      "mission": 3898,
      "Ġfab": 3899,
      "Ġlack": 3900,
      "Ġexperiences": 3901,
      "Ġsaying": 3902,
      "arent": 3903,
      "Ġdied": 3904,
      "yn": 3905,
      "ĠDavid": 3906,
      "Ġbasic": 3907,
      "Ġstrugg": 3908,
      "Ġopened": 3909,
      "Ġoccur": 3910,
      "ĠGerman": 3911,
      "Ġeffects": 3912,
      "ications": 3913,
      "Ġcharge": 3914,
      "Ġmaybe": 3915,
      "thous": 3916,
      "ĠBur": 3917,
      "Ġresponse": 3918,
      "Ġexpand": 3919,
      "Ġsurv": 3920,
      "Ġpicture": 3921,
      "eting": 3922,
      "Ġincreasing": 3923,
      "Ġpet": 3924,
      "Ġsteps": 3925,
      "Ġcontribut": 3926,
      "Ġpieces": 3927,
      "Ġweather": 3928,
      "Ġmission": 3929,
      "Ġsatisf": 3930,
      "Ġlands": 3931,
      "ili": 3932,
      "ĠNet": 3933,
      "Ġwear": 3934,
      "Ġsubst": 3935,
      "ederal": 3936,
      "ulated": 3937,
      "Ġfollowed": 3938,
      "Ġnut": 3939,
      "Ġindustr": 3940,
      "eff": 3941,
      "Ġbackground": 3942,
      "Ġsongs": 3943,
      "Ġnormal": 3944,
      "Ġregister": 3945,
      "Ġpressure": 3946,
      "Ġincred": 3947,
      "Ġsmart": 3948,
      "ĠBook": 3949,
      "Ġcash": 3950,
      "hes": 3951,
      "Ġspread": 3952,
      "ĠWork": 3953,
      "Ġscore": 3954,
      "Ġpaid": 3955,
      "Ġcompon": 3956,
      "ĠFound": 3957,
      "Ġteaching": 3958,
      "riend": 3959,
      "Ġmiddle": 3960,
      "mon": 3961,
      "Ġdirector": 3962,
      "Ġthous": 3963,
      "Ġexisting": 3964,
      "Ġassess": 3965,
      "body": 3966,
      "ĠTex": 3967,
      "Ġmovement": 3968,
      "Ġ=": 3969,
      "Ġcry": 3970,
      "ras": 3971,
      "Ġwrote": 3972,
      "porary": 3973,
      "Ġcomfortable": 3974,
      "ĠDevelop": 3975,
      "Ġalone": 3976,
      "ole": 3977,
      "gen": 3978,
      "Ġsuffer": 3979,
      "Ġabsolut": 3980,
      "Ġcomments": 3981,
      "Ġwild": 3982,
      "Ġinvestment": 3983,
      "Ġstates": 3984,
      "Ġprinc": 3985,
      "Ġtransfer": 3986,
      "Is": 3987,
      "ĠJames": 3988,
      "Ġjoined": 3989,
      "ĠSunday": 3990,
      "Ġshoot": 3991,
      "aling": 3992,
      "Ġrights": 3993,
      "ĠEngland": 3994,
      "hol": 3995,
      "rey": 3996,
      "Ġmaster": 3997,
      "ken": 3998,
      "iant": 3999,
      "While": 4000,
      "Ġreported": 4001,
      "Ġdrug": 4002,
      "Ġtick": 4003,
      "ĠChampions": 4004,
      "iques": 4005,
      "Ġdom": 4006,
      "Ġgas": 4007,
      "Ġarg": 4008,
      "Ġoffering": 4009,
      "ĠDistrict": 4010,
      "That": 4011,
      "oly": 4012,
      "Ġcontract": 4013,
      "Ġpowerful": 4014,
      "ĠEduc": 4015,
      "nese": 4016,
      "Ġsurface": 4017,
      "ION": 4018,
      "ĠMin": 4019,
      "ĠOver": 4020,
      "Ġhighest": 4021,
      "ĠCap": 4022,
      "ĠHome": 4023,
      "itar": 4024,
      "Ġcateg": 4025,
      "ĠSum": 4026,
      "Ġadvice": 4027,
      "Ġcontinu": 4028,
      "Ġcapital": 4029,
      "ĠSur": 4030,
      "wide": 4031,
      "eared": 4032,
      "Ġfort": 4033,
      "Ġshared": 4034,
      "Ġbaby": 4035,
      "bon": 4036,
      "Ġchallenge": 4037,
      "Ġscience": 4038,
      "Ġafford": 4039,
      "ĠChristmas": 4040,
      "Ġepis": 4041,
      "Ġwants": 4042,
      "Ġord": 4043,
      "Americ": 4044,
      "Ġstrengt": 4045,
      "Ġrelax": 4046,
      "Ġchallenges": 4047,
      "Ġhus": 4048,
      "Ġmethods": 4049,
      "Ġchann": 4050,
      "Ġcontain": 4051,
      "rows": 4052,
      "Ġsubs": 4053,
      "asts": 4054,
      "Ġinstitut": 4055,
      "Ġtelev": 4056,
      "Ġorganizations": 4057,
      "Ġadvert": 4058,
      "Ġah": 4059,
      "Ġpolice": 4060,
      "ĠFriday": 4061,
      "Ġmale": 4062,
      "men": 4063,
      "Ġsession": 4064,
      "Ġcold": 4065,
      "Ġsusp": 4066,
      "Ġpainting": 4067,
      "lus": 4068,
      "Ġdedicated": 4069,
      "Ġlots": 4070,
      "lying": 4071,
      "order": 4072,
      "Ġblue": 4073,
      "Ġnumbers": 4074,
      "His": 4075,
      "Ġmanage": 4076,
      "Ġproced": 4077,
      "Ġcast": 4078,
      "cel": 4079,
      "Ġcandid": 4080,
      "rief": 4081,
      "Ġappropri": 4082,
      "Ġing": 4083,
      "Ġthank": 4084,
      "ĠRoad": 4085,
      "iverse": 4086,
      "Ġeconomic": 4087,
      "Ġlengt": 4088,
      "Ġdevices": 4089,
      "Ġcup": 4090,
      "ady": 4091,
      "Ġrespond": 4092,
      "Ġnearly": 4093,
      "encies": 4094,
      "ĠMac": 4095,
      "ĠEv": 4096,
      "Ġroof": 4097,
      "Ġgrap": 4098,
      "Ġ60": 4099,
      "Ġcommunities": 4100,
      "coming": 4101,
      "ona": 4102,
      "Ġconv": 4103,
      "Ġlargest": 4104,
      "Ġrules": 4105,
      "Ġrent": 4106,
      "ĠMusic": 4107,
      "ĠCompany": 4108,
      "Ġ2006": 4109,
      "Ġhundred": 4110,
      "ston": 4111,
      "âĢ¢": 4112,
      "tenance": 4113,
      "forts": 4114,
      "Ġpresident": 4115,
      "tend": 4116,
      "ĠRich": 4117,
      "ĠChan": 4118,
      "ĠBoard": 4119,
      "Ġclasses": 4120,
      "ĠOnce": 4121,
      "Ġesc": 4122,
      "Ġkitchen": 4123,
      "Ġacadem": 4124,
      "aine": 4125,
      "Ġshot": 4126,
      "Ġfant": 4127,
      "ĠWind": 4128,
      "Ġnumerous": 4129,
      "EL": 4130,
      "Ġelements": 4131,
      "Ġbreat": 4132,
      "Ġaccept": 4133,
      "Ph": 4134,
      "ĠLou": 4135,
      "ĠDirector": 4136,
      "affic": 4137,
      "ĠGeneral": 4138,
      "Here": 4139,
      "Ġopening": 4140,
      "tips": 4141,
      "oon": 4142,
      "ĠSince": 4143,
      "ĠCle": 4144,
      "ashington": 4145,
      "Ġstock": 4146,
      "Ġideal": 4147,
      "Ġlearned": 4148,
      "ĠMod": 4149,
      "ĠDuring": 4150,
      "down": 4151,
      "ĠMal": 4152,
      "ĠTer": 4153,
      "Ġscient": 4154,
      "Ġanaly": 4155,
      "outher": 4156,
      "hreat": 4157,
      "abi": 4158,
      "Ġdaughter": 4159,
      "Ġregarding": 4160,
      "ĠSpec": 4161,
      "ĠGold": 4162,
      "Ġanalysis": 4163,
      "Ġearlier": 4164,
      "threat": 4165,
      "Ġarchitect": 4166,
      "Ġexplore": 4167,
      "ĠOther": 4168,
      "ĠDem": 4169,
      "Ġcoffee": 4170,
      "Ġpsych": 4171,
      "bing": 4172,
      "|-": 4173,
      "Ġcompetition": 4174,
      "Ġconcept": 4175,
      "Ġgenerally": 4176,
      "Ġbasis": 4177,
      "Ġweekend": 4178,
      "Ġincreased": 4179,
      "Ġelectric": 4180,
      "IL": 4181,
      "ĠMem": 4182,
      "Ġbottom": 4183,
      "Ġdescribed": 4184,
      "Ġgift": 4185,
      "Ġtips": 4186,
      "cription": 4187,
      "Ġselect": 4188,
      "Ġuseful": 4189,
      "Ġcharacters": 4190,
      "icks": 4191,
      "hern": 4192,
      "Do": 4193,
      "Ġtrade": 4194,
      "ero": 4195,
      "Ġlarger": 4196,
      "za": 4197,
      "ĠSl": 4198,
      "Ġefficient": 4199,
      "Ġdream": 4200,
      "ĠSaturday": 4201,
      "ipp": 4202,
      "Ġassociated": 4203,
      "amily": 4204,
      "PS": 4205,
      "Ġstudies": 4206,
      "ĠMount": 4207,
      "Ġahead": 4208,
      "Ġsustain": 4209,
      "ĠMary": 4210,
      "OM": 4211,
      "ula": 4212,
      "icial": 4213,
      "Ġwhose": 4214,
      "Ġcommunication": 4215,
      "change": 4216,
      "ĠGet": 4217,
      "Ġprimary": 4218,
      "27": 4219,
      "Ġalign": 4220,
      "US": 4221,
      "Ġcouldn": 4222,
      "Ġmilitary": 4223,
      "Ġdoub": 4224,
      "Ġtrend": 4225,
      "reek": 4226,
      "Ġvillage": 4227,
      "atively": 4228,
      "ĠSystem": 4229,
      "Ġannual": 4230,
      "outhern": 4231,
      "Ġgather": 4232,
      "tree": 4233,
      "anish": 4234,
      "Ġsty": 4235,
      "ĠCup": 4236,
      "Ġvot": 4237,
      "hire": 4238,
      "Ġtelevision": 4239,
      "Ġbeach": 4240,
      "ounds": 4241,
      "Ġbecoming": 4242,
      "Ġseeing": 4243,
      "Ġtalking": 4244,
      "acity": 4245,
      "Ġresponsible": 4246,
      "Ġef": 4247,
      "Ġadvantage": 4248,
      "Ġcards": 4249,
      "ĠCamp": 4250,
      "ses": 4251,
      "Ġhusband": 4252,
      "Ġsoft": 4253,
      "ĠBay": 4254,
      "ĠMart": 4255,
      "Like": 4256,
      "Ġmodels": 4257,
      "tail": 4258,
      "=\"": 4259,
      "Ġforce": 4260,
      "odes": 4261,
      "Ġentertain": 4262,
      "rd": 4263,
      "ĠDiv": 4264,
      "Ġplaced": 4265,
      "Ġseven": 4266,
      "Ġconnection": 4267,
      "fit": 4268,
      "'d": 4269,
      "lies": 4270,
      "99": 4271,
      "Ġjournal": 4272,
      "Ġpool": 4273,
      "They": 4274,
      "lation": 4275,
      "care": 4276,
      "ĠLife": 4277,
      "ĠTexas": 4278,
      "elp": 4279,
      "These": 4280,
      "Ġheavy": 4281,
      "vest": 4282,
      "Ġdress": 4283,
      "Ġaren": 4284,
      "Ġguid": 4285,
      "mitted": 4286,
      "ĠGerm": 4287,
      "lymp": 4288,
      "Ġsav": 4289,
      "She": 4290,
      "uated": 4291,
      "Ġsociety": 4292,
      "Ġcritical": 4293,
      "place": 4294,
      "inger": 4295,
      "onday": 4296,
      "venue": 4297,
      "ĠIm": 4298,
      "26": 4299,
      "Ġsu": 4300,
      "Ġfat": 4301,
      "Ġbath": 4302,
      "ination": 4303,
      "Ġpeace": 4304,
      "ĠInt": 4305,
      "Ġti": 4306,
      "orthern": 4307,
      "Ġmarried": 4308,
      "28": 4309,
      "onus": 4310,
      "ĠCOVID": 4311,
      "icles": 4312,
      "ĠEach": 4313,
      "âĢĿ,": 4314,
      "ĠPlan": 4315,
      "Ġgreater": 4316,
      "anging": 4317,
      "ault": 4318,
      "ĠThom": 4319,
      "Ġefforts": 4320,
      "ĠRepublic": 4321,
      "Ġpictures": 4322,
      "Ġpatient": 4323,
      "Ġperhaps": 4324,
      "Ġkept": 4325,
      "ifying": 4326,
      "ĊĊ": 4327,
      "Ġrequires": 4328,
      "Ġfans": 4329,
      "Ġfish": 4330,
      "Don": 4331,
      "Ap": 4332,
      "Ġclin": 4333,
      "Ġvolunte": 4334,
      "Ġadjust": 4335,
      "Ġpush": 4336,
      "Ġthreat": 4337,
      "Ġauth": 4338,
      "ĠInstitute": 4339,
      "Ġdistribut": 4340,
      "Ġforms": 4341,
      "ĠSal": 4342,
      "ĠManagement": 4343,
      "Ġsecure": 4344,
      "Ġrestr": 4345,
      "ĠQue": 4346,
      "Ġchem": 4347,
      "cle": 4348,
      "Ġslight": 4349,
      "Ġshown": 4350,
      "cy": 4351,
      "Ġvisual": 4352,
      "Ġonto": 4353,
      "Ġhomes": 4354,
      "ooth": 4355,
      "ulate": 4356,
      "Ġwinter": 4357,
      "overy": 4358,
      "Ġdelivery": 4359,
      "Ġprices": 4360,
      "Ġpassed": 4361,
      "itiz": 4362,
      "unately": 4363,
      "Ġmechan": 4364,
      "ĠWashington": 4365,
      "ĠGood": 4366,
      "ĠWhite": 4367,
      "ĠCourt": 4368,
      "Ġmeasure": 4369,
      "Ġvision": 4370,
      "Ġfashion": 4371,
      "Ġowner": 4372,
      "Ġdoll": 4373,
      "ĠRem": 4374,
      "Ġserious": 4375,
      "Ġinstruc": 4376,
      "hlet": 4377,
      "Get": 4378,
      "From": 4379,
      "Ġdemonstr": 4380,
      "Pe": 4381,
      "iar": 4382,
      "Ġfamous": 4383,
      "Ġmis": 4384,
      "ĠAward": 4385,
      "wi": 4386,
      "American": 4387,
      "cher": 4388,
      "Ġdetermi": 4389,
      "Ġschedule": 4390,
      "bu": 4391,
      "ado": 4392,
      "Ġadop": 4393,
      "ĠAcadem": 4394,
      "ta": 4395,
      "Ġfinding": 4396,
      "erved": 4397,
      "Now": 4398,
      "Ġprotection": 4399,
      "aled": 4400,
      "Ġpayment": 4401,
      "adian": 4402,
      "Bl": 4403,
      "ĠIsland": 4404,
      "ologies": 4405,
      "Ġplants": 4406,
      "Ġnation": 4407,
      "ĠFil": 4408,
      "ĠFrance": 4409,
      "task": 4410,
      "Ġunit": 4411,
      "Ġoutdo": 4412,
      "Ġiniti": 4413,
      "new": 4414,
      "Ġreturned": 4415,
      "Ġnav": 4416,
      "Ġharm": 4417,
      "Ġreality": 4418,
      "Ġsymp": 4419,
      "agram": 4420,
      "ĠAngel": 4421,
      "ios": 4422,
      "iger": 4423,
      "andemic": 4424,
      "45": 4425,
      "ĠGeorge": 4426,
      "Ġnotice": 4427,
      "ervation": 4428,
      "Ġfigure": 4429,
      "standing": 4430,
      "Ġrelig": 4431,
      "isation": 4432,
      "ĠPeople": 4433,
      "Ġcovered": 4434,
      "Ġtree": 4435,
      "Ġpoor": 4436,
      "ĠApp": 4437,
      "Ġolder": 4438,
      "Ġflex": 4439,
      "ĠNor": 4440,
      "Ġpor": 4441,
      "olic": 4442,
      "Ġtechnical": 4443,
      "mail": 4444,
      "ĠFlor": 4445,
      "Ġkeeping": 4446,
      "Ġdisease": 4447,
      "oma": 4448,
      "Ġrich": 4449,
      "Ġdeveloping": 4450,
      "Wh": 4451,
      "Ġdouble": 4452,
      "xim": 4453,
      "Ġthanks": 4454,
      "Ġscen": 4455,
      "imin": 4456,
      "29": 4457,
      "Ġremain": 4458,
      "Your": 4459,
      "irus": 4460,
      "Ġfill": 4461,
      "gency": 4462,
      "Ġestate": 4463,
      "Ġpleas": 4464,
      "Ġcompl": 4465,
      "Ġ...": 4466,
      "Ġleader": 4467,
      "ĠArch": 4468,
      "Ġgirls": 4469,
      "ray": 4470,
      "Ġoperations": 4471,
      "70": 4472,
      "Ġproud": 4473,
      "Ġsupp": 4474,
      "rough": 4475,
      "Ġstorage": 4476,
      "Ġtherefore": 4477,
      "ka": 4478,
      "cement": 4479,
      "Ġworksh": 4480,
      "ĠMil": 4481,
      "Ġshape": 4482,
      "Ġfol": 4483,
      "Ġcatch": 4484,
      "ĠClass": 4485,
      "ðŁ": 4486,
      "Ġlibr": 4487,
      "ĠLake": 4488,
      "Ġpremi": 4489,
      "bit": 4490,
      "Ġadvent": 4491,
      "Ġdang": 4492,
      "earn": 4493,
      "Ġdecor": 4494,
      "ading": 4495,
      "Ġguarant": 4496,
      "ĠChinese": 4497,
      "ĠMex": 4498,
      "Ġwinning": 4499,
      "Ġcopy": 4500,
      "istry": 4501,
      "Ġdating": 4502,
      "Ġpages": 4503,
      "ĠDi": 4504,
      "Why": 4505,
      "Ġtask": 4506,
      "Ġrelationships": 4507,
      "akers": 4508,
      "Ġincor": 4509,
      "ĠProduc": 4510,
      "agon": 4511,
      "Ġtend": 4512,
      "head": 4513,
      "Ġtalent": 4514,
      "Ġbecomes": 4515,
      "Ġwelcome": 4516,
      "ĠRob": 4517,
      "ĠTy": 4518,
      "Ġdirection": 4519,
      "Ġvideos": 4520,
      "Ġdistrict": 4521,
      "Ġwine": 4522,
      "ĠAfrica": 4523,
      "bl": 4524,
      "Ġ--": 4525,
      "Ġincome": 4526,
      "Ġhappened": 4527,
      "Ġge": 4528,
      "lor": 4529,
      "ĠIT": 4530,
      "Ġgarden": 4531,
      "ĠSam": 4532,
      "Ġlock": 4533,
      "ĠProfess": 4534,
      "Ġaccur": 4535,
      "ĠAlthough": 4536,
      "ĠSing": 4537,
      "ĠMiss": 4538,
      "Ġtraffic": 4539,
      "Ġworkers": 4540,
      "anta": 4541,
      "Ġdiet": 4542,
      "Ġcamera": 4543,
      "Ġmeant": 4544,
      "asy": 4545,
      "text": 4546,
      "ĠCare": 4547,
      "azine": 4548,
      "Ġ@": 4549,
      "EM": 4550,
      "ui": 4551,
      "Ġplus": 4552,
      "ĠPet": 4553,
      "ĠPen": 4554,
      "Ġselection": 4555,
      "Ġsale": 4556,
      "Ġsweet": 4557,
      "ĠSpr": 4558,
      "Ġhotel": 4559,
      "Ġyout": 4560,
      "Ġgone": 4561,
      "Ġdesp": 4562,
      "Ġhar": 4563,
      "Sc": 4564,
      "Ġswitch": 4565,
      "Ġwindow": 4566,
      "Ġsolid": 4567,
      "ya": 4568,
      "OL": 4569,
      "ĠChristian": 4570,
      "ermine": 4571,
      "Ġexcited": 4572,
      "Ġscene": 4573,
      "Ġcentral": 4574,
      "ĠYear": 4575,
      "ĠÂ£": 4576,
      "century": 4577,
      "Ġir": 4578,
      "Ġevening": 4579,
      "Ġbeauty": 4580,
      "Ġassign": 4581,
      "ĠEducation": 4582,
      "orrow": 4583,
      "ĠMichael": 4584,
      "ĠTeam": 4585,
      "Ġdriving": 4586,
      "Ġbow": 4587,
      "icine": 4588,
      "Ġ2005": 4589,
      "Ġnames": 4590,
      "Or": 4591,
      "Ġbatter": 4592,
      "Ġreports": 4593,
      "vi": 4594,
      "Ġclosed": 4595,
      "itz": 4596,
      "Ġ2000": 4597,
      "icing": 4598,
      "ota": 4599,
      "Ġ31": 4600,
      "Ġeval": 4601,
      "Ġprofessionals": 4602,
      "Ġtechniques": 4603,
      "Ġperformed": 4604,
      "ibute": 4605,
      "ĠJos": 4606,
      "Ġactual": 4607,
      "Ġrank": 4608,
      "Ġbiggest": 4609,
      "Ġbalance": 4610,
      "antic": 4611,
      "ugar": 4612,
      "Ġmental": 4613,
      "Ġruns": 4614,
      "Ġsharing": 4615,
      "dd": 4616,
      "ynam": 4617,
      "Ġspring": 4618,
      "Ġeventually": 4619,
      "Ġemb": 4620,
      "ĠAlex": 4621,
      "ĠGrand": 4622,
      "ĠPhoto": 4623,
      "Ġsport": 4624,
      "vious": 4625,
      "ĠBecause": 4626,
      "ĠLit": 4627,
      "berg": 4628,
      "Ġhandle": 4629,
      "Ġloan": 4630,
      "ĠTheir": 4631,
      "Ġfocused": 4632,
      "ician": 4633,
      "Ġstrength": 4634,
      "Ġflav": 4635,
      "oe": 4636,
      "amin": 4637,
      "Ġmiles": 4638,
      "Rec": 4639,
      "ĠVic": 4640,
      "IP": 4641,
      "Ġmanaged": 4642,
      "friend": 4643,
      "May": 4644,
      "Ġcollect": 4645,
      "Ġappropriate": 4646,
      "**": 4647,
      "ĠAnn": 4648,
      "Fi": 4649,
      "Ġpresented": 4650,
      "Ġmanager": 4651,
      "ĠFranc": 4652,
      "Ġtesting": 4653,
      "Ġvalues": 4654,
      "Ġexpos": 4655,
      "Ġfiles": 4656,
      "ancing": 4657,
      "ils": 4658,
      "Ġrepair": 4659,
      "thus": 4660,
      "ellig": 4661,
      "ĠHot": 4662,
      "ND": 4663,
      "Some": 4664,
      "35": 4665,
      "ĠResearch": 4666,
      "Pre": 4667,
      "ĠSociety": 4668,
      "ĠLike": 4669,
      "198": 4670,
      "Ġdisapp": 4671,
      "Ġexperts": 4672,
      "tered": 4673,
      "Ġcore": 4674,
      "Ġremind": 4675,
      "CC": 4676,
      "Ġcleaning": 4677,
      "atically": 4678,
      "Ġmetal": 4679,
      "ĠMuseum": 4680,
      "ĠGermany": 4681,
      "ĠMad": 4682,
      "ĠJew": 4683,
      "Ġbag": 4684,
      "Ne": 4685,
      "Ġbirths": 4686,
      "Ġhappens": 4687,
      "Ġconven": 4688,
      "Ġmonitor": 4689,
      "term": 4690,
      "ĠDevelopment": 4691,
      "Ġtrail": 4692,
      "ocks": 4693,
      "Ġguests": 4694,
      "ordin": 4695,
      "Share": 4696,
      "Ġthoughts": 4697,
      "Ġstick": 4698,
      "Ġultim": 4699,
      "Ġbuildings": 4700,
      "Ġbul": 4701,
      "Ġbird": 4702,
      "Ġluck": 4703,
      "ĠImp": 4704,
      "lines": 4705,
      "Ġrare": 4706,
      "Ġpandemic": 4707,
      "Ġmaintenance": 4708,
      "Ġstatus": 4709,
      "Ġfriendly": 4710,
      "nct": 4711,
      "Ġdish": 4712,
      "Ġrates": 4713,
      "Ġlandsc": 4714,
      "Ġgain": 4715,
      "Ġrain": 4716,
      "ano": 4717,
      "Ġmentioned": 4718,
      "allery": 4719,
      "Ġinitial": 4720,
      "Ġleaving": 4721,
      "Ġthus": 4722,
      "ette": 4723,
      "fr": 4724,
      "Ġstreet": 4725,
      "Ġteacher": 4726,
      "ean": 4727,
      "Ġstandards": 4728,
      "âĢ¦]": 4729,
      "Ġcontains": 4730,
      "ĠLeg": 4731,
      "Ġsand": 4732,
      "Ġrap": 4733,
      "Ġprepared": 4734,
      "cing": 4735,
      "well": 4736,
      "Ġconnected": 4737,
      "Ġnovel": 4738,
      "ĠRock": 4739,
      "Ġden": 4740,
      "Ġjump": 4741,
      "Gr": 4742,
      "irgin": 4743,
      "bour": 4744,
      "ij": 4745,
      "Ġice": 4746,
      "Ġopi": 4747,
      "Ġcy": 4748,
      "Ġleadership": 4749,
      "Ġfemale": 4750,
      "hens": 4751,
      "ĠAny": 4752,
      "ala": 4753,
      "ĠLo": 4754,
      "Ġhom": 4755,
      "Ġbutton": 4756,
      "iled": 4757,
      "road": 4758,
      "ga": 4759,
      "alls": 4760,
      "ĠÃ": 4761,
      "Ġsmaller": 4762,
      "Ġcolors": 4763,
      "ĠBet": 4764,
      "roy": 4765,
      "Ġplenty": 4766,
      "Ġcapacity": 4767,
      "cell": 4768,
      "Ġfactors": 4769,
      "Ġdance": 4770,
      "ĠParty": 4771,
      "box": 4772,
      "Ġdetermine": 4773,
      "Ġcontinues": 4774,
      "Ġaccep": 4775,
      "writ": 4776,
      "Ġrob": 4777,
      "ĠOffice": 4778,
      "Ġsomew": 4779,
      "ĠBig": 4780,
      "Ġton": 4781,
      "ĠDel": 4782,
      "Ġretail": 4783,
      "ĠKen": 4784,
      "Ġdecide": 4785,
      "Ġjobs": 4786,
      "Ĥ¬": 4787,
      "rowd": 4788,
      "Ġhab": 4789,
      "ĠStar": 4790,
      "ĠPublic": 4791,
      "Ġselected": 4792,
      "apped": 4793,
      "Ġmostly": 4794,
      "ĠCentral": 4795,
      "Ġdebut": 4796,
      "Ġfacilities": 4797,
      "acement": 4798,
      "gins": 4799,
      "Ġcomb": 4800,
      "ĠFore": 4801,
      "umi": 4802,
      "ĠSuper": 4803,
      "ĠCommunity": 4804,
      "Ġpurs": 4805,
      "ĠBre": 4806,
      "Ġbrain": 4807,
      "ĠTor": 4808,
      "Ġcompared": 4809,
      "Ġended": 4810,
      "Ġtrees": 4811,
      "lim": 4812,
      "Ġlimit": 4813,
      "pet": 4814,
      "rint": 4815,
      "ĠCommit": 4816,
      "Ġwhatever": 4817,
      "Ġwaiting": 4818,
      "Ġremains": 4819,
      "icians": 4820,
      "Ġprocesses": 4821,
      "Ġstudio": 4822,
      "vis": 4823,
      "Ġradio": 4824,
      "ĠCur": 4825,
      "Ġmist": 4826,
      "OW": 4827,
      "uty": 4828,
      "enses": 4829,
      "Ġsmooth": 4830,
      "Ġsea": 4831,
      "ĠOlymp": 4832,
      "Ġste": 4833,
      "Ġcars": 4834,
      "Ġcaused": 4835,
      "Ġexercise": 4836,
      "ĠUnder": 4837,
      "ĠTom": 4838,
      "Ġanimals": 4839,
      "Ġevidence": 4840,
      "ĠJes": 4841,
      "Ġlisted": 4842,
      "Ġpal": 4843,
      "Ġremove": 4844,
      "bre": 4845,
      "TS": 4846,
      "Ġpractices": 4847,
      "Ġresidents": 4848,
      "Acc": 4849,
      "Ġopin": 4850,
      "ĠMake": 4851,
      "Ġtrou": 4852,
      "Ġexciting": 4853,
      "Ġentry": 4854,
      "ĠVol": 4855,
      "Ġadding": 4856,
      "ĠSun": 4857,
      "Ġviews": 4858,
      "ĠEngine": 4859,
      "ĠScience": 4860,
      "idential": 4861,
      "Ġsigned": 4862,
      "asc": 4863,
      "owns": 4864,
      "Ġhaven": 4865,
      "Ġteach": 4866,
      "Please": 4867,
      "Ġang": 4868,
      "Ġban": 4869,
      "ums": 4870,
      "Ġingred": 4871,
      "Ġreached": 4872,
      "known": 4873,
      "Ġworry": 4874,
      "Ġchanging": 4875,
      "Ġspl": 4876,
      "Br": 4877,
      "Ġleaves": 4878,
      "LE": 4879,
      "la": 4880,
      "Ġfan": 4881,
      "ctions": 4882,
      "Can": 4883,
      "100": 4884,
      "Ġindependent": 4885,
      "ĠMonday": 4886,
      "Ġtypically": 4887,
      "IM": 4888,
      "Ġmajority": 4889,
      "riage": 4890,
      "Ġmulti": 4891,
      "Ġoppos": 4892,
      "liance": 4893,
      "ĠWater": 4894,
      "Ġraised": 4895,
      "ooking": 4896,
      "iling": 4897,
      "ĠChild": 4898,
      "Se": 4899,
      "ĠAdd": 4900,
      "ĠDen": 4901,
      "Ġaid": 4902,
      "ĠTime": 4903,
      "....": 4904,
      "imal": 4905,
      "azz": 4906,
      "icious": 4907,
      "Ġclassic": 4908,
      "ĠEmp": 4909,
      "van": 4910,
      "Ġreviews": 4911,
      "ket": 4912,
      "ĠJapanese": 4913,
      "Ġcalls": 4914,
      "Ġscr": 4915,
      "Ġneighbor": 4916,
      "Ġbrings": 4917,
      "Ġstarts": 4918,
      "Ġterri": 4919,
      "Ġ80": 4920,
      "Ġ190": 4921,
      "):": 4922,
      "Ġmemory": 4923,
      "Ġtow": 4924,
      "ius": 4925,
      "Ġforget": 4926,
      "Ġpair": 4927,
      "ĠTour": 4928,
      "uman": 4929,
      "CA": 4930,
      "ĠReview": 4931,
      "Ġdepartment": 4932,
      "Ġpresence": 4933,
      "BA": 4934,
      "Ġbonus": 4935,
      "Ġshall": 4936,
      "iciency": 4937,
      "Ġappeared": 4938,
      "Ġsecret": 4939,
      "osen": 4940,
      "ĠFlorida": 4941,
      "iences": 4942,
      "iller": 4943,
      "ena": 4944,
      "Dr": 4945,
      "75": 4946,
      "roid": 4947,
      "entially": 4948,
      "ros": 4949,
      "ĠArts": 4950,
      "Ġmotor": 4951,
      "ĠCong": 4952,
      "Ġknows": 4953,
      "Ã³": 4954,
      "Ġ[âĢ¦]": 4955,
      "Ġdoctor": 4956,
      "Ġyouth": 4957,
      "ĠAfrican": 4958,
      "Ġhospital": 4959,
      "Ġgun": 4960,
      "ief": 4961,
      "uable": 4962,
      "ommod": 4963,
      "Ġletter": 4964,
      "ĠAP": 4965,
      "Ġpray": 4966,
      "Ġcivil": 4967,
      "lectr": 4968,
      "Ġfear": 4969,
      "ĠUnion": 4970,
      "Ġarrang": 4971,
      "Ġtrial": 4972,
      "Ġlose": 4973,
      "Ġintroduced": 4974,
      "Ġconference": 4975,
      "Ġcontem": 4976,
      "Ġpreviously": 4977,
      "Ġresist": 4978,
      "90": 4979,
      "Ġlength": 4980,
      "ito": 4981,
      "edom": 4982,
      "Ġrepe": 4983,
      "ĠAv": 4984,
      "night": 4985,
      "ĠTHE": 4986,
      "ilding": 4987,
      "Ġ2004": 4988,
      "ĠCath": 4989,
      "ĠMont": 4990,
      "nn": 4991,
      "ĠIts": 4992,
      "Ġsnow": 4993,
      "Ġtaste": 4994,
      "ĠBlue": 4995,
      "apers": 4996,
      "Ġrecorded": 4997,
      "Ġbright": 4998,
      "Ġwatching": 4999,
      "Ġ90": 5000,
      "arly": 5001,
      "Ġcloud": 5002,
      "Ġcourses": 5003,
      "ĠLove": 5004,
      "Ġexpress": 5005,
      "Ġfunds": 5006,
      "itude": 5007,
      "Ġseparate": 5008,
      "Ġrestaurant": 5009,
      "Ġcloth": 5010,
      "Ã¼": 5011,
      "Ġsenior": 5012,
      "People": 5013,
      "Ġunits": 5014,
      "Ġadvanced": 5015,
      "ym": 5016,
      "onom": 5017,
      "ursday": 5018,
      "ĠIN": 5019,
      "Ġpersp": 5020,
      "Ġattach": 5021,
      "Ġprincip": 5022,
      "free": 5023,
      "ĠMel": 5024,
      "Ġlisten": 5025,
      "Ġcancer": 5026,
      "Ġtransform": 5027,
      "Ġelection": 5028,
      "ĠAcademy": 5029,
      "ednes": 5030,
      "ĠFoundation": 5031,
      "ĠComments": 5032,
      "Ġcounter": 5033,
      "ĠWhy": 5034,
      "Ġcalc": 5035,
      "Ġrail": 5036,
      "oga": 5037,
      "uries": 5038,
      "resp": 5039,
      "ĠScott": 5040,
      "Ġguys": 5041,
      "ĠBill": 5042,
      "ambling": 5043,
      "Ġlived": 5044,
      "icago": 5045,
      "Ġparties": 5046,
      "apter": 5047,
      "Ġallowing": 5048,
      "ĠSocial": 5049,
      "Ġserving": 5050,
      "ĠTop": 5051,
      "ĠFree": 5052,
      "Ġexception": 5053,
      "Ġguitar": 5054,
      "nor": 5055,
      "Ġguy": 5056,
      "ulty": 5057,
      "Ġcorner": 5058,
      "azon": 5059,
      "ait": 5060,
      "Ġdistance": 5061,
      "ĠCarol": 5062,
      "ĠProv": 5063,
      "illa": 5064,
      "ÃŃ": 5065,
      "Ġplays": 5066,
      "ĠWeb": 5067,
      "Ġcultural": 5068,
      "Ġhonest": 5069,
      "ĠAustralian": 5070,
      "Ġmissing": 5071,
      "Ġsector": 5072,
      "Ġdepend": 5073,
      "burg": 5074,
      "ĠChris": 5075,
      "inct": 5076,
      "Ġbuying": 5077,
      "bd": 5078,
      "ĠMer": 5079,
      "ece": 5080,
      "ĠSub": 5081,
      "Ġextr": 5082,
      "yr": 5083,
      "unction": 5084,
      "unning": 5085,
      "ĠSil": 5086,
      "life": 5087,
      "Ġminute": 5088,
      "Res": 5089,
      "Ġbrief": 5090,
      "Ġuns": 5091,
      "Ġcollec": 5092,
      "Ġgrant": 5093,
      "Ġourselves": 5094,
      "Ġidentify": 5095,
      "Ġanti": 5096,
      "Ġhelpful": 5097,
      "Ġtoward": 5098,
      "More": 5099,
      "Ġattemp": 5100,
      "ĠThanks": 5101,
      "MS": 5102,
      "Ġwriter": 5103,
      "Tw": 5104,
      "Ġteachers": 5105,
      "oph": 5106,
      "Ġrelevant": 5107,
      "Ġexpertise": 5108,
      "Ġenhan": 5109,
      "ĠSmith": 5110,
      "Ġride": 5111,
      "Ġclim": 5112,
      "Ġsounds": 5113,
      "kin": 5114,
      "Ġdesigns": 5115,
      "Ġtheme": 5116,
      "Ġtor": 5117,
      "Ġimportance": 5118,
      "Ġproperties": 5119,
      "Ġwouldn": 5120,
      "Ġswim": 5121,
      "ĠSen": 5122,
      "IV": 5123,
      "Ġaspects": 5124,
      "Ġmap": 5125,
      "ĠHy": 5126,
      "Ġquarter": 5127,
      "!âĢĿ": 5128,
      "outs": 5129,
      "ĠST": 5130,
      "Fe": 5131,
      "Ġappearance": 5132,
      "Ġdecisions": 5133,
      "ĠWomen": 5134,
      "Ġshopping": 5135,
      "has": 5136,
      "apes": 5137,
      "ĠRoyal": 5138,
      "Ġrooms": 5139,
      "Ġtemperature": 5140,
      "Ġfounded": 5141,
      "ĠMass": 5142,
      "ĠCommittee": 5143,
      "Ġisland": 5144,
      "phone": 5145,
      "ĠStep": 5146,
      "going": 5147,
      "Ġactions": 5148,
      "Ġfaith": 5149,
      "Ġexpensive": 5150,
      "Ġabsolutely": 5151,
      "uled": 5152,
      "toms": 5153,
      "Ġcris": 5154,
      "Ġdat": 5155,
      "Ġleads": 5156,
      "Ġupdate": 5157,
      "ĠValley": 5158,
      "Ġcombination": 5159,
      "Ġtruth": 5160,
      "Ġfell": 5161,
      "Ġfilled": 5162,
      "Ġaccompl": 5163,
      "Ġchat": 5164,
      "anda": 5165,
      "Ġinspired": 5166,
      "Ġarm": 5167,
      "uesday": 5168,
      "ĠWilliam": 5169,
      "Ġven": 5170,
      "Ġenjoyed": 5171,
      "Ġdepos": 5172,
      "Ġprepare": 5173,
      "ĠList": 5174,
      "gu": 5175,
      "Ġholiday": 5176,
      "Ġvisitors": 5177,
      "Ġsources": 5178,
      "Ġwalking": 5179,
      "ĠHill": 5180,
      "pan": 5181,
      "Ġitem": 5182,
      "umber": 5183,
      "ĠOnline": 5184,
      "Ġoperation": 5185,
      "ĠVis": 5186,
      "Ġrecords": 5187,
      "Ġmicro": 5188,
      "Ġnotes": 5189,
      "Ġalternative": 5190,
      "Ġthousands": 5191,
      "Ġspending": 5192,
      "Ġforeign": 5193,
      "ĠJesus": 5194,
      "ato": 5195,
      "Ġdisp": 5196,
      "itness": 5197,
      "ĠBal": 5198,
      "iers": 5199,
      "Ġdespite": 5200,
      "ĠWestern": 5201,
      "ĠBank": 5202,
      "Ġshowing": 5203,
      "Ġfeels": 5204,
      "ola": 5205,
      "abilities": 5206,
      "olars": 5207,
      "tun": 5208,
      "Ġfacility": 5209,
      "65": 5210,
      "Ġwebsites": 5211,
      "Ġstatement": 5212,
      "ipes": 5213,
      "Ġcrowd": 5214,
      "ĠInternet": 5215,
      "Ġlocations": 5216,
      "ups": 5217,
      "ĠFort": 5218,
      "ads": 5219,
      "Ġdogs": 5220,
      "Ġguess": 5221,
      "ednesday": 5222,
      "Ġcolle": 5223,
      "ĠItalian": 5224,
      "Ġposts": 5225,
      "rian": 5226,
      "Ġfavour": 5227,
      "SS": 5228,
      "nament": 5229,
      "ĠKore": 5230,
      "Ġinvestig": 5231,
      "ideo": 5232,
      "Ġstruct": 5233,
      "33": 5234,
      "urther": 5235,
      "Ind": 5236,
      "Ġoperating": 5237,
      "Ġsquare": 5238,
      "hics": 5239,
      "win": 5240,
      "Ġsessions": 5241,
      "Ġpromote": 5242,
      "works": 5243,
      "Ġinstallation": 5244,
      "Ġtot": 5245,
      "een": 5246,
      "RO": 5247,
      "Ġmotiv": 5248,
      "Ġlaws": 5249,
      "ĠRoman": 5250,
      "ĠCanadian": 5251,
      "Ġcompre": 5252,
      "Ġformat": 5253,
      "Ġselling": 5254,
      "ĠOpen": 5255,
      "Ġbillion": 5256,
      "hicles": 5257,
      "RA": 5258,
      "Ġscale": 5259,
      "Ġgeneration": 5260,
      "ĠRad": 5261,
      "Ġmill": 5262,
      "ĠPower": 5263,
      "Ġwaste": 5264,
      "Ġwilling": 5265,
      "Ġcitiz": 5266,
      "Ġacademic": 5267,
      "Ġepisode": 5268,
      "Ġbattle": 5269,
      "About": 5270,
      "Ġrid": 5271,
      "Ġappears": 5272,
      "ifts": 5273,
      "ĠWood": 5274,
      "Ġassistance": 5275,
      "ĠWil": 5276,
      "ĠPC": 5277,
      "iration": 5278,
      "gery": 5279,
      "ĠPan": 5280,
      "Ġmusical": 5281,
      "ĠThank": 5282,
      "Ġputting": 5283,
      "ella": 5284,
      "ximately": 5285,
      "Ġveget": 5286,
      "Ġbought": 5287,
      "ĠFestival": 5288,
      "uations": 5289,
      "Ġder": 5290,
      "ĠIsra": 5291,
      "Ġlaunched": 5292,
      "estyle": 5293,
      "istration": 5294,
      "Ġbreath": 5295,
      "fortunately": 5296,
      "500": 5297,
      "Ġcontroll": 5298,
      "Ġflat": 5299,
      "Ġseemed": 5300,
      "Ġearth": 5301,
      "Ġegg": 5302,
      "Ġeconomy": 5303,
      "rink": 5304,
      "hab": 5305,
      "Ġclimate": 5306,
      "Ġproperly": 5307,
      "ĠFrank": 5308,
      "Ġchair": 5309,
      "Ġec": 5310,
      "Ġcommitted": 5311,
      "Every": 5312,
      "Ġbill": 5313,
      "ĠProject": 5314,
      "ĠVirgin": 5315,
      "ĠRussian": 5316,
      "Ġaccommod": 5317,
      "Ġphil": 5318,
      "Ġoccup": 5319,
      "encing": 5320,
      "Ġcolour": 5321,
      "Ġbusy": 5322,
      "Ġvirtual": 5323,
      "uthor": 5324,
      "gers": 5325,
      "mar": 5326,
      "igan": 5327,
      "cean": 5328,
      "ĠCheck": 5329,
      "Ġedge": 5330,
      "Ġ*": 5331,
      "eline": 5332,
      "Ġrecommended": 5333,
      "Ġwhom": 5334,
      "ĠLead": 5335,
      "esome": 5336,
      "state": 5337,
      "Ġdur": 5338,
      "chers": 5339,
      "ario": 5340,
      "centr": 5341,
      "Ġpackage": 5342,
      "Ġbrands": 5343,
      "ĠKr": 5344,
      "inary": 5345,
      "Ġfeatured": 5346,
      "Ġdocuments": 5347,
      "ĠLouis": 5348,
      "ĠArmy": 5349,
      "Ġsupported": 5350,
      "ls": 5351,
      "Ġslightly": 5352,
      "eph": 5353,
      "ita": 5354,
      "ĠHen": 5355,
      "Ġexclus": 5356,
      "ĠCommission": 5357,
      "ĠRobert": 5358,
      "azy": 5359,
      "estic": 5360,
      "Ġtopic": 5361,
      "ĠPress": 5362,
      "Ġpow": 5363,
      "fol": 5364,
      "aked": 5365,
      "Ġmanufactur": 5366,
      "ĠSol": 5367,
      "Ġdinner": 5368,
      "Ġeating": 5369,
      "arian": 5370,
      "Fr": 5371,
      "Ġjoy": 5372,
      "ĠPi": 5373,
      "Ġstrategies": 5374,
      "Ġfamiliar": 5375,
      "issions": 5376,
      "ĠUSA": 5377,
      "Ġdiag": 5378,
      "Ġsymb": 5379,
      "Ġdriver": 5380,
      "Ġposted": 5381,
      "ĠTre": 5382,
      "ĠToday": 5383,
      "Ġimpress": 5384,
      "Ġbehavior": 5385,
      "Ġdepending": 5386,
      "nue": 5387,
      "Ġfee": 5388,
      "odies": 5389,
      "Ġgri": 5390,
      "atin": 5391,
      "Ġ70": 5392,
      "ĠRel": 5393,
      "Ġcities": 5394,
      "Ġapplied": 5395,
      "Ġpossess": 5396,
      "Ġinfluence": 5397,
      "hrow": 5398,
      "Ġcentre": 5399,
      "Ġuniversity": 5400,
      "Ġformed": 5401,
      "ĠChicago": 5402,
      "Ġcoast": 5403,
      "ĠVe": 5404,
      "throw": 5405,
      "tight": 5406,
      "Ġforest": 5407,
      "how": 5408,
      "ĠPeter": 5409,
      "Ġpropos": 5410,
      "ecutive": 5411,
      "lishing": 5412,
      "ĠSk": 5413,
      "with": 5414,
      "Ġplastic": 5415,
      "udden": 5416,
      "Ġpaint": 5417,
      "Ġlabor": 5418,
      "Ġbeat": 5419,
      "Ġtom": 5420,
      "inue": 5421,
      "Ġencourage": 5422,
      "Ġapart": 5423,
      "Ġclearly": 5424,
      "ĠGovernment": 5425,
      "ĠInf": 5426,
      "Ġmedium": 5427,
      "Ġriver": 5428,
      "CH": 5429,
      "Ġattempt": 5430,
      "word": 5431,
      "ĠMaster": 5432,
      "icted": 5433,
      "Ġmail": 5434,
      "Ġdesire": 5435,
      "pi": 5436,
      "Ġprofile": 5437,
      "ĠParis": 5438,
      "Ġagency": 5439,
      "Ġmenu": 5440,
      "Ġparent": 5441,
      "ĠThomas": 5442,
      "Ġenvironmental": 5443,
      "Jo": 5444,
      "nch": 5445,
      "rove": 5446,
      "Ġfantastic": 5447,
      "west": 5448,
      "Ġpossibly": 5449,
      "ĠAtl": 5450,
      "niture": 5451,
      "Ġ2003": 5452,
      "unicip": 5453,
      "cin": 5454,
      "Ġsets": 5455,
      "umm": 5456,
      "Ġseat": 5457,
      "ĠTwo": 5458,
      "Ġarrived": 5459,
      "ĠPay": 5460,
      "Ġadvance": 5461,
      "Ġupgr": 5462,
      "Ġbelong": 5463,
      "Ġcommand": 5464,
      "Ġmouth": 5465,
      "Ġprop": 5466,
      "Ġkid": 5467,
      "oor": 5468,
      "ometimes": 5469,
      "rastr": 5470,
      "Ġshowed": 5471,
      "PA": 5472,
      "ĠIS": 5473,
      "IG": 5474,
      "Ġminor": 5475,
      "Ġdiscovered": 5476,
      "elle": 5477,
      "ĠCus": 5478,
      "Ġsteel": 5479,
      "edy": 5480,
      "Ġsugar": 5481,
      "list": 5482,
      "Ġbound": 5483,
      "ei": 5484,
      "ĠFrancis": 5485,
      "Ġbringing": 5486,
      "oker": 5487,
      "Ġarticles": 5488,
      "Ġlunch": 5489,
      "Ġsexual": 5490,
      "ĠTwitter": 5491,
      "cious": 5492,
      "taught": 5493,
      "ifications": 5494,
      "FA": 5495,
      "De": 5496,
      "hick": 5497,
      "ĠBi": 5498,
      "Ġboat": 5499,
      "ĠApple": 5500,
      "Ġquant": 5501,
      "ĠAccording": 5502,
      "ĠGames": 5503,
      "ĠOld": 5504,
      "ĠInstagram": 5505,
      "Ġinternal": 5506,
      ");": 5507,
      "Ġforces": 5508,
      "umn": 5509,
      "ĠSpecial": 5510,
      "ĠLos": 5511,
      "thick": 5512,
      "tu": 5513,
      "Ġregularly": 5514,
      "Ġinstalled": 5515,
      "Ġinjury": 5516,
      "istan": 5517,
      "err": 5518,
      "Ġconversation": 5519,
      "rive": 5520,
      "aks": 5521,
      "Bu": 5522,
      "Ġotherwise": 5523,
      "Ġconcerns": 5524,
      "ĠMen": 5525,
      "ĠFre": 5526,
      "Des": 5527,
      "ĠLord": 5528,
      "Ġhousehold": 5529,
      "Ġmaximum": 5530,
      "prene": 5531,
      "Ġlibrary": 5532,
      "ĠRet": 5533,
      "emin": 5534,
      "Ġfle": 5535,
      "Ġagree": 5536,
      "Ġtransl": 5537,
      "Ġfunding": 5538,
      "Ġelement": 5539,
      "Ġvent": 5540,
      "ĠJack": 5541,
      "Ġvehicles": 5542,
      "fast": 5543,
      "heat": 5544,
      "ined": 5545,
      "Ġnegative": 5546,
      "uz": 5547,
      "First": 5548,
      "ĠShow": 5549,
      "Ġcorporate": 5550,
      "Ã¶": 5551,
      "__": 5552,
      "ikes": 5553,
      "Ġreput": 5554,
      "Ġlux": 5555,
      "Ġcomponents": 5556,
      "Ġroute": 5557,
      "bes": 5558,
      "uts": 5559,
      "Ġoccasion": 5560,
      "Ġaccident": 5561,
      "arp": 5562,
      "ĠCentre": 5563,
      "Ġillustr": 5564,
      "Ġdynam": 5565,
      "erry": 5566,
      "Ġinstance": 5567,
      "idden": 5568,
      "Ġoutdoor": 5569,
      "Ġcombined": 5570,
      "Ġtun": 5571,
      "umin": 5572,
      "iking": 5573,
      "ilit": 5574,
      "gent": 5575,
      "reprene": 5576,
      "ĠUse": 5577,
      "ĠCD": 5578,
      "Ġparticipants": 5579,
      "ĠCB": 5580,
      "rete": 5581,
      "ĠCas": 5582,
      "Ġran": 5583,
      "actor": 5584,
      "igital": 5585,
      "Ġstated": 5586,
      "Ġasking": 5587,
      "Ġkilled": 5588,
      "ched": 5589,
      "aun": 5590,
      "Ġkick": 5591,
      "55": 5592,
      "ett": 5593,
      "Ġthick": 5594,
      "ĠFamily": 5595,
      "Ġingredients": 5596,
      "Ġsister": 5597,
      "Ġtail": 5598,
      "olate": 5599,
      "ogue": 5600,
      "44": 5601,
      "Ġsupporting": 5602,
      "Ġattract": 5603,
      "ĠMinister": 5604,
      "Ġvari": 5605,
      "ĠFire": 5606,
      "Ġconcentr": 5607,
      "espite": 5608,
      "ĠSaf": 5609,
      "Ġappeal": 5610,
      "apping": 5611,
      "Ġconfidence": 5612,
      "Ġextensive": 5613,
      "Ġspaces": 5614,
      "Ġsoul": 5615,
      "Qu": 5616,
      "Ġdiss": 5617,
      "Ġspons": 5618,
      "Ġfold": 5619,
      "Ġfederal": 5620,
      "ictions": 5621,
      "Ġstret": 5622,
      "ibilities": 5623,
      "uits": 5624,
      "ĠGar": 5625,
      "Let": 5626,
      "den": 5627,
      "Ġfabric": 5628,
      "merce": 5629,
      "ĠVi": 5630,
      "Ġhouses": 5631,
      "However": 5632,
      "Ġtaught": 5633,
      "ĠIns": 5634,
      "ĠBrown": 5635,
      "Ġstores": 5636,
      "Contact": 5637,
      "ĠDef": 5638,
      "kr": 5639,
      "Ġcream": 5640,
      "ĠJour": 5641,
      "Ġcarried": 5642,
      "Ġcrew": 5643,
      "nity": 5644,
      "Ġmur": 5645,
      "tro": 5646,
      "Ġanx": 5647,
      "Ġsuitable": 5648,
      "Ġsigns": 5649,
      "Ġeducational": 5650,
      "Ġunc": 5651,
      "ĠSummer": 5652,
      "Ġthrow": 5653,
      "utch": 5654,
      "Ġspecifically": 5655,
      "ĠLong": 5656,
      "Ġboost": 5657,
      "Ġinnovative": 5658,
      "Ġauto": 5659,
      "ĠBeach": 5660,
      "Ġprofit": 5661,
      "Ġindustrial": 5662,
      "Once": 5663,
      "viously": 5664,
      "Ġpump": 5665,
      "nect": 5666,
      "Ġapps": 5667,
      "rooms": 5668,
      "ĠDivision": 5669,
      "Ġrapid": 5670,
      "Ġcampus": 5671,
      "icken": 5672,
      "Ġsitting": 5673,
      "Ġremoved": 5674,
      "Ġcreation": 5675,
      "ĠOper": 5676,
      "elines": 5677,
      "Since": 5678,
      "Ġadult": 5679,
      "ĠFood": 5680,
      "Ġtherapy": 5681,
      "ĠLight": 5682,
      "Ġfunctions": 5683,
      "Ġanimal": 5684,
      "rastructure": 5685,
      "Ġrule": 5686,
      "ĠMicro": 5687,
      "Dec": 5688,
      "uke": 5689,
      "Ġfields": 5690,
      "ĠThursday": 5691,
      "Ġtasks": 5692,
      "Ġfeedback": 5693,
      "Ġlabel": 5694,
      "ĠHistory": 5695,
      "Ġwest": 5696,
      "Ġexchange": 5697,
      "Over": 5698,
      "Ġapproximately": 5699,
      "Ġbasket": 5700,
      "press": 5701,
      "ersonal": 5702,
      "Ġpractical": 5703,
      "UR": 5704,
      "Ġestim": 5705,
      "ĠSpanish": 5706,
      "ĠAu": 5707,
      "Ġfuel": 5708,
      "achel": 5709,
      "ĠReal": 5710,
      "Ġminimum": 5711,
      "ĠMatt": 5712,
      "Ġmanner": 5713,
      "Ġfruit": 5714,
      "ĠDet": 5715,
      "Ġvaluable": 5716,
      "Ġleague": 5717,
      "ĠDemocr": 5718,
      "reland": 5719,
      "ĠSqu": 5720,
      "ĠWho": 5721,
      "ĠWindows": 5722,
      "ĠOb": 5723,
      "embly": 5724,
      "Ġ2002": 5725,
      "Ġanywhere": 5726,
      "Ġdecades": 5727,
      "pon": 5728,
      "rier": 5729,
      "Ġsequ": 5730,
      "hensive": 5731,
      "craft": 5732,
      "During": 5733,
      "Ġign": 5734,
      "Ġtight": 5735,
      "Ġholding": 5736,
      "ello": 5737,
      "iano": 5738,
      "ĠMedia": 5739,
      "uing": 5740,
      "lie": 5741,
      "Ġ35": 5742,
      "Ġserver": 5743,
      "ĠTim": 5744,
      "Ġcircum": 5745,
      "lam": 5746,
      "Ġdiscussion": 5747,
      "Ġpup": 5748,
      "Ġquiet": 5749,
      "ĠSee": 5750,
      "Ġfaster": 5751,
      "east": 5752,
      "Just": 5753,
      "Ġincredible": 5754,
      "Ġ2001": 5755,
      "Ġlegis": 5756,
      "hns": 5757,
      "Ġoriginally": 5758,
      "yer": 5759,
      "DA": 5760,
      "aped": 5761,
      "ĠBas": 5762,
      "aters": 5763,
      "197": 5764,
      "cohol": 5765,
      "Ġtotally": 5766,
      "othing": 5767,
      "arch": 5768,
      "Ġchemical": 5769,
      "Ġparticipate": 5770,
      "ĠWhether": 5771,
      "Ġscri": 5772,
      "Go": 5773,
      "âĢĺ": 5774,
      "ĠHon": 5775,
      "Ġindic": 5776,
      "48": 5777,
      "arge": 5778,
      "Man": 5779,
      "uan": 5780,
      "Ġpolic": 5781,
      "Ġdirected": 5782,
      "Ġhers": 5783,
      "ava": 5784,
      "ĠDown": 5785,
      "Ġwalls": 5786,
      "ĠĠĠĠ": 5787,
      "ĠRev": 5788,
      "Ġgrew": 5789,
      "ĠCam": 5790,
      "Ġcommitment": 5791,
      "Ġsettle": 5792,
      "ucks": 5793,
      "ĠBoth": 5794,
      "Ġbegins": 5795,
      "ores": 5796,
      "ulture": 5797,
      "ĠDoc": 5798,
      "Ġtough": 5799,
      "Ġreliable": 5800,
      "Ġattended": 5801,
      "Ġconstantly": 5802,
      "ĠEarth": 5803,
      "Ġchoices": 5804,
      "36": 5805,
      "ĠAmazon": 5806,
      "Ġgambling": 5807,
      "mosp": 5808,
      "Ġvan": 5809,
      "Ġresponsibility": 5810,
      "aration": 5811,
      "Ġplanned": 5812,
      "Ġengineering": 5813,
      "iminal": 5814,
      "ersey": 5815,
      "see": 5816,
      "Ġcompar": 5817,
      "Are": 5818,
      "Ġmarkets": 5819,
      "flow": 5820,
      "Ġtrav": 5821,
      "ĠExper": 5822,
      "Ġfourt": 5823,
      "Ġrealize": 5824,
      "ĠJul": 5825,
      "II": 5826,
      "nem": 5827,
      "Ġbike": 5828,
      "Ġsimpl": 5829,
      "quality": 5830,
      "38": 5831,
      "Ġframe": 5832,
      "ugs": 5833,
      "which": 5834,
      "Ġsymbol": 5835,
      "Ġkinds": 5836,
      "Ġfourth": 5837,
      "ighter": 5838,
      "ĠSar": 5839,
      "astern": 5840,
      "ĠTen": 5841,
      "agged": 5842,
      "Ġhighlight": 5843,
      "Ġmeasures": 5844,
      "Ġchannel": 5845,
      "Ġdelivered": 5846,
      "Ġdoors": 5847,
      "acter": 5848,
      "ĠZeal": 5849,
      "Ġdeaths": 5850,
      "Ġteeth": 5851,
      "ĠTechnology": 5852,
      "yan": 5853,
      "Ġwindows": 5854,
      "ĠTuesday": 5855,
      "but": 5856,
      "ĠJim": 5857,
      "39": 5858,
      "IA": 5859,
      "Ġintellig": 5860,
      "Ġdial": 5861,
      "Ġamb": 5862,
      "eme": 5863,
      "Ġemergency": 5864,
      "ĠMexico": 5865,
      "Ġplatforms": 5866,
      "ĠLibr": 5867,
      "Ġlap": 5868,
      "ocation": 5869,
      "Ġstone": 5870,
      "ĠSet": 5871,
      "NA": 5872,
      "Ġadministr": 5873,
      "zen": 5874,
      "Ġemotional": 5875,
      "rie": 5876,
      "ĠBack": 5877,
      "uis": 5878,
      "Ġflowers": 5879,
      "Ġrise": 5880,
      "Us": 5881,
      "Ġtechnologies": 5882,
      "Ġintr": 5883,
      "ruit": 5884,
      "Ġaffordable": 5885,
      "ĠNov": 5886,
      "Ġvolume": 5887,
      "appy": 5888,
      "rees": 5889,
      "Ġowned": 5890,
      "Ġraise": 5891,
      "Ġknowing": 5892,
      "reams": 5893,
      "ĠAngeles": 5894,
      "Ġeffectively": 5895,
      "Ġhousing": 5896,
      "ĠDan": 5897,
      "Ġeast": 5898,
      "Ġmoments": 5899,
      "ĠHead": 5900,
      "color": 5901,
      "Jan": 5902,
      "ĠWednesday": 5903,
      "Ġchosen": 5904,
      "ĠMat": 5905,
      "Ġathlet": 5906,
      "Ġdecl": 5907,
      "lets": 5908,
      "ali": 5909,
      "Ġnative": 5910,
      "ĠZealand": 5911,
      "Ġinterests": 5912,
      "ĠOrgan": 5913,
      "ĠLab": 5914,
      "ĠCall": 5915,
      "aser": 5916,
      "yt": 5917,
      "cient": 5918,
      "Ġsurrounding": 5919,
      "hand": 5920,
      "Ġencoun": 5921,
      "osop": 5922,
      "ĠTake": 5923,
      "Ġelimin": 5924,
      "Ġsuff": 5925,
      "Ġdoubt": 5926,
      "ĠVer": 5927,
      "ye": 5928,
      "Ġpanel": 5929,
      "Ġmachines": 5930,
      "Ġdesk": 5931,
      "49": 5932,
      "elled": 5933,
      "Ġtea": 5934,
      "Ġgreatest": 5935,
      "Ġdetailed": 5936,
      "Ġpod": 5937,
      "ĠYes": 5938,
      "Ġhistorical": 5939,
      "Ġmeetings": 5940,
      "Ġsides": 5941,
      "Ġexplain": 5942,
      "Ġchallenging": 5943,
      "reens": 5944,
      "Ġprote": 5945,
      "Ġsymptoms": 5946,
      "asting": 5947,
      "Ġmir": 5948,
      "Ġsurvey": 5949,
      "Ġcauses": 5950,
      "Ġvs": 5951,
      "Ġafterno": 5952,
      "Col": 5953,
      "Ġstanding": 5954,
      "Ġfeat": 5955,
      "Post": 5956,
      "ican": 5957,
      "Ġconflic": 5958,
      "37": 5959,
      "Ġcollaboration": 5960,
      "ua": 5961,
      "Other": 5962,
      "ĠItaly": 5963,
      "onds": 5964,
      "Ġrom": 5965,
      "Ġidentity": 5966,
      "ao": 5967,
      "Ġcomplic": 5968,
      "Ġ1990": 5969,
      "Ġdepart": 5970,
      "Ġflu": 5971,
      "Ġvalid": 5972,
      "thor": 5973,
      "Ġtopics": 5974,
      "Ġadults": 5975,
      "Ġperspective": 5976,
      "Ġmuseum": 5977,
      "Ġsudden": 5978,
      "Ġconfig": 5979,
      "Ġfrequently": 5980,
      "Ġforced": 5981,
      "Ġadvertising": 5982,
      "Ġaccounts": 5983,
      "Ġintended": 5984,
      "Ġguest": 5985,
      "FL": 5986,
      "Ġcoverage": 5987,
      "Ġcells": 5988,
      "onym": 5989,
      "Ġgrown": 5990,
      "ca": 5991,
      "lind": 5992,
      "Ġmarriage": 5993,
      "Ġappointment": 5994,
      "SA": 5995,
      "Ġpurchased": 5996,
      "Many": 5997,
      "ĠHaw": 5998,
      "Ġfurniture": 5999,
      "Ġclaims": 6000,
      "otic": 6001,
      "Ġfulf": 6002,
      "Ġinterior": 6003,
      "Living": 6004,
      "According": 6005,
      "Ġring": 6006,
      "Ġpattern": 6007,
      "Ġrub": 6008,
      "ĠSpe": 6009,
      "Ġagreement": 6010,
      "32": 6011,
      "Yes": 6012,
      "Ġwal": 6013,
      "Ġmovies": 6014,
      "CO": 6015,
      "ootball": 6016,
      "Ġchain": 6017,
      "isher": 6018,
      "Ġholds": 6019,
      "Ġrow": 6020,
      "kins": 6021,
      "ĠColor": 6022,
      "ĠÂ»": 6023,
      "ĠðŁ": 6024,
      "Ġtrained": 6025,
      "Ġterr": 6026,
      "Ġexamples": 6027,
      "âĦ": 6028,
      "Ġperman": 6029,
      "ĠTO": 6030,
      "Ġawareness": 6031,
      "Ġneck": 6032,
      "Ġbrows": 6033,
      "ĠThrough": 6034,
      "Ġmountain": 6035,
      "47": 6036,
      "hance": 6037,
      "ĠCard": 6038,
      "Ġrecording": 6039,
      "Ġshut": 6040,
      "Ġcruc": 6041,
      "Ġseconds": 6042,
      "inos": 6043,
      "gl": 6044,
      "Ġcommission": 6045,
      "SP": 6046,
      "Add": 6047,
      "Ġvictim": 6048,
      "Ġ45": 6049,
      "Another": 6050,
      "andom": 6051,
      "Ġ500": 6052,
      "Ġessay": 6053,
      "husi": 6054,
      "Ġatmosp": 6055,
      "Step": 6056,
      "Ġcompetitive": 6057,
      "Ġlaugh": 6058,
      "tests": 6059,
      "che": 6060,
      "part": 6061,
      "Ġflight": 6062,
      "Ġcontext": 6063,
      "Ġemployee": 6064,
      "ĠLand": 6065,
      "Ġtu": 6066,
      "cript": 6067,
      "met": 6068,
      "Ġmainly": 6069,
      "View": 6070,
      "gar": 6071,
      "ĠRussia": 6072,
      "Ġbroken": 6073,
      "Most": 6074,
      "terns": 6075,
      "itt": 6076,
      "Ġhearing": 6077,
      "31": 6078,
      "Ġarts": 6079,
      "amil": 6080,
      "Ġawarded": 6081,
      "rich": 6082,
      "ais": 6083,
      "Ġmode": 6084,
      "Ġfoundation": 6085,
      "ĠManager": 6086,
      "ĠIreland": 6087,
      "Ġmort": 6088,
      "Ġcaught": 6089,
      "Ġlovely": 6090,
      "iors": 6091,
      "ĠBob": 6092,
      "ĠVirginia": 6093,
      "ENT": 6094,
      "Ġimproved": 6095,
      "Ġreplaced": 6096,
      "Ġremaining": 6097,
      "ework": 6098,
      "Ġfees": 6099,
      "Ġproto": 6100,
      "azil": 6101,
      "Ġstream": 6102,
      "Ġmel": 6103,
      "Ġfly": 6104,
      "Ġdatab": 6105,
      "Ġpolicies": 6106,
      "Ġdiverse": 6107,
      "ĠSeries": 6108,
      "Ġenable": 6109,
      "ĠEnter": 6110,
      "ĠMarti": 6111,
      "Ġcutting": 6112,
      "prise": 6113,
      "Ġmeal": 6114,
      "ĠMur": 6115,
      "ĠSecond": 6116,
      "olit": 6117,
      "Ġappreciate": 6118,
      "UT": 6119,
      "tons": 6120,
      "theat": 6121,
      "Ġchampions": 6122,
      "Am": 6123,
      "irty": 6124,
      "aired": 6125,
      "Ġprovider": 6126,
      "itage": 6127,
      "ĠCat": 6128,
      "ĠKar": 6129,
      "ĠCharles": 6130,
      "ĠInformation": 6131,
      "Ġfreedom": 6132,
      "Ġorders": 6133,
      "Ġslot": 6134,
      "ĠSand": 6135,
      "âĦ¢": 6136,
      "Ġunivers": 6137,
      "Ġturns": 6138,
      "Ġfactor": 6139,
      "Phone": 6140,
      "Ġsurf": 6141,
      "Ġmanufacturing": 6142,
      "ĠWord": 6143,
      "?\"": 6144,
      "Ġliqu": 6145,
      "Ġwriters": 6146,
      "Ġneighborhood": 6147,
      "Ġgoods": 6148,
      "ingu": 6149,
      "ĠMain": 6150,
      "po": 6151,
      "Ġmonthly": 6152,
      "Ġbigger": 6153,
      "ushing": 6154,
      "Ġperfectly": 6155,
      "eory": 6156,
      "ĠJohns": 6157,
      "Ġvote": 6158,
      "Ġwearing": 6159,
      "Ġsupple": 6160,
      "liament": 6161,
      "iams": 6162,
      "01": 6163,
      "Ġautomatically": 6164,
      "heory": 6165,
      "Ġtransition": 6166,
      "lear": 6167,
      "ĠWeek": 6168,
      "theory": 6169,
      "Ġpil": 6170,
      "ĊĠ": 6171,
      "fi": 6172,
      "eling": 6173,
      "Ġinves": 6174,
      "Ġedition": 6175,
      "ĠCEO": 6176,
      "Ġhundreds": 6177,
      "Ġaccessible": 6178,
      "Me": 6179,
      "Ġtells": 6180,
      "34": 6181,
      "Ġconsidering": 6182,
      "Ġju": 6183,
      "soft": 6184,
      "Ġcalling": 6185,
      "ells": 6186,
      "ĠWay": 6187,
      "95": 6188,
      "Ġsuccessfully": 6189,
      "oted": 6190,
      "unior": 6191,
      "Ġvary": 6192,
      "Ġaudio": 6193,
      "Ġsustainable": 6194,
      "Ġskill": 6195,
      "Ġnine": 6196,
      "Ġtheat": 6197,
      "Ġweap": 6198,
      "Ġking": 6199,
      "Ġherself": 6200,
      "awn": 6201,
      "Ġnor": 6202,
      "umni": 6203,
      "Ġstopped": 6204,
      "Ġpros": 6205,
      "uality": 6206,
      "Ġmemor": 6207,
      "ĠChief": 6208,
      "dy": 6209,
      "ĠGeorg": 6210,
      "Ġtests": 6211,
      "erg": 6212,
      "Ġafternoon": 6213,
      "LA": 6214,
      "ĠBoy": 6215,
      "ocolate": 6216,
      "pto": 6217,
      "Ġparking": 6218,
      "Ġextended": 6219,
      "kay": 6220,
      "Ġentr": 6221,
      "Ġstars": 6222,
      "ĠTem": 6223,
      "hia": 6224,
      "Ġpas": 6225,
      "Ġhorse": 6226,
      "Ġforg": 6227,
      "Ġearned": 6228,
      "Ġtheory": 6229,
      "Ġcircumst": 6230,
      "Ġjoint": 6231,
      "Ġbattery": 6232,
      "Ġentirely": 6233,
      "Ġlandscape": 6234,
      "ĠScot": 6235,
      "Ġadministration": 6236,
      "Ġopinion": 6237,
      "nergy": 6238,
      "rition": 6239,
      "Ġdistinct": 6240,
      "Ġaccepted": 6241,
      "ĠOF": 6242,
      "pass": 6243,
      "Ġfollows": 6244,
      "Ġexami": 6245,
      "Ġnoted": 6246,
      "Ġpure": 6247,
      "ĠKingdom": 6248,
      "Ġlights": 6249,
      "ĠDou": 6250,
      "Ġawesome": 6251,
      "torney": 6252,
      "weight": 6253,
      "Ġconfir": 6254,
      "Ġupdates": 6255,
      "ĠSi": 6256,
      "05": 6257,
      "Ġcovers": 6258,
      "Ġsettings": 6259,
      "Pr": 6260,
      "gas": 6261,
      "point": 6262,
      "ĠChampionship": 6263,
      "Ġrot": 6264,
      "exp": 6265,
      "ĠAsia": 6266,
      "Ġupdated": 6267,
      "lined": 6268,
      "Ġpositions": 6269,
      "Ġcooking": 6270,
      "CT": 6271,
      "Ġ>": 6272,
      "Ġtwice": 6273,
      "ossible": 6274,
      "ĠIl": 6275,
      "Ġenthusi": 6276,
      "Ġreduced": 6277,
      "Ġserves": 6278,
      "Ġtruck": 6279,
      "88": 6280,
      "tack": 6281,
      "Ġemphas": 6282,
      "Ġcabi": 6283,
      "ĠWild": 6284,
      "rick": 6285,
      "ĠĊĠĊ": 6286,
      "Ġreference": 6287,
      "vention": 6288,
      "Ġwire": 6289,
      "iveness": 6290,
      "Ġentered": 6291,
      "Chr": 6292,
      "Ġdecre": 6293,
      "gment": 6294,
      "asters": 6295,
      "Ġyes": 6296,
      "Ġinstitutions": 6297,
      "Ġcategory": 6298,
      "ĠYoung": 6299,
      "Ġalongside": 6300,
      "Ġcontemporary": 6301,
      "Ġinfrastructure": 6302,
      "ĠNY": 6303,
      "Ġcraf": 6304,
      "Ġsubsequ": 6305,
      "Ġancient": 6306,
      "water": 6307,
      "Ġdefin": 6308,
      "Ġprocessing": 6309,
      "Â®": 6310,
      "ĠFac": 6311,
      "Ġcomprehensive": 6312,
      "Ġcloser": 6313,
      "Learn": 6314,
      "ĠDev": 6315,
      "Ġcitizens": 6316,
      "Ġpaying": 6317,
      "Ġsurgery": 6318,
      "Ġearn": 6319,
      "ĠTimes": 6320,
      "ĠTherefore": 6321,
      "Ġseeking": 6322,
      "Ġremote": 6323,
      "Ġvisiting": 6324,
      "Ġenhance": 6325,
      "ĠSecret": 6326,
      "ĠFund": 6327,
      "ĠTest": 6328,
      "Ġthor": 6329,
      "ĠMartin": 6330,
      "Ġorganized": 6331,
      "Ġbrown": 6332,
      "zy": 6333,
      "ilst": 6334,
      "ĠStart": 6335,
      "Ġ1980": 6336,
      "Ġexcept": 6337,
      "Ġhonor": 6338,
      "Ġapproved": 6339,
      "ĠRos": 6340,
      "Ġsubmit": 6341,
      "Ġtypical": 6342,
      "ora": 6343,
      "ĠBefore": 6344,
      "Ġglo": 6345,
      "Ġkm": 6346,
      "oti": 6347,
      "Ġadvis": 6348,
      "Ġrough": 6349,
      "ĠTown": 6350,
      "force": 6351,
      "Ġends": 6352,
      "ĠPac": 6353,
      "amps": 6354,
      "History": 6355,
      "ensions": 6356,
      "Ġefficiency": 6357,
      "ba": 6358,
      "ĠMike": 6359,
      "Ġtechnique": 6360,
      "Ġdelicious": 6361,
      "ares": 6362,
      "while": 6363,
      "âĢĻ.": 6364,
      "Ġlifestyle": 6365,
      "ĠKeep": 6366,
      "ulous": 6367,
      "Ġdistribution": 6368,
      "olved": 6369,
      "Ġpregn": 6370,
      "Ġadvoc": 6371,
      "orter": 6372,
      "Ġspeaking": 6373,
      "Ġtracks": 6374,
      "Ġsituations": 6375,
      "Ġdelight": 6376,
      "ĠCongress": 6377,
      "Ġblow": 6378,
      "Ġmeat": 6379,
      "iana": 6380,
      "Ġrecovery": 6381,
      "Ġproviders": 6382,
      "!)": 6383,
      "Ġcrisis": 6384,
      "Thanks": 6385,
      "Ġkeeps": 6386,
      "Ġconsumers": 6387,
      "Ġretain": 6388,
      "eries": 6389,
      "arrow": 6390,
      "Tube": 6391,
      "Ġconver": 6392,
      "IR": 6393,
      "Ġdestroy": 6394,
      "Ġicon": 6395,
      "Ġorganic": 6396,
      "Ġmilk": 6397,
      "Ġscientific": 6398,
      "ĠCast": 6399,
      "Ġregional": 6400,
      "Ġinfo": 6401,
      "ĠCatholic": 6402,
      "Ġmatters": 6403,
      "Ã¢": 6404,
      "Ġrecognized": 6405,
      "oston": 6406,
      "tore": 6407,
      "Ġresource": 6408,
      "Ġbutter": 6409,
      "ultural": 6410,
      "Ġfoods": 6411,
      "Thank": 6412,
      "Ġelected": 6413,
      "Ġclothes": 6414,
      "ollowing": 6415,
      "Ġprosp": 6416,
      "Ġrac": 6417,
      "Ġauthent": 6418,
      "ĠKnow": 6419,
      "ĠAbout": 6420,
      "lers": 6421,
      "ĠCarolina": 6422,
      "aded": 6423,
      "ĠMedical": 6424,
      "Ġinvolve": 6425,
      "can": 6426,
      "46": 6427,
      "Ġcycle": 6428,
      "ĠMax": 6429,
      "DF": 6430,
      "tables": 6431,
      "Ġpoet": 6432,
      "Ġcheap": 6433,
      "ĠJud": 6434,
      "ji": 6435,
      "Ġphotography": 6436,
      "ĠLibrary": 6437,
      "Ġaffected": 6438,
      "Ġgaming": 6439,
      "Ġupper": 6440,
      "Ġentreprene": 6441,
      "Ġprison": 6442,
      "ĠEli": 6443,
      "Ġmagazine": 6444,
      "Ġgrade": 6445,
      "ris": 6446,
      "cur": 6447,
      "Ġvital": 6448,
      "Ġfailed": 6449,
      "elly": 6450,
      "ĠHave": 6451,
      "Ġmassive": 6452,
      "Comm": 6453,
      "Ġconsequ": 6454,
      "Ġeveryday": 6455,
      "Ġusual": 6456,
      "Ġvoc": 6457,
      "hio": 6458,
      "orld": 6459,
      "Ġroles": 6460,
      "cons": 6461,
      "Ġobjects": 6462,
      "Ġstations": 6463,
      "andon": 6464,
      "ĠNetwork": 6465,
      "ĠInstead": 6466,
      "ĠData": 6467,
      "Ġunless": 6468,
      "Ġrestaurants": 6469,
      "Ġcerem": 6470,
      "aka": 6471,
      "ĠLee": 6472,
      "ansion": 6473,
      "Ġcritic": 6474,
      "Ġreb": 6475,
      "ĠRichard": 6476,
      "Ġshipping": 6477,
      "Ġmixed": 6478,
      "Ġsilver": 6479,
      "ĠAnother": 6480,
      "Ġheight": 6481,
      "clusion": 6482,
      "Ġjew": 6483,
      "âĤ¬": 6484,
      "Ġ1999": 6485,
      "MA": 6486,
      "ĠOnly": 6487,
      "Ġprotected": 6488,
      "Ġorigin": 6489,
      "196": 6490,
      "pers": 6491,
      "Ġpatterns": 6492,
      "Ġimagine": 6493,
      "Ġexcess": 6494,
      "Ġstructures": 6495,
      "Ġreceiving": 6496,
      "Ġremained": 6497,
      "Ġcarefully": 6498,
      "ospit": 6499,
      "Ġreplace": 6500,
      "ubs": 6501,
      "Ġrelatively": 6502,
      "Ġfixed": 6503,
      "aints": 6504,
      "Ġmine": 6505,
      "ĠAud": 6506,
      "ipl": 6507,
      "Ġlessons": 6508,
      "ĠArab": 6509,
      "alled": 6510,
      "Ġpartnership": 6511,
      "Ġwheel": 6512,
      "Ġcrucial": 6513,
      "Ġdollars": 6514,
      "Ġsalt": 6515,
      "va": 6516,
      "tt": 6517,
      "ingly": 6518,
      "ĠAddition": 6519,
      "Book": 6520,
      "ĠâĨ": 6521,
      "nings": 6522,
      "Ġsignificantly": 6523,
      "Ġchoosing": 6524,
      "ĠCross": 6525,
      "Ġodd": 6526,
      "onto": 6527,
      "ĠYOU": 6528,
      "ĠLim": 6529,
      "Ġresear": 6530,
      "emy": 6531,
      "ĠCoast": 6532,
      "Ġreward": 6533,
      "Ġce": 6534,
      "ĠGal": 6535,
      "Ġsupposed": 6536,
      "Ġmatches": 6537,
      "Rel": 6538,
      "Te": 6539,
      "Ġnewsp": 6540,
      "Ġperforming": 6541,
      "Ġstyles": 6542,
      "lig": 6543,
      "Ġprocedure": 6544,
      "ĠId": 6545,
      "Ġdomin": 6546,
      "Ġdim": 6547,
      "Ġelev": 6548,
      "Ġgrab": 6549,
      "ampion": 6550,
      "Ġlighting": 6551,
      "Ġfellow": 6552,
      "class": 6553,
      "Ġagent": 6554,
      "ĠStand": 6555,
      "Ġreligious": 6556,
      "LC": 6557,
      "Ġtables": 6558,
      "Ġsoil": 6559,
      "Ġentertainment": 6560,
      "ĠâĢ¢": 6561,
      "Ġassets": 6562,
      "Ġrenew": 6563,
      "Ġarchitecture": 6564,
      "hm": 6565,
      "Ġmessages": 6566,
      "Ġengage": 6567,
      "Ġappointed": 6568,
      "aturally": 6569,
      "Ġjack": 6570,
      "Ġshoes": 6571,
      "umes": 6572,
      "plies": 6573,
      "Ġdie": 6574,
      "ĠEnd": 6575,
      "Ġdiscip": 6576,
      "ini": 6577,
      "isters": 6578,
      "Ġspeech": 6579,
      "Well": 6580,
      "Ġregistered": 6581,
      "Ġhall": 6582,
      "Ġloves": 6583,
      "Ġsac": 6584,
      "Ġbelief": 6585,
      "Ġscholars": 6586,
      "abled": 6587,
      "Reg": 6588,
      "yard": 6589,
      "Ġadapt": 6590,
      "Ġguarantee": 6591,
      "Ġreflect": 6592,
      "Ġped": 6593,
      "Ġpresentation": 6594,
      "Ġengagement": 6595,
      "Ġrecover": 6596,
      "oom": 6597,
      "ĠSpring": 6598,
      "poses": 6599,
      "ĠIsrael": 6600,
      "Ġdetermined": 6601,
      "Ġremark": 6602,
      "ĠÐ": 6603,
      "Home": 6604,
      "Ġpitch": 6605,
      "Ġstands": 6606,
      "lock": 6607,
      "Ġcelebrate": 6608,
      "stone": 6609,
      "ĠSports": 6610,
      "Ġsupports": 6611,
      "Ġupcoming": 6612,
      "Ġdivid": 6613,
      "ĠGame": 6614,
      "torial": 6615,
      "Ġmut": 6616,
      "esides": 6617,
      "py": 6618,
      "Ġsett": 6619,
      "Car": 6620,
      "Ġfacilit": 6621,
      "Ġworldwide": 6622,
      "ĠTH": 6623,
      "Ġproposed": 6624,
      "Ġcreates": 6625,
      "Ġfishing": 6626,
      "Ġlosing": 6627,
      "Ġalcohol": 6628,
      "ĠFind": 6629,
      "Ġgro": 6630,
      "Ġpoly": 6631,
      "ĠJoe": 6632,
      "CE": 6633,
      "urn": 6634,
      "aly": 6635,
      "ĠVictori": 6636,
      "Ġgolf": 6637,
      "Ġhappening": 6638,
      "ĠSecurity": 6639,
      "Ġbridge": 6640,
      "alle": 6641,
      "ĠWilliams": 6642,
      "08": 6643,
      "ĠElectr": 6644,
      "Sup": 6645,
      "Ġboys": 6646,
      "olve": 6647,
      "ĠForm": 6648,
      "ĠBow": 6649,
      "Ġfeaturing": 6650,
      "Ġwinner": 6651,
      "Ġphase": 6652,
      "Ġconducted": 6653,
      "ĠConference": 6654,
      "ship": 6655,
      "ĠWal": 6656,
      "Ac": 6657,
      "Ġarrest": 6658,
      "Ġyellow": 6659,
      "Ġveter": 6660,
      "Of": 6661,
      "ĠKey": 6662,
      "Ġexpectations": 6663,
      "Ġdept": 6664,
      "Ġnearby": 6665,
      "Ġofficer": 6666,
      "hetic": 6667,
      "ĠID": 6668,
      "BS": 6669,
      "Ġsmile": 6670,
      "uzz": 6671,
      "Ġagreed": 6672,
      "Ġsad": 6673,
      "Ġnoticed": 6674,
      "Ġsucceed": 6675,
      "inem": 6676,
      "Ġmembership": 6677,
      "Ġexecutive": 6678,
      "Ġhur": 6679,
      "Ġdesigner": 6680,
      "Ġwash": 6681,
      "onial": 6682,
      "Ġsurprise": 6683,
      "Ġcooper": 6684,
      "En": 6685,
      "equ": 6686,
      "you": 6687,
      "07": 6688,
      "Ġconvenient": 6689,
      "umption": 6690,
      "Ġoperate": 6691,
      "Ġinput": 6692,
      "Ġsinger": 6693,
      "ĠUl": 6694,
      "Eng": 6695,
      "Ġthorough": 6696,
      "ĠJournal": 6697,
      "GB": 6698,
      "ĠDisc": 6699,
      "iat": 6700,
      "Ġpicked": 6701,
      "Ġtra": 6702,
      "Pri": 6703,
      "agues": 6704,
      "Ġrevenue": 6705,
      "ĠGirl": 6706,
      "ĠMiddle": 6707,
      "Ġunable": 6708,
      "Art": 6709,
      "Ġapparent": 6710,
      "Ġyounger": 6711,
      "opy": 6712,
      "Ã¤": 6713,
      "tip": 6714,
      "Ġchief": 6715,
      "Ġcoordin": 6716,
      "Ġurban": 6717,
      "ĠMarketing": 6718,
      "Ġkill": 6719,
      "chester": 6720,
      "Ġtournament": 6721,
      "ĠSwed": 6722,
      "Ġbirthday": 6723,
      "ker": 6724,
      "Ġconsists": 6725,
      "Ġtrouble": 6726,
      "erves": 6727,
      "Ġarms": 6728,
      "ĠFar": 6729,
      "Ġelectronic": 6730,
      "06": 6731,
      "ocket": 6732,
      "Ġclosely": 6733,
      "Ġnurs": 6734,
      "esterday": 6735,
      "ĠLittle": 6736,
      "Ġadventure": 6737,
      "Ġpleasure": 6738,
      "ĠMid": 6739,
      "ycling": 6740,
      "ĠFilm": 6741,
      "Ġweak": 6742,
      "Ġgovern": 6743,
      "Ġconfident": 6744,
      "lete": 6745,
      "Ġreaders": 6746,
      "Ġaspect": 6747,
      "ensity": 6748,
      "ĠMos": 6749,
      "case": 6750,
      "ĠHuman": 6751,
      "Ġfaculty": 6752,
      "ĠClick": 6753,
      "ĠLink": 6754,
      "09": 6755,
      "Ġdu": 6756,
      "oles": 6757,
      "ĠSouthern": 6758,
      "ĠOrder": 6759,
      "Ġhire": 6760,
      "FC": 6761,
      "Ġinnovation": 6762,
      "ĠNight": 6763,
      "ĠSupport": 6764,
      "Ġconcerned": 6765,
      "ĠLast": 6766,
      "Ġcapture": 6767,
      "ĠUkr": 6768,
      "related": 6769,
      "ented": 6770,
      "align": 6771,
      "UN": 6772,
      "ĠCre": 6773,
      "Ġturning": 6774,
      "ja": 6775,
      "ĠAND": 6776,
      "Ġconsumer": 6777,
      "Ġlistening": 6778,
      "asp": 6779,
      "Ġexternal": 6780,
      "Ġfeelings": 6781,
      "Ġinspiration": 6782,
      "Ġatmosphere": 6783,
      "Ġwitness": 6784,
      "ĠWall": 6785,
      "ansas": 6786,
      "Ġbodies": 6787,
      "04": 6788,
      "Ġunf": 6789,
      "illy": 6790,
      "Ġheav": 6791,
      "ĠHel": 6792,
      "ĠIP": 6793,
      "Ġbless": 6794,
      "eler": 6795,
      "TA": 6796,
      "teen": 6797,
      "Ġfram": 6798,
      "Ġ1970": 6799,
      "Ġinvited": 6800,
      "OP": 6801,
      "luding": 6802,
      "Ġconstruc": 6803,
      "cks": 6804,
      "Ġsam": 6805,
      "Ġseasons": 6806,
      "Ġrevealed": 6807,
      "anguages": 6808,
      "OC": 6809,
      "Ġongoing": 6810,
      "Up": 6811,
      "ĠColumb": 6812,
      "Ġdrivers": 6813,
      "ĠHor": 6814,
      "rupt": 6815,
      "Ġgrass": 6816,
      "real": 6817,
      "ĠGen": 6818,
      "ĠTrump": 6819,
      "Ġcounty": 6820,
      "Ġexhibition": 6821,
      "Ġfestival": 6822,
      "Ġoverl": 6823,
      "Ġcapable": 6824,
      "Ġrating": 6825,
      "ĠUN": 6826,
      "Ġsizes": 6827,
      "ĠAndroid": 6828,
      "Ġsky": 6829,
      "earning": 6830,
      "Ġprogramme": 6831,
      "ĠLuc": 6832,
      "Ġdates": 6833,
      "03": 6834,
      "Ġdiam": 6835,
      "ĠNorthern": 6836,
      "Ġslowly": 6837,
      "acking": 6838,
      "Ġnarr": 6839,
      "Ġteen": 6840,
      "orry": 6841,
      "endar": 6842,
      "Ġages": 6843,
      "tories": 6844,
      "Ġrecipe": 6845,
      "Ġexplained": 6846,
      "Ġalbums": 6847,
      "oster": 6848,
      "Ġqualified": 6849,
      "Ġmigr": 6850,
      "Ġguidance": 6851,
      "ĠFair": 6852,
      "Ġmedicine": 6853,
      "Ġrealized": 6854,
      "Ġregistration": 6855,
      "eah": 6856,
      "Ġcouns": 6857,
      "Ġresidential": 6858,
      "Ġdram": 6859,
      "ĠEr": 6860,
      "Ġofficials": 6861,
      "Ġhang": 6862,
      "Ġincorpor": 6863,
      "Ġpurposes": 6864,
      "ĠCy": 6865,
      "Ġconcern": 6866,
      "ĠSEO": 6867,
      "ĠMichigan": 6868,
      "ector": 6869,
      "ĠAdv": 6870,
      "ogy": 6871,
      "ĠVan": 6872,
      "zer": 6873,
      "Ġtele": 6874,
      "ĠJohnson": 6875,
      "ĠAri": 6876,
      "asty": 6877,
      "Ġspiritual": 6878,
      "aire": 6879,
      "Ġease": 6880,
      "Ġplanet": 6881,
      "Ġbasketball": 6882,
      "Ġtelling": 6883,
      "Ġidentified": 6884,
      "Click": 6885,
      "ĠMO": 6886,
      "Ġdangerous": 6887,
      "Ġrei": 6888,
      "Ġaircraft": 6889,
      "Ġ1998": 6890,
      "Ġimprovement": 6891,
      "Ġachieved": 6892,
      "Ġmissed": 6893,
      "ĠAwards": 6894,
      "ĠYouTube": 6895,
      "Ġpun": 6896,
      "Ġvast": 6897,
      "tall": 6898,
      "Ġhealthcare": 6899,
      "Ġhook": 6900,
      "Ġsolar": 6901,
      "ĠMaybe": 6902,
      "orders": 6903,
      "hical": 6904,
      "Ġoutput": 6905,
      "ĠJones": 6906,
      "lights": 6907,
      "Ġworse": 6908,
      "comes": 6909,
      "Although": 6910,
      "Ġobvious": 6911,
      "Ġvictory": 6912,
      "trop": 6913,
      "ensus": 6914,
      "Ġtrig": 6915,
      "ï¿": 6916,
      "Ġhabit": 6917,
      "Ġinstructions": 6918,
      "Ġdegrees": 6919,
      "ĠRecords": 6920,
      "Ġbeer": 6921,
      "grad": 6922,
      "Med": 6923,
      "Ġawards": 6924,
      "Ġscored": 6925,
      "Ġcircumstances": 6926,
      "Ġprogramming": 6927,
      "Ġtreated": 6928,
      "ĠDani": 6929,
      "Ġvit": 6930,
      "Ġscheduled": 6931,
      "Ġspi": 6932,
      "ĠBrazil": 6933,
      "ĠRE": 6934,
      "Ġfro": 6935,
      "Ġaccurate": 6936,
      "02": 6937,
      "ĠBoston": 6938,
      "made": 6939,
      "Ġlayer": 6940,
      "Ġcandidates": 6941,
      "Ġclothing": 6942,
      "odd": 6943,
      "Ġcandidate": 6944,
      "aze": 6945,
      "ĠAL": 6946,
      "Ġhistoric": 6947,
      "Photo": 6948,
      "ĠHenry": 6949,
      "tab": 6950,
      "Ġbelieved": 6951,
      "ĠDub": 6952,
      "ĠTraining": 6953,
      "Ġfacing": 6954,
      "ï¿½": 6955,
      "Ġreputation": 6956,
      "being": 6957,
      "Ġmurder": 6958,
      "ĠCost": 6959,
      "Ġgear": 6960,
      "Ġmanaging": 6961,
      "Ġconstant": 6962,
      "Ġversions": 6963,
      "Ġequal": 6964,
      "Ġguard": 6965,
      "Ġanswers": 6966,
      "Ġfavourite": 6967,
      "icket": 6968,
      "Ġnormally": 6969,
      "amber": 6970,
      "Ġsplit": 6971,
      "Ġhun": 6972,
      "Ġgraduate": 6973,
      "March": 6974,
      "etime": 6975,
      "Per": 6976,
      "TV": 6977,
      "ĠChildren": 6978,
      "Ġimpossible": 6979,
      "ackson": 6980,
      "Ġfailure": 6981,
      "ĠIrish": 6982,
      "ensed": 6983,
      "ĠHospital": 6984,
      "keep": 6985,
      "Ġiron": 6986,
      "Ġtrading": 6987,
      "Ġlad": 6988,
      "Ġfolks": 6989,
      "hin": 6990,
      "Ġviolence": 6991,
      "IF": 6992,
      "Ġadm": 6993,
      "Ġworkshop": 6994,
      "Ġintro": 6995,
      "tank": 6996,
      "ĠTher": 6997,
      "bec": 6998,
      "Any": 6999,
      "ockey": 7000,
      "Ġshock": 7001,
      "Ġsole": 7002,
      "Ġroutine": 7003,
      "Ġultimately": 7004,
      "Ġbetting": 7005,
      "entle": 7006,
      "Next": 7007,
      "Ġprocedures": 7008,
      "mond": 7009,
      "ĠVill": 7010,
      "Ġimpressive": 7011,
      "Ġcarbon": 7012,
      "afe": 7013,
      "profit": 7014,
      "ĠPlus": 7015,
      "Ġconcrete": 7016,
      "Ġagencies": 7017,
      "ĠWalk": 7018,
      "Ġstrategic": 7019,
      "ador": 7020,
      "Ġprimarily": 7021,
      "Ġplug": 7022,
      "Back": 7023,
      "ĠAsian": 7024,
      "oli": 7025,
      "Ġorganis": 7026,
      "weet": 7027,
      "Ġmemories": 7028,
      "Ġwet": 7029,
      "ĠRail": 7030,
      "Ġimproving": 7031,
      "ĠHistor": 7032,
      "Ġ189": 7033,
      "Ġlicense": 7034,
      "Ġreferred": 7035,
      "ĠWrit": 7036,
      "ĠAuthor": 7037,
      "Ġcriminal": 7038,
      "Ġvibr": 7039,
      "ĠKe": 7040,
      "Ġretire": 7041,
      "Ġeditor": 7042,
      "icts": 7043,
      "ĠForce": 7044,
      "ĠOhio": 7045,
      "Ġhealing": 7046,
      "acle": 7047,
      "Ġproceed": 7048,
      "Ġnone": 7049,
      "ership": 7050,
      "Ġstudied": 7051,
      "Ġ188": 7052,
      "Ġdivision": 7053,
      "ura": 7054,
      "56": 7055,
      "ĠMa": 7056,
      "Ġcommittee": 7057,
      "adium": 7058,
      "Ġcontest": 7059,
      "ela": 7060,
      "ĠDigital": 7061,
      "Ġgenerate": 7062,
      "Ġactor": 7063,
      "Ġfighting": 7064,
      "April": 7065,
      "osophy": 7066,
      "Ġanxiety": 7067,
      "59": 7068,
      "host": 7069,
      "Ġ300": 7070,
      "Ġmotion": 7071,
      "greg": 7072,
      "ĠPolice": 7073,
      "isto": 7074,
      "ĠWin": 7075,
      "Ġpassing": 7076,
      "June": 7077,
      "ein": 7078,
      "ĠKat": 7079,
      "Ġplate": 7080,
      "Ġunders": 7081,
      "ĠWhere": 7082,
      "Ġsail": 7083,
      "SE": 7084,
      "ĠLog": 7085,
      "Ġintim": 7086,
      "Ġtip": 7087,
      "ĠLive": 7088,
      "Ġvisited": 7089,
      "Ġfitness": 7090,
      "Ġpossibility": 7091,
      "Ġdatabase": 7092,
      "ĠUr": 7093,
      "Ġtack": 7094,
      "Ġtall": 7095,
      "58": 7096,
      "Ass": 7097,
      "ĠMarket": 7098,
      "Ġera": 7099,
      "Ġweekly": 7100,
      "ĠCreat": 7101,
      "ĠOl": 7102,
      "ĠPass": 7103,
      "ĠCov": 7104,
      "ĠThose": 7105,
      "Ġofficers": 7106,
      "Ġsynt": 7107,
      "MP": 7108,
      "Ġrein": 7109,
      "elcome": 7110,
      "Ġvul": 7111,
      "Ġdefined": 7112,
      "Ġsupplies": 7113,
      "Ġmoist": 7114,
      "respond": 7115,
      "igate": 7116,
      "aning": 7117,
      "reme": 7118,
      "Ġassessment": 7119,
      "ĠEconom": 7120,
      "ĠOil": 7121,
      "42": 7122,
      "Ġglad": 7123,
      "long": 7124,
      "Ġportion": 7125,
      "Ġclubs": 7126,
      "len": 7127,
      "Ġdefense": 7128,
      "Ġdental": 7129,
      "whel": 7130,
      "Op": 7131,
      "Ġgam": 7132,
      "Ġissued": 7133,
      "Ġdecade": 7134,
      "Ġrecruit": 7135,
      "pare": 7136,
      "!\"": 7137,
      "aug": 7138,
      "ĠSpain": 7139,
      "atre": 7140,
      "Ġwalked": 7141,
      "hist": 7142,
      "Ġerror": 7143,
      "Ġdrawing": 7144,
      "ĠJon": 7145,
      "Best": 7146,
      "77": 7147,
      "Last": 7148,
      "Ġdestination": 7149,
      "ĠJeff": 7150,
      "ĠAdminis": 7151,
      "Ġrandom": 7152,
      "dro": 7153,
      "Ġagric": 7154,
      "Ġmunicip": 7155,
      "Ġvirus": 7156,
      "Ġinitially": 7157,
      "Part": 7158,
      "Ġbread": 7159,
      "Ġscul": 7160,
      "Ed": 7161,
      "bin": 7162,
      "Ġlikes": 7163,
      "Ġborder": 7164,
      "hony": 7165,
      "gor": 7166,
      "Ġrepresented": 7167,
      "Im": 7168,
      "Ġcommonly": 7169,
      "igned": 7170,
      "Ġjoining": 7171,
      "SC": 7172,
      "Ġflexible": 7173,
      "ĠHotel": 7174,
      "ĠFrancisco": 7175,
      "Ġcharges": 7176,
      "Ġoutstanding": 7177,
      "icity": 7178,
      "istr": 7179,
      "rid": 7180,
      "Ġstrengthen": 7181,
      "Ġsolo": 7182,
      "car": 7183,
      "ĠJewish": 7184,
      "ĠJersey": 7185,
      "lywood": 7186,
      "John": 7187,
      "Ġfiction": 7188,
      "Ġcorn": 7189,
      "Ġbathroom": 7190,
      "Ġtwenty": 7191,
      "Ġtiny": 7192,
      "Ġmagic": 7193,
      "bury": 7194,
      "tag": 7195,
      "Ġ1996": 7196,
      "ĠAnal": 7197,
      "rics": 7198,
      "Ġstretch": 7199,
      "uls": 7200,
      "Ġdeposit": 7201,
      "ĠFootball": 7202,
      "Ġproducer": 7203,
      "orthy": 7204,
      "Ġclinical": 7205,
      "date": 7206,
      "Ġconsistent": 7207,
      "Ġchose": 7208,
      "Ġintegrated": 7209,
      "Ġcontribute": 7210,
      "TH": 7211,
      "ĠAsh": 7212,
      "idays": 7213,
      "vision": 7214,
      "Ġcertified": 7215,
      "Ġhosting": 7216,
      "ĠPo": 7217,
      "ĠAmericans": 7218,
      "ĠNext": 7219,
      "Ġengaged": 7220,
      "Ġbass": 7221,
      "Ġdebt": 7222,
      "ione": 7223,
      "abet": 7224,
      "ien": 7225,
      "Ġresulting": 7226,
      "Ġfigures": 7227,
      "bles": 7228,
      "ocated": 7229,
      "ĠPremi": 7230,
      "Ġdomestic": 7231,
      "bridge": 7232,
      "ĠPop": 7233,
      "ifth": 7234,
      "lecting": 7235,
      "Today": 7236,
      "ĠWorks": 7237,
      "ĠChair": 7238,
      "Ġimplementation": 7239,
      "Ġtitles": 7240,
      "Ġhumans": 7241,
      "Ġcasinos": 7242,
      "Ġpayments": 7243,
      "Ġexperiment": 7244,
      "Ġfilter": 7245,
      "Ġlegs": 7246,
      "Ġdealing": 7247,
      "Ġ1997": 7248,
      "Ġconnections": 7249,
      "Hi": 7250,
      "Ġliked": 7251,
      "rency": 7252,
      "awa": 7253,
      "Ġdrugs": 7254,
      "EW": 7255,
      "Ġrecognize": 7256,
      "Ġkit": 7257,
      "Ġsick": 7258,
      "ĠCli": 7259,
      "xy": 7260,
      "Ġsolve": 7261,
      "Ġsuggested": 7262,
      "ĠEp": 7263,
      "57": 7264,
      "Ġpersonally": 7265,
      "ĠStat": 7266,
      "poration": 7267,
      "ĠHand": 7268,
      "Ġtab": 7269,
      "struction": 7270,
      "ĠGeorgia": 7271,
      "41": 7272,
      "Ġtank": 7273,
      "Ġbear": 7274,
      "Ġfrustr": 7275,
      "Ġreplacement": 7276,
      "verse": 7277,
      "Cons": 7278,
      "Ġincredibly": 7279,
      "ĠSteve": 7280,
      "Ġluxury": 7281,
      "pes": 7282,
      "bar": 7283,
      "Ġcrime": 7284,
      "level": 7285,
      "Ġsuperv": 7286,
      "Ġconduct": 7287,
      "folio": 7288,
      "icer": 7289,
      "ĠPacific": 7290,
      "Co": 7291,
      "Ġcheese": 7292,
      "xture": 7293,
      "aping": 7294,
      "Ġconfirmed": 7295,
      "ĠQueen": 7296,
      "Ġflood": 7297,
      "43": 7298,
      "ATION": 7299,
      "ĠAndrew": 7300,
      "inter": 7301,
      "nois": 7302,
      "Ġwidely": 7303,
      "ĠSea": 7304,
      "Ġtech": 7305,
      "Ġsem": 7306,
      "Ġchicken": 7307,
      "anger": 7308,
      "Ġinner": 7309,
      "Ge": 7310,
      "hop": 7311,
      "ologist": 7312,
      "oking": 7313,
      "Ġdisappoint": 7314,
      "Who": 7315,
      "irect": 7316,
      "ĠCho": 7317,
      ".âĢĻ": 7318,
      "ulating": 7319,
      "gcolor": 7320,
      "Ġwhenever": 7321,
      "July": 7322,
      "Ġmusc": 7323,
      "Ġbreakfast": 7324,
      "Ġaccomplish": 7325,
      "hal": 7326,
      "oms": 7327,
      "friendly": 7328,
      "ko": 7329,
      "ĠEnergy": 7330,
      "ĠâĨĴ": 7331,
      "under": 7332,
      "Ġfairly": 7333,
      "tos": 7334,
      "Ġspin": 7335,
      "âĢĻ,": 7336,
      "ĠGlobal": 7337,
      "ĠPak": 7338,
      "Mus": 7339,
      "osed": 7340,
      "Ġattached": 7341,
      "Ġconfirm": 7342,
      "Ġdreams": 7343,
      "ĠContact": 7344,
      "Ġgained": 7345,
      "Also": 7346,
      "Before": 7347,
      "Ġinformed": 7348,
      "Ġtrick": 7349,
      "Ġcock": 7350,
      "Ġnetworks": 7351,
      "Ġstruggle": 7352,
      "Ġbirds": 7353,
      "era": 7354,
      "Ġfrag": 7355,
      "ateful": 7356,
      "Sm": 7357,
      "Ġpersonality": 7358,
      "ĠCA": 7359,
      "making": 7360,
      "pret": 7361,
      "evi": 7362,
      "rors": 7363,
      "ĠBrook": 7364,
      "ĠSanta": 7365,
      "Ġdining": 7366,
      "Ġsearching": 7367,
      "Ġproducing": 7368,
      "tub": 7369,
      "Ġchocolate": 7370,
      "Ġ186": 7371,
      "front": 7372,
      "uma": 7373,
      "iest": 7374,
      "ĠSign": 7375,
      "using": 7376,
      "Sec": 7377,
      "ificate": 7378,
      "ĠAff": 7379,
      "Ġincreases": 7380,
      "Ġcos": 7381,
      "ache": 7382,
      "ĠMcC": 7383,
      "Ġregulations": 7384,
      "Ġcoaching": 7385,
      "ĠBul": 7386,
      "tone": 7387,
      "Ġloans": 7388,
      "fl": 7389,
      "ĠCert": 7390,
      "PC": 7391,
      "Ġordered": 7392,
      "Ġrisks": 7393,
      "arrant": 7394,
      "!!!": 7395,
      "enger": 7396,
      "cepts": 7397,
      "Ġacting": 7398,
      "Ġstreets": 7399,
      "Ġrelief": 7400,
      "Ġgifts": 7401,
      "har": 7402,
      "Ġmanagers": 7403,
      "Ġshift": 7404,
      "Ġopt": 7405,
      "ĠFurther": 7406,
      "away": 7407,
      "Where": 7408,
      "Ġkne": 7409,
      "Ġ32": 7410,
      "Ġproven": 7411,
      "Email": 7412,
      "oured": 7413,
      "ancer": 7414,
      "des": 7415,
      "Ġhung": 7416,
      "ĠGreek": 7417,
      "Ġcommunicate": 7418,
      "Ġindeed": 7419,
      "Ġhors": 7420,
      "nent": 7421,
      "gun": 7422,
      "Ġ1960": 7423,
      "??": 7424,
      "link": 7425,
      "ession": 7426,
      "aki": 7427,
      "Ġpermanent": 7428,
      "Ġinterface": 7429,
      "Ġmonitoring": 7430,
      "Ġapartment": 7431,
      "Ġdynamic": 7432,
      "Ġhardware": 7433,
      "Ġdropped": 7434,
      "roduction": 7435,
      "ĠEngineering": 7436,
      "Ġspect": 7437,
      "Ġstim": 7438,
      "ĠDie": 7439,
      "Ġdrama": 7440,
      "Ġoverwhel": 7441,
      "Ġlanguages": 7442,
      "arity": 7443,
      "ĠShop": 7444,
      "Ġsouthern": 7445,
      "Ġproof": 7446,
      "ĠUsing": 7447,
      "Ġmini": 7448,
      "anges": 7449,
      "ĠSometimes": 7450,
      "Ġguidelines": 7451,
      "Ġindustries": 7452,
      "Ġtickets": 7453,
      "law": 7454,
      "ishop": 7455,
      "quar": 7456,
      "ĠKent": 7457,
      "ĠProfessor": 7458,
      "Ġoffices": 7459,
      "Ġexclusive": 7460,
      "gypt": 7461,
      "Ġhosted": 7462,
      "Ġbasically": 7463,
      "ylvan": 7464,
      "Ġreturns": 7465,
      "Ġbat": 7466,
      "war": 7467,
      "aylor": 7468,
      "ucky": 7469,
      "ĠBat": 7470,
      "Ġshooting": 7471,
      "ĠJackson": 7472,
      "Ġmarked": 7473,
      "Ġinjuries": 7474,
      "Ġcond": 7475,
      "Ġnarrow": 7476,
      "Ġpill": 7477,
      "Ġtransportation": 7478,
      "ĠLine": 7479,
      "itution": 7480,
      "eller": 7481,
      "Ġequipped": 7482,
      "Ġpleased": 7483,
      "Ġobtained": 7484,
      "Ġcausing": 7485,
      "2020": 7486,
      "iversary": 7487,
      "bsite": 7488,
      "redit": 7489,
      "Ġdeploy": 7490,
      "Ġtrends": 7491,
      "Ġemployment": 7492,
      "Ġeleg": 7493,
      "Ġdiagnos": 7494,
      "Ġnewly": 7495,
      "Ġcouncil": 7496,
      "yo": 7497,
      "Ġsight": 7498,
      "Ġacknow": 7499,
      "epper": 7500,
      "Ġlogo": 7501,
      "ĠOk": 7502,
      "aest": 7503,
      "PR": 7504,
      "Ġmoves": 7505,
      "Ġabsor": 7506,
      "Ġdepends": 7507,
      "ĠMicrosoft": 7508,
      "Ġattacks": 7509,
      "ĠFarm": 7510,
      "Ġenjoying": 7511,
      "Ġvend": 7512,
      "Ġhidden": 7513,
      "Ġimmediate": 7514,
      "Ġchannels": 7515,
      "Fil": 7516,
      "quir": 7517,
      "Ġstunning": 7518,
      "Ġpoker": 7519,
      "Ġexpression": 7520,
      "List": 7521,
      "Ġmeals": 7522,
      "Ġdepth": 7523,
      "och": 7524,
      "ĠSky": 7525,
      "ĠJac": 7526,
      "apore": 7527,
      "Ġliquid": 7528,
      "ĠSaint": 7529,
      "ayer": 7530,
      "Ġbgcolor": 7531,
      "ĠPolicy": 7532,
      "Ġacid": 7533,
      "Ġgard": 7534,
      "Ġdescription": 7535,
      "ĠVideo": 7536,
      "Ġelig": 7537,
      "par": 7538,
      "ĠON": 7539,
      "Ġprotei": 7540,
      "Ġprotein": 7541,
      "Ġsurprised": 7542,
      "Ġpromi": 7543,
      "Ġdiscussed": 7544,
      "wich": 7545,
      "emp": 7546,
      "Ġfas": 7547,
      "Ġtested": 7548,
      "lessly": 7549,
      "ila": 7550,
      "hur": 7551,
      "August": 7552,
      "Ġarrive": 7553,
      "actors": 7554,
      "Ġnaturally": 7555,
      "Ġpulled": 7556,
      "Ġdevelopers": 7557,
      "Ġillness": 7558,
      "ĠFred": 7559,
      "Ġinvolves": 7560,
      "resents": 7561,
      "isa": 7562,
      "ĠExecutive": 7563,
      "Ġscan": 7564,
      "Check": 7565,
      "Ġletters": 7566,
      "à¤": 7567,
      "Ġperformances": 7568,
      "Ġmand": 7569,
      "Ġdefe": 7570,
      "Ġgym": 7571,
      "ĠRen": 7572,
      "ĠIran": 7573,
      "Ġdelay": 7574,
      "stream": 7575,
      "Ġjustice": 7576,
      "enders": 7577,
      "gage": 7578,
      "Ġvacation": 7579,
      "ibu": 7580,
      "Ġimmigr": 7581,
      "Ġvulner": 7582,
      "ĠLook": 7583,
      "Ġcoi": 7584,
      "athan": 7585,
      "itis": 7586,
      "Ġinteract": 7587,
      "Ġsample": 7588,
      "empl": 7589,
      "Ġthin": 7590,
      "ĠField": 7591,
      "ĠGre": 7592,
      "ĠMP": 7593,
      "Ġcrazy": 7594,
      "adow": 7595,
      "à¸": 7596,
      "eding": 7597,
      "ogs": 7598,
      "TM": 7599,
      "Press": 7600,
      "Ġ1995": 7601,
      "ĠAssist": 7602,
      "ĠTheatre": 7603,
      "Ġsubscri": 7604,
      "ylvania": 7605,
      "luded": 7606,
      "Ġlucky": 7607,
      "Even": 7608,
      "abeth": 7609,
      "Ġdent": 7610,
      "Ġrear": 7611,
      "ĠLt": 7612,
      "Ġrural": 7613,
      "itable": 7614,
      "ĠHard": 7615,
      "Ġembr": 7616,
      "otton": 7617,
      "ĠRight": 7618,
      "Ġprinted": 7619,
      "iny": 7620,
      "Ġchances": 7621,
      "Ġcomponent": 7622,
      "Ġdesired": 7623,
      "Gener": 7624,
      "ĠStudies": 7625,
      "ĠGuide": 7626,
      "Ġbottle": 7627,
      "Ã¨": 7628,
      "Ġ36": 7629,
      "Ġsomewhere": 7630,
      "Ġseriously": 7631,
      "nations": 7632,
      "Ġcharged": 7633,
      "Ġrenov": 7634,
      "Ġformal": 7635,
      "ipped": 7636,
      "oved": 7637,
      "Ġbare": 7638,
      "Ġdifferences": 7639,
      "Ġgraduated": 7640,
      "Ġlatter": 7641,
      "mes": 7642,
      "TC": 7643,
      "Ġshares": 7644,
      "Ġhospit": 7645,
      "berry": 7646,
      "Ġvolunteers": 7647,
      "Ġinvestors": 7648,
      "ĠArea": 7649,
      "ĠAD": 7650,
      "Ġdescribe": 7651,
      "Ġmuscle": 7652,
      "Ġnob": 7653,
      "ria": 7654,
      "Ġauthorities": 7655,
      "Ġstake": 7656,
      "ĠDar": 7657,
      "ĠConf": 7658,
      "hread": 7659,
      "2021": 7660,
      "ĠSir": 7661,
      "ĠBang": 7662,
      "OD": 7663,
      "Ġpoll": 7664,
      "Ġdeals": 7665,
      "Ġcraft": 7666,
      "cont": 7667,
      "Ġticket": 7668,
      "Ġensuring": 7669,
      "Ġrecognition": 7670,
      "Ġsubstant": 7671,
      "mal": 7672,
      "ĠView": 7673,
      "acked": 7674,
      "January": 7675,
      "Ġpolitics": 7676,
      "ulf": 7677,
      "Ġbags": 7678,
      "Ġcollected": 7679,
      "Ġbond": 7680,
      "Ġgender": 7681,
      "Ġprofessor": 7682,
      "Then": 7683,
      "thread": 7684,
      "Ġnegoti": 7685,
      "ĠThough": 7686,
      "Ġtro": 7687,
      "ĠAR": 7688,
      "Ġlies": 7689,
      "Ġchart": 7690,
      "ĠEqu": 7691,
      "Ġalumni": 7692,
      "oses": 7693,
      "ĠSus": 7694,
      "tiss": 7695,
      "Ġpapers": 7696,
      "tock": 7697,
      "Ġmerch": 7698,
      "ĠAC": 7699,
      "Ġinches": 7700,
      "ĠFour": 7701,
      "Ġzone": 7702,
      "ulum": 7703,
      "Ġauthority": 7704,
      "Ġrepresents": 7705,
      "Ġvenue": 7706,
      "Ġbroadcast": 7707,
      "uccess": 7708,
      "Ġwhilst": 7709,
      "ĠHaving": 7710,
      "Ġdeck": 7711,
      "Ġstuck": 7712,
      "ĠBuilding": 7713,
      "Ġchron": 7714,
      "ĠColorado": 7715,
      "Ġnorthern": 7716,
      "Find": 7717,
      "burgh": 7718,
      "Ġpriority": 7719,
      "Äģ": 7720,
      "Ġvisible": 7721,
      "Ġsomewhat": 7722,
      "ĠConst": 7723,
      "nab": 7724,
      "Care": 7725,
      "Ġbrush": 7726,
      "auc": 7727,
      "Ġsevere": 7728,
      "linois": 7729,
      "Ġspok": 7730,
      "Ġshops": 7731,
      "otes": 7732,
      "Ġarmy": 7733,
      "Ġprinciples": 7734,
      "Ġadds": 7735,
      "Stud": 7736,
      "ancial": 7737,
      "ĠMinistry": 7738,
      "âĢ¦.": 7739,
      "Ġworst": 7740,
      "ĠRadio": 7741,
      "Ġceremony": 7742,
      "Ġnoise": 7743,
      "dney": 7744,
      "Mr": 7745,
      "uration": 7746,
      "Ġ)": 7747,
      "km": 7748,
      "Have": 7749,
      "ĠSher": 7750,
      "October": 7751,
      "Ġ1994": 7752,
      "Ġforever": 7753,
      "Ġfounder": 7754,
      "Ġanticip": 7755,
      "Ġempty": 7756,
      "Ġcrypto": 7757,
      "Ġtreatments": 7758,
      "ĠKim": 7759,
      "Ġcake": 7760,
      "aret": 7761,
      "Ġairport": 7762,
      "Ġcorrespond": 7763,
      "52": 7764,
      "Ġpersonnel": 7765,
      "Ġracing": 7766,
      "Ġstages": 7767,
      "ĠNOT": 7768,
      "Ġattractive": 7769,
      "ĠHarr": 7770,
      "Ġfer": 7771,
      "Ġpremium": 7772,
      "ĠStudents": 7773,
      "Ġinsight": 7774,
      "Ġyoga": 7775,
      "ĠiPhone": 7776,
      "ĠCro": 7777,
      "Ġpreparation": 7778,
      "ĠTrust": 7779,
      "Ġheads": 7780,
      "Ġelectrical": 7781,
      "ĠJer": 7782,
      "Ġcrop": 7783,
      "Ġliber": 7784,
      "Ġcrash": 7785,
      "Ġresistance": 7786,
      "auce": 7787,
      "Ġmood": 7788,
      "Ġslip": 7789,
      "earing": 7790,
      "ĠRay": 7791,
      "Ġspoke": 7792,
      "embers": 7793,
      "Ġadap": 7794,
      "EP": 7795,
      "isk": 7796,
      "Ġlake": 7797,
      "Ġassociation": 7798,
      "pat": 7799,
      "September": 7800,
      "ĠShan": 7801,
      "Ġmile": 7802,
      "Ġfo": 7803,
      "ĠJoseph": 7804,
      "Ġleather": 7805,
      "hon": 7806,
      "Ġpassionate": 7807,
      "Ġacquired": 7808,
      "Ġincreasingly": 7809,
      "Ġmaintaining": 7810,
      "Ġprivacy": 7811,
      "tent": 7812,
      "eria": 7813,
      "di": 7814,
      "Ġrig": 7815,
      "ĠPR": 7816,
      "ĠReport": 7817,
      "Ġconflict": 7818,
      "ĠControl": 7819,
      "Ġtiss": 7820,
      "Inter": 7821,
      "Will": 7822,
      "Ġframework": 7823,
      "Ġil": 7824,
      "Ġscenes": 7825,
      "Ġfir": 7826,
      "Ġdomain": 7827,
      "ĠKong": 7828,
      "Ġster": 7829,
      "Ġresc": 7830,
      "raid": 7831,
      "ieties": 7832,
      "rin": 7833,
      "Ġcontrast": 7834,
      "ĠOlympics": 7835,
      "54": 7836,
      "tes": 7837,
      "Ġreturning": 7838,
      "onna": 7839,
      "Ġintroduction": 7840,
      "ummies": 7841,
      "Ġsharp": 7842,
      "riends": 7843,
      "ĠLy": 7844,
      "AB": 7845,
      "igen": 7846,
      "Ġlinked": 7847,
      "ounded": 7848,
      "Ġconcert": 7849,
      "iter": 7850,
      "Ġscript": 7851,
      "nsylvania": 7852,
      "Ġtrib": 7853,
      "Ġbrill": 7854,
      "atics": 7855,
      "Ġacts": 7856,
      "ĠHope": 7857,
      "Ġboxes": 7858,
      "Ġemotions": 7859,
      "Ġcompens": 7860,
      "Ġexposure": 7861,
      "Ġadvantages": 7862,
      "Ġtempl": 7863,
      "ĠFull": 7864,
      "Ġroot": 7865,
      "uten": 7866,
      "Ġcompr": 7867,
      "Ġpills": 7868,
      "Sim": 7869,
      "ĠThree": 7870,
      "ĠEss": 7871,
      "Make": 7872,
      "Ġraw": 7873,
      "Ġpit": 7874,
      "Ġpharm": 7875,
      "ĠMountain": 7876,
      "asm": 7877,
      "Imp": 7878,
      "Ġupload": 7879,
      "ĠMir": 7880,
      "Ġsuffering": 7881,
      "sters": 7882,
      "Ġregions": 7883,
      "Ġ1992": 7884,
      "aer": 7885,
      "ĠIslam": 7886,
      "Work": 7887,
      "EST": 7888,
      "tan": 7889,
      "Gu": 7890,
      "bro": 7891,
      "imize": 7892,
      "leep": 7893,
      "ystem": 7894,
      "Ġopposite": 7895,
      "Ġregardless": 7896,
      "gely": 7897,
      "Ġextension": 7898,
      "Ġintent": 7899,
      "ĠCreek": 7900,
      "Ġresearchers": 7901,
      "ĠRam": 7902,
      "Ġdust": 7903,
      "Ġchapter": 7904,
      "Ġspots": 7905,
      "AG": 7906,
      "Ġactors": 7907,
      "Ġspecialist": 7908,
      "Ġsending": 7909,
      "page": 7910,
      "Ġmob": 7911,
      "Ġprove": 7912,
      "Ġplot": 7913,
      "lections": 7914,
      "ĠSn": 7915,
      "Ġminimal": 7916,
      "Ġstood": 7917,
      "egr": 7918,
      "Ġspr": 7919,
      "Ġthread": 7920,
      "ori": 7921,
      "Ġfinds": 7922,
      "Ġbowl": 7923,
      "Ġfunctional": 7924,
      "Ġmic": 7925,
      "Ġphr": 7926,
      "Ġsufficient": 7927,
      "78": 7928,
      "ĠCarl": 7929,
      "Ġnutrition": 7930,
      "Ġfunny": 7931,
      "urb": 7932,
      "51": 7933,
      "Ġcalm": 7934,
      "Ġsemi": 7935,
      "iders": 7936,
      "Ġreporting": 7937,
      "Ġvess": 7938,
      "ĠPriv": 7939,
      "ĠGallery": 7940,
      "Ġtrop": 7941,
      "ĠEastern": 7942,
      "Categ": 7943,
      "Ġactress": 7944,
      "holders": 7945,
      "ĠCBD": 7946,
      "ĠPlace": 7947,
      "Ġforth": 7948,
      "certain": 7949,
      "Ġtraveling": 7950,
      "ĠCirc": 7951,
      "site": 7952,
      "ĠEgypt": 7953,
      "hine": 7954,
      "formance": 7955,
      "Ġmusicians": 7956,
      "Each": 7957,
      "Ġyesterday": 7958,
      "ĠInvest": 7959,
      "Ġstudying": 7960,
      "ĠAdditionally": 7961,
      "ietnam": 7962,
      "Ġenables": 7963,
      "Ġassistant": 7964,
      "Ġworkshops": 7965,
      "Ġseed": 7966,
      "Ġentrance": 7967,
      "Ġhurt": 7968,
      "Rem": 7969,
      "Ġunion": 7970,
      "emble": 7971,
      "ĠLiber": 7972,
      "Ġvo": 7973,
      "draw": 7974,
      "Ġcapabilities": 7975,
      "Ġpride": 7976,
      "Str": 7977,
      "iments": 7978,
      "Ġspark": 7979,
      "oviet": 7980,
      "Ġdrinking": 7981,
      "Ġgentle": 7982,
      "wan": 7983,
      "Ġwestern": 7984,
      "ĠThus": 7985,
      "ĠFederal": 7986,
      "Ġengaging": 7987,
      "53": 7988,
      "iti": 7989,
      "Ġreducing": 7990,
      "usti": 7991,
      "igi": 7992,
      "onymous": 7993,
      "Ġexpenses": 7994,
      "Facebook": 7995,
      "ĠBritain": 7996,
      "Ġcontinuing": 7997,
      "iral": 7998,
      "aham": 7999,
      "Ġdispl": 8000,
      "Ġoperated": 8001,
      "orized": 8002,
      "uster": 8003,
      "Ġparam": 8004,
      "Ġaffili": 8005,
      "FT": 8006,
      "Ġagents": 8007,
      "HS": 8008,
      "ĠSpace": 8009,
      "ĠStan": 8010,
      "uin": 8011,
      "Ro": 8012,
      "zes": 8013,
      "Ġresolution": 8014,
      "ĠBlog": 8015,
      "Ġexistence": 8016,
      "Ġextreme": 8017,
      "ĠBand": 8018,
      "Inst": 8019,
      "Ġaside": 8020,
      "Ġclaimed": 8021,
      "ographic": 8022,
      "Ġstaying": 8023,
      "irts": 8024,
      "Ġphen": 8025,
      "Ġrecommendations": 8026,
      "ĠWatch": 8027,
      "ĠDoes": 8028,
      "ĠStory": 8029,
      "Ġbranch": 8030,
      "ĠEU": 8031,
      "Ġescape": 8032,
      "ĠNever": 8033,
      "Ġcareful": 8034,
      "ĠDespite": 8035,
      "UL": 8036,
      "Ġswimming": 8037,
      "Ġbanks": 8038,
      "obby": 8039,
      "het": 8040,
      "ĠToronto": 8041,
      "Ġslots": 8042,
      "yers": 8043,
      "Ġinven": 8044,
      "ĠVen": 8045,
      "Ġfinance": 8046,
      "Ġcbd": 8047,
      "Ġ48": 8048,
      "Ġliterature": 8049,
      "evin": 8050,
      "Ġinvestigation": 8051,
      "Ġlargely": 8052,
      "Ġrestor": 8053,
      "Ġblocks": 8054,
      "Ġmask": 8055,
      "Ġmeets": 8056,
      "Ġrental": 8057,
      "Ġunw": 8058,
      "Ġshel": 8059,
      "Oh": 8060,
      "Ġunknown": 8061,
      "anes": 8062,
      "Ġzero": 8063,
      "Ġenroll": 8064,
      "Ġtone": 8065,
      "ĠSon": 8066,
      "ĠHun": 8067,
      "Ġliterally": 8068,
      "Ġcategories": 8069,
      "alo": 8070,
      "Ġexceptional": 8071,
      "Off": 8072,
      "ĠIllinois": 8073,
      "Ġencouraged": 8074,
      "Ġsuddenly": 8075,
      "ĠScotland": 8076,
      "ĠSP": 8077,
      "Ġunus": 8078,
      "February": 8079,
      "Ġfest": 8080,
      "Ġble": 8081,
      "ĠMember": 8082,
      "Ġseats": 8083,
      "Ġadj": 8084,
      "Ġlady": 8085,
      "ustin": 8086,
      "ĠCivil": 8087,
      "ĠEnvironment": 8088,
      "Ġfacts": 8089,
      "Ġempower": 8090,
      "ĠDutch": 8091,
      "Ġconcepts": 8092,
      "Ġprinting": 8093,
      "Ġsumm": 8094,
      "Ġreasonable": 8095,
      "Ġdrawn": 8096,
      "Down": 8097,
      "ĠPack": 8098,
      "Ġcomplicated": 8099,
      "Ġchildhood": 8100,
      "2022": 8101,
      "orgeous": 8102,
      "Ġaest": 8103,
      "tood": 8104,
      "Ġhoping": 8105,
      "Ġeggs": 8106,
      "arn": 8107,
      "Ġincident": 8108,
      "amental": 8109,
      "Ġreaching": 8110,
      "Ġlie": 8111,
      "words": 8112,
      "ĠEvent": 8113,
      "ĠEst": 8114,
      "rently": 8115,
      "stein": 8116,
      "pts": 8117,
      "ĠChe": 8118,
      "Ġdiscount": 8119,
      "Ġhole": 8120,
      "ĠMah": 8121,
      "Ġflying": 8122,
      "Ġheaded": 8123,
      "achelor": 8124,
      "ĠPas": 8125,
      "Ġintelligence": 8126,
      "tery": 8127,
      "Ġlawyer": 8128,
      "Ġcreativity": 8129,
      "Ġfocuses": 8130,
      "ĠLatin": 8131,
      "Ġyards": 8132,
      "ĠDC": 8133,
      "Ġgrateful": 8134,
      "Ġdriven": 8135,
      "Ġfaced": 8136,
      "DS": 8137,
      "Ġvolunteer": 8138,
      "Ġmanual": 8139,
      "Ġtalks": 8140,
      "Mi": 8141,
      "Ġshower": 8142,
      "Ġnuc": 8143,
      "inder": 8144,
      "2019": 8145,
      "ĠBox": 8146,
      "asure": 8147,
      "Ġrecre": 8148,
      "VE": 8149,
      "ĠGarden": 8150,
      "Ġsaved": 8151,
      "Ġtalked": 8152,
      "Ġpromise": 8153,
      "Ġlaid": 8154,
      "ĠPub": 8155,
      "Ġtub": 8156,
      "ĠSingapore": 8157,
      "Ġflash": 8158,
      "%.": 8159,
      "eren": 8160,
      "etr": 8161,
      "Ġhandling": 8162,
      "Trans": 8163,
      "Ġexpansion": 8164,
      "vas": 8165,
      "bel": 8166,
      "Ġalle": 8167,
      "brid": 8168,
      "Ġ1993": 8169,
      "ĠPennsylvania": 8170,
      "Ġgarage": 8171,
      "Ġofficially": 8172,
      "AY": 8173,
      "ĠSof": 8174,
      "ĠBroad": 8175,
      "ĠPhys": 8176,
      "aved": 8177,
      "Ġpiano": 8178,
      "Ð°": 8179,
      "Ġrequests": 8180,
      "Ġsheet": 8181,
      "ĠPract": 8182,
      "hyt": 8183,
      "ĠWales": 8184,
      "ĠKorea": 8185,
      "ERS": 8186,
      "Ġretired": 8187,
      "Ġpreferred": 8188,
      "Ġmedal": 8189,
      "Ġsignal": 8190,
      "Ġdeeper": 8191,
      "Ġestimated": 8192,
      "Ġpace": 8193,
      "ĠBad": 8194,
      "Ġtrigger": 8195,
      "mo": 8196,
      "High": 8197,
      "ifer": 8198,
      "ĠHong": 8199,
      "Ġriding": 8200,
      "aches": 8201,
      "ĠOx": 8202,
      "Ġconscious": 8203,
      "Ġsinging": 8204,
      "ĠRod": 8205,
      "Ġsaving": 8206,
      "Ġalive": 8207,
      "andy": 8208,
      "November": 8209,
      "till": 8210,
      "atoes": 8211,
      "Ġcable": 8212,
      "ĠSenior": 8213,
      "ĠUt": 8214,
      "ĠLin": 8215,
      "Ġconsideration": 8216,
      "Ġflour": 8217,
      "Ġwatched": 8218,
      "Ġrat": 8219,
      "ĠNavy": 8220,
      "ĠForest": 8221,
      "Ġmoder": 8222,
      "ifies": 8223,
      "Ġcovering": 8224,
      "imp": 8225,
      "Ġnavigation": 8226,
      "Ġcarrying": 8227,
      "Ġafraid": 8228,
      "Ġtooth": 8229,
      "Ġeverywhere": 8230,
      "Tags": 8231,
      "Ġsew": 8232,
      "Ġmillions": 8233,
      "tang": 8234,
      "ĠLind": 8235,
      "ĠStation": 8236,
      "PM": 8237,
      "Ġstrict": 8238,
      "AF": 8239,
      "ĠAgain": 8240,
      "Ġabuse": 8241,
      "ĠLearning": 8242,
      "ĠCountry": 8243,
      "ifting": 8244,
      "ĠMembers": 8245,
      "ĠPoint": 8246,
      "fall": 8247,
      "Ġexplains": 8248,
      "Ġstronger": 8249,
      "Ġsections": 8250,
      "erving": 8251,
      "Int": 8252,
      "Â°": 8253,
      "Ġstable": 8254,
      "Ġbrowser": 8255,
      "zabeth": 8256,
      "Ġmal": 8257,
      "ĠSydney": 8258,
      "Ġjudge": 8259,
      "izer": 8260,
      "uous": 8261,
      "ĠConsult": 8262,
      "ingers": 8263,
      "Ġlimits": 8264,
      "Ġbands": 8265,
      "Ġreform": 8266,
      "Ġbroke": 8267,
      "Ġroads": 8268,
      "Ġgreatly": 8269,
      "Whether": 8270,
      "stery": 8271,
      "Ġconvent": 8272,
      "oration": 8273,
      "verage": 8274,
      "Ġtrips": 8275,
      "Use": 8276,
      "Ġoccurs": 8277,
      "vy": 8278,
      "ouch": 8279,
      "eet": 8280,
      "Ġportfolio": 8281,
      "Ġflavor": 8282,
      "Cur": 8283,
      "Ġdefault": 8284,
      "66": 8285,
      "Ġbaseball": 8286,
      "vin": 8287,
      "ĠBall": 8288,
      "Ġpurchasing": 8289,
      "Ġintegration": 8290,
      "bourne": 8291,
      "Ġbeneficial": 8292,
      "Ġwave": 8293,
      "Ġdecent": 8294,
      "Ġnomin": 8295,
      "Ġpowder": 8296,
      "gorith": 8297,
      "ĠOs": 8298,
      "Ġultimate": 8299,
      "Ġfaces": 8300,
      "oving": 8301,
      "Ġrevolution": 8302,
      "ĠNi": 8303,
      "olis": 8304,
      "zona": 8305,
      "Ġusage": 8306,
      "lay": 8307,
      "Ġcomedy": 8308,
      "ĠRun": 8309,
      "Ġcommunications": 8310,
      "ĠSong": 8311,
      "ĠSecretary": 8312,
      "Ġyard": 8313,
      "odge": 8314,
      "Ġapproaches": 8315,
      "bell": 8316,
      "uling": 8317,
      "ĠAccess": 8318,
      "Ġaims": 8319,
      "Ġsensitive": 8320,
      "Ġwealth": 8321,
      "riers": 8322,
      "Mark": 8323,
      "December": 8324,
      "Ġpink": 8325,
      "edia": 8326,
      "Ġattending": 8327,
      "Ġsurprising": 8328,
      "Spec": 8329,
      "Ġwis": 8330,
      "Ġabandon": 8331,
      "oh": 8332,
      "ĠMill": 8333,
      "inals": 8334,
      "Ġwins": 8335,
      "Ġblind": 8336,
      "ĠFun": 8337,
      "Ġ1991": 8338,
      "Ġbedroom": 8339,
      "quest": 8340,
      "Ġending": 8341,
      "Ġsetup": 8342,
      "Ġdamaged": 8343,
      "Ġloyal": 8344,
      "coin": 8345,
      "Ġblank": 8346,
      "Ġisol": 8347,
      "Ġdeeply": 8348,
      "Ġconsultation": 8349,
      "otion": 8350,
      "Ð¾": 8351,
      "RI": 8352,
      "Ġquote": 8353,
      "Ġremoval": 8354,
      "Ġclassroom": 8355,
      "Ġassigned": 8356,
      "spec": 8357,
      "nery": 8358,
      "Ġdrinks": 8359,
      "aron": 8360,
      "icit": 8361,
      "Ġpra": 8362,
      "Ġstorm": 8363,
      "Ġpin": 8364,
      "ĠBible": 8365,
      "oves": 8366,
      "Ġadopted": 8367,
      "Ġtomorrow": 8368,
      "aska": 8369,
      "oven": 8370,
      "ĠTele": 8371,
      "lik": 8372,
      "Ġlegend": 8373,
      "abb": 8374,
      "ĠSu": 8375,
      "ĠReading": 8376,
      "aya": 8377,
      "Ġshots": 8378,
      "ĠTaylor": 8379,
      "Ġdesigners": 8380,
      "ĠJustice": 8381,
      "Ġpresents": 8382,
      "Ġoppon": 8383,
      "ĠCode": 8384,
      "Ġattorney": 8385,
      "Ġscheme": 8386,
      "Ġcolleagues": 8387,
      "Ġinstrument": 8388,
      "ĠAI": 8389,
      "athy": 8390,
      "Out": 8391,
      "Ġbelieves": 8392,
      "letter": 8393,
      "forcement": 8394,
      "Ġhits": 8395,
      "Ġsingles": 8396,
      "people": 8397,
      "Ġfocusing": 8398,
      "Ġocean": 8399,
      "esh": 8400,
      "Ġreaction": 8401,
      "ĠJr": 8402,
      "Ġtag": 8403,
      "Good": 8404,
      "gs": 8405,
      "Ġhyp": 8406,
      "Ġsuggests": 8407,
      "ĠBudd": 8408,
      "ĠDun": 8409,
      "stal": 8410,
      "Ġbars": 8411,
      "Ġexpanded": 8412,
      "Ġrely": 8413,
      "Ġduty": 8414,
      "ington": 8415,
      "Ġmanufacturers": 8416,
      "Ġbunch": 8417,
      "Ġdiseases": 8418,
      "Ġscratch": 8419,
      "heless": 8420,
      "Ġobviously": 8421,
      "Ġamounts": 8422,
      "ĠLtd": 8423,
      "Ġdiversity": 8424,
      "acted": 8425,
      "uses": 8426,
      "ĠAvenue": 8427,
      "Ġ400": 8428,
      "Ġorganisation": 8429,
      "orial": 8430,
      "ĠMrs": 8431,
      "Ġanyway": 8432,
      "Ġshouldn": 8433,
      "Ġentering": 8434,
      "ivals": 8435,
      "Ġexposed": 8436,
      "Ġads": 8437,
      "ĠVietnam": 8438,
      "theless": 8439,
      "ĠCH": 8440,
      "Ġflexibility": 8441,
      "ĠBeing": 8442,
      "tact": 8443,
      "Ġhes": 8444,
      "elry": 8445,
      "gian": 8446,
      "Ġmassage": 8447,
      "Ġoccurred": 8448,
      "Ġcalendar": 8449,
      "Ġnewspaper": 8450,
      "Ġ75": 8451,
      "Ġstring": 8452,
      "ĠTal": 8453,
      "2018": 8454,
      "imental": 8455,
      "Ġdad": 8456,
      "Ġconsumption": 8457,
      "Ġparticipation": 8458,
      "regon": 8459,
      "Top": 8460,
      "ĠTry": 8461,
      "Ġ?": 8462,
      "Ġgod": 8463,
      "Ġexploring": 8464,
      "Ġdemands": 8465,
      "name": 8466,
      "inn": 8467,
      "Ġaccessories": 8468,
      "ĠVictoria": 8469,
      "Ġoutcomes": 8470,
      "Ġauthors": 8471,
      "riculum": 8472,
      "acher": 8473,
      "Ġsuggestions": 8474,
      "Ġbacter": 8475,
      "Ġprem": 8476,
      "ĠHou": 8477,
      "arry": 8478,
      "ĠPot": 8479,
      "Ġmountains": 8480,
      "Ġdishes": 8481,
      "pany": 8482,
      "Ġlisting": 8483,
      "tired": 8484,
      "Dele": 8485,
      "Ġstead": 8486,
      "Ġpersons": 8487,
      "ailable": 8488,
      "Ġfascin": 8489,
      "igs": 8490,
      "Ġpublication": 8491,
      "Ġcharacteristics": 8492,
      "ĠRef": 8493,
      "from": 8494,
      "Ġpackaging": 8495,
      "ĠNick": 8496,
      "ĠSpirit": 8497,
      "edge": 8498,
      "Ġcelebration": 8499,
      "zing": 8500,
      "ĠLocal": 8501,
      "Ġrecip": 8502,
      "ĠFall": 8503,
      "style": 8504,
      "Ġinvolving": 8505,
      "ĠRegister": 8506,
      "Ġemails": 8507,
      "ĠNon": 8508,
      "Ġstrange": 8509,
      "ntario": 8510,
      "Ġfifth": 8511,
      "ificial": 8512,
      "neys": 8513,
      "Take": 8514,
      "Ġpreparing": 8515,
      "Ġtracking": 8516,
      "ĠPrime": 8517,
      "tie": 8518,
      "ĠAS": 8519,
      "Ġintroduce": 8520,
      "Ġships": 8521,
      "Ġcontrolled": 8522,
      "RC": 8523,
      "Ġregul": 8524,
      "ĠRon": 8525,
      "Ġlifetime": 8526,
      "ĠTit": 8527,
      "Ġinterpret": 8528,
      "Ġcampaigns": 8529,
      "iro": 8530,
      "Ġharder": 8531,
      "ecks": 8532,
      "Ġsuperior": 8533,
      "quis": 8534,
      "cut": 8535,
      "Ġ150": 8536,
      "ĠUnfortunately": 8537,
      "Ġsatisfaction": 8538,
      "Ġcater": 8539,
      "Ġtact": 8540,
      "ĠGolden": 8541,
      "Ġtil": 8542,
      "Ġentit": 8543,
      "Ġfactory": 8544,
      "Ġfirms": 8545,
      "VD": 8546,
      "anted": 8547,
      "Ġrepeated": 8548,
      "ĠWhich": 8549,
      "ĠPhilipp": 8550,
      "ĠNav": 8551,
      "Ġenterprise": 8552,
      "Ġdivided": 8553,
      "ugby": 8554,
      "rovers": 8555,
      "Ġlists": 8556,
      "uine": 8557,
      "ĠLow": 8558,
      "Ġtherap": 8559,
      "lot": 8560,
      "rell": 8561,
      "nton": 8562,
      "ĠSenate": 8563,
      "Ġgorgeous": 8564,
      "Ġblend": 8565,
      "Ġvocals": 8566,
      "Ġwooden": 8567,
      "Ġconstructed": 8568,
      "Ġapproval": 8569,
      "Ġgate": 8570,
      "ĠIII": 8571,
      "ĠParliament": 8572,
      "Ġelectricity": 8573,
      "Ġinitiative": 8574,
      "Ġpatch": 8575,
      "ĠOfficer": 8576,
      "high": 8577,
      "ptions": 8578,
      "Ġwarrant": 8579,
      "ellect": 8580,
      "Ġanymore": 8581,
      "eters": 8582,
      "ĠSystems": 8583,
      "ĠColumbia": 8584,
      "Ġtired": 8585,
      "Ġrapidly": 8586,
      "Ġ1950": 8587,
      "Ġutilize": 8588,
      "Ġinsights": 8589,
      "days": 8590,
      "Ġsubjects": 8591,
      "Ġretirement": 8592,
      "star": 8593,
      "Ġaccompan": 8594,
      "Ġpotentially": 8595,
      "Ġphilosophy": 8596,
      "Ins": 8597,
      "rence": 8598,
      "ĠCommon": 8599,
      "ĠHoly": 8600,
      "Ġacceler": 8601,
      "boy": 8602,
      "Ġwanting": 8603,
      "Ġ;": 8604,
      "Ġpromotion": 8605,
      "ĠLat": 8606,
      "ĠAli": 8607,
      "ĠEs": 8608,
      "ĠBon": 8609,
      "Ġpackages": 8610,
      "Continue": 8611,
      "76": 8612,
      "uating": 8613,
      "Ġbreaking": 8614,
      "Ġroots": 8615,
      "LY": 8616,
      "Ġilleg": 8617,
      "ĠStudio": 8618,
      "Ġforgot": 8619,
      "Ġthousand": 8620,
      "ĠYet": 8621,
      "gines": 8622,
      "una": 8623,
      "Ġobjective": 8624,
      "ĠBC": 8625,
      "Ġcenters": 8626,
      "mann": 8627,
      "Ġchecking": 8628,
      "uties": 8629,
      "ĠGuard": 8630,
      "Ġinher": 8631,
      "Char": 8632,
      "Ġathletes": 8633,
      "Ġbab": 8634,
      "Ġsecondary": 8635,
      "Ġcorrectly": 8636,
      "Ġtalented": 8637,
      "ĠNiger": 8638,
      "ĠJean": 8639,
      "Ġsauce": 8640,
      "Ġbreast": 8641,
      "ĠProfessional": 8642,
      "Ġkil": 8643,
      "RS": 8644,
      "Ġfundamental": 8645,
      "ĠConnect": 8646,
      "Ġabilities": 8647,
      "ĠShould": 8648,
      "Ġinteraction": 8649,
      "Ġpaintings": 8650,
      "person": 8651,
      "Ġpassword": 8652,
      "ĠCook": 8653,
      "AA": 8654,
      "Ġnights": 8655,
      "Ġseeds": 8656,
      "Ġdism": 8657,
      "Ġrush": 8658,
      "Ġapplying": 8659,
      "Ġmanufacturer": 8660,
      "terior": 8661,
      "Ġvisits": 8662,
      "Cr": 8663,
      "pted": 8664,
      "ieve": 8665,
      "aying": 8666,
      "Ġdoctors": 8667,
      "Ġartistic": 8668,
      "Ġstayed": 8669,
      "ĠSoviet": 8670,
      "urg": 8671,
      "ĠSav": 8672,
      "Ġgallery": 8673,
      "Ġcasual": 8674,
      "ĠHam": 8675,
      "ima": 8676,
      "ĠAlbert": 8677,
      "Related": 8678,
      "ĠLew": 8679,
      "Ġreduction": 8680,
      "Ġtheatre": 8681,
      "da": 8682,
      "ĠQuest": 8683,
      "rot": 8684,
      "ĠAppl": 8685,
      "inson": 8686,
      "Ġexceed": 8687,
      "everal": 8688,
      "Ġdraft": 8689,
      "Ġelections": 8690,
      "nesota": 8691,
      "iang": 8692,
      "ĠNeed": 8693,
      "Ġ1989": 8694,
      "izza": 8695,
      "Ġblo": 8696,
      "ĠRom": 8697,
      "Ġhiring": 8698,
      "ĠBor": 8699,
      "Ġmuscles": 8700,
      "Ġlesson": 8701,
      "Ġstored": 8702,
      "Ġhorses": 8703,
      "Ġrice": 8704,
      "Chi": 8705,
      "ĠPrince": 8706,
      "Ġengines": 8707,
      "Ġlift": 8708,
      "Ġreader": 8709,
      "hew": 8710,
      "expected": 8711,
      "Ġraces": 8712,
      "Ġwaters": 8713,
      "Her": 8714,
      "Ġworship": 8715,
      "Ġment": 8716,
      "ĠTar": 8717,
      "Ġlets": 8718,
      "ĠRog": 8719,
      "Ġsavings": 8720,
      "Ġdelivering": 8721,
      "ĠCovid": 8722,
      "Note": 8723,
      "Ġintention": 8724,
      "ĠResp": 8725,
      "etts": 8726,
      "2017": 8727,
      "Ġcolours": 8728,
      "onics": 8729,
      "Ġcompliance": 8730,
      "Ġimprovements": 8731,
      "ĠDaniel": 8732,
      "otal": 8733,
      "ĠTravel": 8734,
      "ĠKn": 8735,
      "tap": 8736,
      "ĠSafety": 8737,
      "ummer": 8738,
      "Ġoutcome": 8739,
      "Ġgranted": 8740,
      "Ġfarmers": 8741,
      "Ġaggress": 8742,
      "Ġfinishing": 8743,
      "Ġsafely": 8744,
      "ĠWinter": 8745,
      "ĠBell": 8746,
      "ĠTok": 8747,
      "Ġpainted": 8748,
      "Two": 8749,
      "Mich": 8750,
      "Ġexperiencing": 8751,
      "achus": 8752,
      "Ġrestrictions": 8753,
      "Ġfalling": 8754,
      "Ġloving": 8755,
      "obs": 8756,
      "tense": 8757,
      "Ġdowntown": 8758,
      "ĠBol": 8759,
      "Ġinteractive": 8760,
      "ested": 8761,
      "ĠRose": 8762,
      "=#": 8763,
      "Ġmac": 8764,
      "umed": 8765,
      "2010": 8766,
      "iour": 8767,
      "ĠAccount": 8768,
      "ĠBerlin": 8769,
      "olar": 8770,
      "ĠFord": 8771,
      "Ġcomposed": 8772,
      "isement": 8773,
      "EA": 8774,
      "rome": 8775,
      "Ġbrew": 8776,
      "ĠâĢĭ": 8777,
      "ĠPortug": 8778,
      "Ġcaptured": 8779,
      "agers": 8780,
      "ĠContr": 8781,
      "ĠCustom": 8782,
      "uming": 8783,
      "ĠMuslim": 8784,
      "VER": 8785,
      "ĠJen": 8786,
      "Ġencounter": 8787,
      "hesis": 8788,
      "Ġgiant": 8789,
      "Ġprotocol": 8790,
      "Ġmaintained": 8791,
      "Ġsuffered": 8792,
      "ĠAssembly": 8793,
      "vironments": 8794,
      "Ġpossibilities": 8795,
      "step": 8796,
      "ĠDam": 8797,
      "Ġalgorith": 8798,
      "ĠMu": 8799,
      "plete": 8800,
      "Ġsupplement": 8801,
      "ordan": 8802,
      "olving": 8803,
      "ĠMedicine": 8804,
      "Ġphotographs": 8805,
      "Ġimplemented": 8806,
      "Ġarrival": 8807,
      "ĠOntario": 8808,
      "Ġnecessarily": 8809,
      "Ġstrongly": 8810,
      "eral": 8811,
      "Ġmixture": 8812,
      "liers": 8813,
      "CD": 8814,
      "Ġvegetables": 8815,
      "ĠStor": 8816,
      "Ġcombat": 8817,
      "Ġrose": 8818,
      "Ġthemes": 8819,
      "ĠPage": 8820,
      "Ġ38": 8821,
      "iki": 8822,
      "ĠDisney": 8823,
      "alse": 8824,
      "Ġinstant": 8825,
      "News": 8826,
      "Ġsees": 8827,
      "Ġgenerated": 8828,
      "Ġcart": 8829,
      "Mon": 8830,
      "ĠLearn": 8831,
      "Delete": 8832,
      "Ġprominent": 8833,
      "Ġtill": 8834,
      "Ġcompete": 8835,
      "Ġcoc": 8836,
      "Ġarray": 8837,
      "ĠAT": 8838,
      "Ġinvite": 8839,
      "ĠHeart": 8840,
      "Ġknock": 8841,
      "Ġchap": 8842,
      "laim": 8843,
      "ĠMess": 8844,
      "Ġflower": 8845,
      "Ġhero": 8846,
      "bow": 8847,
      "Because": 8848,
      "ĠThink": 8849,
      "ĠArizona": 8850,
      "Ġpanels": 8851,
      "Ġorient": 8852,
      "Ġinstruments": 8853,
      "ĠExpl": 8854,
      "Ġcute": 8855,
      "Ġpricing": 8856,
      "Ġrepairs": 8857,
      "Ġprize": 8858,
      "2015": 8859,
      "ocial": 8860,
      "Ġeligible": 8861,
      "Ġloud": 8862,
      "Ġspeaker": 8863,
      "ĠWithout": 8864,
      "ĠBit": 8865,
      "Ġminer": 8866,
      "ĠRoom": 8867,
      "ĠCop": 8868,
      "ĠStore": 8869,
      "Ġupgrade": 8870,
      "uter": 8871,
      "Ġmold": 8872,
      "adelp": 8873,
      "Ġbuyers": 8874,
      "ĠTreat": 8875,
      "2016": 8876,
      "ĠChall": 8877,
      "Ben": 8878,
      "ĠEff": 8879,
      "Ġweren": 8880,
      "tural": 8881,
      "Ġrising": 8882,
      "Ġterror": 8883,
      "Ġhat": 8884,
      "Ġexercises": 8885,
      "Ġrepresentative": 8886,
      "Ġshoulder": 8887,
      "ĠPur": 8888,
      "Ġamongst": 8889,
      "oir": 8890,
      "Ġflag": 8891,
      "ĠStill": 8892,
      "Cus": 8893,
      "organ": 8894,
      "Ġspeakers": 8895,
      "ibutes": 8896,
      "Under": 8897,
      "Ġgall": 8898,
      "Ġclosing": 8899,
      "Ġbott": 8900,
      "Ġadditionally": 8901,
      "Ġpromoting": 8902,
      "Ġouts": 8903,
      "'.": 8904,
      "ĠHung": 8905,
      "ĠOh": 8906,
      "Ġasset": 8907,
      "bb": 8908,
      "eman": 8909,
      "Ġhopes": 8910,
      "Ġromantic": 8911,
      "ĠSales": 8912,
      "Ġimper": 8913,
      "ĠChampionships": 8914,
      "wear": 8915,
      "Ġtaxes": 8916,
      "ĠEll": 8917,
      "ĠEmpire": 8918,
      "ĠMother": 8919,
      "ĠMS": 8920,
      "Ġinfl": 8921,
      "Ġham": 8922,
      "center": 8923,
      "Ġchampion": 8924,
      "ĠLady": 8925,
      "ĠSS": 8926,
      "ĠBern": 8927,
      "ĠWas": 8928,
      "ĠPhotograp": 8929,
      "ĠTai": 8930,
      "Ġsoldiers": 8931,
      "acon": 8932,
      "Ġpercentage": 8933,
      "Ġwinners": 8934,
      "Prof": 8935,
      "Ġheating": 8936,
      "Ġhate": 8937,
      "ĠSmall": 8938,
      "Ġlicensed": 8939,
      "achusetts": 8940,
      "minal": 8941,
      "agen": 8942,
      "adelphia": 8943,
      "Ġphenomen": 8944,
      "Ġheavily": 8945,
      "ĠSa": 8946,
      "Ġfif": 8947,
      "Ġunexpected": 8948,
      "stract": 8949,
      "79": 8950,
      "ourse": 8951,
      "Ġanalyt": 8952,
      "Ġminister": 8953,
      "Ġdisplayed": 8954,
      "Ġborrow": 8955,
      "ĠAirport": 8956,
      "Ġresidence": 8957,
      "Ġtemporary": 8958,
      "Ġmarks": 8959,
      "Start": 8960,
      "ĠHelp": 8961,
      "Ġintense": 8962,
      "lar": 8963,
      "Ġskilled": 8964,
      "Ġholidays": 8965,
      "ĠMult": 8966,
      "nie": 8967,
      "ĠDid": 8968,
      "ĠBrian": 8969,
      "Ġresort": 8970,
      "Ġdemocr": 8971,
      "Ġfits": 8972,
      "Ġ1988": 8973,
      "itate": 8974,
      "Ġweapons": 8975,
      "ĠBattle": 8976,
      "Ġu": 8977,
      "adi": 8978,
      "Ġparticipated": 8979,
      "Ġproposal": 8980,
      "lyn": 8981,
      "Ġunderstood": 8982,
      "Ġinstruction": 8983,
      "Ġ65": 8984,
      "Ġexpressed": 8985,
      "Ġsop": 8986,
      "Ġ33": 8987,
      "ĠPsych": 8988,
      "Ġwithdraw": 8989,
      "ildren": 8990,
      "Ġscope": 8991,
      "Ġcombine": 8992,
      "Ġextend": 8993,
      "non": 8994,
      "Ġcoaches": 8995,
      "ĠBase": 8996,
      "Sub": 8997,
      "Replies": 8998,
      "Ã§": 8999,
      "EE": 9000,
      "Ġattitude": 9001,
      "ĠOregon": 9002,
      "Ġtowns": 9003,
      "ĠSilver": 9004,
      "Ġequival": 9005,
      "Ġequally": 9006,
      "ĠShi": 9007,
      "zed": 9008,
      "Ðµ": 9009,
      "Ġpounds": 9010,
      "Ġestablishments": 9011,
      "Ã³n": 9012,
      "power": 9013,
      "eels": 9014,
      "Ġpermit": 9015,
      "owa": 9016,
      "Ġplane": 9017,
      "Ġanniversary": 9018,
      "Ġspray": 9019,
      "Ġvert": 9020,
      "Ġinn": 9021,
      "Ġportra": 9022,
      "ĠAk": 9023,
      "Sw": 9024,
      "OK": 9025,
      "Ġfalls": 9026,
      "ĠSU": 9027,
      "ĠComment": 9028,
      "Ġstruggling": 9029,
      "Ġrefr": 9030,
      "MC": 9031,
      "hrop": 9032,
      "ĠStudent": 9033,
      "ĠHan": 9034,
      "Early": 9035,
      "Ġphotographer": 9036,
      "Ġlect": 9037,
      "Ġfootballers": 9038,
      "Ġsought": 9039,
      "tied": 9040,
      "ĠPut": 9041,
      "Ġconvinc": 9042,
      "Ġlegislation": 9043,
      "haust": 9044,
      "eim": 9045,
      "Ġheading": 9046,
      "avirus": 9047,
      "ervice": 9048,
      "ĠGovernor": 9049,
      "Ġenvironments": 9050,
      "Ġseam": 9051,
      "Ġindex": 9052,
      "Ġscientists": 9053,
      "ĠNote": 9054,
      "Ġcolumn": 9055,
      "Ġstrike": 9056,
      "uer": 9057,
      "Ġactively": 9058,
      "Ġcompat": 9059,
      "HA": 9060,
      "ĠPakistan": 9061,
      "ĠVillage": 9062,
      "Ġextent": 9063,
      "jo": 9064,
      "ĠMagazine": 9065,
      "erts": 9066,
      "Ġsubmitted": 9067,
      "Ġdivor": 9068,
      "Ġ()": 9069,
      "Ġrequirement": 9070,
      "arsh": 9071,
      "Ġgre": 9072,
      "Free": 9073,
      "Ġabsolute": 9074,
      "ĠJess": 9075,
      "iform": 9076,
      "Ġvocal": 9077,
      "ĠRyan": 9078,
      "ĠYouth": 9079,
      "Ġinstitution": 9080,
      "Ġpeak": 9081,
      "Ġimportantly": 9082,
      "Great": 9083,
      "asted": 9084,
      "Dav": 9085,
      "Ġediting": 9086,
      "Ġavailability": 9087,
      "ĠCer": 9088,
      "Ġbehalf": 9089,
      "Ġmovements": 9090,
      "Ġexplan": 9091,
      "Ġclock": 9092,
      "Ġpilot": 9093,
      "Ġgraphics": 9094,
      "Ġol": 9095,
      "oral": 9096,
      "Ġyield": 9097,
      "',": 9098,
      "ĠDJ": 9099,
      "onsi": 9100,
      "Ġfinger": 9101,
      "Ġneut": 9102,
      "Red": 9103,
      "ĠBridge": 9104,
      "iffer": 9105,
      "Ġunusual": 9106,
      "Ġcultiv": 9107,
      "wa": 9108,
      "Ġgap": 9109,
      "ĠFox": 9110,
      "Ġmagn": 9111,
      "Ġfunctionality": 9112,
      "ĠTech": 9113,
      "Ġdepression": 9114,
      "ĠPrice": 9115,
      "Ġladies": 9116,
      "Ġrecipes": 9117,
      "Ġconversations": 9118,
      "ĠProper": 9119,
      "erland": 9120,
      "ĠArm": 9121,
      "Ġphones": 9122,
      "ĠBrad": 9123,
      "Ġcatal": 9124,
      "ĠAuto": 9125,
      "ĠKorean": 9126,
      "Ġbrothers": 9127,
      "Ġbuck": 9128,
      "Ġconcerning": 9129,
      "Ġcompletion": 9130,
      "ĠSound": 9131,
      "Ġdebate": 9132,
      "Ġterritory": 9133,
      "Ġcabin": 9134,
      "Ġensures": 9135,
      "ruption": 9136,
      "ĠAN": 9137,
      "Ġcul": 9138,
      "Ġattempts": 9139,
      "Ġwondering": 9140,
      "ĠElizabeth": 9141,
      "Ġtap": 9142,
      "raq": 9143,
      "Ġresulted": 9144,
      "rec": 9145,
      "ĠSuch": 9146,
      "Ġgenuine": 9147,
      "ĠCloud": 9148,
      "osis": 9149,
      "Ġlayout": 9150,
      "ĠContinue": 9151,
      "El": 9152,
      "atto": 9153,
      "Ġcontinuous": 9154,
      "former": 9155,
      "Ġni": 9156,
      "ĠInsurance": 9157,
      "Twitter": 9158,
      "Ġdefinition": 9159,
      "Ġtent": 9160,
      "Ġsquad": 9161,
      "Ġbrilliant": 9162,
      "Ġestablishment": 9163,
      "Ġemotion": 9164,
      "Keep": 9165,
      "Ġow": 9166,
      "Ġbooking": 9167,
      "Ġadministrative": 9168,
      "RL": 9169,
      "ĠDemocratic": 9170,
      "aws": 9171,
      "ĠBarb": 9172,
      "ĠWilson": 9173,
      "Ġobserved": 9174,
      "atal": 9175,
      "Ġcontributions": 9176,
      "Ġtex": 9177,
      "Ġworkplace": 9178,
      "Ġcomparison": 9179,
      "ĠGreg": 9180,
      "Ġuncertain": 9181,
      "type": 9182,
      "Ġbench": 9183,
      "isconsi": 9184,
      "chestra": 9185,
      "utter": 9186,
      "ĠSmart": 9187,
      "Ġeverybody": 9188,
      "Ġtox": 9189,
      "Ġrend": 9190,
      "Ġcoal": 9191,
      "eve": 9192,
      "tum": 9193,
      "ĠLas": 9194,
      "Ġcontrols": 9195,
      "Ġhasn": 9196,
      "ĠFOR": 9197,
      "ĠMajor": 9198,
      "Ġepisodes": 9199,
      "trum": 9200,
      "olly": 9201,
      "isconsin": 9202,
      "Ġcomposition": 9203,
      "Ġcontaining": 9204,
      "ĠTrail": 9205,
      "Disc": 9206,
      "irk": 9207,
      "Ġdistingu": 9208,
      "ĠCbd": 9209,
      "ĠCorn": 9210,
      "imb": 9211,
      "ĠCou": 9212,
      "ogether": 9213,
      "Ġreligion": 9214,
      "Ġhoney": 9215,
      "Ġcontribution": 9216,
      "Vis": 9217,
      "Ġabroad": 9218,
      "ĠDave": 9219,
      "Ġchest": 9220,
      "Ġformation": 9221,
      "Ġdefine": 9222,
      "ĠHD": 9223,
      "Ġboss": 9224,
      "Ġauthentic": 9225,
      "ifted": 9226,
      "2014": 9227,
      "ĠBrother": 9228,
      "Ġaer": 9229,
      "Ġlayers": 9230,
      "pool": 9231,
      "Ġreception": 9232,
      "ĠHay": 9233,
      "etary": 9234,
      "atile": 9235,
      "Ġopens": 9236,
      "ĠMinnesota": 9237,
      "ĠDavis": 9238,
      "Ġcinem": 9239,
      "Ġfranch": 9240,
      "ded": 9241,
      "Ġconsistently": 9242,
      "ĠUkraine": 9243,
      "Ġexport": 9244,
      "char": 9245,
      "ilation": 9246,
      "oding": 9247,
      "Ġparticipating": 9248,
      "Ġfilling": 9249,
      "ĠPrinc": 9250,
      "Ġmathem": 9251,
      "ining": 9252,
      "Ġheritage": 9253,
      "Ġbold": 9254,
      "Ġpacked": 9255,
      "Ġstatistics": 9256,
      "ĠMA": 9257,
      "Ġtransaction": 9258,
      "ĠEar": 9259,
      "Ġlegisl": 9260,
      "Ġweigh": 9261,
      "Ġsurve": 9262,
      "Ġpodcast": 9263,
      "Ġsen": 9264,
      "roduct": 9265,
      "ĠLED": 9266,
      "oni": 9267,
      "Ġhoriz": 9268,
      "ĠRome": 9269,
      "toral": 9270,
      "ĠLabor": 9271,
      "ĠCP": 9272,
      "ĠSearch": 9273,
      "Ġshapes": 9274,
      "onavirus": 9275,
      "REE": 9276,
      "eater": 9277,
      "Ġboards": 9278,
      "Ġtrim": 9279,
      "ordinary": 9280,
      "Ġengineer": 9281,
      "Ġevaluation": 9282,
      "ouri": 9283,
      "Ġtemperatures": 9284,
      "Ġyours": 9285,
      "ĠLiving": 9286,
      "Ġchampionship": 9287,
      "including": 9288,
      "ĠDog": 9289,
      "ĠRest": 9290,
      "yal": 9291,
      "ĠMemorial": 9292,
      "ĠMoon": 9293,
      "Ġprivile": 9294,
      "Ġgraphic": 9295,
      "Ġresid": 9296,
      "ĠInsp": 9297,
      "Ġdeveloper": 9298,
      "Ġraising": 9299,
      "ĠSeason": 9300,
      "spe": 9301,
      "ĠEver": 9302,
      "onia": 9303,
[...]
