{"<s>":0,"<pad>":1,"</s>":2,"<unk>":3,"<mask>":4,"!":5,"\"":6,"#":7,"$":8,"%":9,"&":10,"'":11,"(":12,")":13,"*":14,"+":15,",":16,"-":17,".":18,"/":19,"0":20,"1":21,"2":22,"3":23,"4":24,"5":25,"6":26,"7":27,"8":28,"9":29,":":30,";":31,"<":32,"=":33,">":34,"?":35,"@":36,"A":37,"B":38,"C":39,"D":40,"E":41,"F":42,"G":43,"H":44,"I":45,"J":46,"K":47,"L":48,"M":49,"N":50,"O":51,"P":52,"Q":53,"R":54,"S":55,"T":56,"U":57,"V":58,"W":59,"X":60,"Y":61,"Z":62,"[":63,"\\":64,"]":65,"^":66,"_":67,"`":68,"a":69,"b":70,"c":71,"d":72,"e":73,"f":74,"g":75,"h":76,"i":77,"j":78,"k":79,"l":80,"m":81,"n":82,"o":83,"p":84,"q":85,"r":86,"s":87,"t":88,"u":89,"v":90,"w":91,"x":92,"y":93,"z":94,"{":95,"|":96,"}":97,"~":98,"¡":99,"¢":100,"£":101,"¤":102,"¥":103,"¦":104,"§":105,"¨":106,"©":107,"ª":108,"«":109,"¬":110,"®":111,"¯":112,"°":113,"±":114,"²":115,"³":116,"´":117,"µ":118,"¶":119,"·":120,"¸":121,"¹":122,"º":123,"»":124,"¼":125,"½":126,"¾":127,"¿":128,"À":129,"Á":130,"Â":131,"Ã":132,"Ä":133,"Å":134,"Æ":135,"Ç":136,"È":137,"É":138,"Ê":139,"Ë":140,"Ì":141,"Í":142,"Î":143,"Ï":144,"Ð":145,"Ñ":146,"Ò":147,"Ó":148,"Ô":149,"Õ":150,"Ö":151,"×":152,"Ø":153,"Ù":154,"Ú":155,"Û":156,"Ü":157,"Ý":158,"Þ":159,"ß":160,"à":161,"á":162,"â":163,"ã":164,"ä":165,"å":166,"æ":167,"ç":168,"è":169,"é":170,"ê":171,"ë":172,"ì":173,"í":174,"î":175,"ï":176,"ð":177,"ñ":178,"ò":179,"ó":180,"ô":181,"õ":182,"ö":183,"÷":184,"ø":185,"ù":186,"ú":187,"û":188,"ü":189,"ý":190,"þ":191,"ÿ":192,"Ā":193,"ā":194,"Ă":195,"ă":196,"Ą":197,"ą":198,"Ć":199,"ć":200,"Ĉ":201,"ĉ":202,"Ċ":203,"ċ":204,"Č":205,"č":206,"Ď":207,"ď":208,"Đ":209,"đ":210,"Ē":211,"ē":212,"Ĕ":213,"ĕ":214,"Ė":215,"ė":216,"Ę":217,"ę":218,"Ě":219,"ě":220,"Ĝ":221,"ĝ":222,"Ğ":223,"ğ":224,"Ġ":225,"ġ":226,"Ģ":227,"ģ":228,"Ĥ":229,"ĥ":230,"Ħ":231,"ħ":232,"Ĩ":233,"ĩ":234,"Ī":235,"ī":236,"Ĭ":237,"ĭ":238,"Į":239,"į":240,"İ":241,"ı":242,"Ĳ":243,"ĳ":244,"Ĵ":245,"ĵ":246,"Ķ":247,"ķ":248,"ĸ":249,"Ĺ":250,"ĺ":251,"Ļ":252,"ļ":253,"Ľ":254,"ľ":255,"Ŀ":256,"ŀ":257,"Ł":258,"ł":259,"Ń":260,"an":261,"er":262,"on":263,"re":264,"Ġi":265,"Ġs":266,"at":267,"Ġw":268,"Ġo":269,"en":270,"Ġc":271,"es":272,"to":273,"al":274,"ou":275,"ng":276,"ing":277,"Ġf":278,"Ġan":279,"Ġb":280,"or":281,"ed":282,"Ġp":283,"ar":284,"it":285,"Ġto":286,"as":287,"Ġm":288,"Ġh":289,"Ġand":290,"Ġin":291,"Ġof":292,"is":293,"Ġd":294,"ic":295,"le":296,"ion":297,"om":298,"il":299,"ent":300,"ac":301,"âĢ":302,"el":303,"Ġl":304,"Ġy":305,"ro":306,"Ġre":307,"us":308,"Ġn":309,"Ġe":310,"et":311,"Ġg":312,"Ġyou":313,"ĠI":314,"ve":315,"ĠT":316,"ad":317,"Ġis":318,"ĠS":319,"ec":320,"am":321,"ur":322,"ly":323,"hat":324,"Ġon":325,"Ġfor":326,"ut":327,"ay":328,"ot":329,"ow":330,"ĠC":331,"ĠA":332,"id":333,"st":334,"ol":335,"ver":336,"ig":337,"ith":338,"Ġbe":339,"are":340,"her":341,"ation":342,"tr":343,"that":344,"Ġthat":345,"Ġwith":346,"ir":347,"nd":348,"ab":349,"ter":350,"ĠM":351,"âĢĻ":352,"em":353,"ch":354,"im":355,"ag":356,"Ġit":357,"Ġal":358,"Ġas":359,"ce":360,"ĠB":361,"ul":362,"ĠP":363,"ĠTh":364,"Ġwh":365,"ers":366,"un":367,"ap":368,"Ġst":369,"ill":370,"Ġare":371,"Ġpro":372,"ke":373,"ĠW":374,"ts":375,"ess":376,"Ġ1":377,"ĠH":378,"Ġcon":379,"os":380,"Ġcom":381,"ai":382,"Ġat":383,"Ġ2":384,"Ġwas":385,"est":386,"and":387,"Ġor":388,"ĠD":389,"Ġfr":390,"od":391,"ain":392,"ĠF":393,"Ġr":394,"ĠR":395,"Ġ(":396,"if":397,"Ġyour":398,"ore":399,"Ġsh":400,"ave":401,"igh":402,"Ġex":403,"op":404,"ate":405,"up":406,"art":407,"Ġwe":408,"ĠThe":409,"um":410,"ĠL":411,"ld":412,"ity":413,"Ġv":414,"ew":415,"qu":416,"ri":417,"Ġch":418,"his":419,"ure":420,"ĠG":421,"ort":422,"Ġfrom":423,"Ġcan":424,"ne":425,"ies":426,"Ġhave":427,"ĠN":428,"ear":429,"ĠE":430,"Ġby":431,"oc":432,"ment":433,"uc":434,"ĠâĢ":435,"ther":436,"ive":437,"ant":438,"Ġtr":439,"iv":440,"this":441,"Ġthis":442,"Ġus":443,"tion":444,"end":445,"all":446,"out":447,"hi":448,"Ġnot":449,"ome":450,"Ġpl":451,"Ġ20":452,"ĠO":453,"ard":454,"ep":455,"Ġac":456,"ud":457,"Ġhe":458,"Ġwill":459,"ost":460,"Ġle":461,"Ġwor":462,"ial":463,"nt":464,"res":465,"av":466,"our":467,"ell":468,"gh":469,"Ġsp":470,"ey":471,"ist":472,"Ġse":473,"ight":474,"Ġab":475,"te":476,"ok":477,"ĠJ":478,"Ġall":479,"ak":480,"ould":481,"ack":482,"tor":483,"ous":484,"Th":485,"Ġde":486,"li":487,"ect":488,"Ġj":489,"Ġk":490,"ally":491,"Ġli":492,"ust":493,"tim":494,"app":495,"ough":496,"ge":497,"ich":498,"Ġgo":499,"Ġcomp":500,"af":501,"Ġdo":502,"Ġne":503,"Ġhas":504,"age":505,"ast":506,"hing":507,"ound":508,"Ġen":509,"ere":510,"eir":511,"ake":512,"Ġad":513,"ide":514,"heir":515,"their":516,"Ġbut":517,"ong":518,"Ġtheir":519,"per":520,"The":521,"Ġhis":522,"ub":523,"Ġout":524,"ice":525,"'s":526,"Ġup":527,"ĠU":528,"ber":529,"Ġme":530,"Ġour":531,"ated":532,"og":533,"very":534,"ook":535,"Ġfi":536,"mp":537,"so":538,"fer":539,"hey":540,"Ġso":541,"they":542,"Ġmore":543,"Ġthey":544,"able":545,"ip":546,"Ġtim":547,"Ġwork":548,"Ġres":549,"âĢĿ":550,"Ġmy":551,"ail":552,"iz":553,"Ġone":554,"ans":555,"ĠK":556,"ĠIn":557,"ame":558,"ire":559,"aw":560,"for":561,"ish":562,"Ġman":563,"00":564,"ace":565,"ence":566,"ia":567,"Ġalso":568,"ign":569,"ib":570,"Ġun":571,"act":572,"Ġwhich":573,"ue":574,"ance":575,"ite":576,"ĠY":577,"ary":578,"ach":579,"here":580,"Ġabout":581,"one":582,"se":583,"ition":584,"Ġcl":585,"reat":586,"ations":587,"ass":588,"Ġinc":589,"ents":590,"Ġ19":591,"Ġapp":592,"han":593,"und":594,"Ġtime":595,"Ġwho":596,"ays":597,"ely":598,"erv":599,"uch":600,"ĠIt":601,"Ġyear":602,"ĠV":603,"hem":604,"ick":605,"hr":606,"ical":607,"Ġqu":608,"Ġother":609,"hen":610,"ase":611,"Ġev":612,"duc":613,"now":614,"mer":615,"ĠâĢľ":616,"Ġdis":617,"ose":618,"Ġper":619,"ark":620,"them":621,"ine":622,"Ġget":623,"Ġthem":624,"Ġcont":625,"Ġ201":626,"ese":627,"ov":628,"Ġsome":629,"Ġther":630,"Ġnew":631,"ff":632,"Ġher":633,"ult":634,"ll":635,"ning":636,"ness":637,"pl":638,"ild":639,"ĠSt":640,"Ġpart":641,"ree":642,"Ġwere":643,"Ġhad":644,"form":645,"Ġte":646,"Ġar":647,"Ġgr":648,"ond":649,"Ġwhen":650,"port":651,"Ġbeen":652,"Ġimp":653,"Ġany":654,"Ġop":655,"Ġpe":656,"Ġpr":657,"Ġover":658,"Ġneed":659,"Ġthere":660,"Ġrec":661,"gr":662,"nk":663,"Ġlike":664,"ress":665,"ian":666,"Ġro":667,"Ġhel":668,"ting":669,"Ġwhat":670,"cess":671,"ople":672,"Ġpre":673,"tw":674,"ens":675,"irst":676,"ions":677,"Ġfe":678,"ove":679,"Ġag":680,"Ġbec":681,"ord":682,"ater":683,"Ġinter":684,"Ġ3":685,"lec":686,"lo":687,"Ġknow":688,"Ġ\"":689,"wn":690,"Ġif":691,"vel":692,"..":693,"ie":694,"ind":695,"ĠâĢĵ":696,"Ġdes":697,"Ġinto":698,"vers":699,"ang":700,"ont":701,"ty":702,"Ġwould":703,"enc":704,"Ġaf":705,"Ġoff":706,"ĠWe":707,"Ġhow":708,"Ġits":709,"oi":710,"than":711,"ile":712,"Ġsc":713,"Ġam":714,"Ġjust":715,"Ġbr":716,"Ġpeople":717,"aus":718,"ade":719,"Ġthan":720,"Ġcomm":721,"thing":722,"Ġhelp":723,"Ġfirst":724,"ns":725,"air":726,"thr":727,"ted":728,"ks":729,"Ġstr":730,"ĠHe":731,"ry":732,"Ġtw":733,"low":734,"ual":735,"ug":736,"Ġthr":737,"ĠThis":738,"Ġsup":739,"Ġcol":740,"ool":741,"lud":742,"ons":743,"Ġmake":744,"Ġmost":745,"ful":746,"ious":747,"Ġplay":748,"les":749,"Ġprov":750,"ood":751,"anc":752,"amp":753,"Ġthrough":754,"ĠCh":755,"Ġserv":756,"Ġbet":757,"ount":758,"aid":759,"Ġevery":760,"Ġwell":761,"own":762,"nal":763,"Ġlook":764,"old":765,"hy":766,"lic":767,"ob":768,"rit":769,"Ġonly":770,"Ġadd":771,"Ġund":772,"oun":773,"Ġ-":774,"ates":775,"Ġbu":776,"Ġind":777,"Ġinclud":778,"ating":779,"Ġshe":780,"ĠSh":781,"Ġcons":782,"Ġmay":783,"ife":784,"Ġback":785,"Ġno":786,"Ġuse":787,"ities":788,"ause":789,"red":790,"Ġexper":791,"Ġproduc":792,"Ġsec":793,"ily":794,"Ġco":795,"Ġdif":796,"Ġtwo":797,"Ġmany":798,"ned":799,"hese":800,"these":801,"oy":802,"Ġthese":803,"we":804,"ings":805,"Ġyears":806,"hip":807,"iness":808,"hn":809,"ices":810,"Ġunder":811,"oth":812,"Ġwant":813,"ise":814,"uring":815,"ors":816,"then":817,"iss":818,"Ġafter":819,"ments":820,"Ġsee":821,"elf":822,"Ġvery":823,"ational":824,"20":825,"fore":826,"Ġwhere":827,"ĠYou":828,"In":829,"ific":830,"ten":831,"Ġ4":832,"Ġstud":833,"ĠUn":834,"iew":835,"Ġway":836,"ss":837,"Ġact":838,"tions":839,"Ġbus":840,"Ġacc":841,"Ġloc":842,"Ġsy":843,"alt":844,"ience":845,"Ġdec":846,"any":847,"Ġ5":848,"Ġreg":849,"xt":850,"Ġke":851,"row":852,"ased":853,"Ġbl":854,"Ġpos":855,"tom":856,"Ġthen":857,"aking":858,").":859,"erson":860,"Ġmi":861,"tory":862,"Ġsm":863,"Ġhigh":864,"Ġass":865,"ner":866,"Ġrem":867,"velop":868,"ics":869,"ular":870,"Ġinv":871,"nce":872,"),":873,"Ġeven":874,"Ġspec":875,"tain":876,"Ġgood":877,"ible":878,"ember":879,"gan":880,"get":881,"Ġcould":882,"ures":883,"Ġown":884,"ead":885,"als":886,"day":887,"oup":888,"Ġexp":889,"az":890,"Ġgreat":891,"ement":892,"au":893,"Ġstart":894,"ility":895,"tur":896,"ef":897,"ever":898,"tle":899,"olog":900,"pe":901,"ath":902,"ms":903,"chool":904,"Ġshould":905,"Ġent":906,"its":907,"Ġinst":908,"Ġthing":909,"Ġbest":910,"Ġgu":911,"ĠCom":912,"ited":913,"Ġdiffer":914,"Ġnow":915,"19":916,"Ġset":917,"Ġfam":918,"atch":919,"ied":920,"hough":921,"take":922,"ho":923,"ork":924,"ward":925,"Ġ200":926,"Ġday":927,"Ġsaid":928,"though":929,"Ġsto":930,"other":931,"Ġbusiness":932,"ener":933,"ange":934,"Ġins":935,"Ġcar":936,"Ġrel":937,"stem":938,"try":939,"Ġmuch":940,"Ġlong":941,"Ġfind":942,"Ġdon":943,"land":944,"line":945,"Ġdesign":946,"aut":947,"ower":948,"Ġtake":949,"Ġhim":950,"Ġcre":951,"Ġbecause":952,"Ġart":953,"Ġ&":954,"Ġsuch":955,"Ġaw":956,"ĠAr":957,"thi":958,"Ġmade":959,"ren":960,"Ġbeing":961,"Ġteam":962,"ble":963,"omet":964,"Ġhome":965,"br":966,"bs":967,"Ġdown":968,"Ġlife":969,"Ġdevelop":970,"ually":971,"Ġpri":972,"tec":973,"Ġatt":974,"nes":975,"Ġid":976,"ct":977,"ject":978,"Ġdid":979,"ĠPro":980,"Ġbefore":981,"Ġperson":982,"ative":983,"Ġshow":984,"'t":985,"Ġthi":986,"Ġread":987,"We":988,"io":989,"ollow":990,"Ġend":991,"ivers":992,"ull":993,"pt":994,"ĠAl":995,"ĠIf":996,"Ġsur":997,"ason":998,"Ġ|":999,"ek":1000,"Ġagain":1001,"Ġsim":1002,"iet":1003,"Ġworld":1004,"Ġsi":1005,"Ġrequ":1006,"der":1007,"Ġpres":1008,"ĠAnd":1009,"man":1010,"Ġsub":1011,"ank":1012,"Ġused":1013,"gram":1014,"Ġcall":1015,"ather":1016,"Ġbel":1017,"ax":1018,"Ġcr":1019,"oint":1020,"ah":1021,"Ġtrans":1022,"Ġim":1023,"Ġeff":1024,"Ġ6":1025,"Ġrep":1026,"Ġwhile":1027,"Ġcare":1028,"Ġav":1029,"ality":1030,"Ġmark":1031,"Ġhand":1032,"Ġthink":1033,"ouse":1034,"lish":1035,"Ġhere":1036,"Ġcommun":1037,"mi":1038,"ters":1039,"Ġeach":1040,"Ġdisc":1041,"alk":1042,"ĠRe":1043,"Ġcomple":1044,"ues":1045,"Ġdifferent":1046,"led":1047,"Ġmed":1048,"Ġmod":1049,"hose":1050,"Ġvis":1051,"ives":1052,"Ġnum":1053,"Ġright":1054,"tern":1055,"Ġsystem":1056,"those":1057,"earch":1058,"Ġthose":1059,"Ġaround":1060,"Ġdr":1061,"Ġsk":1062,"ĠNew":1063,"ee":1064,"ven":1065,"pr":1066,"els":1067,"Ġfin":1068,"na":1069,"ock":1070,"Ġdoes":1071,"Ġmin":1072,"akes":1073,"Ġbo":1074,"Ġinform":1075,".âĢĿ":1076,"ton":1077,"ĠFor":1078,"ages":1079,"Ġlit":1080,"ale":1081,"ash":1082,"Ġlead":1083,"Ġed":1084,"Ġfollow":1085,"Ġfl":1086,"str":1087,"ences":1088,"Ġser":1089,"Ġeas":1090,"ider":1091,"Ġchar":1092,"Ġmus":1093,"ween":1094,"Ġplan":1095,"Ġprof":1096,"Ġcur":1097,"ient":1098,"ĠAs":1099,"Ġfound":1100,"Ġcus":1101,"âĢ¦":1102,"Ġchild":1103,"ĠMar":1104,"Ġfil":1105,"Ġadv":1106,"ways":1107,"ĠThey":1108,"âĢľ":1109,"tors":1110,"meric":1111,"Ġmet":1112,"ĠFr":1113,"ames":1114,"Ġpol":1115,"gi":1116,"Ġpub":1117,"Ġsupport":1118,"Ġboth":1119,"ional":1120,"Ġfac":1121,"Ġsomet":1122,"Ġimport":1123,"Ġ18":1124,"ects":1125,"Ġvar":1126,"Ġbuild":1127,"Ġplace":1128,"ĠTr":1129,"alth":1130,"ists":1131,"Ġear":1132,"Ġbetween":1133,"ature":1134,"eld":1135,"Ġ10":1136,"Ġtec":1137,"ets":1138,"Ġform":1139,"ize":1140,"olut":1141,"Ġreally":1142,"...":1143,"bers":1144,"Ġem":1145,"Ġstill":1146,"Ġlear":1147,"Ġ7":1148,"Ġprocess":1149,"Ġsame":1150,"Ġsign":1151,"Ġdet":1152,"over":1153,"Ġduring":1154,"Ġthough":1155,"Ġfeel":1156,"orn":1157,"Ġmon":1158,"ized":1159,"read":1160,"Ġcour":1161,"Ġfew":1162,"Ġcle":1163,"Ġdep":1164,"Ġdef":1165,"aving":1166,"Ġprogram":1167,"Ġresp":1168,"eck":1169,"arm":1170,"Ġlot":1171,"Ġlast":1172,"rop":1173,"Ġtop":1174,"Ġ$":1175,"cc":1176,"Ġrun":1177,"oot":1178,"Ġmain":1179,"âĢĵ":1180,"ata":1181,"Ġoffer":1182,"iving":1183,"Ġbook":1184,"Ġexperience":1185,"ple":1186,"Ġdri":1187,"Ġ8":1188,"Ġfun":1189,"ict":1190,"Ġgoing":1191,"Ġlar":1192,"Ġprovid":1193,"ved":1194,"ĠSp":1195,"view":1196,"Ġty":1197,"Ġtechn":1198,"orth":1199,"This":1200,"Ġfamily":1201,"ital":1202,"Ġdire":1203,"Ġschool":1204,"lease":1205,"Ġmem":1206,"hree":1207,"three":1208,"Ġkeep":1209,"Ġhapp":1210,"ft":1211,"onth":1212,"Ġcoun":1213,"ling":1214,"urch":1215,"Ġinformation":1216,"Ġ202":1217,"ĠBut":1218,"Ġgener":1219,"Ġthree":1220,"ident":1221,"nc":1222,"Ġorgan":1223,"ody":1224,"Ġposs":1225,"Ġdel":1226,"Ġopen":1227,"Ġthings":1228,"Ġreal":1229,"Ġalways":1230,"ross":1231,"ric":1232,"ĠGr":1233,"Ġallow":1234,"Ġcent":1235,"ĠShe":1236,"iver":1237,"ĠThere":1238,"ars":1239,"Ġsmall":1240,"Ġlist":1241,"outh":1242,"iversity":1243,"Ġpost":1244,"Ġpartic":1245,"Ġlove":1246,"ĠAmeric":1247,"Ġtoo":1248,"Ġusing":1249,"Ġcompany":1250,"ants":1251,"hoto":1252,"ology":1253,"ĠLe":1254,"ying":1255,"gy":1256,"Ġwater":1257,"ator":1258,"ural":1259,"Ġ9":1260,"rent":1261,"uss":1262,"Ġimportant":1263,"Ġint":1264,"Ġwi":1265,"It":1266,"Ġconti":1267,"Ġcontin":1268,"self":1269,"be":1270,"Ġsoc":1271,"por":1272,"ĠCl":1273,"iend":1274,"Ġgroup":1275,"ves":1276,"Ġcap":1277,"iqu":1278,"Ġfriend":1279,"Ġrece":1280,"Ġexc":1281,"ired":1282,"ĠAd":1283,"Ġclass":1284,"Ġmonth":1285,"aj":1286,"ĠHow":1287,"cri":1288,"ustr":1289,"Ġpass":1290,"ĠBr":1291,"Ġavail":1292,"ially":1293,"ĠAn":1294,"fect":1295,"Ġwrit":1296,"Ġmarket":1297,"ision":1298,"stand":1299,"ically":1300,"Ġval":1301,"Ġweek":1302,"Ġcome":1303,"Ġemp":1304,"Ġgame":1305,"uck":1306,"Ġtur":1307,"Ġlittle":1308,"Ġcho":1309,"Ġservice":1310,"Ġter":1311,"Ġperform":1312,"cer":1313,"Ġide":1314,"Ġincluding":1315,"Ġable":1316,"Ġbetter":1317,"000":1318,"Ġnumber":1319,"ards":1320,"tre":1321,"omm":1322,"ger":1323,"Ġfree":1324,"no":1325,"irt":1326,"Ġob":1327,"ared":1328,"Ġcer":1329,"ys":1330,"Ġsit":1331,"Ġcli":1332,"aining":1333,"Ġsomething":1334,"Ġsay":1335,"Ġsure":1336,"Ġsuc":1337,"Ġmov":1338,"ex":1339,"ĠAf":1340,"ĠPl":1341,"Ġwithout":1342,"ĠZ":1343,"Ġonline":1344,"ĠInd":1345,"Ġpop":1346,"Ġmanag":1347,"Ġcor":1348,"Ġavailable":1349,"oin":1350,"ĠCol":1351,"ands":1352,"Ġput":1353,"reen":1354,"ention":1355,"Re":1356,"Ġhead":1357,"Ġnext":1358,"Ġinf":1359,"uary":1360,"Ġsecond":1361,"Ġest":1362,"less":1363,"Ġsince":1364,"ik":1365,"ĠSo":1366,"Ġold":1367,"Ġconf":1368,"Ġprovide":1369,"til":1370,"If":1371,"Ġiss":1372,"con":1373,"Ġorder":1374,"ately":1375,"Ġworking":1376,"omen":1377,"Ġanother":1378,"ute":1379,"Ġmight":1380,"Ġmust":1381,"Ġservices":1382,"ĠQ":1383,"ury":1384,"ier":1385,"Ġpay":1386,"aff":1387,"Ġbig":1388,"Ġarea":1389,"Ġprofess":1390,"ivid":1391,"ĠâĢĺ":1392,"nis":1393,"Ġstre":1394,",âĢĿ":1395,"Ġpat":1396,"ĠBe":1397,"Ġlevel":1398,"ĠSc":1399,"pos":1400,"Ġbro":1401,"Ġcustom":1402,"Ġspecial":1403,"inal":1404,"Ġgrow":1405,"Ġhard":1406,"Ġexpl":1407,"Ġaddition":1408,"ior":1409,"joy":1410,"Ġnever":1411,"Ġsl":1412,"Ġquest":1413,"Ġoper":1414,"Ġdata":1415,"ike":1416,"Ġsing":1417,"Ġinterest":1418,"Ġwin":1419,"Ġpower":1420,"Ġcontr":1421,"Ġgive":1422,"eng":1423,"Ġlet":1424,"Ġconsider":1425,"ights":1426,"Ġgot":1427,"ra":1428,"ĠCon":1429,"Ġincre":1430,"Ġsever":1431,"Ġcost":1432,"Ġwithi":1433,"Ġwithin":1434,"ced":1435,"Ġwebs":1436,"ces":1437,"ains":1438,"Ġproble":1439,"ently":1440,"oss":1441,"Ġ199":1442,"Ġelec":1443,"Ġfull":1444,"loy":1445,"Ġmeet":1446,"Ġpar":1447,"ins":1448,"Ġstand":1449,"ĠBl":1450,"ills":1451,"Ġmusic":1452,"Ġcreat":1453,"Ġ||":1454,"cent":1455,"ĠAt":1456,"esp":1457,"gin":1458,"ball":1459,"ĠJo":1460,"ĠEx":1461,"Ġappro":1462,"Ġstudents":1463,"iety":1464,"Ġevent":1465,"ĠDe":1466,"ction":1467,"Ġask":1468,"Ġeng":1469,"Ġph":1470,"gether":1471,"itch":1472,"ley":1473,"Ġcurrent":1474,"Ġbre":1475,"Ġsuccess":1476,"Ġdays":1477,"Ġref":1478,"hor":1479,"ump":1480,"uit":1481,"Ġmaking":1482,"rol":1483,"ime":1484,"sh":1485,"ism":1486,"Ġspe":1487,"Ġvide":1488,"Ġhealth":1489,"Ġless":1490,"Ġlocal":1491,"Ġactiv":1492,"urs":1493,"ours":1494,"ĠUniversity":1495,"Ġaccess":1496,"Ġproper":1497,"ĠIs":1498,"Ġpract":1499,"Ġphoto":1500,"Ġprom":1501,"Ġpublic":1502,"Ġbas":1503,"Ġcommunity":1504,"ency":1505,"ĠChr":1506,"ĠOn":1507,"Ġenjoy":1508,"Ġalong":1509,"Ġequ":1510,"Ġtogether":1511,"Ġproject":1512,"Ġel":1513,"Ġrecord":1514,"ĠOr":1515,"Ġpain":1516,"let":1517,"Ġfood":1518,"Ġ12":1519,"orts":1520,"ird":1521,"ense":1522,"ocus":1523,"ĠMan":1524,"Ġprev":1525,"une":1526,"Ġsaf":1527,"Ġchildren":1528,"ply":1529,"way":1530,"Ġben":1531,"Ġleg":1532,"aim":1533,"ope":1534,"Ġuntil":1535,"Ġlooking":1536,"10":1537,"ats":1538,"ission":1539,"ny":1540,"Ġoften":1541,"ĠTo":1542,"You":1543,"Ġcas":1544,"Ġunderstand":1545,"ugg":1546,"Ġlink":1547,"ised":1548,"uly":1549,"test":1550,"Ġneeds":1551,"Ġpresent":1552,"by":1553,"ĠEng":1554,"mit":1555,".\"":1556,"aster":1557,"ĠAll":1558,"atter":1559,"Ġfour":1560,"ems":1561,"ential":1562,"ĠĊ":1563,"Ġimpro":1564,"Ġname":1565,"Ġchang":1566,"augh":1567,"ether":1568,"Ġseason":1569,"Ġpoint":1570,"bo":1571,"ck":1572,"med":1573,"ization":1574,"Ġconn":1575,"Ġaway":1576,"Ġhouse":1577,"aces":1578,"Ġseveral":1579,"Ġgl":1580,"ived":1581,"Ġcreate":1582,"Ġ15":1583,"Ġagainst":1584,"Ġann":1585,"of":1586,"oci":1587,"dition":1588,"ĠMay":1589,"Ġhum":1590,"ĠWith":1591,"Ġmembers":1592,"Ġair":1593,"ĠCan":1594,"ote":1595,"ably":1596,"Ġhaving":1597,"Ġlight":1598,"Ġpi":1599,"ique":1600,"ividual":1601,"yle":1602,"uct":1603,"Ġquality":1604,"ĠWhen":1605,"ected":1606,"tal":1607,"ĠâĢĶ":1608,"ending":1609,"nation":1610,"work":1611,"ory":1612,"Ġlo":1613,"iting":1614,"unch":1615,"Ġjob":1616,"Ġbelie":1617,"aud":1618,"Ġcourse":1619,"Ġbecome":1620,"Ġmoney":1621,"Ġwebsite":1622,"Ġdi":1623,"As":1624,"hile":1625,"Ġchange":1626,"Ġstate":1627,"Ġroom":1628,"Ġview":1629,"ney":1630,"Ġtimes":1631,"ified":1632,"com":1633,"Ġpossible":1634,"Ġfocus":1635,"bi":1636,"Ġsite":1637,"Ġmar":1638,"ode":1639,"Ġdem":1640,"âĢĶ":1641,"ails":1642,"Ġsw":1643,"ĠAmerican":1644,"ĠCent":1645,"Ġproducts":1646,"What":1647,"Ġlarge":1648,"lect":1649,"vir":1650,"Ġmove":1651,"ER":1652,"Ġbased":1653,"portun":1654,"ern":1655,"Ġwhy":1656,"Ġbody":1657,"treat":1658,"tra":1659,"Ġtoday":1660,"Ġaut":1661,"ape":1662,"ery":1663,"Ġeffect":1664,"ots":1665,"ĠThat":1666,"ferences":1667,"ests":1668,"Ġ0":1669,"Ġsocial":1670,"Ġkind":1671,"orm":1672,"Ġmen":1673,"Ġbeaut":1674,"ering":1675,"ateg":1676,"side":1677,"ajor":1678,"lished":1679,"ĠMi":1680,"rap":1681,"Ġindividual":1682,"ample":1683,"uro":1684,"ended":1685,"viron":1686,"ving":1687,"ults":1688,"Ġnear":1689,"Ġlaw":1690,"ability":1691,"Ġdoc":1692,"Ġproduct":1693,"ising":1694,"Ġline":1695,"Ġhear":1696,"ĠCar":1697,"Ġstarted":1698,"Ġfur":1699,"Ġshort":1700,"Ġretur":1701,"Ġcover":1702,"ners":1703,"ept":1704,"Ġeduc":1705,"Ġinclude":1706,"ales":1707,"Ġlater":1708,"Ġeasy":1709,"ĠRo":1710,"ption":1711,"Ġknown":1712,"ping":1713,"Ġopportun":1714,"Ġcase":1715,"Ġrest":1716,"uf":1717,"ele":1718,"iven":1719,"co":1720,"ively":1721,"ances":1722,"Ġsays":1723,"net":1724,"uff":1725,"Ġapplic":1726,"ĠUS":1727,"ĠHis":1728,"illion":1729,"fort":1730,"Ġred":1731,"ped":1732,"Ġgover":1733,"Ġresearch":1734,"Ġtest":1735,"Ġleft":1736,"Ġfollowing":1737,"aterial":1738,"erm":1739,"Ġcalled":1740,"nment":1741,"ush":1742,"Ġbenef":1743,"St":1744,"Ġcheck":1745,"Ġtrad":1746,"Ġocc":1747,"Ġens":1748,"Ġinvest":1749,"Ġdevelopment":1750,"Ġve":1751,"Ġside":1752,"Ġorig":1753,"Ġcompet":1754,"sp":1755,"cl":1756,"ids":1757,"18":1758,"Sh":1759,"Ġemploy":1760,"Ġothers":1761,"tell":1762,"Ġmind":1763,"ection":1764,"icle":1765,"Ġlive":1766,"Ġmakes":1767,"Ġdev":1768,"atures":1769,"Ġtreat":1770,"Ġcamp":1771,"Ġdone":1772,"ĠCo":1773,"utes":1774,"wards":1775,"ĠSe":1776,"olution":1777,"Ġwomen":1778,"Ġquick":1779,"ane":1780,"ured":1781,"Ġfilm":1782,"ĠThese":1783,"ready":1784,"uture":1785,"hod":1786,"Ġvideo":1787,"Ġstep":1788,"uce":1789,"ĠHowever":1790,"50":1791,"Ġgetting":1792,"lection":1793,"ries":1794,"ium":1795,"Ġenough":1796,"Ġpersonal":1797,"ained":1798,"talk":1799,"Ġwr":1800,"Ġever":1801,"Ġtyp":1802,"Ġspace":1803,"Ġrele":1804,"ustry":1805,"Ġstory":1806,"ift":1807,"Ġacross":1808,"ĠWor":1809,"IN":1810,"ams":1811,"Ã©":1812,"ph":1813,"Ġ11":1814,"jects":1815,"Ġword":1816,"Ġmeans":1817,"ony":1818,"Ġperfect":1819,"Ġ198":1820,"vironment":1821,"Ġcomes":1822,"Ġgames":1823,"hys":1824,"Ġwon":1825,"Ġtre":1826,"ĠAp":1827,"ung":1828,"itive":1829,"Ġcity":1830,"Ġpo":1831,"ĠMy":1832,"How":1833,"Ġfoot":1834,"cept":1835,"ĠChi":1836,"Ġtook":1837,"ĠWhat":1838,"Ġmult":1839,"Ġyoung":1840,"Ġcharac":1841,"Ġtalk":1842,"Ġpast":1843,"Ġet":1844,"Ġcertain":1845,"Ġearly":1846,"imes":1847,"Ġbuilding":1848,"Ġpot":1849,"Ġalready":1850,"ĠUnited":1851,"Ġsol":1852,"Ġsch":1853,"alf":1854,"avel":1855,"Ġfar":1856,"ged":1857,"Ġ[":1858,"ĠComm":1859,"ĠFe":1860,"osp":1861,"Ġlik":1862,"Ġmaterial":1863,"Ġmajor":1864,"Ġplayers":1865,"Ġ'":1866,"ĠOur":1867,"Ġcountry":1868,"ental":1869,"Ġdoing":1870,"Ġvers":1871,"Ġ30":1872,"Ġresult":1873,"ps":1874,"Ġbring":1875,"Ġnight":1876,"Ġshare":1877,"30":1878,"aper":1879,"Ġtell":1880,"ret":1881,"Ġcame":1882,"Ġspecific":1883,"tem":1884,"most":1885,"ilt":1886,"Ġinvol":1887,"irl":1888,"Ġbit":1889,"ĠPr":1890,"Ġreport":1891,"ĠRes":1892,"Ex":1893,"idd":1894,"ĠChrist":1895,"ister":1896,"Ġfav":1897,"ĠAm":1898,"ĠAss":1899,"ĠDr":1900,"ips":1901,"Ġactually":1902,"resent":1903,"Ġext":1904,"For":1905,"ides":1906,"Ġfriends":1907,"Ġmom":1908,"Ġseries":1909,"Ġ2021":1910,"ĠNo":1911,"Ġonce":1912,"Ġ.":1913,"Ġhold":1914,"lege":1915,"aps":1916,"ording":1917,"nam":1918,"Ġdidn":1919,"Ġ2020":1920,"acks":1921,"Ġbegin":1922,"iful":1923,"Ġfuture":1924,"ĠSchool":1925,"There":1926,"ones":1927,"Ġnon":1928,"Ġoffic":1929,"Ġcompan":1930,"Ġlim":1931,"Ġtool":1932,"Ġele":1933,"Ġtry":1934,"Ġparticular":1935,"ounty":1936,"Ġrequire":1937,"Ġfund":1938,"Ġclos":1939,"Ġmean":1940,"acy":1941,"oud":1942,"Ġenter":1943,"atic":1944,"Ġcontrol":1945,"Ġ17":1946,"ians":1947,"Ġfore":1948,"uction":1949,"Ġindustry":1950,"Ġcult":1951,"Ġvarious":1952,"Ġexample":1953,"Ġchall":1954,"aring":1955,"Ġey":1956,"Ġkey":1957,"Ġ16":1958,"Ġrelations":1959,"ought":1960,"Ġsum":1961,"Ġfield":1962,"Ġsong":1963,"ĠDis":1964,"Ġclean":1965,"Ġdue":1966,"ĠWh":1967,"Ġprofessional":1968,"ci":1969,"Ġ#":1970,"arr":1971,"rew":1972,"Ġlearn":1973,"RE":1974,"Ġnet":1975,"Ġcontact":1976,"Ġstrong":1977,"ford":1978,"ĠAfter":1979,"room":1980,"Ġwent":1981,"ene":1982,"Ġtem":1983,"Ġestab":1984,"ino":1985,"Ġsound":1986,"References":1987,"ON":1988,"When":1989,"ulation":1990,"Ġcondition":1991,"nit":1992,"roduc":1993,"Ġappear":1994,"Ġeverything":1995,"12":1996,"ĠMore":1997,"Ġmil":1998,"taking":1999,"ĠRep":2000,"Ġener":2001,"abor":2002,"Ġtraining":2003,"Ġthought":2004,"inc":2005,"load":2006,"conom":2007,"atural":2008,"book":2009,"Ġdist":2010,"ĠJan":2011,"ither":2012,"Ġsingle":2013,"ows":2014,"ĠPh":2015,"Ġworks":2016,"Ġclear":2017,"ti":2018,"me":2019,"ilities":2020,"Ġhours":2021,"icult":2022,"ources":2023,"Ġcustomers":2024,"Ġfre":2025,"ral":2026,"ĠSouth":2027,"ued":2028,"Ġwatch":2029,"Ġ/":2030,"ule":2031,"achi":2032,"eter":2033,"pril":2034,"oman":2035,"urity":2036,"Ġstay":2037,"Ġenvironment":2038,"Ġmonths":2039,"Ġlov":2040,"Ġdistr":2041,"Ġenc":2042,"Ġstat":2043,"aken":2044,"cto":2045,"ished":2046,"Ġaccount":2047,"elves":2048,"ert":2049,"ĠDec":2050,"ĠMus":2051,"iod":2052,"AT":2053,"irc":2054,"Ġteac":2055,"Ġ197":2056,"Ġprep":2057,"Our":2058,"Ġrecomm":2059,"ĠOne":2060,"Ġident":2061,"ĠInst":2062,"not":2063,"ecially":2064,"Ġwalk":2065,"Ġfact":2066,"Ġposition":2067,"ĠEuro":2068,"Ġhot":2069,"Ġleast":2070,"Ġpiec":2071,"Ġreview":2072,"Ġhappen":2073,"Ġpurch":2074,"artment":2075,"Ġcompanies":2076,"Ġexperi":2077,"Ġcommon":2078,"Ġ2022":2079,"Ġrange":2080,"ource":2081,"ĠMed":2082,"ugust":2083,"Ġhistory":2084,"Ġess":2085,"ĠCity":2086,"Ġdoesn":2087,"ify":2088,"Ġbeautiful":2089,"ĠNational":2090,"On":2091,"Ġpriv":2092,"illed":2093,"Ġcontent":2094,"hie":2095,"Ġinstall":2096,"ĠYour":2097,"Ġau":2098,"Ġconcer":2099,"Ġaud":2100,"Ġdeal":2101,"eptember":2102,"Ġvol":2103,"ibut":2104,"ask":2105,"angu":2106,"ĠWorld":2107,"Ġdig":2108,"Ġwind":2109,"Ġlow":2110,"Ġpage":2111,"Ġinsp":2112,"ron":2113,"Ġdefi":2114,"ument":2115,"Ġ14":2116,"ecess":2117,"irth":2118,"ami":2119,"ĠSy":2120,"bed":2121,"Ġpack":2122,"Ġgiven":2123,"Ġreach":2124,"tit":2125,"ored":2126,"ĠBo":2127,"ĠX":2128,"Ġdiscuss":2129,"Ġbelow":2130,"Ġdirec":2131,"Ġdiff":2132,"ledge":2133,"Ġfeatures":2134,"ince":2135,"ided":2136,"ctober":2137,"bum":2138,"Ġparticip":2139,"Ġflo":2140,"Ġevents":2141,"sw":2142,"lex":2143,"ĠGo":2144,"Ġstop":2145,"ilar":2146,"Ġimprove":2147,"Ġissues":2148,"Ġmethod":2149,"Ġcut":2150,"Ġgovernment":2151,"Ġdirect":2152,"Ġ2019":2153,"Ġbecame":2154,"Ġmedia":2155,"aur":2156,"Ġreason":2157,"Ġtaking":2158,"Rep":2159,"ĠNe":2160,"nts":2161,"Ġyet":2162,"Ġproblem":2163,"'re":2164,"Ġeveryone":2165,"ni":2166,"ĠGu":2167,"Ġrelationship":2168,"Ġphys":2169,"Ġsomeone":2170,"Ġland":2171,"Ġareas":2172,"15":2173,"Ġesp":2174,"selves":2175,"Ġfive":2176,"He":2177,"Ġwhole":2178,"Ġdescri":2179,"ES":2180,"Ġtype":2181,"Ġbreak":2182,"Ġenergy":2183,"Ġage":2184,"ried":2185,"ges":2186,"ibility":2187,"ival":2188,"uation":2189,"Ġunique":2190,"grap":2191,"ina":2192,"ĠComp":2193,"Ġseen":2194,"bal":2195,"Ġamong":2196,"ference":2197,"ĠStates":2198,"ague":2199,"Ġmatch":2200,"ield":2201,"fully":2202,"ĠGod":2203,"Ġsimple":2204,"ication":2205,"Ġpick":2206,"Ġbuy":2207,"ming":2208,"ĠMarch":2209,"Ġpolit":2210,"Ġbrand":2211,"ĠJohn":2212,"ĠÂ":2213,"ĠEurope":2214,"Ġla":2215,"Ġtechnology":2216,"ĠNorth":2217,"Ġentire":2218,"Ġhuman":2219,"Ġpopular":2220,"Ġoffers":2221,"ients":2222,"Ġperiod":2223,"ases":2224,"mber":2225,"Ġtour":2226,"Ġanal":2227,"ĠTe":2228,"ĠYork":2229,"Ġways":2230,"ĠAustr":2231,"ĠServ":2232,"Ġshop":2233,"Ġwond":2234,"Ġassist":2235,"elt":2236,"Ġbar":2237,"yc":2238,"Ġminutes":2239,"Ġwa":2240,"Ġresults":2241,"Ġhon":2242,"Ġfinal":2243,"Ġris":2244,"Ġface":2245,"Ġstaff":2246,"Ġsearch":2247,"asing":2248,"ograp":2249,"Ġrepl":2250,"Ġidea":2251,"Ġyourself":2252,"200":2253,"AR":2254,"Ġmanagement":2255,"my":2256,"Ġquestions":2257,"Ġelectr":2258,"ĠCal":2259,"Ġmember":2260,"Ġconstr":2261,"ĠJune":2262,"action":2263,"Ġmag":2264,"Ġfit":2265,"ream":2266,"Ġcreated":2267,"ler":2268,"Ġcareer":2269,"aced":2270,"Ġself":2271,"Ġ13":2272,"anks":2273,"Ġpress":2274,"Ġrespons":2275,"Ġespecially":2276,"Ġclients":2277,"Ġvalue":2278,"ĠSup":2279,"tomer":2280,"Ġachie":2281,"Al":2282,"tware":2283,"ison":2284,"ends":2285,"Ġ2018":2286,"roll":2287,"11":2288,"Ġprob":2289,"Ġfront":2290,"hers":2291,"ovember":2292,"oints":2293,"iously":2294,"Ġapproach":2295,"Ġstyle":2296,"ĠFl":2297,"Ġdifficult":2298,"Ġprot":2299,"Ch":2300,"AN":2301,"Ġjour":2302,"Ġz":2303,"Ġabove":2304,"vert":2305,"ĠBro":2306,"ĠCounty":2307,"ines":2308,"ĠPri":2309,"Ġsof":2310,"att":2311,"Ġ196":2312,"Ġ100":2313,"Ġfurther":2314,"Ġcomplete":2315,"Ġmess":2316,"Ġpare":2317,"Ġneeded":2318,"atform":2319,"Ġmo":2320,"Ġtravel":2321,"Ġtradition":2322,"ensive":2323,"osted":2324,"ĠHer":2325,"Ġcal":2326,"Ġcommit":2327,"Ġheart":2328,"ches":2329,"Ġplease":2330,"itor":2331,"elling":2332,"Ġhalf":2333,"Ġfinanc":2334,"ĠDo":2335,"go":2336,"Ġinit":2337,"âĢĭ":2338,"ĠMe":2339,"Ġalmost":2340,"Ġski":2341,"nov":2342,"Ġweb":2343,"resh":2344,"ĠPol":2345,"An":2346,"Ġoffice":2347,"Ġflow":2348,"ĠBar":2349,"ĠIntern":2350,"ternal":2351,"ĠNot":2352,"Ġalbum":2353,"Ġliving":2354,"ĠApril":2355,"Ġcrit":2356,"Ġ24":2357,"Ġperformance":2358,"Ġensure":2359,"Ġpur":2360,"ĠState":2361,"Ġmiss":2362,"!!":2363,"Ġtown":2364,"Ġquite":2365,"Ġcoll":2366,"omes":2367,"Ġemail":2368,"Ġer":2369,"taken":2370,"Ġdeath":2371,"Ġmillion":2372,"vent":2373,"Ġhope":2374,"Ġhowever":2375,"Ġago":2376,"Ġfall":2377,"time":2378,"erc":2379,"Ġret":2380,"Ġeconom":2381,"ĠJuly":2382,"'m":2383,"ators":2384,"ees":2385,"ging":2386,"Ġbuilt":2387,"Ġlearning":2388,"Ġdesigned":2389,"ublic":2390,"Ġwar":2391,"ogn":2392,"aft":2393,"umb":2394,"Ġchoose":2395,"Ġengine":2396,"Ġmor":2397,"ĠArt":2398,"Ġ25":2399,"idence":2400,"Ġnatural":2401,"Ġkn":2402,"Ġvisit":2403,"Ġheld":2404,"Ġclose":2405,"Ġworked":2406,"ĠPar":2407,"ĠGe":2408,"ĠPark":2409,"Ġturn":2410,"Ġauthor":2411,"iple":2412,"Ġdeep":2413,"Ġtrack":2414,"Ġsoon":2415,"ishing":2416,"lin":2417,"Ġprovides":2418,"17":2419,"Ġbirth":2420,"Ġwanted":2421,"ann":2422,"iday":2423,"ecut":2424,"Ġanything":2425,"ĠEd":2426,"ĠSeptember":2427,"To":2428,"ĠAugust":2429,"Ġnecess":2430,"Ġexist":2431,"Ġrepresent":2432,"ĠEn":2433,"hind":2434,"ott":2435,"ix":2436,"ink":2437,"ety":2438,"ada":2439,"Ġinstr":2440,"Ġroad":2441,"Ġwhether":2442,"Ġfeature":2443,"aging":2444,"come":2445,"ĠWar":2446,"Ġansw":2447,"Ġgirl":2448,"Ġcharacter":2449,"Ġrole":2450,"Ġ2017":2451,"ĠAc":2452,"Ġthroughout":2453,"Ġsimply":2454,"16":2455,"Ġtit":2456,"Ġgrad":2457,"bruary":2458,"Ġeither":2459,"Ġdog":2460,"aged":2461,"adem":2462,"'ve":2463,"gress":2464,"Ġdeb":2465,"Ġbelieve":2466,"ze":2467,"Ġpict":2468,"Ġcred":2469,"Ġsignific":2470,"Ġseem":2471,"rom":2472,"lu":2473,"ĠWill":2474,"amb":2475,"eth":2476,"Ġlinks":2477,"Ġvi":2478,"Ġknowledge":2479,"ĠCont":2480,"edd":2481,"oll":2482,"Ġbegan":2483,"Ġwriting":2484,"ĠOctober":2485,"atur":2486,"Ġamount":2487,"Ġfamil":2488,"Ġ2016":2489,"table":2490,"astic":2491,"tar":2492,"ID":2493,"ĠJanuary":2494,"ories":2495,"Ġcoup":2496,"Ġregular":2497,"Ġtaken":2498,"oid":2499,"Ġaddress":2500,"Ġequip":2501,"Ġdraw":2502,"ground":2503,"back":2504,"Ġrequired":2505,"gest":2506,"Ġfavor":2507,"Ġoil":2508,"aver":2509,"pro":2510,"ĠRec":2511,"ama":2512,"Ġusually":2513,"ĠAustral":2514,"ĠBrit":2515,"Ġopportunity":2516,"Ġplatform":2517,"ki":2518,"ĠBy":2519,"Ġbur":2520,"Ġdam":2521,"hird":2522,"third":2523,"Ġreceived":2524,"ĠCr":2525,"ites":2526,"Ad":2527,"Ġeducation":2528,"Ġlog":2529,"Ġoptions":2530,"amed":2531,"Ġblack":2532,"Ġplayed":2533,"ĠReg":2534,"Ġblog":2535,"Ġoriginal":2536,"Ġquestion":2537,"Ġcirc":2538,"play":2539,"Ġforward":2540,"takes":2541,"ises":2542,"Ġprice":2543,"Ġmachi":2544,"azing":2545,"Read":2546,"Ġprojects":2547,"Ġskills":2548,"eal":2549,"Ġhy":2550,"Ġproduction":2551,"top":2552,"ĠMc":2553,"Ġcontinue":2554,"ĠPart":2555,"Ġmeas":2556,"Ġsystems":2557,"Ġlocated":2558,"Ġabs":2559,"ume":2560,"Ġplaying":2561,".,":2562,"Ġcoming":2563,"ables":2564,"Ġcomfort":2565,"14":2566,"irm":2567,"omi":2568,"Ġtakes":2569,"ĠQu":2570,"ana":2571,"tori":2572,"Ġoutside":2573,"icy":2574,"Ġfunction":2575,"Ġreading":2576,"Ġanim":2577,"Ġbehind":2578,"Ġproblems":2579,"Ġactivities":2580,"Ġupd":2581,"ring":2582,"aul":2583,"ered":2584,"Ġpret":2585,"Ġtrying":2586,"Ġnews":2587,"anguage":2588,"Ġap":2589,"ĠPe":2590,"ĠSome":2591,"Ġstar":2592,"Ġinside":2593,"ĠStud":2594,"Ġclub":2595,"Ġsugg":2596,"Ġsoftware":2597,"At":2598,"elebr":2599,"Ġcomput":2600,"Ġcard":2601,"ĠDep":2602,"Ġport":2603,"urance":2604,"Ġcustomer":2605,"Ġful":2606,"ĠSec":2607,"Ġsimilar":2608,"Ġmodel":2609,"ĠMo":2610,"Ġdeliver":2611,"idge":2612,"Ġprobably":2613,"izing":2614,"ech":2615,"Ġ2015":2616,"tax":2617,"Ġbad":2618,"ĠOff":2619,"olutions":2620,"Ġstudy":2621,"Ġattr":2622,"ĠPer":2623,"ufact":2624,"Ġground":2625,"Ġincludes":2626,"obile":2627,"So":2628,"Ġready":2629,"Ġthird":2630,"Af":2631,"Ġsent":2632,"ĠSw":2633,"ification":2634,"Ġdou":2635,"ĠNovember":2636,"Ġsize":2637,"bor":2638,"Ġgeneral":2639,"ST":2640,"ĠPres":2641,"EN":2642,"minis":2643,"ĠSoc":2644,"Ġsignificant":2645,"Ġproperty":2646,"Ġcolor":2647,"Ġlikely":2648,"Ġexpect":2649,"Ġarch":2650,"Ġpractice":2651,"national":2652,"Ġassoci":2653,"Ġlives":2654,"Ġrather":2655,"\".":2656,"Ġadded":2657,"eds":2658,"ille":2659,"Ġwhite":2660,"ĠTw":2661,"OR":2662,"eks":2663,"ades":2664,"Ġcombi":2665,"Ġtax":2666,"ster":2667,"Ġra":2668,"Ġmatter":2669,",\"":2670,"enced":2671,"Ġregard":2672,"lement":2673,"Ġetc":2674,"Ġhappy":2675,"reg":2676,"Ġformer":2677,"Ġquickly":2678,"Ġannoun":2679,"Ġskin":2680,"Ġrunning":2681,"ĠĠ":2682,"ucture":2683,"Ġchanges":2684,"Ġcaus":2685,"uge":2686,"aves":2687,"Ġincrease":2688,"ĠSm":2689,"medi":2690,"With":2691,"Ġvariety":2692,"Ġversion":2693,"ĠMark":2694,"Ġtext":2695,"itut":2696,"Ġpoints":2697,"ĠDecember":2698,"ĠWest":2699,"AL":2700,"Ġsix":2701,"And":2702,"Ġsafe":2703,"Ġsat":2704,"Ġtold":2705,"ective":2706,"Ġimpact":2707,"apan":2708,"Ġextra":2709,"AC":2710,"Ġpark":2711,"ules":2712,"val":2713,"sc":2714,"Ġmarketing":2715,"Ġut":2716,"Ġgoal":2717,"Ġtouch":2718,"Ġshows":2719,"ĠHigh":2720,"13":2721,"hic":2722,"Ġ50":2723,"Ġoption":2724,"ĠDes":2725,"Ġvia":2726,"Ġche":2727,"amer":2728,"Ġsle":2729,"Ġ2014":2730,"Ġclaim":2731,"ĠPre":2732,"Ġhair":2733,"Ġmaintain":2734,"Ġcouple":2735,"Ġlonger":2736,"Ġhost":2737,"igher":2738,"Ġsuper":2739,"Ġreleased":2740,"icated":2741,"face":2742,"Ġallows":2743,"istic":2744,"Ġasked":2745,"Ġfootball":2746,"Ġisn":2747,"hib":2748,"sy":2749,"Ġcurrently":2750,"do":2751,"arth":2752,"isc":2753,"Ġweeks":2754,"'ll":2755,"aily":2756,"pose":2757,"Ġprovided":2758,"Ġlay":2759,"Ġtable":2760,"eder":2761,"Ġsex":2762,"Ġnational":2763,"ĠEnglish":2764,"Ġincluded":2765,"Ġchalleng":2766,"Ġgen":2767,"Ġconst":2768,"Ġten":2769,"Ġbox":2770,"agement":2771,"Ġfinancial":2772,"Ġphone":2773,"Ġnetwork":2774,"Ġlate":2775,"ĠWhile":2776,"Ġdate":2777,"Ġpotential":2778,"Ġsummer":2779,"Ġmoment":2780,"ĠChar":2781,"Ġarri":2782,"Ġapplication":2783,"Ġ194":2784,"Ġautom":2785,"Ġcop":2786,"Ġrecommend":2787,"ky":2788,"min":2789,"ĠAb":2790,"Ġdeg":2791,"Ġtrue":2792,"Pro":2793,"Ġpaper":2794,"Ġwonder":2795,"lobal":2796,"Ġaction":2797,"Ġusers":2798,"ĠMich":2799,"cil":2800,"Ġeasily":2801,"Ġrad":2802,"Ġstore":2803,"Ġband":2804,"ĠCO":2805,"Ġround":2806,"asons":2807,"icient":2808,"Ġissue":2809,"Ġcook":2810,"ĠCor":2811,"ĠUs":2812,"ĠFi":2813,"Ġep":2814,"ev":2815,"Ġsess":2816,"Ġfig":2817,"Ġinternational":2818,"Ġleave":2819,"eel":2820,"rench":2821,"son":2822,"Ġfast":2823,"Ġwords":2824,"Ġdigital":2825,"udd":2826,"ĠFebruary":2827,"Ġleaders":2828,"ari":2829,"iction":2830,"hood":2831,"Ġwall":2832,"iddle":2833,"Ġreceive":2834,"Ġinte":2835,"Ġ,":2836,"Ġspeak":2837,"Ġpretty":2838,"Ġparty":2839,"Ġdetails":2840,"Ġphotograp":2841,"Ġremember":2842,"Ġhit":2843,"Ġcelebr":2844,"Ġkids":2845,"IC":2846,"lected":2847,"Ġsecurity":2848,"Ġrecogn":2849,"ĠSch":2850,"ening":2851,"Reply":2852,"Ġexact":2853,"Com":2854,"Ġ2013":2855,"After":2856,"Ġbeh":2857,"Ġinj":2858,"Ġdrop":2859,"IT":2860,"ĠNow":2861,"Ġ2012":2862,"Ġstudent":2863,"ĠJust":2864,"ondon":2865,"21":2866,"bert":2867,"ĠAfric":2868,"airs":2869,"ĠCoun":2870,"avy":2871,"Ġprim":2872,"tration":2873,"Ġwide":2874,"Ġmodern":2875,"Ġsched":2876,"Ġreturn":2877,"althy":2878,"Ġprivate":2879,"Ġpers":2880,"nder":2881,"ĠDon":2882,"Ġfire":2883,"Ġtypes":2884,"Ġmass":2885,"Ġtar":2886,"Ġmanufact":2887,"uel":2888,"Ġexcell":2889,"Ġitems":2890,"Ġdecided":2891,"Ġsqu":2892,"irec":2893,"ĠHere":2894,"ara":2895,"Ġnothing":2896,"Ġsaw":2897,"Ġtreatment":2898,"Ġpan":2899,"Ġsun":2900,"tries":2901,"AS":2902,"Ġreli":2903,"cep":2904,"22":2905,"erous":2906,"Ġintegr":2907,"oke":2908,"reet":2909,"Ġamazing":2910,"merc":2911,"Ġinvolved":2912,"Ġship":2913,"Ġtotal":2914,"ĠVal":2915,"ĠCenter":2916,"Ġadditional":2917,"ender":2918,"Ġnorm":2919,"Ġclick":2920,"epend":2921,"Ġprior":2922,"Ġill":2923,"ĠOf":2924,"Ġsense":2925,"aign":2926,"ĠHar":2927,"Ġboard":2928,"Ġbooks":2929,"Ġhigher":2930,"oes":2931,"Ġlif":2932,"Ġlaunch":2933,"Ġjoi":2934,"Ġelse":2935,"ĠDav":2936,"oice":2937,"ĠKing":2938,"Ġthemselves":2939,"Ġmix":2940,"ampions":2941,"ires":2942,"My":2943,"int":2944,"Ġmeeting":2945,"Ġplayer":2946,"Ġchoice":2947,"Ġsetting":2948,"Ġattention":2949,"Ġbal":2950,"bur":2951,"ĠFrom":2952,"eum":2953,"ror":2954,"Ġability":2955,"Ġrout":2956,"Ġdiscover":2957,"round":2958,"based":2959,"Ġones":2960,"ĠJapan":2961,"ĠMon":2962,"Ġsil":2963,"ED":2964,"Ġple":2965,"Ġtal":2966,"Ġ21":2967,"Ġcannot":2968,"Ġfail":2969,"Ġlost":2970,"Ġupon":2971,"Ġrisk":2972,"Ġsens":2973,"Ġmother":2974,"mm":2975,"ĠDay":2976,"Ġwood":2977,"Ġanyone":2978,"Ġloss":2979,"Ġmorning":2980,"Ġneg":2981,"ux":2982,"Ġarticle":2983,"light":2984,"ags":2985,"Ġtowards":2986,"Ġ2010":2987,"Ġhands":2988,"Tr":2989,"rown":2990,"Ġtools":2991,"Ġsuggest":2992,"irit":2993,"Ġparts":2994,"\",":2995,"year":2996,"Cl":2997,"Ġbi":2998,"attle":2999,"Ġmyself":3000,"All":3001,"Ġbenefits":3002,"erve":3003,"Ġhol":3004,"Ġencour":3005,"ĠEl":3006,"mercial":3007,"Ġ2011":3008,"Ġmedical":3009,"ĠHouse":3010,"ĠSte":3011,"ĠStr":3012,"Ġbot":3013,"ae":3014,"Ġextre":3015,"Ġgrowt":3016,"Ġgrowth":3017,"But":3018,"Ġsales":3019,"Ġitself":3020,"25":3021,"ĠAg":3022,"ĠLondon":3023,"ĠSan":3024,"Ġscreen":3025,"ram":3026,"Ġasp":3027,"Ġcause":3028,"Ġparents":3029,"ples":3030,"Ġprint":3031,"ham":3032,"ogle":3033,"ological":3034,"Ġcell":3035,"Ġlat":3036,"Ġ:":3037,"hus":3038,"Ġbase":3039,"Ġfresh":3040,"Ġuser":3041,"Ġchurch":3042,"Ġinstead":3043,"Ġeffective":3044,"ĠMr":3045,"Ġnecessary":3046,"Ġproviding":3047,"IS":3048,"ĠCollege":3049,"duce":3050,"Ġrecent":3051,"ĠOp":3052,"Ġlocation":3053,"Ġdrive":3054,"Ġwritten":3055,"ĠRuss":3056,"Ġmot":3057,"Ġhelps":3058,"Âł":3059,"Ġaccording":3060,"Ġlab":3061,"ĠAir":3062,"Ġcool":3063,"Ġprograms":3064,"ivity":3065,"itors":3066,"Ġhighly":3067,"Ġplant":3068,"Ġideas":3069,"uk":3070,"ĠAssoci":3071,"epar":3072,"aven":3073,"Ġgroups":3074,"Ġswe":3075,"acing":3076,"Ġrecently":3077,"Ġreduc":3078,"orge":3079,"Ġmultiple":3080,"Ġbed":3081,"Ġcreating":3082,"Ġded":3083,"Ġorganization":3084,"atory":3085,"aching":3086,"Ġimmedi":3087,"lev":3088,"col":3089,"ude":3090,"Ġequipment":3091,"icro":3092,"Ġseems":3093,"iff":3094,"anced":3095,"omin":3096,"Ġsafety":3097,"Ġant":3098,"lood":3099,"Ġworth":3100,"osing":3101,"Ġintroduc":3102,"oring":3103,"Ġcases":3104,"edding":3105,"Ġexpert":3106,"Ġcomplet":3107,"usiness":3108,"ĠAng":3109,"Ġfelt":3110,"Be":3111,"aby":3112,"Posted":3113,"posed":3114,"oming":3115,"Ġstor":3116,"imate":3117,"Ġdeveloped":3118,"Ġled":3119,"Ġcorre":3120,"Ġinflu":3121,"Ġchance":3122,"wh":3123,"iring":3124,"Ġsolution":3125,"hs":3126,"ression":3127,"key":3128,"ĠSer":3129,"atives":3130,"Ġofficial":3131,"imi":3132,"emi":3133,"One":3134,"acebook":3135,"board":3136,"Ġweight":3137,"Ġaff":3138,"Ġsn":3139,"Ġachieve":3140,"Ġsuccessful":3141,"Ġpiece":3142,"Ġ22":3143,"Ġball":3144,"erman":3145,"ĠAmerica":3146,"Ġobs":3147,"Ġvill":3148,"off":3149,"de":3150,"Ġlower":3151,"Ġplaces":3152,"Ġsolutions":3153,"ĠBu":3154,".)":3155,"Ġmaterials":3156,"Ġborn":3157,"Ġgives":3158,"Ġpercent":3159,"ĠRead":3160,"Ġtarget":3161,"Ġlanguage":3162,"Ġstandard":3163,"lier":3164,"Ġstreng":3165,"ani":3166,"tas":3167,"Ġsold":3168,"Ġresources":3169,"itary":3170,"hold":3171,"Ġcand":3172,"Ġleading":3173,"Ġslow":3174,"OU":3175,"Ġpartners":3176,"Ġgoes":3177,"Ġestablished":3178,"Ġpublished":3179,"cast":3180,"iding":3181,"Ġmention":3182,"Ġfavorite":3183,"ops":3184,"Ġhor":3185,"oul":3186,"use":3187,"Ġrefer":3188,"Ġconditions":3189,"Ġcompletely":3190,"ements":3191,"ha":3192,"nally":3193,"ĠBritish":3194,"Ġqual":3195,"Ġdecision":3196,"Ġindividuals":3197,"Ġson":3198,"ellow":3199,"enty":3200,"Ġteams":3201,"ords":3202,"Ġgoals":3203,"usion":3204,"anch":3205,"right":3206,"hips":3207,"Ġcollection":3208,"echn":3209,"Ġdoor":3210,"ĠInternational":3211,"Ġimm":3212,"Ġvac":3213,"aming":3214,"ĠAcc":3215,"Ġrelease":3216,"imum":3217,"Ġlooks":3218,"illing":3219,"Ġserved":3220,"Ġdest":3221,"Ġtraditional":3222,"Ġfather":3223,"Ġcampaign":3224,"Ġdaily":3225,"Ġconsist":3226,"itions":3227,"Ġapply":3228,"Ġwish":3229,"Ġmoved":3230,"Ġhous":3231,"Ġstage":3232,"Ġemer":3233,"Ġarr":3234,"Ġdocument":3235,"Ġpromot":3236,"Ġsepar":3237,"nter":3238,"ald":3239,"Ġtrip":3240,"put":3241,"Ġpm":3242,"Ġpath":3243,"ĠCommun":3244,"Ġterms":3245,"ĠCons":3246,"Ġplanning":3247,"Ġsometimes":3248,"Ġnamed":3249,"Ġimplement":3250,"Ġbusinesses":3251,"pre":3252,"Ġattem":3253,"Ġcross":3254,"Ġcomplex":3255,"lied":3256,"External":3257,"Ġdrink":3258,"Ġwoman":3259,"ĠBlack":3260,"ĠUK":3261,"eat":3262,"Ġnature":3263,"ĠâĢ¦":3264,"Ġlevels":3265,"iforn":3266,"Ġgiving":3267,"Ar":3268,"Ġgave":3269,"Ġrate":3270,"ica":3271,"nitely":3272,"ĠThen":3273,"Ġdirectly":3274,"Ġ23":3275,"Ġtas":3276,"Ġtrust":3277,"Ġ195":3278,"Ġwrite":3279,"Ġremov":3280,"Ġexcellent":3281,"ĠTV":3282,"Ġmid":3283,"Ġmount":3284,"Ġconsidered":3285,"Cont":3286,"Ġphysical":3287,"pm":3288,"Ġsell":3289,"Ġbank":3290,"âĢĿ.":3291,"arden":3292,"Ġaware":3293,"Ġfeed":3294,"Ġhuge":3295,"ĠPresident":3296,"Ġlatest":3297,"Ġinternet":3298,"ĠII":3299,"Ġstarting":3300,"Ġdetail":3301,"Con":3302,"Ġ40":3303,"Ġsports":3304,"Ġrelated":3305,"haps":3306,"Ġavoid":3307,"ĠHealth":3308,"ĠGener":3309,"eless":3310,"uth":3311,"Ġinnov":3312,"Ġcenter":3313,"Ġpositive":3314,"ibly":3315,"uments":3316,"Ġcountries":3317,"Ġwel":3318,"eed":3319,"icip":3320,"sych":3321,"estern":3322,"ox":3323,"ifornia":3324,"Ġaward":3325,"Ġeyes":3326,"ĠItal":3327,"Ġrev":3328,"Ġnice":3329,"esc":3330,"idents":3331,"ĠWi":3332,"Ġconsum":3333,"EO":3334,"Ġaver":3335,"gn":3336,"Ġvic":3337,"ceed":3338,"enge":3339,"Ġpurchase":3340,"wood":3341,"Ġsurpr":3342,"Ġsituation":3343,"Ġconstruction":3344,"Ġsites":3345,"Ġconvers":3346,"Ġthinking":3347,"ĠGroup":3348,"Ġprevent":3349,"ĠIndia":3350,"rup":3351,"Ġbeginning":3352,"Ġsuit":3353,"Ġculture":3354,"emb":3355,"Ġcosts":3356,"Ġinterested":3357,"acts":3358,"aught":3359,"Ġprogress":3360,"Ġcomputer":3361,"itation":3362,"Ġimage":3363,"ension":3364,"Ġorganiz":3365,"Ġfamilies":3366,"Ġinteresting":3367,"Ġcollabor":3368,"Ġconsult":3369,"igation":3370,"Ġfeeling":3371,"Ġpartner":3372,"Ġfight":3373,"Ġadvant":3374,"AM":3375,"band":3376,"yl":3377,"tee":3378,"Ġopportunities":3379,"Ġstress":3380,"like":3381,"Ġaim":3382,"Ġappoint":3383,"Ġ2009":3384,"Ġdisplay":3385,"aughter":3386,"Ġgreen":3387,"ĠAnt":3388,"ibr":3389,"itute":3390,"nary":3391,"ĠUp":3392,"Ġadminis":3393,"ordi":3394,"ĠFrench":3395,"ĠGl":3396,"Ġagre":3397,"nos":3398,"Ġfully":3399,"Ġsleep":3400,"etic":3401,"Ġdiv":3402,"itter":3403,"zz":3404,"ĠPat":3405,"ashing":3406,"Ġplans":3407,"ĠAct":3408,"house":3409,"Ġcredit":3410,"Ġdark":3411,"udget":3412,"Ġspent":3413,"Ġcode":3414,"Ġclient":3415,"Ġbroad":3416,"aker":3417,"Ġmat":3418,"Ġemployees":3419,"199":3420,"ico":3421,"know":3422,"Ġemot":3423,"hous":3424,"ael":3425,"Ġsal":3426,"Ġmoving":3427,"aries":3428,"olf":3429,"iam":3430,"Ġconduc":3431,"ĠPhil":3432,"Ġsend":3433,"Ġmer":3434,"Ġboy":3435,"Ġ28":3436,"Ġessential":3437,"ysis":3438,"ĠEvery":3439,"ĠFirst":3440,"Ġwarm":3441,"Ġregion":3442,"just":3443,"ĠDirec":3444,"ville":3445,"ĠEm":3446,"oo":3447,"antly":3448,"Ġspend":3449,"Ġsave":3450,"ati":3451,"Ġur":3452,"ipe":3453,"Ġaccom":3454,"icate":3455,"60":3456,"Ġstories":3457,"iment":3458,"Ġbrought":3459,"igr":3460,"Ġwasn":3461,"By":3462,"Ġterm":3463,"Ġgets":3464,"Ġcomment":3465,"Ġanswer":3466,"itect":3467,"Ġrestaur":3468,"ĠSim":3469,"ĠCalifornia":3470,"HE":3471,"Ġrequest":3472,"Ġfix":3473,"ategy":3474,"40":3475,"uate":3476,"wise":3477,"Ġroll":3478,"enn":3479,"ounts":3480,"Ġsource":3481,"Pl":3482,"Ġacqu":3483,"mas":3484,"Ġhealthy":3485,"Ġ2008":3486,"add":3487,"Ġpolicy":3488,"ester":3489,"sequ":3490,"Ġaffect":3491,"Ġfair":3492,"Ġneigh":3493,"Ġmobile":3494,"rest":3495,"Ġgrowing":3496,"Ġlegal":3497,"Ġ27":3498,"ager":3499,"Ġcompleted":3500,"Ġcarry":3501,"Ġinsurance":3502,"Ġcentury":3503,"Ġcasino":3504,"Ġstation":3505,"Ġpolitical":3506,"ban":3507,"Ġsubject":3508,"ĠCour":3509,"Ġstrateg":3510,"Ġeye":3511,"Ġsection":3512,"Ġcommercial":3513,"ĠAre":3514,"isf":3515,"ecause":3516,"Ġpull":3517,"Ġdise":3518,"ties":3519,"ospital":3520,"OT":3521,"ĠCanada":3522,"ĠLa":3523,"lands":3524,"Ġtitle":3525,"Ġâ":3526,"Ġspot":3527,"Ġprofession":3528,"Ġprevious":3529,"Ġdownload":3530,"ĠMost":3531,"New":3532,"Ġpatients":3533,"Ġconnect":3534,"ING":3535,"ĠChurch":3536,"ĠRed":3537,"Ġ26":3538,"Ġrock":3539,"izes":3540,"Sp":3541,"Ġunderstanding":3542,"Ġdefinitely":3543,"Ġhimself":3544,"vey":3545,"ĠTur":3546,"engt":3547,"ception":3548,"ĠGoogle":3549,"ĠIndian":3550,"ĠEast":3551,"Ġfile":3552,"Ġfa":3553,"Ġspeed":3554,"eep":3555,"ĠLeague":3556,"Ġturned":3557,"Ġfarm":3558,"Ġcollege":3559,"ears":3560,"Ġcoach":3561,"dom":3562,"isions":3563,"Ġwife":3564,"Ġgold":3565,"Ġexerc":3566,"ĠProf":3567,"ĠStreet":3568,"ĠLaw":3569,"Ġinterview":3570,"ĠBen":3571,"Ġrequirements":3572,"Ġblock":3573,"ĠSund":3574,"Ġfrequ":3575,"Ġcert":3576,"Ġactive":3577,"Ġexactly":3578,"Ġfinally":3579,"Ġcapt":3580,"arter":3581,"ĠMet":3582,"Ġknew":3583,"ĠMor":3584,"gg":3585,"ĠClub":3586,"ustain":3587,"oyal":3588,"ugh":3589,"onse":3590,"See":3591,"enior":3592,"Ġrace":3593,"aint":3594,"No":3595,"Ġfilms":3596,"Ġhour":3597,"Ġaltern":3598,"more":3599,"Ġlimited":3600,"ancy":3601,"Ġfloor":3602,"Ġjourney":3603,"Ġdeter":3604,"Ġeffort":3605,"Ġheard":3606,"Ġimag":3607,"itchen":3608,"ashion":3609,"ĠAustralia":3610,"active":3611,"ĠLi":3612,"Ġprotect":3613,"ĠBel":3614,"estival":3615,"where":3616,"Ġglobal":3617,"onstr":3618,"emic":3619,"Ġnorth":3620,"Ġschools":3621,"Ġrespect":3622,"Ġul":3623,"ĠInter":3624,"ĠDepartment":3625,"ivil":3626,"Un":3627,"ĠPlease":3628,"Ġcertainly":3629,"Ġjoin":3630,"Ġsurround":3631,"Ġcat":3632,"cr":3633,"Ġprec":3634,"Ġphotos":3635,"Ġx":3636,"Ġtrain":3637,"Ġcompos":3638,"Ġnote":3639,"born":3640,"Ġviol":3641,"nel":3642,"hicle":3643,"ropri":3644,"ography":3645,"onic":3646,"Ġfinish":3647,"Ġmovie":3648,"ĠIr":3649,"Ġpopulation":3650,"Ġpred":3651,"Ġdry":3652,"Ġindepend":3653,"Ġextrem":3654,"unk":3655,"Ġliter":3656,"orks":3657,"Ġdegree":3658,"--":3659,"Ġwrong":3660,"Ġaverage":3661,"ma":3662,"Ġconc":3663,"ffee":3664,"Ġserve":3665,"ĠDistr":3666,"Ġuses":3667,"Ġcreative":3668,"Ġnov":3669,"Ġobject":3670,"ĠChina":3671,"Mar":3672,"que":3673,"Ġexecut":3674,"town":3675,"field":3676,"ĠGreat":3677,"Ġseek":3678,"Ġbehav":3679,"Ġtemper":3680,"Ġobtain":3681,"Ġhelped":3682,"AD":3683,"ĠMag":3684,"ĠOut":3685,"Ġsouth":3686,"Ġmachine":3687,"tection":3688,"Ġproduced":3689,"ĠEuropean":3690,"dr":3691,"Ġdevice":3692,"ĠAssociation":3693,"ĠHol":3694,"Ġblood":3695,"Ġcourt":3696,"ube":3697,"Ġappre":3698,"Ġsus":3699,"set":3700,"Ġcamer":3701,"Ġartist":3702,"ĠRiver":3703,"iation":3704,"Ġcou":3705,"Ġglass":3706,"Ġpassion":3707,"Ġhistor":3708,"Ġfirm":3709,"ĠTri":3710,"Ġcount":3711,"Ġmax":3712,"Ġstra":3713,"mb":3714,"ĠSto":3715,"Ġchanged":3716,"Ġeasier":3717,"unte":3718,"Ġloved":3719,"Ġspirit":3720,"ĠCouncil":3721,"ĠDesign":3722,"ressed":3723,"OS":3724,"ĠPM":3725,"ĠInc":3726,"Ġattack":3727,"ĠAlso":3728,"ĠBusiness":3729,"formation":3730,"Ġexperienced":3731,"24":3732,"ici":3733,"Ġbenefit":3734,"org":3735,"Ġtruly":3736,"Ġlooked":3737,"Ġbudget":3738,"ET":3739,"?âĢĿ":3740,"Ġver":3741,"ida":3742,"ocal":3743,"arant":3744,"ago":3745,"apt":3746,"ĠEven":3747,"Ġpurpose":3748,"apy":3749,"Ġhop":3750,"ĠMinis":3751,"Ġpen":3752,"Ġlic":3753,"Ġactivity":3754,"actions":3755,"ĠFin":3756,"ĠHall":3757,"Ġoverall":3758,"used":3759,"Ġsupply":3760,"Ġorigi":3761,"Ġimages":3762,"Ġ+":3763,"Ġwait":3764,"Ġhelping":3765,"Ġtransport":3766,"Ġdeli":3767,"Ġheat":3768,"Ġmeaning":3769,"Ġdifference":3770,"ycle":3771,"Ġwonderful":3772,"ously":3773,"echan":3774,"Ġvirt":3775,"eli":3776,"aturday":3777,"Ġfine":3778,"Ġfeet":3779,"Ġstraight":3780,"Ġbey":3781,"Ġwedding":3782,"ĠLet":3783,"ĠTechn":3784,"Ġbeyond":3785,"istics":3786,"EC":3787,"arily":3788,"iced":3789,"iles":3790,"ĠMany":3791,"uffer":3792,"porate":3793,"Ġstuff":3794,"oday":3795,"Ġguide":3796,"ĠPost":3797,"Ġmessage":3798,"rote":3799,"ports":3800,"Ġutil":3801,"Ġjud":3802,"mark":3803,"Not":3804,"Le":3805,"ĠAM":3806,"ĠPort":3807,"Ġexhib":3808,"urt":3809,"ulations":3810,"ĠGover":3811,"Ġapplications":3812,"rel":3813,"ĠFacebook":3814,"Ġeight":3815,"Ġwid":3816,"ĠServices":3817,"Ġattend":3818,"80":3819,"Ġaudience":3820,"Ġ193":3821,"Ġoptim":3822,"Ġannounced":3823,"VID":3824,"Ġcorrect":3825,"ĠTrans":3826,"Ġappreci":3827,"ander":3828,"ĠBest":3829,"Ġdead":3830,"vant":3831,"Ġreve":3832,"ĠPaul":3833,"Ġstructure":3834,"Ġeat":3835,"Ġexam":3836,"Ġgar":3837,"Ġcontinued":3838,"Ġparticularly":3839,"omew":3840,"ĠBer":3841,"Ġallowed":3842,"Ġ29":3843,"ĠPlay":3844,"Ġbrother":3845,"Ġfinished":3846,"Ġestablish":3847,"Ġowners":3848,"ĠService":3849,"ĠProgram":3850,"Ġalthough":3851,"Ġartists":3852,"ĠPal":3853,"undred":3854,"Ġexpected":3855,"Ġimmediately":3856,"Ġvoice":3857,"Ġload":3858,"23":3859,"Ġspecies":3860,"omb":3861,"Ġoccas":3862,"ened":3863,"AP":3864,"ĠWell":3865,"ĠGreen":3866,"Ġtried":3867,"Ġ2007":3868,"amm":3869,"Ġprefer":3870,"leg":3871,"Ġreasons":3872,"ware":3873,"Ġstrategy":3874,"ections":3875,"ament":3876,"ocr":3877,"Ġdamage":3878,"Ġsort":3879,"lip":3880,"Ġreduce":3881,"Ġlines":3882,"Ġfem":3883,"Ġoffered":3884,"oper":3885,"BC":3886,"tick":3887,"ĠNews":3888,"Ã¡":3889,"Ġdemand":3890,"Ġgrand":3891,"nner":3892,"unt":3893,"Ab":3894,"Ġextremely":3895,"Ġproduce":3896,"Ġvehicle":3897,"mission":3898,"Ġfab":3899,"Ġlack":3900,"Ġexperiences":3901,"Ġsaying":3902,"arent":3903,"Ġdied":3904,"yn":3905,"ĠDavid":3906,"Ġbasic":3907,"Ġstrugg":3908,"Ġopened":3909,"Ġoccur":3910,"ĠGerman":3911,"Ġeffects":3912,"ications":3913,"Ġcharge":3914,"Ġmaybe":3915,"thous":3916,"ĠBur":3917,"Ġresponse":3918,"Ġexpand":3919,"Ġsurv":3920,"Ġpicture":3921,"eting":3922,"Ġincreasing":3923,"Ġpet":3924,"Ġsteps":3925,"Ġcontribut":3926,"Ġpieces":3927,"Ġweather":3928,"Ġmission":3929,"Ġsatisf":3930,"Ġlands":3931,"ili":3932,"ĠNet":3933,"Ġwear":3934,"Ġsubst":3935,"ederal":3936,"ulated":3937,"Ġfollowed":3938,"Ġnut":3939,"Ġindustr":3940,"eff":3941,"Ġbackground":3942,"Ġsongs":3943,"Ġnormal":3944,"Ġregister":3945,"Ġpressure":3946,"Ġincred":3947,"Ġsmart":3948,"ĠBook":3949,"Ġcash":3950,"hes":3951,"Ġspread":3952,"ĠWork":3953,"Ġscore":3954,"Ġpaid":3955,"Ġcompon":3956,"ĠFound":3957,"Ġteaching":3958,"riend":3959,"Ġmiddle":3960,"mon":3961,"Ġdirector":3962,"Ġthous":3963,"Ġexisting":3964,"Ġassess":3965,"body":3966,"ĠTex":3967,"Ġmovement":3968,"Ġ=":3969,"Ġcry":3970,"ras":3971,"Ġwrote":3972,"porary":3973,"Ġcomfortable":3974,"ĠDevelop":3975,"Ġalone":3976,"ole":3977,"gen":3978,"Ġsuffer":3979,"Ġabsolut":3980,"Ġcomments":3981,"Ġwild":3982,"Ġinvestment":3983,"Ġstates":3984,"Ġprinc":3985,"Ġtransfer":3986,"Is":3987,"ĠJames":3988,"Ġjoined":3989,"ĠSunday":3990,"Ġshoot":3991,"aling":3992,"Ġrights":3993,"ĠEngland":3994,"hol":3995,"rey":3996,"Ġmaster":3997,"ken":3998,"iant":3999,"While":4000,"Ġreported":4001,"Ġdrug":4002,"Ġtick":4003,"ĠChampions":4004,"iques":4005,"Ġdom":4006,"Ġgas":4007,"Ġarg":4008,"Ġoffering":4009,"ĠDistrict":4010,"That":4011,"oly":4012,"Ġcontract":4013,"Ġpowerful":4014,"ĠEduc":4015,"nese":4016,"Ġsurface":4017,"ION":4018,"ĠMin":4019,"ĠOver":4020,"Ġhighest":4021,"ĠCap":4022,"ĠHome":4023,"itar":4024,"Ġcateg":4025,"ĠSum":4026,"Ġadvice":4027,"Ġcontinu":4028,"Ġcapital":4029,"ĠSur":4030,"wide":4031,"eared":4032,"Ġfort":4033,"Ġshared":4034,"Ġbaby":4035,"bon":4036,"Ġchallenge":4037,"Ġscience":4038,"Ġafford":4039,"ĠChristmas":4040,"Ġepis":4041,"Ġwants":4042,"Ġord":4043,"Americ":4044,"Ġstrengt":4045,"Ġrelax":4046,"Ġchallenges":4047,"Ġhus":4048,"Ġmethods":4049,"Ġchann":4050,"Ġcontain":4051,"rows":4052,"Ġsubs":4053,"asts":4054,"Ġinstitut":4055,"Ġtelev":4056,"Ġorganizations":4057,"Ġadvert":4058,"Ġah":4059,"Ġpolice":4060,"ĠFriday":4061,"Ġmale":4062,"men":4063,"Ġsession":4064,"Ġcold":4065,"Ġsusp":4066,"Ġpainting":4067,"lus":4068,"Ġdedicated":4069,"Ġlots":4070,"lying":4071,"order":4072,"Ġblue":4073,"Ġnumbers":4074,"His":4075,"Ġmanage":4076,"Ġproced":4077,"Ġcast":4078,"cel":4079,"Ġcandid":4080,"rief":4081,"Ġappropri":4082,"Ġing":4083,"Ġthank":4084,"ĠRoad":4085,"iverse":4086,"Ġeconomic":4087,"Ġlengt":4088,"Ġdevices":4089,"Ġcup":4090,"ady":4091,"Ġrespond":4092,"Ġnearly":4093,"encies":4094,"ĠMac":4095,"ĠEv":4096,"Ġroof":4097,"Ġgrap":4098,"Ġ60":4099,"Ġcommunities":4100,"coming":4101,"ona":4102,"Ġconv":4103,"Ġlargest":4104,"Ġrules":4105,"Ġrent":4106,"ĠMusic":4107,"ĠCompany":4108,"Ġ2006":4109,"Ġhundred":4110,"ston":4111,"âĢ¢":4112,"tenance":4113,"forts":4114,"Ġpresident":4115,"tend":4116,"ĠRich":4117,"ĠChan":4118,"ĠBoard":4119,"Ġclasses":4120,"ĠOnce":4121,"Ġesc":4122,"Ġkitchen":4123,"Ġacadem":4124,"aine":4125,"Ġshot":4126,"Ġfant":4127,"ĠWind":4128,"Ġnumerous":4129,"EL":4130,"Ġelements":4131,"Ġbreat":4132,"Ġaccept":4133,"Ph":4134,"ĠLou":4135,"ĠDirector":4136,"affic":4137,"ĠGeneral":4138,"Here":4139,"Ġopening":4140,"tips":4141,"oon":4142,"ĠSince":4143,"ĠCle":4144,"ashington":4145,"Ġstock":4146,"Ġideal":4147,"Ġlearned":4148,"ĠMod":4149,"ĠDuring":4150,"down":4151,"ĠMal":4152,"ĠTer":4153,"Ġscient":4154,"Ġanaly":4155,"outher":4156,"hreat":4157,"abi":4158,"Ġdaughter":4159,"Ġregarding":4160,"ĠSpec":4161,"ĠGold":4162,"Ġanalysis":4163,"Ġearlier":4164,"threat":4165,"Ġarchitect":4166,"Ġexplore":4167,"ĠOther":4168,"ĠDem":4169,"Ġcoffee":4170,"Ġpsych":4171,"bing":4172,"|-":4173,"Ġcompetition":4174,"Ġconcept":4175,"Ġgenerally":4176,"Ġbasis":4177,"Ġweekend":4178,"Ġincreased":4179,"Ġelectric":4180,"IL":4181,"ĠMem":4182,"Ġbottom":4183,"Ġdescribed":4184,"Ġgift":4185,"Ġtips":4186,"cription":4187,"Ġselect":4188,"Ġuseful":4189,"Ġcharacters":4190,"icks":4191,"hern":4192,"Do":4193,"Ġtrade":4194,"ero":4195,"Ġlarger":4196,"za":4197,"ĠSl":4198,"Ġefficient":4199,"Ġdream":4200,"ĠSaturday":4201,"ipp":4202,"Ġassociated":4203,"amily":4204,"PS":4205,"Ġstudies":4206,"ĠMount":4207,"Ġahead":4208,"Ġsustain":4209,"ĠMary":4210,"OM":4211,"ula":4212,"icial":4213,"Ġwhose":4214,"Ġcommunication":4215,"change":4216,"ĠGet":4217,"Ġprimary":4218,"27":4219,"Ġalign":4220,"US":4221,"Ġcouldn":4222,"Ġmilitary":4223,"Ġdoub":4224,"Ġtrend":4225,"reek":4226,"Ġvillage":4227,"atively":4228,"ĠSystem":4229,"Ġannual":4230,"outhern":4231,"Ġgather":4232,"tree":4233,"anish":4234,"Ġsty":4235,"ĠCup":4236,"Ġvot":4237,"hire":4238,"Ġtelevision":4239,"Ġbeach":4240,"ounds":4241,"Ġbecoming":4242,"Ġseeing":4243,"Ġtalking":4244,"acity":4245,"Ġresponsible":4246,"Ġef":4247,"Ġadvantage":4248,"Ġcards":4249,"ĠCamp":4250,"ses":4251,"Ġhusband":4252,"Ġsoft":4253,"ĠBay":4254,"ĠMart":4255,"Like":4256,"Ġmodels":4257,"tail":4258,"=\"":4259,"Ġforce":4260,"odes":4261,"Ġentertain":4262,"rd":4263,"ĠDiv":4264,"Ġplaced":4265,"Ġseven":4266,"Ġconnection":4267,"fit":4268,"'d":4269,"lies":4270,"99":4271,"Ġjournal":4272,"Ġpool":4273,"They":4274,"lation":4275,"care":4276,"ĠLife":4277,"ĠTexas":4278,"elp":4279,"These":4280,"Ġheavy":4281,"vest":4282,"Ġdress":4283,"Ġaren":4284,"Ġguid":4285,"mitted":4286,"ĠGerm":4287,"lymp":4288,"Ġsav":4289,"She":4290,"uated":4291,"Ġsociety":4292,"Ġcritical":4293,"place":4294,"inger":4295,"onday":4296,"venue":4297,"ĠIm":4298,"26":4299,"Ġsu":4300,"Ġfat":4301,"Ġbath":4302,"ination":4303,"Ġpeace":4304,"ĠInt":4305,"Ġti":4306,"orthern":4307,"Ġmarried":4308,"28":4309,"onus":4310,"ĠCOVID":4311,"icles":4312,"ĠEach":4313,"âĢĿ,":4314,"ĠPlan":4315,"Ġgreater":4316,"anging":4317,"ault":4318,"ĠThom":4319,"Ġefforts":4320,"ĠRepublic":4321,"Ġpictures":4322,"Ġpatient":4323,"Ġperhaps":4324,"Ġkept":4325,"ifying":4326,"ĊĊ":4327,"Ġrequires":4328,"Ġfans":4329,"Ġfish":4330,"Don":4331,"Ap":4332,"Ġclin":4333,"Ġvolunte":4334,"Ġadjust":4335,"Ġpush":4336,"Ġthreat":4337,"Ġauth":4338,"ĠInstitute":4339,"Ġdistribut":4340,"Ġforms":4341,"ĠSal":4342,"ĠManagement":4343,"Ġsecure":4344,"Ġrestr":4345,"ĠQue":4346,"Ġchem":4347,"cle":4348,"Ġslight":4349,"Ġshown":4350,"cy":4351,"Ġvisual":4352,"Ġonto":4353,"Ġhomes":4354,"ooth":4355,"ulate":4356,"Ġwinter":4357,"overy":4358,"Ġdelivery":4359,"Ġprices":4360,"Ġpassed":4361,"itiz":4362,"unately":4363,"Ġmechan":4364,"ĠWashington":4365,"ĠGood":4366,"ĠWhite":4367,"ĠCourt":4368,"Ġmeasure":4369,"Ġvision":4370,"Ġfashion":4371,"Ġowner":4372,"Ġdoll":4373,"ĠRem":4374,"Ġserious":4375,"Ġinstruc":4376,"hlet":4377,"Get":4378,"From":4379,"Ġdemonstr":4380,"Pe":4381,"iar":4382,"Ġfamous":4383,"Ġmis":4384,"ĠAward":4385,"wi":4386,"American":4387,"cher":4388,"Ġdetermi":4389,"Ġschedule":4390,"bu":4391,"ado":4392,"Ġadop":4393,"ĠAcadem":4394,"ta":4395,"Ġfinding":4396,"erved":4397,"Now":4398,"Ġprotection":4399,"aled":4400,"Ġpayment":4401,"adian":4402,"Bl":4403,"ĠIsland":4404,"ologies":4405,"Ġplants":4406,"Ġnation":4407,"ĠFil":4408,"ĠFrance":4409,"task":4410,"Ġunit":4411,"Ġoutdo":4412,"Ġiniti":4413,"new":4414,"Ġreturned":4415,"Ġnav":4416,"Ġharm":4417,"Ġreality":4418,"Ġsymp":4419,"agram":4420,"ĠAngel":4421,"ios":4422,"iger":4423,"andemic":4424,"45":4425,"ĠGeorge":4426,"Ġnotice":4427,"ervation":4428,"Ġfigure":4429,"standing":4430,"Ġrelig":4431,"isation":4432,"ĠPeople":4433,"Ġcovered":4434,"Ġtree":4435,"Ġpoor":4436,"ĠApp":4437,"Ġolder":4438,"Ġflex":4439,"ĠNor":4440,"Ġpor":4441,"olic":4442,"Ġtechnical":4443,"mail":4444,"ĠFlor":4445,"Ġkeeping":4446,"Ġdisease":4447,"oma":4448,"Ġrich":4449,"Ġdeveloping":4450,"Wh":4451,"Ġdouble":4452,"xim":4453,"Ġthanks":4454,"Ġscen":4455,"imin":4456,"29":4457,"Ġremain":4458,"Your":4459,"irus":4460,"Ġfill":4461,"gency":4462,"Ġestate":4463,"Ġpleas":4464,"Ġcompl":4465,"Ġ...":4466,"Ġleader":4467,"ĠArch":4468,"Ġgirls":4469,"ray":4470,"Ġoperations":4471,"70":4472,"Ġproud":4473,"Ġsupp":4474,"rough":4475,"Ġstorage":4476,"Ġtherefore":4477,"ka":4478,"cement":4479,"Ġworksh":4480,"ĠMil":4481,"Ġshape":4482,"Ġfol":4483,"Ġcatch":4484,"ĠClass":4485,"ðŁ":4486,"Ġlibr":4487,"ĠLake":4488,"Ġpremi":4489,"bit":4490,"Ġadvent":4491,"Ġdang":4492,"earn":4493,"Ġdecor":4494,"ading":4495,"Ġguarant":4496,"ĠChinese":4497,"ĠMex":4498,"Ġwinning":4499,"Ġcopy":4500,"istry":4501,"Ġdating":4502,"Ġpages":4503,"ĠDi":4504,"Why":4505,"Ġtask":4506,"Ġrelationships":4507,"akers":4508,"Ġincor":4509,"ĠProduc":4510,"agon":4511,"Ġtend":4512,"head":4513,"Ġtalent":4514,"Ġbecomes":4515,"Ġwelcome":4516,"ĠRob":4517,"ĠTy":4518,"Ġdirection":4519,"Ġvideos":4520,"Ġdistrict":4521,"Ġwine":4522,"ĠAfrica":4523,"bl":4524,"Ġ--":4525,"Ġincome":4526,"Ġhappened":4527,"Ġge":4528,"lor":4529,"ĠIT":4530,"Ġgarden":4531,"ĠSam":4532,"Ġlock":4533,"ĠProfess":4534,"Ġaccur":4535,"ĠAlthough":4536,"ĠSing":4537,"ĠMiss":4538,"Ġtraffic":4539,"Ġworkers":4540,"anta":4541,"Ġdiet":4542,"Ġcamera":4543,"Ġmeant":4544,"asy":4545,"text":4546,"ĠCare":4547,"azine":4548,"Ġ@":4549,"EM":4550,"ui":4551,"Ġplus":4552,"ĠPet":4553,"ĠPen":4554,"Ġselection":4555,"Ġsale":4556,"Ġsweet":4557,"ĠSpr":4558,"Ġhotel":4559,"Ġyout":4560,"Ġgone":4561,"Ġdesp":4562,"Ġhar":4563,"Sc":4564,"Ġswitch":4565,"Ġwindow":4566,"Ġsolid":4567,"ya":4568,"OL":4569,"ĠChristian":4570,"ermine":4571,"Ġexcited":4572,"Ġscene":4573,"Ġcentral":4574,"ĠYear":4575,"ĠÂ£":4576,"century":4577,"Ġir":4578,"Ġevening":4579,"Ġbeauty":4580,"Ġassign":4581,"ĠEducation":4582,"orrow":4583,"ĠMichael":4584,"ĠTeam":4585,"Ġdriving":4586,"Ġbow":4587,"icine":4588,"Ġ2005":4589,"Ġnames":4590,"Or":4591,"Ġbatter":4592,"Ġreports":4593,"vi":4594,"Ġclosed":4595,"itz":4596,"Ġ2000":4597,"icing":4598,"ota":4599,"Ġ31":4600,"Ġeval":4601,"Ġprofessionals":4602,"Ġtechniques":4603,"Ġperformed":4604,"ibute":4605,"ĠJos":4606,"Ġactual":4607,"Ġrank":4608,"Ġbiggest":4609,"Ġbalance":4610,"antic":4611,"ugar":4612,"Ġmental":4613,"Ġruns":4614,"Ġsharing":4615,"dd":4616,"ynam":4617,"Ġspring":4618,"Ġeventually":4619,"Ġemb":4620,"ĠAlex":4621,"ĠGrand":4622,"ĠPhoto":4623,"Ġsport":4624,"vious":4625,"ĠBecause":4626,"ĠLit":4627,"berg":4628,"Ġhandle":4629,"Ġloan":4630,"ĠTheir":4631,"Ġfocused":4632,"ician":4633,"Ġstrength":4634,"Ġflav":4635,"oe":4636,"amin":4637,"Ġmiles":4638,"Rec":4639,"ĠVic":4640,"IP":4641,"Ġmanaged":4642,"friend":4643,"May":4644,"Ġcollect":4645,"Ġappropriate":4646,"**":4647,"ĠAnn":4648,"Fi":4649,"Ġpresented":4650,"Ġmanager":4651,"ĠFranc":4652,"Ġtesting":4653,"Ġvalues":4654,"Ġexpos":4655,"Ġfiles":4656,"ancing":4657,"ils":4658,"Ġrepair":4659,"thus":4660,"ellig":4661,"ĠHot":4662,"ND":4663,"Some":4664,"35":4665,"ĠResearch":4666,"Pre":4667,"ĠSociety":4668,"ĠLike":4669,"198":4670,"Ġdisapp":4671,"Ġexperts":4672,"tered":4673,"Ġcore":4674,"Ġremind":4675,"CC":4676,"Ġcleaning":4677,"atically":4678,"Ġmetal":4679,"ĠMuseum":4680,"ĠGermany":4681,"ĠMad":4682,"ĠJew":4683,"Ġbag":4684,"Ne":4685,"Ġbirths":4686,"Ġhappens":4687,"Ġconven":4688,"Ġmonitor":4689,"term":4690,"ĠDevelopment":4691,"Ġtrail":4692,"ocks":4693,"Ġguests":4694,"ordin":4695,"Share":4696,"Ġthoughts":4697,"Ġstick":4698,"Ġultim":4699,"Ġbuildings":4700,"Ġbul":4701,"Ġbird":4702,"Ġluck":4703,"ĠImp":4704,"lines":4705,"Ġrare":4706,"Ġpandemic":4707,"Ġmaintenance":4708,"Ġstatus":4709,"Ġfriendly":4710,"nct":4711,"Ġdish":4712,"Ġrates":4713,"Ġlandsc":4714,"Ġgain":4715,"Ġrain":4716,"ano":4717,"Ġmentioned":4718,"allery":4719,"Ġinitial":4720,"Ġleaving":4721,"Ġthus":4722,"ette":4723,"fr":4724,"Ġstreet":4725,"Ġteacher":4726,"ean":4727,"Ġstandards":4728,"âĢ¦]":4729,"Ġcontains":4730,"ĠLeg":4731,"Ġsand":4732,"Ġrap":4733,"Ġprepared":4734,"cing":4735,"well":4736,"Ġconnected":4737,"Ġnovel":4738,"ĠRock":4739,"Ġden":4740,"Ġjump":4741,"Gr":4742,"irgin":4743,"bour":4744,"ij":4745,"Ġice":4746,"Ġopi":4747,"Ġcy":4748,"Ġleadership":4749,"Ġfemale":4750,"hens":4751,"ĠAny":4752,"ala":4753,"ĠLo":4754,"Ġhom":4755,"Ġbutton":4756,"iled":4757,"road":4758,"ga":4759,"alls":4760,"ĠÃ":4761,"Ġsmaller":4762,"Ġcolors":4763,"ĠBet":4764,"roy":4765,"Ġplenty":4766,"Ġcapacity":4767,"cell":4768,"Ġfactors":4769,"Ġdance":4770,"ĠParty":4771,"box":4772,"Ġdetermine":4773,"Ġcontinues":4774,"Ġaccep":4775,"writ":4776,"Ġrob":4777,"ĠOffice":4778,"Ġsomew":4779,"ĠBig":4780,"Ġton":4781,"ĠDel":4782,"Ġretail":4783,"ĠKen":4784,"Ġdecide":4785,"Ġjobs":4786,"Ĥ¬":4787,"rowd":4788,"Ġhab":4789,"ĠStar":4790,"ĠPublic":4791,"Ġselected":4792,"apped":4793,"Ġmostly":4794,"ĠCentral":4795,"Ġdebut":4796,"Ġfacilities":4797,"acement":4798,"gins":4799,"Ġcomb":4800,"ĠFore":4801,"umi":4802,"ĠSuper":4803,"ĠCommunity":4804,"Ġpurs":4805,"ĠBre":4806,"Ġbrain":4807,"ĠTor":4808,"Ġcompared":4809,"Ġended":4810,"Ġtrees":4811,"lim":4812,"Ġlimit":4813,"pet":4814,"rint":4815,"ĠCommit":4816,"Ġwhatever":4817,"Ġwaiting":4818,"Ġremains":4819,"icians":4820,"Ġprocesses":4821,"Ġstudio":4822,"vis":4823,"Ġradio":4824,"ĠCur":4825,"Ġmist":4826,"OW":4827,"uty":4828,"enses":4829,"Ġsmooth":4830,"Ġsea":4831,"ĠOlymp":4832,"Ġste":4833,"Ġcars":4834,"Ġcaused":4835,"Ġexercise":4836,"ĠUnder":4837,"ĠTom":4838,"Ġanimals":4839,"Ġevidence":4840,"ĠJes":4841,"Ġlisted":4842,"Ġpal":4843,"Ġremove":4844,"bre":4845,"TS":4846,"Ġpractices":4847,"Ġresidents":4848,"Acc":4849,"Ġopin":4850,"ĠMake":4851,"Ġtrou":4852,"Ġexciting":4853,"Ġentry":4854,"ĠVol":4855,"Ġadding":4856,"ĠSun":4857,"Ġviews":4858,"ĠEngine":4859,"ĠScience":4860,"idential":4861,"Ġsigned":4862,"asc":4863,"owns":4864,"Ġhaven":4865,"Ġteach":4866,"Please":4867,"Ġang":4868,"Ġban":4869,"ums":4870,"Ġingred":4871,"Ġreached":4872,"known":4873,"Ġworry":4874,"Ġchanging":4875,"Ġspl":4876,"Br":4877,"Ġleaves":4878,"LE":4879,"la":4880,"Ġfan":4881,"ctions":4882,"Can":4883,"100":4884,"Ġindependent":4885,"ĠMonday":4886,"Ġtypically":4887,"IM":4888,"Ġmajority":4889,"riage":4890,"Ġmulti":4891,"Ġoppos":4892,"liance":4893,"ĠWater":4894,"Ġraised":4895,"ooking":4896,"iling":4897,"ĠChild":4898,"Se":4899,"ĠAdd":4900,"ĠDen":4901,"Ġaid":4902,"ĠTime":4903,"....":4904,"imal":4905,"azz":4906,"icious":4907,"Ġclassic":4908,"ĠEmp":4909,"van":4910,"Ġreviews":4911,"ket":4912,"ĠJapanese":4913,"Ġcalls":4914,"Ġscr":4915,"Ġneighbor":4916,"Ġbrings":4917,"Ġstarts":4918,"Ġterri":4919,"Ġ80":4920,"Ġ190":4921,"):":4922,"Ġmemory":4923,"Ġtow":4924,"ius":4925,"Ġforget":4926,"Ġpair":4927,"ĠTour":4928,"uman":4929,"CA":4930,"ĠReview":4931,"Ġdepartment":4932,"Ġpresence":4933,"BA":4934,"Ġbonus":4935,"Ġshall":4936,"iciency":4937,"Ġappeared":4938,"Ġsecret":4939,"osen":4940,"ĠFlorida":4941,"iences":4942,"iller":4943,"ena":4944,"Dr":4945,"75":4946,"roid":4947,"entially":4948,"ros":4949,"ĠArts":4950,"Ġmotor":4951,"ĠCong":4952,"Ġknows":4953,"Ã³":4954,"Ġ[âĢ¦]":4955,"Ġdoctor":4956,"Ġyouth":4957,"ĠAfrican":4958,"Ġhospital":4959,"Ġgun":4960,"ief":4961,"uable":4962,"ommod":4963,"Ġletter":4964,"ĠAP":4965,"Ġpray":4966,"Ġcivil":4967,"lectr":4968,"Ġfear":4969,"ĠUnion":4970,"Ġarrang":4971,"Ġtrial":4972,"Ġlose":4973,"Ġintroduced":4974,"Ġconference":4975,"Ġcontem":4976,"Ġpreviously":4977,"Ġresist":4978,"90":4979,"Ġlength":4980,"ito":4981,"edom":4982,"Ġrepe":4983,"ĠAv":4984,"night":4985,"ĠTHE":4986,"ilding":4987,"Ġ2004":4988,"ĠCath":4989,"ĠMont":4990,"nn":4991,"ĠIts":4992,"Ġsnow":4993,"Ġtaste":4994,"ĠBlue":4995,"apers":4996,"Ġrecorded":4997,"Ġbright":4998,"Ġwatching":4999,"Ġ90":5000,"arly":5001,"Ġcloud":5002,"Ġcourses":5003,"ĠLove":5004,"Ġexpress":5005,"Ġfunds":5006,"itude":5007,"Ġseparate":5008,"Ġrestaurant":5009,"Ġcloth":5010,"Ã¼":5011,"Ġsenior":5012,"People":5013,"Ġunits":5014,"Ġadvanced":5015,"ym":5016,"onom":5017,"ursday":5018,"ĠIN":5019,"Ġpersp":5020,"Ġattach":5021,"Ġprincip":5022,"free":5023,"ĠMel":5024,"Ġlisten":5025,"Ġcancer":5026,"Ġtransform":5027,"Ġelection":5028,"ĠAcademy":5029,"ednes":5030,"ĠFoundation":5031,"ĠComments":5032,"Ġcounter":5033,"ĠWhy":5034,"Ġcalc":5035,"Ġrail":5036,"oga":5037,"uries":5038,"resp":5039,"ĠScott":5040,"Ġguys":5041,"ĠBill":5042,"ambling":5043,"Ġlived":5044,"icago":5045,"Ġparties":5046,"apter":5047,"Ġallowing":5048,"ĠSocial":5049,"Ġserving":5050,"ĠTop":5051,"ĠFree":5052,"Ġexception":5053,"Ġguitar":5054,"nor":5055,"Ġguy":5056,"ulty":5057,"Ġcorner":5058,"azon":5059,"ait":5060,"Ġdistance":5061,"ĠCarol":5062,"ĠProv":5063,"illa":5064,"ÃŃ":5065,"Ġplays":5066,"ĠWeb":5067,"Ġcultural":5068,"Ġhonest":5069,"ĠAustralian":5070,"Ġmissing":5071,"Ġsector":5072,"Ġdepend":5073,"burg":5074,"ĠChris":5075,"inct":5076,"Ġbuying":5077,"bd":5078,"ĠMer":5079,"ece":5080,"ĠSub":5081,"Ġextr":5082,"yr":5083,"unction":5084,"unning":5085,"ĠSil":5086,"life":5087,"Ġminute":5088,"Res":5089,"Ġbrief":5090,"Ġuns":5091,"Ġcollec":5092,"Ġgrant":5093,"Ġourselves":5094,"Ġidentify":5095,"Ġanti":5096,"Ġhelpful":5097,"Ġtoward":5098,"More":5099,"Ġattemp":5100,"ĠThanks":5101,"MS":5102,"Ġwriter":5103,"Tw":5104,"Ġteachers":5105,"oph":5106,"Ġrelevant":5107,"Ġexpertise":5108,"Ġenhan":5109,"ĠSmith":5110,"Ġride":5111,"Ġclim":5112,"Ġsounds":5113,"kin":5114,"Ġdesigns":5115,"Ġtheme":5116,"Ġtor":5117,"Ġimportance":5118,"Ġproperties":5119,"Ġwouldn":5120,"Ġswim":5121,"ĠSen":5122,"IV":5123,"Ġaspects":5124,"Ġmap":5125,"ĠHy":5126,"Ġquarter":5127,"!âĢĿ":5128,"outs":5129,"ĠST":5130,"Fe":5131,"Ġappearance":5132,"Ġdecisions":5133,"ĠWomen":5134,"Ġshopping":5135,"has":5136,"apes":5137,"ĠRoyal":5138,"Ġrooms":5139,"Ġtemperature":5140,"Ġfounded":5141,"ĠMass":5142,"ĠCommittee":5143,"Ġisland":5144,"phone":5145,"ĠStep":5146,"going":5147,"Ġactions":5148,"Ġfaith":5149,"Ġexpensive":5150,"Ġabsolutely":5151,"uled":5152,"toms":5153,"Ġcris":5154,"Ġdat":5155,"Ġleads":5156,"Ġupdate":5157,"ĠValley":5158,"Ġcombination":5159,"Ġtruth":5160,"Ġfell":5161,"Ġfilled":5162,"Ġaccompl":5163,"Ġchat":5164,"anda":5165,"Ġinspired":5166,"Ġarm":5167,"uesday":5168,"ĠWilliam":5169,"Ġven":5170,"Ġenjoyed":5171,"Ġdepos":5172,"Ġprepare":5173,"ĠList":5174,"gu":5175,"Ġholiday":5176,"Ġvisitors":5177,"Ġsources":5178,"Ġwalking":5179,"ĠHill":5180,"pan":5181,"Ġitem":5182,"umber":5183,"ĠOnline":5184,"Ġoperation":5185,"ĠVis":5186,"Ġrecords":5187,"Ġmicro":5188,"Ġnotes":5189,"Ġalternative":5190,"Ġthousands":5191,"Ġspending":5192,"Ġforeign":5193,"ĠJesus":5194,"ato":5195,"Ġdisp":5196,"itness":5197,"ĠBal":5198,"iers":5199,"Ġdespite":5200,"ĠWestern":5201,"ĠBank":5202,"Ġshowing":5203,"Ġfeels":5204,"ola":5205,"abilities":5206,"olars":5207,"tun":5208,"Ġfacility":5209,"65":5210,"Ġwebsites":5211,"Ġstatement":5212,"ipes":5213,"Ġcrowd":5214,"ĠInternet":5215,"Ġlocations":5216,"ups":5217,"ĠFort":5218,"ads":5219,"Ġdogs":5220,"Ġguess":5221,"ednesday":5222,"Ġcolle":5223,"ĠItalian":5224,"Ġposts":5225,"rian":5226,"Ġfavour":5227,"SS":5228,"nament":5229,"ĠKore":5230,"Ġinvestig":5231,"ideo":5232,"Ġstruct":5233,"33":5234,"urther":5235,"Ind":5236,"Ġoperating":5237,"Ġsquare":5238,"hics":5239,"win":5240,"Ġsessions":5241,"Ġpromote":5242,"works":5243,"Ġinstallation":5244,"Ġtot":5245,"een":5246,"RO":5247,"Ġmotiv":5248,"Ġlaws":5249,"ĠRoman":5250,"ĠCanadian":5251,"Ġcompre":5252,"Ġformat":5253,"Ġselling":5254,"ĠOpen":5255,"Ġbillion":5256,"hicles":5257,"RA":5258,"Ġscale":5259,"Ġgeneration":5260,"ĠRad":5261,"Ġmill":5262,"ĠPower":5263,"Ġwaste":5264,"Ġwilling":5265,"Ġcitiz":5266,"Ġacademic":5267,"Ġepisode":5268,"Ġbattle":5269,"About":5270,"Ġrid":5271,"Ġappears":5272,"ifts":5273,"ĠWood":5274,"Ġassistance":5275,"ĠWil":5276,"ĠPC":5277,"iration":5278,"gery":5279,"ĠPan":5280,"Ġmusical":5281,"ĠThank":5282,"Ġputting":5283,"ella":5284,"ximately":5285,"Ġveget":5286,"Ġbought":5287,"ĠFestival":5288,"uations":5289,"Ġder":5290,"ĠIsra":5291,"Ġlaunched":5292,"estyle":5293,"istration":5294,"Ġbreath":5295,"fortunately":5296,"500":5297,"Ġcontroll":5298,"Ġflat":5299,"Ġseemed":5300,"Ġearth":5301,"Ġegg":5302,"Ġeconomy":5303,"rink":5304,"hab":5305,"Ġclimate":5306,"Ġproperly":5307,"ĠFrank":5308,"Ġchair":5309,"Ġec":5310,"Ġcommitted":5311,"Every":5312,"Ġbill":5313,"ĠProject":5314,"ĠVirgin":5315,"ĠRussian":5316,"Ġaccommod":5317,"Ġphil":5318,"Ġoccup":5319,"encing":5320,"Ġcolour":5321,"Ġbusy":5322,"Ġvirtual":5323,"uthor":5324,"gers":5325,"mar":5326,"igan":5327,"cean":5328,"ĠCheck":5329,"Ġedge":5330,"Ġ*":5331,"eline":5332,"Ġrecommended":5333,"Ġwhom":5334,"ĠLead":5335,"esome":5336,"state":5337,"Ġdur":5338,"chers":5339,"ario":5340,"centr":5341,"Ġpackage":5342,"Ġbrands":5343,"ĠKr":5344,"inary":5345,"Ġfeatured":5346,"Ġdocuments":5347,"ĠLouis":5348,"ĠArmy":5349,"Ġsupported":5350,"ls":5351,"Ġslightly":5352,"eph":5353,"ita":5354,"ĠHen":5355,"Ġexclus":5356,"ĠCommission":5357,"ĠRobert":5358,"azy":5359,"estic":5360,"Ġtopic":5361,"ĠPress":5362,"Ġpow":5363,"fol":5364,"aked":5365,"Ġmanufactur":5366,"ĠSol":5367,"Ġdinner":5368,"Ġeating":5369,"arian":5370,"Fr":5371,"Ġjoy":5372,"ĠPi":5373,"Ġstrategies":5374,"Ġfamiliar":5375,"issions":5376,"ĠUSA":5377,"Ġdiag":5378,"Ġsymb":5379,"Ġdriver":5380,"Ġposted":5381,"ĠTre":5382,"ĠToday":5383,"Ġimpress":5384,"Ġbehavior":5385,"Ġdepending":5386,"nue":5387,"Ġfee":5388,"odies":5389,"Ġgri":5390,"atin":5391,"Ġ70":5392,"ĠRel":5393,"Ġcities":5394,"Ġapplied":5395,"Ġpossess":5396,"Ġinfluence":5397,"hrow":5398,"Ġcentre":5399,"Ġuniversity":5400,"Ġformed":5401,"ĠChicago":5402,"Ġcoast":5403,"ĠVe":5404,"throw":5405,"tight":5406,"Ġforest":5407,"how":5408,"ĠPeter":5409,"Ġpropos":5410,"ecutive":5411,"lishing":5412,"ĠSk":5413,"with":5414,"Ġplastic":5415,"udden":5416,"Ġpaint":5417,"Ġlabor":5418,"Ġbeat":5419,"Ġtom":5420,"inue":5421,"Ġencourage":5422,"Ġapart":5423,"Ġclearly":5424,"ĠGovernment":5425,"ĠInf":5426,"Ġmedium":5427,"Ġriver":5428,"CH":5429,"Ġattempt":5430,"word":5431,"ĠMaster":5432,"icted":5433,"Ġmail":5434,"Ġdesire":5435,"pi":5436,"Ġprofile":5437,"ĠParis":5438,"Ġagency":5439,"Ġmenu":5440,"Ġparent":5441,"ĠThomas":5442,"Ġenvironmental":5443,"Jo":5444,"nch":5445,"rove":5446,"Ġfantastic":5447,"west":5448,"Ġpossibly":5449,"ĠAtl":5450,"niture":5451,"Ġ2003":5452,"unicip":5453,"cin":5454,"Ġsets":5455,"umm":5456,"Ġseat":5457,"ĠTwo":5458,"Ġarrived":5459,"ĠPay":5460,"Ġadvance":5461,"Ġupgr":5462,"Ġbelong":5463,"Ġcommand":5464,"Ġmouth":5465,"Ġprop":5466,"Ġkid":5467,"oor":5468,"ometimes":5469,"rastr":5470,"Ġshowed":5471,"PA":5472,"ĠIS":5473,"IG":5474,"Ġminor":5475,"Ġdiscovered":5476,"elle":5477,"ĠCus":5478,"Ġsteel":5479,"edy":5480,"Ġsugar":5481,"list":5482,"Ġbound":5483,"ei":5484,"ĠFrancis":5485,"Ġbringing":5486,"oker":5487,"Ġarticles":5488,"Ġlunch":5489,"Ġsexual":5490,"ĠTwitter":5491,"cious":5492,"taught":5493,"ifications":5494,"FA":5495,"De":5496,"hick":5497,"ĠBi":5498,"Ġboat":5499,"ĠApple":5500,"Ġquant":5501,"ĠAccording":5502,"ĠGames":5503,"ĠOld":5504,"ĠInstagram":5505,"Ġinternal":5506,");":5507,"Ġforces":5508,"umn":5509,"ĠSpecial":5510,"ĠLos":5511,"thick":5512,"tu":5513,"Ġregularly":5514,"Ġinstalled":5515,"Ġinjury":5516,"istan":5517,"err":5518,"Ġconversation":5519,"rive":5520,"aks":5521,"Bu":5522,"Ġotherwise":5523,"Ġconcerns":5524,"ĠMen":5525,"ĠFre":5526,"Des":5527,"ĠLord":5528,"Ġhousehold":5529,"Ġmaximum":5530,"prene":5531,"Ġlibrary":5532,"ĠRet":5533,"emin":5534,"Ġfle":5535,"Ġagree":5536,"Ġtransl":5537,"Ġfunding":5538,"Ġelement":5539,"Ġvent":5540,"ĠJack":5541,"Ġvehicles":5542,"fast":5543,"heat":5544,"ined":5545,"Ġnegative":5546,"uz":5547,"First":5548,"ĠShow":5549,"Ġcorporate":5550,"Ã¶":5551,"__":5552,"ikes":5553,"Ġreput":5554,"Ġlux":5555,"Ġcomponents":5556,"Ġroute":5557,"bes":5558,"uts":5559,"Ġoccasion":5560,"Ġaccident":5561,"arp":5562,"ĠCentre":5563,"Ġillustr":5564,"Ġdynam":5565,"erry":5566,"Ġinstance":5567,"idden":5568,"Ġoutdoor":5569,"Ġcombined":5570,"Ġtun":5571,"umin":5572,"iking":5573,"ilit":5574,"gent":5575,"reprene":5576,"ĠUse":5577,"ĠCD":5578,"Ġparticipants":5579,"ĠCB":5580,"rete":5581,"ĠCas":5582,"Ġran":5583,"actor":5584,"igital":5585,"Ġstated":5586,"Ġasking":5587,"Ġkilled":5588,"ched":5589,"aun":5590,"Ġkick":5591,"55":5592,"ett":5593,"Ġthick":5594,"ĠFamily":5595,"Ġingredients":5596,"Ġsister":5597,"Ġtail":5598,"olate":5599,"ogue":5600,"44":5601,"Ġsupporting":5602,"Ġattract":5603,"ĠMinister":5604,"Ġvari":5605,"ĠFire":5606,"Ġconcentr":5607,"espite":5608,"ĠSaf":5609,"Ġappeal":5610,"apping":5611,"Ġconfidence":5612,"Ġextensive":5613,"Ġspaces":5614,"Ġsoul":5615,"Qu":5616,"Ġdiss":5617,"Ġspons":5618,"Ġfold":5619,"Ġfederal":5620,"ictions":5621,"Ġstret":5622,"ibilities":5623,"uits":5624,"ĠGar":5625,"Let":5626,"den":5627,"Ġfabric":5628,"merce":5629,"ĠVi":5630,"Ġhouses":5631,"However":5632,"Ġtaught":5633,"ĠIns":5634,"ĠBrown":5635,"Ġstores":5636,"Contact":5637,"ĠDef":5638,"kr":5639,"Ġcream":5640,"ĠJour":5641,"Ġcarried":5642,"Ġcrew":5643,"nity":5644,"Ġmur":5645,"tro":5646,"Ġanx":5647,"Ġsuitable":5648,"Ġsigns":5649,"Ġeducational":5650,"Ġunc":5651,"ĠSummer":5652,"Ġthrow":5653,"utch":5654,"Ġspecifically":5655,"ĠLong":5656,"Ġboost":5657,"Ġinnovative":5658,"Ġauto":5659,"ĠBeach":5660,"Ġprofit":5661,"Ġindustrial":5662,"Once":5663,"viously":5664,"Ġpump":5665,"nect":5666,"Ġapps":5667,"rooms":5668,"ĠDivision":5669,"Ġrapid":5670,"Ġcampus":5671,"icken":5672,"Ġsitting":5673,"Ġremoved":5674,"Ġcreation":5675,"ĠOper":5676,"elines":5677,"Since":5678,"Ġadult":5679,"ĠFood":5680,"Ġtherapy":5681,"ĠLight":5682,"Ġfunctions":5683,"Ġanimal":5684,"rastructure":5685,"Ġrule":5686,"ĠMicro":5687,"Dec":5688,"uke":5689,"Ġfields":5690,"ĠThursday":5691,"Ġtasks":5692,"Ġfeedback":5693,"Ġlabel":5694,"ĠHistory":5695,"Ġwest":5696,"Ġexchange":5697,"Over":5698,"Ġapproximately":5699,"Ġbasket":5700,"press":5701,"ersonal":5702,"Ġpractical":5703,"UR":5704,"Ġestim":5705,"ĠSpanish":5706,"ĠAu":5707,"Ġfuel":5708,"achel":5709,"ĠReal":5710,"Ġminimum":5711,"ĠMatt":5712,"Ġmanner":5713,"Ġfruit":5714,"ĠDet":5715,"Ġvaluable":5716,"Ġleague":5717,"ĠDemocr":5718,"reland":5719,"ĠSqu":5720,"ĠWho":5721,"ĠWindows":5722,"ĠOb":5723,"embly":5724,"Ġ2002":5725,"Ġanywhere":5726,"Ġdecades":5727,"pon":5728,"rier":5729,"Ġsequ":5730,"hensive":5731,"craft":5732,"During":5733,"Ġign":5734,"Ġtight":5735,"Ġholding":5736,"ello":5737,"iano":5738,"ĠMedia":5739,"uing":5740,"lie":5741,"Ġ35":5742,"Ġserver":5743,"ĠTim":5744,"Ġcircum":5745,"lam":5746,"Ġdiscussion":5747,"Ġpup":5748,"Ġquiet":5749,"ĠSee":5750,"Ġfaster":5751,"east":5752,"Just":5753,"Ġincredible":5754,"Ġ2001":5755,"Ġlegis":5756,"hns":5757,"Ġoriginally":5758,"yer":5759,"DA":5760,"aped":5761,"ĠBas":5762,"aters":5763,"197":5764,"cohol":5765,"Ġtotally":5766,"othing":5767,"arch":5768,"Ġchemical":5769,"Ġparticipate":5770,"ĠWhether":5771,"Ġscri":5772,"Go":5773,"âĢĺ":5774,"ĠHon":5775,"Ġindic":5776,"48":5777,"arge":5778,"Man":5779,"uan":5780,"Ġpolic":5781,"Ġdirected":5782,"Ġhers":5783,"ava":5784,"ĠDown":5785,"Ġwalls":5786,"ĠĠĠĠ":5787,"ĠRev":5788,"Ġgrew":5789,"ĠCam":5790,"Ġcommitment":5791,"Ġsettle":5792,"ucks":5793,"ĠBoth":5794,"Ġbegins":5795,"ores":5796,"ulture":5797,"ĠDoc":5798,"Ġtough":5799,"Ġreliable":5800,"Ġattended":5801,"Ġconstantly":5802,"ĠEarth":5803,"Ġchoices":5804,"36":5805,"ĠAmazon":5806,"Ġgambling":5807,"mosp":5808,"Ġvan":5809,"Ġresponsibility":5810,"aration":5811,"Ġplanned":5812,"Ġengineering":5813,"iminal":5814,"ersey":5815,"see":5816,"Ġcompar":5817,"Are":5818,"Ġmarkets":5819,"flow":5820,"Ġtrav":5821,"ĠExper":5822,"Ġfourt":5823,"Ġrealize":5824,"ĠJul":5825,"II":5826,"nem":5827,"Ġbike":5828,"Ġsimpl":5829,"quality":5830,"38":5831,"Ġframe":5832,"ugs":5833,"which":5834,"Ġsymbol":5835,"Ġkinds":5836,"Ġfourth":5837,"ighter":5838,"ĠSar":5839,"astern":5840,"ĠTen":5841,"agged":5842,"Ġhighlight":5843,"Ġmeasures":5844,"Ġchannel":5845,"Ġdelivered":5846,"Ġdoors":5847,"acter":5848,"ĠZeal":5849,"Ġdeaths":5850,"Ġteeth":5851,"ĠTechnology":5852,"yan":5853,"Ġwindows":5854,"ĠTuesday":5855,"but":5856,"ĠJim":5857,"39":5858,"IA":5859,"Ġintellig":5860,"Ġdial":5861,"Ġamb":5862,"eme":5863,"Ġemergency":5864,"ĠMexico":5865,"Ġplatforms":5866,"ĠLibr":5867,"Ġlap":5868,"ocation":5869,"Ġstone":5870,"ĠSet":5871,"NA":5872,"Ġadministr":5873,"zen":5874,"Ġemotional":5875,"rie":5876,"ĠBack":5877,"uis":5878,"Ġflowers":5879,"Ġrise":5880,"Us":5881,"Ġtechnologies":5882,"Ġintr":5883,"ruit":5884,"Ġaffordable":5885,"ĠNov":5886,"Ġvolume":5887,"appy":5888,"rees":5889,"Ġowned":5890,"Ġraise":5891,"Ġknowing":5892,"reams":5893,"ĠAngeles":5894,"Ġeffectively":5895,"Ġhousing":5896,"ĠDan":5897,"Ġeast":5898,"Ġmoments":5899,"ĠHead":5900,"color":5901,"Jan":5902,"ĠWednesday":5903,"Ġchosen":5904,"ĠMat":5905,"Ġathlet":5906,"Ġdecl":5907,"lets":5908,"ali":5909,"Ġnative":5910,"ĠZealand":5911,"Ġinterests":5912,"ĠOrgan":5913,"ĠLab":5914,"ĠCall":5915,"aser":5916,"yt":5917,"cient":5918,"Ġsurrounding":5919,"hand":5920,"Ġencoun":5921,"osop":5922,"ĠTake":5923,"Ġelimin":5924,"Ġsuff":5925,"Ġdoubt":5926,"ĠVer":5927,"ye":5928,"Ġpanel":5929,"Ġmachines":5930,"Ġdesk":5931,"49":5932,"elled":5933,"Ġtea":5934,"Ġgreatest":5935,"Ġdetailed":5936,"Ġpod":5937,"ĠYes":5938,"Ġhistorical":5939,"Ġmeetings":5940,"Ġsides":5941,"Ġexplain":5942,"Ġchallenging":5943,"reens":5944,"Ġprote":5945,"Ġsymptoms":5946,"asting":5947,"Ġmir":5948,"Ġsurvey":5949,"Ġcauses":5950,"Ġvs":5951,"Ġafterno":5952,"Col":5953,"Ġstanding":5954,"Ġfeat":5955,"Post":5956,"ican":5957,"Ġconflic":5958,"37":5959,"Ġcollaboration":5960,"ua":5961,"Other":5962,"ĠItaly":5963,"onds":5964,"Ġrom":5965,"Ġidentity":5966,"ao":5967,"Ġcomplic":5968,"Ġ1990":5969,"Ġdepart":5970,"Ġflu":5971,"Ġvalid":5972,"thor":5973,"Ġtopics":5974,"Ġadults":5975,"Ġperspective":5976,"Ġmuseum":5977,"Ġsudden":5978,"Ġconfig":5979,"Ġfrequently":5980,"Ġforced":5981,"Ġadvertising":5982,"Ġaccounts":5983,"Ġintended":5984,"Ġguest":5985,"FL":5986,"Ġcoverage":5987,"Ġcells":5988,"onym":5989,"Ġgrown":5990,"ca":5991,"lind":5992,"Ġmarriage":5993,"Ġappointment":5994,"SA":5995,"Ġpurchased":5996,"Many":5997,"ĠHaw":5998,"Ġfurniture":5999,"Ġclaims":6000,"otic":6001,"Ġfulf":6002,"Ġinterior":6003,"Living":6004,"According":6005,"Ġring":6006,"Ġpattern":6007,"Ġrub":6008,"ĠSpe":6009,"Ġagreement":6010,"32":6011,"Yes":6012,"Ġwal":6013,"Ġmovies":6014,"CO":6015,"ootball":6016,"Ġchain":6017,"isher":6018,"Ġholds":6019,"Ġrow":6020,"kins":6021,"ĠColor":6022,"ĠÂ»":6023,"ĠðŁ":6024,"Ġtrained":6025,"Ġterr":6026,"Ġexamples":6027,"âĦ":6028,"Ġperman":6029,"ĠTO":6030,"Ġawareness":6031,"Ġneck":6032,"Ġbrows":6033,"ĠThrough":6034,"Ġmountain":6035,"47":6036,"hance":6037,"ĠCard":6038,"Ġrecording":6039,"Ġshut":6040,"Ġcruc":6041,"Ġseconds":6042,"inos":6043,"gl":6044,"Ġcommission":6045,"SP":6046,"Add":6047,"Ġvictim":6048,"Ġ45":6049,"Another":6050,"andom":6051,"Ġ500":6052,"Ġessay":6053,"husi":6054,"Ġatmosp":6055,"Step":6056,"Ġcompetitive":6057,"Ġlaugh":6058,"tests":6059,"che":6060,"part":6061,"Ġflight":6062,"Ġcontext":6063,"Ġemployee":6064,"ĠLand":6065,"Ġtu":6066,"cript":6067,"met":6068,"Ġmainly":6069,"View":6070,"gar":6071,"ĠRussia":6072,"Ġbroken":6073,"Most":6074,"terns":6075,"itt":6076,"Ġhearing":6077,"31":6078,"Ġarts":6079,"amil":6080,"Ġawarded":6081,"rich":6082,"ais":6083,"Ġmode":6084,"Ġfoundation":6085,"ĠManager":6086,"ĠIreland":6087,"Ġmort":6088,"Ġcaught":6089,"Ġlovely":6090,"iors":6091,"ĠBob":6092,"ĠVirginia":6093,"ENT":6094,"Ġimproved":6095,"Ġreplaced":6096,"Ġremaining":6097,"ework":6098,"Ġfees":6099,"Ġproto":6100,"azil":6101,"Ġstream":6102,"Ġmel":6103,"Ġfly":6104,"Ġdatab":6105,"Ġpolicies":6106,"Ġdiverse":6107,"ĠSeries":6108,"Ġenable":6109,"ĠEnter":6110,"ĠMarti":6111,"Ġcutting":6112,"prise":6113,"Ġmeal":6114,"ĠMur":6115,"ĠSecond":6116,"olit":6117,"Ġappreciate":6118,"UT":6119,"tons":6120,"theat":6121,"Ġchampions":6122,"Am":6123,"irty":6124,"aired":6125,"Ġprovider":6126,"itage":6127,"ĠCat":6128,"ĠKar":6129,"ĠCharles":6130,"ĠInformation":6131,"Ġfreedom":6132,"Ġorders":6133,"Ġslot":6134,"ĠSand":6135,"âĦ¢":6136,"Ġunivers":6137,"Ġturns":6138,"Ġfactor":6139,"Phone":6140,"Ġsurf":6141,"Ġmanufacturing":6142,"ĠWord":6143,"?\"":6144,"Ġliqu":6145,"Ġwriters":6146,"Ġneighborhood":6147,"Ġgoods":6148,"ingu":6149,"ĠMain":6150,"po":6151,"Ġmonthly":6152,"Ġbigger":6153,"ushing":6154,"Ġperfectly":6155,"eory":6156,"ĠJohns":6157,"Ġvote":6158,"Ġwearing":6159,"Ġsupple":6160,"liament":6161,"iams":6162,"01":6163,"Ġautomatically":6164,"heory":6165,"Ġtransition":6166,"lear":6167,"ĠWeek":6168,"theory":6169,"Ġpil":6170,"ĊĠ":6171,"fi":6172,"eling":6173,"Ġinves":6174,"Ġedition":6175,"ĠCEO":6176,"Ġhundreds":6177,"Ġaccessible":6178,"Me":6179,"Ġtells":6180,"34":6181,"Ġconsidering":6182,"Ġju":6183,"soft":6184,"Ġcalling":6185,"ells":6186,"ĠWay":6187,"95":6188,"Ġsuccessfully":6189,"oted":6190,"unior":6191,"Ġvary":6192,"Ġaudio":6193,"Ġsustainable":6194,"Ġskill":6195,"Ġnine":6196,"Ġtheat":6197,"Ġweap":6198,"Ġking":6199,"Ġherself":6200,"awn":6201,"Ġnor":6202,"umni":6203,"Ġstopped":6204,"Ġpros":6205,"uality":6206,"Ġmemor":6207,"ĠChief":6208,"dy":6209,"ĠGeorg":6210,"Ġtests":6211,"erg":6212,"Ġafternoon":6213,"LA":6214,"ĠBoy":6215,"ocolate":6216,"pto":6217,"Ġparking":6218,"Ġextended":6219,"kay":6220,"Ġentr":6221,"Ġstars":6222,"ĠTem":6223,"hia":6224,"Ġpas":6225,"Ġhorse":6226,"Ġforg":6227,"Ġearned":6228,"Ġtheory":6229,"Ġcircumst":6230,"Ġjoint":6231,"Ġbattery":6232,"Ġentirely":6233,"Ġlandscape":6234,"ĠScot":6235,"Ġadministration":6236,"Ġopinion":6237,"nergy":6238,"rition":6239,"Ġdistinct":6240,"Ġaccepted":6241,"ĠOF":6242,"pass":6243,"Ġfollows":6244,"Ġexami":6245,"Ġnoted":6246,"Ġpure":6247,"ĠKingdom":6248,"Ġlights":6249,"ĠDou":6250,"Ġawesome":6251,"torney":6252,"weight":6253,"Ġconfir":6254,"Ġupdates":6255,"ĠSi":6256,"05":6257,"Ġcovers":6258,"Ġsettings":6259,"Pr":6260,"gas":6261,"point":6262,"ĠChampionship":6263,"Ġrot":6264,"exp":6265,"ĠAsia":6266,"Ġupdated":6267,"lined":6268,"Ġpositions":6269,"Ġcooking":6270,"CT":6271,"Ġ>":6272,"Ġtwice":6273,"ossible":6274,"ĠIl":6275,"Ġenthusi":6276,"Ġreduced":6277,"Ġserves":6278,"Ġtruck":6279,"88":6280,"tack":6281,"Ġemphas":6282,"Ġcabi":6283,"ĠWild":6284,"rick":6285,"ĠĊĠĊ":6286,"Ġreference":6287,"vention":6288,"Ġwire":6289,"iveness":6290,"Ġentered":6291,"Chr":6292,"Ġdecre":6293,"gment":6294,"asters":6295,"Ġyes":6296,"Ġinstitutions":6297,"Ġcategory":6298,"ĠYoung":6299,"Ġalongside":6300,"Ġcontemporary":6301,"Ġinfrastructure":6302,"ĠNY":6303,"Ġcraf":6304,"Ġsubsequ":6305,"Ġancient":6306,"water":6307,"Ġdefin":6308,"Ġprocessing":6309,"Â®":6310,"ĠFac":6311,"Ġcomprehensive":6312,"Ġcloser":6313,"Learn":6314,"ĠDev":6315,"Ġcitizens":6316,"Ġpaying":6317,"Ġsurgery":6318,"Ġearn":6319,"ĠTimes":6320,"ĠTherefore":6321,"Ġseeking":6322,"Ġremote":6323,"Ġvisiting":6324,"Ġenhance":6325,"ĠSecret":6326,"ĠFund":6327,"ĠTest":6328,"Ġthor":6329,"ĠMartin":6330,"Ġorganized":6331,"Ġbrown":6332,"zy":6333,"ilst":6334,"ĠStart":6335,"Ġ1980":6336,"Ġexcept":6337,"Ġhonor":6338,"Ġapproved":6339,"ĠRos":6340,"Ġsubmit":6341,"Ġtypical":6342,"ora":6343,"ĠBefore":6344,"Ġglo":6345,"Ġkm":6346,"oti":6347,"Ġadvis":6348,"Ġrough":6349,"ĠTown":6350,"force":6351,"Ġends":6352,"ĠPac":6353,"amps":6354,"History":6355,"ensions":6356,"Ġefficiency":6357,"ba":6358,"ĠMike":6359,"Ġtechnique":6360,"Ġdelicious":6361,"ares":6362,"while":6363,"âĢĻ.":6364,"Ġlifestyle":6365,"ĠKeep":6366,"ulous":6367,"Ġdistribution":6368,"olved":6369,"Ġpregn":6370,"Ġadvoc":6371,"orter":6372,"Ġspeaking":6373,"Ġtracks":6374,"Ġsituations":6375,"Ġdelight":6376,"ĠCongress":6377,"Ġblow":6378,"Ġmeat":6379,"iana":6380,"Ġrecovery":6381,"Ġproviders":6382,"!)":6383,"Ġcrisis":6384,"Thanks":6385,"Ġkeeps":6386,"Ġconsumers":6387,"Ġretain":6388,"eries":6389,"arrow":6390,"Tube":6391,"Ġconver":6392,"IR":6393,"Ġdestroy":6394,"Ġicon":6395,"Ġorganic":6396,"Ġmilk":6397,"Ġscientific":6398,"ĠCast":6399,"Ġregional":6400,"Ġinfo":6401,"ĠCatholic":6402,"Ġmatters":6403,"Ã¢":6404,"Ġrecognized":6405,"oston":6406,"tore":6407,"Ġresource":6408,"Ġbutter":6409,"ultural":6410,"Ġfoods":6411,"Thank":6412,"Ġelected":6413,"Ġclothes":6414,"ollowing":6415,"Ġprosp":6416,"Ġrac":6417,"Ġauthent":6418,"ĠKnow":6419,"ĠAbout":6420,"lers":6421,"ĠCarolina":6422,"aded":6423,"ĠMedical":6424,"Ġinvolve":6425,"can":6426,"46":6427,"Ġcycle":6428,"ĠMax":6429,"DF":6430,"tables":6431,"Ġpoet":6432,"Ġcheap":6433,"ĠJud":6434,"ji":6435,"Ġphotography":6436,"ĠLibrary":6437,"Ġaffected":6438,"Ġgaming":6439,"Ġupper":6440,"Ġentreprene":6441,"Ġprison":6442,"ĠEli":6443,"Ġmagazine":6444,"Ġgrade":6445,"ris":6446,"cur":6447,"Ġvital":6448,"Ġfailed":6449,"elly":6450,"ĠHave":6451,"Ġmassive":6452,"Comm":6453,"Ġconsequ":6454,"Ġeveryday":6455,"Ġusual":6456,"Ġvoc":6457,"hio":6458,"orld":6459,"Ġroles":6460,"cons":6461,"Ġobjects":6462,"Ġstations":6463,"andon":6464,"ĠNetwork":6465,"ĠInstead":6466,"ĠData":6467,"Ġunless":6468,"Ġrestaurants":6469,"Ġcerem":6470,"aka":6471,"ĠLee":6472,"ansion":6473,"Ġcritic":6474,"Ġreb":6475,"ĠRichard":6476,"Ġshipping":6477,"Ġmixed":6478,"Ġsilver":6479,"ĠAnother":6480,"Ġheight":6481,"clusion":6482,"Ġjew":6483,"âĤ¬":6484,"Ġ1999":6485,"MA":6486,"ĠOnly":6487,"Ġprotected":6488,"Ġorigin":6489,"196":6490,"pers":6491,"Ġpatterns":6492,"Ġimagine":6493,"Ġexcess":6494,"Ġstructures":6495,"Ġreceiving":6496,"Ġremained":6497,"Ġcarefully":6498,"ospit":6499,"Ġreplace":6500,"ubs":6501,"Ġrelatively":6502,"Ġfixed":6503,"aints":6504,"Ġmine":6505,"ĠAud":6506,"ipl":6507,"Ġlessons":6508,"ĠArab":6509,"alled":6510,"Ġpartnership":6511,"Ġwheel":6512,"Ġcrucial":6513,"Ġdollars":6514,"Ġsalt":6515,"va":6516,"tt":6517,"ingly":6518,"ĠAddition":6519,"Book":6520,"ĠâĨ":6521,"nings":6522,"Ġsignificantly":6523,"Ġchoosing":6524,"ĠCross":6525,"Ġodd":6526,"onto":6527,"ĠYOU":6528,"ĠLim":6529,"Ġresear":6530,"emy":6531,"ĠCoast":6532,"Ġreward":6533,"Ġce":6534,"ĠGal":6535,"Ġsupposed":6536,"Ġmatches":6537,"Rel":6538,"Te":6539,"Ġnewsp":6540,"Ġperforming":6541,"Ġstyles":6542,"lig":6543,"Ġprocedure":6544,"ĠId":6545,"Ġdomin":6546,"Ġdim":6547,"Ġelev":6548,"Ġgrab":6549,"ampion":6550,"Ġlighting":6551,"Ġfellow":6552,"class":6553,"Ġagent":6554,"ĠStand":6555,"Ġreligious":6556,"LC":6557,"Ġtables":6558,"Ġsoil":6559,"Ġentertainment":6560,"ĠâĢ¢":6561,"Ġassets":6562,"Ġrenew":6563,"Ġarchitecture":6564,"hm":6565,"Ġmessages":6566,"Ġengage":6567,"Ġappointed":6568,"aturally":6569,"Ġjack":6570,"Ġshoes":6571,"umes":6572,"plies":6573,"Ġdie":6574,"ĠEnd":6575,"Ġdiscip":6576,"ini":6577,"isters":6578,"Ġspeech":6579,"Well":6580,"Ġregistered":6581,"Ġhall":6582,"Ġloves":6583,"Ġsac":6584,"Ġbelief":6585,"Ġscholars":6586,"abled":6587,"Reg":6588,"yard":6589,"Ġadapt":6590,"Ġguarantee":6591,"Ġreflect":6592,"Ġped":6593,"Ġpresentation":6594,"Ġengagement":6595,"Ġrecover":6596,"oom":6597,"ĠSpring":6598,"poses":6599,"ĠIsrael":6600,"Ġdetermined":6601,"Ġremark":6602,"ĠÐ":6603,"Home":6604,"Ġpitch":6605,"Ġstands":6606,"lock":6607,"Ġcelebrate":6608,"stone":6609,"ĠSports":6610,"Ġsupports":6611,"Ġupcoming":6612,"Ġdivid":6613,"ĠGame":6614,"torial":6615,"Ġmut":6616,"esides":6617,"py":6618,"Ġsett":6619,"Car":6620,"Ġfacilit":6621,"Ġworldwide":6622,"ĠTH":6623,"Ġproposed":6624,"Ġcreates":6625,"Ġfishing":6626,"Ġlosing":6627,"Ġalcohol":6628,"ĠFind":6629,"Ġgro":6630,"Ġpoly":6631,"ĠJoe":6632,"CE":6633,"urn":6634,"aly":6635,"ĠVictori":6636,"Ġgolf":6637,"Ġhappening":6638,"ĠSecurity":6639,"Ġbridge":6640,"alle":6641,"ĠWilliams":6642,"08":6643,"ĠElectr":6644,"Sup":6645,"Ġboys":6646,"olve":6647,"ĠForm":6648,"ĠBow":6649,"Ġfeaturing":6650,"Ġwinner":6651,"Ġphase":6652,"Ġconducted":6653,"ĠConference":6654,"ship":6655,"ĠWal":6656,"Ac":6657,"Ġarrest":6658,"Ġyellow":6659,"Ġveter":6660,"Of":6661,"ĠKey":6662,"Ġexpectations":6663,"Ġdept":6664,"Ġnearby":6665,"Ġofficer":6666,"hetic":6667,"ĠID":6668,"BS":6669,"Ġsmile":6670,"uzz":6671,"Ġagreed":6672,"Ġsad":6673,"Ġnoticed":6674,"Ġsucceed":6675,"inem":6676,"Ġmembership":6677,"Ġexecutive":6678,"Ġhur":6679,"Ġdesigner":6680,"Ġwash":6681,"onial":6682,"Ġsurprise":6683,"Ġcooper":6684,"En":6685,"equ":6686,"you":6687,"07":6688,"Ġconvenient":6689,"umption":6690,"Ġoperate":6691,"Ġinput":6692,"Ġsinger":6693,"ĠUl":6694,"Eng":6695,"Ġthorough":6696,"ĠJournal":6697,"GB":6698,"ĠDisc":6699,"iat":6700,"Ġpicked":6701,"Ġtra":6702,"Pri":6703,"agues":6704,"Ġrevenue":6705,"ĠGirl":6706,"ĠMiddle":6707,"Ġunable":6708,"Art":6709,"Ġapparent":6710,"Ġyounger":6711,"opy":6712,"Ã¤":6713,"tip":6714,"Ġchief":6715,"Ġcoordin":6716,"Ġurban":6717,"ĠMarketing":6718,"Ġkill":6719,"chester":6720,"Ġtournament":6721,"ĠSwed":6722,"Ġbirthday":6723,"ker":6724,"Ġconsists":6725,"Ġtrouble":6726,"erves":6727,"Ġarms":6728,"ĠFar":6729,"Ġelectronic":6730,"06":6731,"ocket":6732,"Ġclosely":6733,"Ġnurs":6734,"esterday":6735,"ĠLittle":6736,"Ġadventure":6737,"Ġpleasure":6738,"ĠMid":6739,"ycling":6740,"ĠFilm":6741,"Ġweak":6742,"Ġgovern":6743,"Ġconfident":6744,"lete":6745,"Ġreaders":6746,"Ġaspect":6747,"ensity":6748,"ĠMos":6749,"case":6750,"ĠHuman":6751,"Ġfaculty":6752,"ĠClick":6753,"ĠLink":6754,"09":6755,"Ġdu":6756,"oles":6757,"ĠSouthern":6758,"ĠOrder":6759,"Ġhire":6760,"FC":6761,"Ġinnovation":6762,"ĠNight":6763,"ĠSupport":6764,"Ġconcerned":6765,"ĠLast":6766,"Ġcapture":6767,"ĠUkr":6768,"related":6769,"ented":6770,"align":6771,"UN":6772,"ĠCre":6773,"Ġturning":6774,"ja":6775,"ĠAND":6776,"Ġconsumer":6777,"Ġlistening":6778,"asp":6779,"Ġexternal":6780,"Ġfeelings":6781,"Ġinspiration":6782,"Ġatmosphere":6783,"Ġwitness":6784,"ĠWall":6785,"ansas":6786,"Ġbodies":6787,"04":6788,"Ġunf":6789,"illy":6790,"Ġheav":6791,"ĠHel":6792,"ĠIP":6793,"Ġbless":6794,"eler":6795,"TA":6796,"teen":6797,"Ġfram":6798,"Ġ1970":6799,"Ġinvited":6800,"OP":6801,"luding":6802,"Ġconstruc":6803,"cks":6804,"Ġsam":6805,"Ġseasons":6806,"Ġrevealed":6807,"anguages":6808,"OC":6809,"Ġongoing":6810,"Up":6811,"ĠColumb":6812,"Ġdrivers":6813,"ĠHor":6814,"rupt":6815,"Ġgrass":6816,"real":6817,"ĠGen":6818,"ĠTrump":6819,"Ġcounty":6820,"Ġexhibition":6821,"Ġfestival":6822,"Ġoverl":6823,"Ġcapable":6824,"Ġrating":6825,"ĠUN":6826,"Ġsizes":6827,"ĠAndroid":6828,"Ġsky":6829,"earning":6830,"Ġprogramme":6831,"ĠLuc":6832,"Ġdates":6833,"03":6834,"Ġdiam":6835,"ĠNorthern":6836,"Ġslowly":6837,"acking":6838,"Ġnarr":6839,"Ġteen":6840,"orry":6841,"endar":6842,"Ġages":6843,"tories":6844,"Ġrecipe":6845,"Ġexplained":6846,"Ġalbums":6847,"oster":6848,"Ġqualified":6849,"Ġmigr":6850,"Ġguidance":6851,"ĠFair":6852,"Ġmedicine":6853,"Ġrealized":6854,"Ġregistration":6855,"eah":6856,"Ġcouns":6857,"Ġresidential":6858,"Ġdram":6859,"ĠEr":6860,"Ġofficials":6861,"Ġhang":6862,"Ġincorpor":6863,"Ġpurposes":6864,"ĠCy":6865,"Ġconcern":6866,"ĠSEO":6867,"ĠMichigan":6868,"ector":6869,"ĠAdv":6870,"ogy":6871,"ĠVan":6872,"zer":6873,"Ġtele":6874,"ĠJohnson":6875,"ĠAri":6876,"asty":6877,"Ġspiritual":6878,"aire":6879,"Ġease":6880,"Ġplanet":6881,"Ġbasketball":6882,"Ġtelling":6883,"Ġidentified":6884,"Click":6885,"ĠMO":6886,"Ġdangerous":6887,"Ġrei":6888,"Ġaircraft":6889,"Ġ1998":6890,"Ġimprovement":6891,"Ġachieved":6892,"Ġmissed":6893,"ĠAwards":6894,"ĠYouTube":6895,"Ġpun":6896,"Ġvast":6897,"tall":6898,"Ġhealthcare":6899,"Ġhook":6900,"Ġsolar":6901,"ĠMaybe":6902,"orders":6903,"hical":6904,"Ġoutput":6905,"ĠJones":6906,"lights":6907,"Ġworse":6908,"comes":6909,"Although":6910,"Ġobvious":6911,"Ġvictory":6912,"trop":6913,"ensus":6914,"Ġtrig":6915,"ï¿":6916,"Ġhabit":6917,"Ġinstructions":6918,"Ġdegrees":6919,"ĠRecords":6920,"Ġbeer":6921,"grad":6922,"Med":6923,"Ġawards":6924,"Ġscored":6925,"Ġcircumstances":6926,"Ġprogramming":6927,"Ġtreated":6928,"ĠDani":6929,"Ġvit":6930,"Ġscheduled":6931,"Ġspi":6932,"ĠBrazil":6933,"ĠRE":6934,"Ġfro":6935,"Ġaccurate":6936,"02":6937,"ĠBoston":6938,"made":6939,"Ġlayer":6940,"Ġcandidates":6941,"Ġclothing":6942,"odd":6943,"Ġcandidate":6944,"aze":6945,"ĠAL":6946,"Ġhistoric":6947,"Photo":6948,"ĠHenry":6949,"tab":6950,"Ġbelieved":6951,"ĠDub":6952,"ĠTraining":6953,"Ġfacing":6954,"ï¿½":6955,"Ġreputation":6956,"being":6957,"Ġmurder":6958,"ĠCost":6959,"Ġgear":6960,"Ġmanaging":6961,"Ġconstant":6962,"Ġversions":6963,"Ġequal":6964,"Ġguard":6965,"Ġanswers":6966,"Ġfavourite":6967,"icket":6968,"Ġnormally":6969,"amber":6970,"Ġsplit":6971,"Ġhun":6972,"Ġgraduate":6973,"March":6974,"etime":6975,"Per":6976,"TV":6977,"ĠChildren":6978,"Ġimpossible":6979,"ackson":6980,"Ġfailure":6981,"ĠIrish":6982,"ensed":6983,"ĠHospital":6984,"keep":6985,"Ġiron":6986,"Ġtrading":6987,"Ġlad":6988,"Ġfolks":6989,"hin":6990,"Ġviolence":6991,"IF":6992,"Ġadm":6993,"Ġworkshop":6994,"Ġintro":6995,"tank":6996,"ĠTher":6997,"bec":6998,"Any":6999,"ockey":7000,"Ġshock":7001,"Ġsole":7002,"Ġroutine":7003,"Ġultimately":7004,"Ġbetting":7005,"entle":7006,"Next":7007,"Ġprocedures":7008,"mond":7009,"ĠVill":7010,"Ġimpressive":7011,"Ġcarbon":7012,"afe":7013,"profit":7014,"ĠPlus":7015,"Ġconcrete":7016,"Ġagencies":7017,"ĠWalk":7018,"Ġstrategic":7019,"ador":7020,"Ġprimarily":7021,"Ġplug":7022,"Back":7023,"ĠAsian":7024,"oli":7025,"Ġorganis":7026,"weet":7027,"Ġmemories":7028,"Ġwet":7029,"ĠRail":7030,"Ġimproving":7031,"ĠHistor":7032,"Ġ189":7033,"Ġlicense":7034,"Ġreferred":7035,"ĠWrit":7036,"ĠAuthor":7037,"Ġcriminal":7038,"Ġvibr":7039,"ĠKe":7040,"Ġretire":7041,"Ġeditor":7042,"icts":7043,"ĠForce":7044,"ĠOhio":7045,"Ġhealing":7046,"acle":7047,"Ġproceed":7048,"Ġnone":7049,"ership":7050,"Ġstudied":7051,"Ġ188":7052,"Ġdivision":7053,"ura":7054,"56":7055,"ĠMa":7056,"Ġcommittee":7057,"adium":7058,"Ġcontest":7059,"ela":7060,"ĠDigital":7061,"Ġgenerate":7062,"Ġactor":7063,"Ġfighting":7064,"April":7065,"osophy":7066,"Ġanxiety":7067,"59":7068,"host":7069,"Ġ300":7070,"Ġmotion":7071,"greg":7072,"ĠPolice":7073,"isto":7074,"ĠWin":7075,"Ġpassing":7076,"June":7077,"ein":7078,"ĠKat":7079,"Ġplate":7080,"Ġunders":7081,"ĠWhere":7082,"Ġsail":7083,"SE":7084,"ĠLog":7085,"Ġintim":7086,"Ġtip":7087,"ĠLive":7088,"Ġvisited":7089,"Ġfitness":7090,"Ġpossibility":7091,"Ġdatabase":7092,"ĠUr":7093,"Ġtack":7094,"Ġtall":7095,"58":7096,"Ass":7097,"ĠMarket":7098,"Ġera":7099,"Ġweekly":7100,"ĠCreat":7101,"ĠOl":7102,"ĠPass":7103,"ĠCov":7104,"ĠThose":7105,"Ġofficers":7106,"Ġsynt":7107,"MP":7108,"Ġrein":7109,"elcome":7110,"Ġvul":7111,"Ġdefined":7112,"Ġsupplies":7113,"Ġmoist":7114,"respond":7115,"igate":7116,"aning":7117,"reme":7118,"Ġassessment":7119,"ĠEconom":7120,"ĠOil":7121,"42":7122,"Ġglad":7123,"long":7124,"Ġportion":7125,"Ġclubs":7126,"len":7127,"Ġdefense":7128,"Ġdental":7129,"whel":7130,"Op":7131,"Ġgam":7132,"Ġissued":7133,"Ġdecade":7134,"Ġrecruit":7135,"pare":7136,"!\"":7137,"aug":7138,"ĠSpain":7139,"atre":7140,"Ġwalked":7141,"hist":7142,"Ġerror":7143,"Ġdrawing":7144,"ĠJon":7145,"Best":7146,"77":7147,"Last":7148,"Ġdestination":7149,"ĠJeff":7150,"ĠAdminis":7151,"Ġrandom":7152,"dro":7153,"Ġagric":7154,"Ġmunicip":7155,"Ġvirus":7156,"Ġinitially":7157,"Part":7158,"Ġbread":7159,"Ġscul":7160,"Ed":7161,"bin":7162,"Ġlikes":7163,"Ġborder":7164,"hony":7165,"gor":7166,"Ġrepresented":7167,"Im":7168,"Ġcommonly":7169,"igned":7170,"Ġjoining":7171,"SC":7172,"Ġflexible":7173,"ĠHotel":7174,"ĠFrancisco":7175,"Ġcharges":7176,"Ġoutstanding":7177,"icity":7178,"istr":7179,"rid":7180,"Ġstrengthen":7181,"Ġsolo":7182,"car":7183,"ĠJewish":7184,"ĠJersey":7185,"lywood":7186,"John":7187,"Ġfiction":7188,"Ġcorn":7189,"Ġbathroom":7190,"Ġtwenty":7191,"Ġtiny":7192,"Ġmagic":7193,"bury":7194,"tag":7195,"Ġ1996":7196,"ĠAnal":7197,"rics":7198,"Ġstretch":7199,"uls":7200,"Ġdeposit":7201,"ĠFootball":7202,"Ġproducer":7203,"orthy":7204,"Ġclinical":7205,"date":7206,"Ġconsistent":7207,"Ġchose":7208,"Ġintegrated":7209,"Ġcontribute":7210,"TH":7211,"ĠAsh":7212,"idays":7213,"vision":7214,"Ġcertified":7215,"Ġhosting":7216,"ĠPo":7217,"ĠAmericans":7218,"ĠNext":7219,"Ġengaged":7220,"Ġbass":7221,"Ġdebt":7222,"ione":7223,"abet":7224,"ien":7225,"Ġresulting":7226,"Ġfigures":7227,"bles":7228,"ocated":7229,"ĠPremi":7230,"Ġdomestic":7231,"bridge":7232,"ĠPop":7233,"ifth":7234,"lecting":7235,"Today":7236,"ĠWorks":7237,"ĠChair":7238,"Ġimplementation":7239,"Ġtitles":7240,"Ġhumans":7241,"Ġcasinos":7242,"Ġpayments":7243,"Ġexperiment":7244,"Ġfilter":7245,"Ġlegs":7246,"Ġdealing":7247,"Ġ1997":7248,"Ġconnections":7249,"Hi":7250,"Ġliked":7251,"rency":7252,"awa":7253,"Ġdrugs":7254,"EW":7255,"Ġrecognize":7256,"Ġkit":7257,"Ġsick":7258,"ĠCli":7259,"xy":7260,"Ġsolve":7261,"Ġsuggested":7262,"ĠEp":7263,"57":7264,"Ġpersonally":7265,"ĠStat":7266,"poration":7267,"ĠHand":7268,"Ġtab":7269,"struction":7270,"ĠGeorgia":7271,"41":7272,"Ġtank":7273,"Ġbear":7274,"Ġfrustr":7275,"Ġreplacement":7276,"verse":7277,"Cons":7278,"Ġincredibly":7279,"ĠSteve":7280,"Ġluxury":7281,"pes":7282,"bar":7283,"Ġcrime":7284,"level":7285,"Ġsuperv":7286,"Ġconduct":7287,"folio":7288,"icer":7289,"ĠPacific":7290,"Co":7291,"Ġcheese":7292,"xture":7293,"aping":7294,"Ġconfirmed":7295,"ĠQueen":7296,"Ġflood":7297,"43":7298,"ATION":7299,"ĠAndrew":7300,"inter":7301,"nois":7302,"Ġwidely":7303,"ĠSea":7304,"Ġtech":7305,"Ġsem":7306,"Ġchicken":7307,"anger":7308,"Ġinner":7309,"Ge":7310,"hop":7311,"ologist":7312,"oking":7313,"Ġdisappoint":7314,"Who":7315,"irect":7316,"ĠCho":7317,".âĢĻ":7318,"ulating":7319,"gcolor":7320,"Ġwhenever":7321,"July":7322,"Ġmusc":7323,"Ġbreakfast":7324,"Ġaccomplish":7325,"hal":7326,"oms":7327,"friendly":7328,"ko":7329,"ĠEnergy":7330,"ĠâĨĴ":7331,"under":7332,"Ġfairly":7333,"tos":7334,"Ġspin":7335,"âĢĻ,":7336,"ĠGlobal":7337,"ĠPak":7338,"Mus":7339,"osed":7340,"Ġattached":7341,"Ġconfirm":7342,"Ġdreams":7343,"ĠContact":7344,"Ġgained":7345,"Also":7346,"Before":7347,"Ġinformed":7348,"Ġtrick":7349,"Ġcock":7350,"Ġnetworks":7351,"Ġstruggle":7352,"Ġbirds":7353,"era":7354,"Ġfrag":7355,"ateful":7356,"Sm":7357,"Ġpersonality":7358,"ĠCA":7359,"making":7360,"pret":7361,"evi":7362,"rors":7363,"ĠBrook":7364,"ĠSanta":7365,"Ġdining":7366,"Ġsearching":7367,"Ġproducing":7368,"tub":7369,"Ġchocolate":7370,"Ġ186":7371,"front":7372,"uma":7373,"iest":7374,"ĠSign":7375,"using":7376,"Sec":7377,"ificate":7378,"ĠAff":7379,"Ġincreases":7380,"Ġcos":7381,"ache":7382,"ĠMcC":7383,"Ġregulations":7384,"Ġcoaching":7385,"ĠBul":7386,"tone":7387,"Ġloans":7388,"fl":7389,"ĠCert":7390,"PC":7391,"Ġordered":7392,"Ġrisks":7393,"arrant":7394,"!!!":7395,"enger":7396,"cepts":7397,"Ġacting":7398,"Ġstreets":7399,"Ġrelief":7400,"Ġgifts":7401,"har":7402,"Ġmanagers":7403,"Ġshift":7404,"Ġopt":7405,"ĠFurther":7406,"away":7407,"Where":7408,"Ġkne":7409,"Ġ32":7410,"Ġproven":7411,"Email":7412,"oured":7413,"ancer":7414,"des":7415,"Ġhung":7416,"ĠGreek":7417,"Ġcommunicate":7418,"Ġindeed":7419,"Ġhors":7420,"nent":7421,"gun":7422,"Ġ1960":7423,"??":7424,"link":7425,"ession":7426,"aki":7427,"Ġpermanent":7428,"Ġinterface":7429,"Ġmonitoring":7430,"Ġapartment":7431,"Ġdynamic":7432,"Ġhardware":7433,"Ġdropped":7434,"roduction":7435,"ĠEngineering":7436,"Ġspect":7437,"Ġstim":7438,"ĠDie":7439,"Ġdrama":7440,"Ġoverwhel":7441,"Ġlanguages":7442,"arity":7443,"ĠShop":7444,"Ġsouthern":7445,"Ġproof":7446,"ĠUsing":7447,"Ġmini":7448,"anges":7449,"ĠSometimes":7450,"Ġguidelines":7451,"Ġindustries":7452,"Ġtickets":7453,"law":7454,"ishop":7455,"quar":7456,"ĠKent":7457,"ĠProfessor":7458,"Ġoffices":7459,"Ġexclusive":7460,"gypt":7461,"Ġhosted":7462,"Ġbasically":7463,"ylvan":7464,"Ġreturns":7465,"Ġbat":7466,"war":7467,"aylor":7468,"ucky":7469,"ĠBat":7470,"Ġshooting":7471,"ĠJackson":7472,"Ġmarked":7473,"Ġinjuries":7474,"Ġcond":7475,"Ġnarrow":7476,"Ġpill":7477,"Ġtransportation":7478,"ĠLine":7479,"itution":7480,"eller":7481,"Ġequipped":7482,"Ġpleased":7483,"Ġobtained":7484,"Ġcausing":7485,"2020":7486,"iversary":7487,"bsite":7488,"redit":7489,"Ġdeploy":7490,"Ġtrends":7491,"Ġemployment":7492,"Ġeleg":7493,"Ġdiagnos":7494,"Ġnewly":7495,"Ġcouncil":7496,"yo":7497,"Ġsight":7498,"Ġacknow":7499,"epper":7500,"Ġlogo":7501,"ĠOk":7502,"aest":7503,"PR":7504,"Ġmoves":7505,"Ġabsor":7506,"Ġdepends":7507,"ĠMicrosoft":7508,"Ġattacks":7509,"ĠFarm":7510,"Ġenjoying":7511,"Ġvend":7512,"Ġhidden":7513,"Ġimmediate":7514,"Ġchannels":7515,"Fil":7516,"quir":7517,"Ġstunning":7518,"Ġpoker":7519,"Ġexpression":7520,"List":7521,"Ġmeals":7522,"Ġdepth":7523,"och":7524,"ĠSky":7525,"ĠJac":7526,"apore":7527,"Ġliquid":7528,"ĠSaint":7529,"ayer":7530,"Ġbgcolor":7531,"ĠPolicy":7532,"Ġacid":7533,"Ġgard":7534,"Ġdescription":7535,"ĠVideo":7536,"Ġelig":7537,"par":7538,"ĠON":7539,"Ġprotei":7540,"Ġprotein":7541,"Ġsurprised":7542,"Ġpromi":7543,"Ġdiscussed":7544,"wich":7545,"emp":7546,"Ġfas":7547,"Ġtested":7548,"lessly":7549,"ila":7550,"hur":7551,"August":7552,"Ġarrive":7553,"actors":7554,"Ġnaturally":7555,"Ġpulled":7556,"Ġdevelopers":7557,"Ġillness":7558,"ĠFred":7559,"Ġinvolves":7560,"resents":7561,"isa":7562,"ĠExecutive":7563,"Ġscan":7564,"Check":7565,"Ġletters":7566,"à¤":7567,"Ġperformances":7568,"Ġmand":7569,"Ġdefe":7570,"Ġgym":7571,"ĠRen":7572,"ĠIran":7573,"Ġdelay":7574,"stream":7575,"Ġjustice":7576,"enders":7577,"gage":7578,"Ġvacation":7579,"ibu":7580,"Ġimmigr":7581,"Ġvulner":7582,"ĠLook":7583,"Ġcoi":7584,"athan":7585,"itis":7586,"Ġinteract":7587,"Ġsample":7588,"empl":7589,"Ġthin":7590,"ĠField":7591,"ĠGre":7592,"ĠMP":7593,"Ġcrazy":7594,"adow":7595,"à¸":7596,"eding":7597,"ogs":7598,"TM":7599,"Press":7600,"Ġ1995":7601,"ĠAssist":7602,"ĠTheatre":7603,"Ġsubscri":7604,"ylvania":7605,"luded":7606,"Ġlucky":7607,"Even":7608,"abeth":7609,"Ġdent":7610,"Ġrear":7611,"ĠLt":7612,"Ġrural":7613,"itable":7614,"ĠHard":7615,"Ġembr":7616,"otton":7617,"ĠRight":7618,"Ġprinted":7619,"iny":7620,"Ġchances":7621,"Ġcomponent":7622,"Ġdesired":7623,"Gener":7624,"ĠStudies":7625,"ĠGuide":7626,"Ġbottle":7627,"Ã¨":7628,"Ġ36":7629,"Ġsomewhere":7630,"Ġseriously":7631,"nations":7632,"Ġcharged":7633,"Ġrenov":7634,"Ġformal":7635,"ipped":7636,"oved":7637,"Ġbare":7638,"Ġdifferences":7639,"Ġgraduated":7640,"Ġlatter":7641,"mes":7642,"TC":7643,"Ġshares":7644,"Ġhospit":7645,"berry":7646,"Ġvolunteers":7647,"Ġinvestors":7648,"ĠArea":7649,"ĠAD":7650,"Ġdescribe":7651,"Ġmuscle":7652,"Ġnob":7653,"ria":7654,"Ġauthorities":7655,"Ġstake":7656,"ĠDar":7657,"ĠConf":7658,"hread":7659,"2021":7660,"ĠSir":7661,"ĠBang":7662,"OD":7663,"Ġpoll":7664,"Ġdeals":7665,"Ġcraft":7666,"cont":7667,"Ġticket":7668,"Ġensuring":7669,"Ġrecognition":7670,"Ġsubstant":7671,"mal":7672,"ĠView":7673,"acked":7674,"January":7675,"Ġpolitics":7676,"ulf":7677,"Ġbags":7678,"Ġcollected":7679,"Ġbond":7680,"Ġgender":7681,"Ġprofessor":7682,"Then":7683,"thread":7684,"Ġnegoti":7685,"ĠThough":7686,"Ġtro":7687,"ĠAR":7688,"Ġlies":7689,"Ġchart":7690,"ĠEqu":7691,"Ġalumni":7692,"oses":7693,"ĠSus":7694,"tiss":7695,"Ġpapers":7696,"tock":7697,"Ġmerch":7698,"ĠAC":7699,"Ġinches":7700,"ĠFour":7701,"Ġzone":7702,"ulum":7703,"Ġauthority":7704,"Ġrepresents":7705,"Ġvenue":7706,"Ġbroadcast":7707,"uccess":7708,"Ġwhilst":7709,"ĠHaving":7710,"Ġdeck":7711,"Ġstuck":7712,"ĠBuilding":7713,"Ġchron":7714,"ĠColorado":7715,"Ġnorthern":7716,"Find":7717,"burgh":7718,"Ġpriority":7719,"Äģ":7720,"Ġvisible":7721,"Ġsomewhat":7722,"ĠConst":7723,"nab":7724,"Care":7725,"Ġbrush":7726,"auc":7727,"Ġsevere":7728,"linois":7729,"Ġspok":7730,"Ġshops":7731,"otes":7732,"Ġarmy":7733,"Ġprinciples":7734,"Ġadds":7735,"Stud":7736,"ancial":7737,"ĠMinistry":7738,"âĢ¦.":7739,"Ġworst":7740,"ĠRadio":7741,"Ġceremony":7742,"Ġnoise":7743,"dney":7744,"Mr":7745,"uration":7746,"Ġ)":7747,"km":7748,"Have":7749,"ĠSher":7750,"October":7751,"Ġ1994":7752,"Ġforever":7753,"Ġfounder":7754,"Ġanticip":7755,"Ġempty":7756,"Ġcrypto":7757,"Ġtreatments":7758,"ĠKim":7759,"Ġcake":7760,"aret":7761,"Ġairport":7762,"Ġcorrespond":7763,"52":7764,"Ġpersonnel":7765,"Ġracing":7766,"Ġstages":7767,"ĠNOT":7768,"Ġattractive":7769,"ĠHarr":7770,"Ġfer":7771,"Ġpremium":7772,"ĠStudents":7773,"Ġinsight":7774,"Ġyoga":7775,"ĠiPhone":7776,"ĠCro":7777,"Ġpreparation":7778,"ĠTrust":7779,"Ġheads":7780,"Ġelectrical":7781,"ĠJer":7782,"Ġcrop":7783,"Ġliber":7784,"Ġcrash":7785,"Ġresistance":7786,"auce":7787,"Ġmood":7788,"Ġslip":7789,"earing":7790,"ĠRay":7791,"Ġspoke":7792,"embers":7793,"Ġadap":7794,"EP":7795,"isk":7796,"Ġlake":7797,"Ġassociation":7798,"pat":7799,"September":7800,"ĠShan":7801,"Ġmile":7802,"Ġfo":7803,"ĠJoseph":7804,"Ġleather":7805,"hon":7806,"Ġpassionate":7807,"Ġacquired":7808,"Ġincreasingly":7809,"Ġmaintaining":7810,"Ġprivacy":7811,"tent":7812,"eria":7813,"di":7814,"Ġrig":7815,"ĠPR":7816,"ĠReport":7817,"Ġconflict":7818,"ĠControl":7819,"Ġtiss":7820,"Inter":7821,"Will":7822,"Ġframework":7823,"Ġil":7824,"Ġscenes":7825,"Ġfir":7826,"Ġdomain":7827,"ĠKong":7828,"Ġster":7829,"Ġresc":7830,"raid":7831,"ieties":7832,"rin":7833,"Ġcontrast":7834,"ĠOlympics":7835,"54":7836,"tes":7837,"Ġreturning":7838,"onna":7839,"Ġintroduction":7840,"ummies":7841,"Ġsharp":7842,"riends":7843,"ĠLy":7844,"AB":7845,"igen":7846,"Ġlinked":7847,"ounded":7848,"Ġconcert":7849,"iter":7850,"Ġscript":7851,"nsylvania":7852,"Ġtrib":7853,"Ġbrill":7854,"atics":7855,"Ġacts":7856,"ĠHope":7857,"Ġboxes":7858,"Ġemotions":7859,"Ġcompens":7860,"Ġexposure":7861,"Ġadvantages":7862,"Ġtempl":7863,"ĠFull":7864,"Ġroot":7865,"uten":7866,"Ġcompr":7867,"Ġpills":7868,"Sim":7869,"ĠThree":7870,"ĠEss":7871,"Make":7872,"Ġraw":7873,"Ġpit":7874,"Ġpharm":7875,"ĠMountain":7876,"asm":7877,"Imp":7878,"Ġupload":7879,"ĠMir":7880,"Ġsuffering":7881,"sters":7882,"Ġregions":7883,"Ġ1992":7884,"aer":7885,"ĠIslam":7886,"Work":7887,"EST":7888,"tan":7889,"Gu":7890,"bro":7891,"imize":7892,"leep":7893,"ystem":7894,"Ġopposite":7895,"Ġregardless":7896,"gely":7897,"Ġextension":7898,"Ġintent":7899,"ĠCreek":7900,"Ġresearchers":7901,"ĠRam":7902,"Ġdust":7903,"Ġchapter":7904,"Ġspots":7905,"AG":7906,"Ġactors":7907,"Ġspecialist":7908,"Ġsending":7909,"page":7910,"Ġmob":7911,"Ġprove":7912,"Ġplot":7913,"lections":7914,"ĠSn":7915,"Ġminimal":7916,"Ġstood":7917,"egr":7918,"Ġspr":7919,"Ġthread":7920,"ori":7921,"Ġfinds":7922,"Ġbowl":7923,"Ġfunctional":7924,"Ġmic":7925,"Ġphr":7926,"Ġsufficient":7927,"78":7928,"ĠCarl":7929,"Ġnutrition":7930,"Ġfunny":7931,"urb":7932,"51":7933,"Ġcalm":7934,"Ġsemi":7935,"iders":7936,"Ġreporting":7937,"Ġvess":7938,"ĠPriv":7939,"ĠGallery":7940,"Ġtrop":7941,"ĠEastern":7942,"Categ":7943,"Ġactress":7944,"holders":7945,"ĠCBD":7946,"ĠPlace":7947,"Ġforth":7948,"certain":7949,"Ġtraveling":7950,"ĠCirc":7951,"site":7952,"ĠEgypt":7953,"hine":7954,"formance":7955,"Ġmusicians":7956,"Each":7957,"Ġyesterday":7958,"ĠInvest":7959,"Ġstudying":7960,"ĠAdditionally":7961,"ietnam":7962,"Ġenables":7963,"Ġassistant":7964,"Ġworkshops":7965,"Ġseed":7966,"Ġentrance":7967,"Ġhurt":7968,"Rem":7969,"Ġunion":7970,"emble":7971,"ĠLiber":7972,"Ġvo":7973,"draw":7974,"Ġcapabilities":7975,"Ġpride":7976,"Str":7977,"iments":7978,"Ġspark":7979,"oviet":7980,"Ġdrinking":7981,"Ġgentle":7982,"wan":7983,"Ġwestern":7984,"ĠThus":7985,"ĠFederal":7986,"Ġengaging":7987,"53":7988,"iti":7989,"Ġreducing":7990,"usti":7991,"igi":7992,"onymous":7993,"Ġexpenses":7994,"Facebook":7995,"ĠBritain":7996,"Ġcontinuing":7997,"iral":7998,"aham":7999,"Ġdispl":8000,"Ġoperated":8001,"orized":8002,"uster":8003,"Ġparam":8004,"Ġaffili":8005,"FT":8006,"Ġagents":8007,"HS":8008,"ĠSpace":8009,"ĠStan":8010,"uin":8011,"Ro":8012,"zes":8013,"Ġresolution":8014,"ĠBlog":8015,"Ġexistence":8016,"Ġextreme":8017,"ĠBand":8018,"Inst":8019,"Ġaside":8020,"Ġclaimed":8021,"ographic":8022,"Ġstaying":8023,"irts":8024,"Ġphen":8025,"Ġrecommendations":8026,"ĠWatch":8027,"ĠDoes":8028,"ĠStory":8029,"Ġbranch":8030,"ĠEU":8031,"Ġescape":8032,"ĠNever":8033,"Ġcareful":8034,"ĠDespite":8035,"UL":8036,"Ġswimming":8037,"Ġbanks":8038,"obby":8039,"het":8040,"ĠToronto":8041,"Ġslots":8042,"yers":8043,"Ġinven":8044,"ĠVen":8045,"Ġfinance":8046,"Ġcbd":8047,"Ġ48":8048,"Ġliterature":8049,"evin":8050,"Ġinvestigation":8051,"Ġlargely":8052,"Ġrestor":8053,"Ġblocks":8054,"Ġmask":8055,"Ġmeets":8056,"Ġrental":8057,"Ġunw":8058,"Ġshel":8059,"Oh":8060,"Ġunknown":8061,"anes":8062,"Ġzero":8063,"Ġenroll":8064,"Ġtone":8065,"ĠSon":8066,"ĠHun":8067,"Ġliterally":8068,"Ġcategories":8069,"alo":8070,"Ġexceptional":8071,"Off":8072,"ĠIllinois":8073,"Ġencouraged":8074,"Ġsuddenly":8075,"ĠScotland":8076,"ĠSP":8077,"Ġunus":8078,"February":8079,"Ġfest":8080,"Ġble":8081,"ĠMember":8082,"Ġseats":8083,"Ġadj":8084,"Ġlady":8085,"ustin":8086,"ĠCivil":8087,"ĠEnvironment":8088,"Ġfacts":8089,"Ġempower":8090,"ĠDutch":8091,"Ġconcepts":8092,"Ġprinting":8093,"Ġsumm":8094,"Ġreasonable":8095,"Ġdrawn":8096,"Down":8097,"ĠPack":8098,"Ġcomplicated":8099,"Ġchildhood":8100,"2022":8101,"orgeous":8102,"Ġaest":8103,"tood":8104,"Ġhoping":8105,"Ġeggs":8106,"arn":8107,"Ġincident":8108,"amental":8109,"Ġreaching":8110,"Ġlie":8111,"words":8112,"ĠEvent":8113,"ĠEst":8114,"rently":8115,"stein":8116,"pts":8117,"ĠChe":8118,"Ġdiscount":8119,"Ġhole":8120,"ĠMah":8121,"Ġflying":8122,"Ġheaded":8123,"achelor":8124,"ĠPas":8125,"Ġintelligence":8126,"tery":8127,"Ġlawyer":8128,"Ġcreativity":8129,"Ġfocuses":8130,"ĠLatin":8131,"Ġyards":8132,"ĠDC":8133,"Ġgrateful":8134,"Ġdriven":8135,"Ġfaced":8136,"DS":8137,"Ġvolunteer":8138,"Ġmanual":8139,"Ġtalks":8140,"Mi":8141,"Ġshower":8142,"Ġnuc":8143,"inder":8144,"2019":8145,"ĠBox":8146,"asure":8147,"Ġrecre":8148,"VE":8149,"ĠGarden":8150,"Ġsaved":8151,"Ġtalked":8152,"Ġpromise":8153,"Ġlaid":8154,"ĠPub":8155,"Ġtub":8156,"ĠSingapore":8157,"Ġflash":8158,"%.":8159,"eren":8160,"etr":8161,"Ġhandling":8162,"Trans":8163,"Ġexpansion":8164,"vas":8165,"bel":8166,"Ġalle":8167,"brid":8168,"Ġ1993":8169,"ĠPennsylvania":8170,"Ġgarage":8171,"Ġofficially":8172,"AY":8173,"ĠSof":8174,"ĠBroad":8175,"ĠPhys":8176,"aved":8177,"Ġpiano":8178,"Ð°":8179,"Ġrequests":8180,"Ġsheet":8181,"ĠPract":8182,"hyt":8183,"ĠWales":8184,"ĠKorea":8185,"ERS":8186,"Ġretired":8187,"Ġpreferred":8188,"Ġmedal":8189,"Ġsignal":8190,"Ġdeeper":8191,"Ġestimated":8192,"Ġpace":8193,"ĠBad":8194,"Ġtrigger":8195,"mo":8196,"High":8197,"ifer":8198,"ĠHong":8199,"Ġriding":8200,"aches":8201,"ĠOx":8202,"Ġconscious":8203,"Ġsinging":8204,"ĠRod":8205,"Ġsaving":8206,"Ġalive":8207,"andy":8208,"November":8209,"till":8210,"atoes":8211,"Ġcable":8212,"ĠSenior":8213,"ĠUt":8214,"ĠLin":8215,"Ġconsideration":8216,"Ġflour":8217,"Ġwatched":8218,"Ġrat":8219,"ĠNavy":8220,"ĠForest":8221,"Ġmoder":8222,"ifies":8223,"Ġcovering":8224,"imp":8225,"Ġnavigation":8226,"Ġcarrying":8227,"Ġafraid":8228,"Ġtooth":8229,"Ġeverywhere":8230,"Tags":8231,"Ġsew":8232,"Ġmillions":8233,"tang":8234,"ĠLind":8235,"ĠStation":8236,"PM":8237,"Ġstrict":8238,"AF":8239,"ĠAgain":8240,"Ġabuse":8241,"ĠLearning":8242,"ĠCountry":8243,"ifting":8244,"ĠMembers":8245,"ĠPoint":8246,"fall":8247,"Ġexplains":8248,"Ġstronger":8249,"Ġsections":8250,"erving":8251,"Int":8252,"Â°":8253,"Ġstable":8254,"Ġbrowser":8255,"zabeth":8256,"Ġmal":8257,"ĠSydney":8258,"Ġjudge":8259,"izer":8260,"uous":8261,"ĠConsult":8262,"ingers":8263,"Ġlimits":8264,"Ġbands":8265,"Ġreform":8266,"Ġbroke":8267,"Ġroads":8268,"Ġgreatly":8269,"Whether":8270,"stery":8271,"Ġconvent":8272,"oration":8273,"verage":8274,"Ġtrips":8275,"Use":8276,"Ġoccurs":8277,"vy":8278,"ouch":8279,"eet":8280,"Ġportfolio":8281,"Ġflavor":8282,"Cur":8283,"Ġdefault":8284,"66":8285,"Ġbaseball":8286,"vin":8287,"ĠBall":8288,"Ġpurchasing":8289,"Ġintegration":8290,"bourne":8291,"Ġbeneficial":8292,"Ġwave":8293,"Ġdecent":8294,"Ġnomin":8295,"Ġpowder":8296,"gorith":8297,"ĠOs":8298,"Ġultimate":8299,"Ġfaces":8300,"oving":8301,"Ġrevolution":8302,"ĠNi":8303,"olis":8304,"zona":8305,"Ġusage":8306,"lay":8307,"Ġcomedy":8308,"ĠRun":8309,"Ġcommunications":8310,"ĠSong":8311,"ĠSecretary":8312,"Ġyard":8313,"odge":8314,"Ġapproaches":8315,"bell":8316,"uling":8317,"ĠAccess":8318,"Ġaims":8319,"Ġsensitive":8320,"Ġwealth":8321,"riers":8322,"Mark":8323,"December":8324,"Ġpink":8325,"edia":8326,"Ġattending":8327,"Ġsurprising":8328,"Spec":8329,"Ġwis":8330,"Ġabandon":8331,"oh":8332,"ĠMill":8333,"inals":8334,"Ġwins":8335,"Ġblind":8336,"ĠFun":8337,"Ġ1991":8338,"Ġbedroom":8339,"quest":8340,"Ġending":8341,"Ġsetup":8342,"Ġdamaged":8343,"Ġloyal":8344,"coin":8345,"Ġblank":8346,"Ġisol":8347,"Ġdeeply":8348,"Ġconsultation":8349,"otion":8350,"Ð¾":8351,"RI":8352,"Ġquote":8353,"Ġremoval":8354,"Ġclassroom":8355,"Ġassigned":8356,"spec":8357,"nery":8358,"Ġdrinks":8359,"aron":8360,"icit":8361,"Ġpra":8362,"Ġstorm":8363,"Ġpin":8364,"ĠBible":8365,"oves":8366,"Ġadopted":8367,"Ġtomorrow":8368,"aska":8369,"oven":8370,"ĠTele":8371,"lik":8372,"Ġlegend":8373,"abb":8374,"ĠSu":8375,"ĠReading":8376,"aya":8377,"Ġshots":8378,"ĠTaylor":8379,"Ġdesigners":8380,"ĠJustice":8381,"Ġpresents":8382,"Ġoppon":8383,"ĠCode":8384,"Ġattorney":8385,"Ġscheme":8386,"Ġcolleagues":8387,"Ġinstrument":8388,"ĠAI":8389,"athy":8390,"Out":8391,"Ġbelieves":8392,"letter":8393,"forcement":8394,"Ġhits":8395,"Ġsingles":8396,"people":8397,"Ġfocusing":8398,"Ġocean":8399,"esh":8400,"Ġreaction":8401,"ĠJr":8402,"Ġtag":8403,"Good":8404,"gs":8405,"Ġhyp":8406,"Ġsuggests":8407,"ĠBudd":8408,"ĠDun":8409,"stal":8410,"Ġbars":8411,"Ġexpanded":8412,"Ġrely":8413,"Ġduty":8414,"ington":8415,"Ġmanufacturers":8416,"Ġbunch":8417,"Ġdiseases":8418,"Ġscratch":8419,"heless":8420,"Ġobviously":8421,"Ġamounts":8422,"ĠLtd":8423,"Ġdiversity":8424,"acted":8425,"uses":8426,"ĠAvenue":8427,"Ġ400":8428,"Ġorganisation":8429,"orial":8430,"ĠMrs":8431,"Ġanyway":8432,"Ġshouldn":8433,"Ġentering":8434,"ivals":8435,"Ġexposed":8436,"Ġads":8437,"ĠVietnam":8438,"theless":8439,"ĠCH":8440,"Ġflexibility":8441,"ĠBeing":8442,"tact":8443,"Ġhes":8444,"elry":8445,"gian":8446,"Ġmassage":8447,"Ġoccurred":8448,"Ġcalendar":8449,"Ġnewspaper":8450,"Ġ75":8451,"Ġstring":8452,"ĠTal":8453,"2018":8454,"imental":8455,"Ġdad":8456,"Ġconsumption":8457,"Ġparticipation":8458,"regon":8459,"Top":8460,"ĠTry":8461,"Ġ?":8462,"Ġgod":8463,"Ġexploring":8464,"Ġdemands":8465,"name":8466,"inn":8467,"Ġaccessories":8468,"ĠVictoria":8469,"Ġoutcomes":8470,"Ġauthors":8471,"riculum":8472,"acher":8473,"Ġsuggestions":8474,"Ġbacter":8475,"Ġprem":8476,"ĠHou":8477,"arry":8478,"ĠPot":8479,"Ġmountains":8480,"Ġdishes":8481,"pany":8482,"Ġlisting":8483,"tired":8484,"Dele":8485,"Ġstead":8486,"Ġpersons":8487,"ailable":8488,"Ġfascin":8489,"igs":8490,"Ġpublication":8491,"Ġcharacteristics":8492,"ĠRef":8493,"from":8494,"Ġpackaging":8495,"ĠNick":8496,"ĠSpirit":8497,"edge":8498,"Ġcelebration":8499,"zing":8500,"ĠLocal":8501,"Ġrecip":8502,"ĠFall":8503,"style":8504,"Ġinvolving":8505,"ĠRegister":8506,"Ġemails":8507,"ĠNon":8508,"Ġstrange":8509,"ntario":8510,"Ġfifth":8511,"ificial":8512,"neys":8513,"Take":8514,"Ġpreparing":8515,"Ġtracking":8516,"ĠPrime":8517,"tie":8518,"ĠAS":8519,"Ġintroduce":8520,"Ġships":8521,"Ġcontrolled":8522,"RC":8523,"Ġregul":8524,"ĠRon":8525,"Ġlifetime":8526,"ĠTit":8527,"Ġinterpret":8528,"Ġcampaigns":8529,"iro":8530,"Ġharder":8531,"ecks":8532,"Ġsuperior":8533,"quis":8534,"cut":8535,"Ġ150":8536,"ĠUnfortunately":8537,"Ġsatisfaction":8538,"Ġcater":8539,"Ġtact":8540,"ĠGolden":8541,"Ġtil":8542,"Ġentit":8543,"Ġfactory":8544,"Ġfirms":8545,"VD":8546,"anted":8547,"Ġrepeated":8548,"ĠWhich":8549,"ĠPhilipp":8550,"ĠNav":8551,"Ġenterprise":8552,"Ġdivided":8553,"ugby":8554,"rovers":8555,"Ġlists":8556,"uine":8557,"ĠLow":8558,"Ġtherap":8559,"lot":8560,"rell":8561,"nton":8562,"ĠSenate":8563,"Ġgorgeous":8564,"Ġblend":8565,"Ġvocals":8566,"Ġwooden":8567,"Ġconstructed":8568,"Ġapproval":8569,"Ġgate":8570,"ĠIII":8571,"ĠParliament":8572,"Ġelectricity":8573,"Ġinitiative":8574,"Ġpatch":8575,"ĠOfficer":8576,"high":8577,"ptions":8578,"Ġwarrant":8579,"ellect":8580,"Ġanymore":8581,"eters":8582,"ĠSystems":8583,"ĠColumbia":8584,"Ġtired":8585,"Ġrapidly":8586,"Ġ1950":8587,"Ġutilize":8588,"Ġinsights":8589,"days":8590,"Ġsubjects":8591,"Ġretirement":8592,"star":8593,"Ġaccompan":8594,"Ġpotentially":8595,"Ġphilosophy":8596,"Ins":8597,"rence":8598,"ĠCommon":8599,"ĠHoly":8600,"Ġacceler":8601,"boy":8602,"Ġwanting":8603,"Ġ;":8604,"Ġpromotion":8605,"ĠLat":8606,"ĠAli":8607,"ĠEs":8608,"ĠBon":8609,"Ġpackages":8610,"Continue":8611,"76":8612,"uating":8613,"Ġbreaking":8614,"Ġroots":8615,"LY":8616,"Ġilleg":8617,"ĠStudio":8618,"Ġforgot":8619,"Ġthousand":8620,"ĠYet":8621,"gines":8622,"una":8623,"Ġobjective":8624,"ĠBC":8625,"Ġcenters":8626,"mann":8627,"Ġchecking":8628,"uties":8629,"ĠGuard":8630,"Ġinher":8631,"Char":8632,"Ġathletes":8633,"Ġbab":8634,"Ġsecondary":8635,"Ġcorrectly":8636,"Ġtalented":8637,"ĠNiger":8638,"ĠJean":8639,"Ġsauce":8640,"Ġbreast":8641,"ĠProfessional":8642,"Ġkil":8643,"RS":8644,"Ġfundamental":8645,"ĠConnect":8646,"Ġabilities":8647,"ĠShould":8648,"Ġinteraction":8649,"Ġpaintings":8650,"person":8651,"Ġpassword":8652,"ĠCook":8653,"AA":8654,"Ġnights":8655,"Ġseeds":8656,"Ġdism":8657,"Ġrush":8658,"Ġapplying":8659,"Ġmanufacturer":8660,"terior":8661,"Ġvisits":8662,"Cr":8663,"pted":8664,"ieve":8665,"aying":8666,"Ġdoctors":8667,"Ġartistic":8668,"Ġstayed":8669,"ĠSoviet":8670,"urg":8671,"ĠSav":8672,"Ġgallery":8673,"Ġcasual":8674,"ĠHam":8675,"ima":8676,"ĠAlbert":8677,"Related":8678,"ĠLew":8679,"Ġreduction":8680,"Ġtheatre":8681,"da":8682,"ĠQuest":8683,"rot":8684,"ĠAppl":8685,"inson":8686,"Ġexceed":8687,"everal":8688,"Ġdraft":8689,"Ġelections":8690,"nesota":8691,"iang":8692,"ĠNeed":8693,"Ġ1989":8694,"izza":8695,"Ġblo":8696,"ĠRom":8697,"Ġhiring":8698,"ĠBor":8699,"Ġmuscles":8700,"Ġlesson":8701,"Ġstored":8702,"Ġhorses":8703,"Ġrice":8704,"Chi":8705,"ĠPrince":8706,"Ġengines":8707,"Ġlift":8708,"Ġreader":8709,"hew":8710,"expected":8711,"Ġraces":8712,"Ġwaters":8713,"Her":8714,"Ġworship":8715,"Ġment":8716,"ĠTar":8717,"Ġlets":8718,"ĠRog":8719,"Ġsavings":8720,"Ġdelivering":8721,"ĠCovid":8722,"Note":8723,"Ġintention":8724,"ĠResp":8725,"etts":8726,"2017":8727,"Ġcolours":8728,"onics":8729,"Ġcompliance":8730,"Ġimprovements":8731,"ĠDaniel":8732,"otal":8733,"ĠTravel":8734,"ĠKn":8735,"tap":8736,"ĠSafety":8737,"ummer":8738,"Ġoutcome":8739,"Ġgranted":8740,"Ġfarmers":8741,"Ġaggress":8742,"Ġfinishing":8743,"Ġsafely":8744,"ĠWinter":8745,"ĠBell":8746,"ĠTok":8747,"Ġpainted":8748,"Two":8749,"Mich":8750,"Ġexperiencing":8751,"achus":8752,"Ġrestrictions":8753,"Ġfalling":8754,"Ġloving":8755,"obs":8756,"tense":8757,"Ġdowntown":8758,"ĠBol":8759,"Ġinteractive":8760,"ested":8761,"ĠRose":8762,"=#":8763,"Ġmac":8764,"umed":8765,"2010":8766,"iour":8767,"ĠAccount":8768,"ĠBerlin":8769,"olar":8770,"ĠFord":8771,"Ġcomposed":8772,"isement":8773,"EA":8774,"rome":8775,"Ġbrew":8776,"ĠâĢĭ":8777,"ĠPortug":8778,"Ġcaptured":8779,"agers":8780,"ĠContr":8781,"ĠCustom":8782,"uming":8783,"ĠMuslim":8784,"VER":8785,"ĠJen":8786,"Ġencounter":8787,"hesis":8788,"Ġgiant":8789,"Ġprotocol":8790,"Ġmaintained":8791,"Ġsuffered":8792,"ĠAssembly":8793,"vironments":8794,"Ġpossibilities":8795,"step":8796,"ĠDam":8797,"Ġalgorith":8798,"ĠMu":8799,"plete":8800,"Ġsupplement":8801,"ordan":8802,"olving":8803,"ĠMedicine":8804,"Ġphotographs":8805,"Ġimplemented":8806,"Ġarrival":8807,"ĠOntario":8808,"Ġnecessarily":8809,"Ġstrongly":8810,"eral":8811,"Ġmixture":8812,"liers":8813,"CD":8814,"Ġvegetables":8815,"ĠStor":8816,"Ġcombat":8817,"Ġrose":8818,"Ġthemes":8819,"ĠPage":8820,"Ġ38":8821,"iki":8822,"ĠDisney":8823,"alse":8824,"Ġinstant":8825,"News":8826,"Ġsees":8827,"Ġgenerated":8828,"Ġcart":8829,"Mon":8830,"ĠLearn":8831,"Delete":8832,"Ġprominent":8833,"Ġtill":8834,"Ġcompete":8835,"Ġcoc":8836,"Ġarray":8837,"ĠAT":8838,"Ġinvite":8839,"ĠHeart":8840,"Ġknock":8841,"Ġchap":8842,"laim":8843,"ĠMess":8844,"Ġflower":8845,"Ġhero":8846,"bow":8847,"Because":8848,"ĠThink":8849,"ĠArizona":8850,"Ġpanels":8851,"Ġorient":8852,"Ġinstruments":8853,"ĠExpl":8854,"Ġcute":8855,"Ġpricing":8856,"Ġrepairs":8857,"Ġprize":8858,"2015":8859,"ocial":8860,"Ġeligible":8861,"Ġloud":8862,"Ġspeaker":8863,"ĠWithout":8864,"ĠBit":8865,"Ġminer":8866,"ĠRoom":8867,"ĠCop":8868,"ĠStore":8869,"Ġupgrade":8870,"uter":8871,"Ġmold":8872,"adelp":8873,"Ġbuyers":8874,"ĠTreat":8875,"2016":8876,"ĠChall":8877,"Ben":8878,"ĠEff":8879,"Ġweren":8880,"tural":8881,"Ġrising":8882,"Ġterror":8883,"Ġhat":8884,"Ġexercises":8885,"Ġrepresentative":8886,"Ġshoulder":8887,"ĠPur":8888,"Ġamongst":8889,"oir":8890,"Ġflag":8891,"ĠStill":8892,"Cus":8893,"organ":8894,"Ġspeakers":8895,"ibutes":8896,"Under":8897,"Ġgall":8898,"Ġclosing":8899,"Ġbott":8900,"Ġadditionally":8901,"Ġpromoting":8902,"Ġouts":8903,"'.":8904,"ĠHung":8905,"ĠOh":8906,"Ġasset":8907,"bb":8908,"eman":8909,"Ġhopes":8910,"Ġromantic":8911,"ĠSales":8912,"Ġimper":8913,"ĠChampionships":8914,"wear":8915,"Ġtaxes":8916,"ĠEll":8917,"ĠEmpire":8918,"ĠMother":8919,"ĠMS":8920,"Ġinfl":8921,"Ġham":8922,"center":8923,"Ġchampion":8924,"ĠLady":8925,"ĠSS":8926,"ĠBern":8927,"ĠWas":8928,"ĠPhotograp":8929,"ĠTai":8930,"Ġsoldiers":8931,"acon":8932,"Ġpercentage":8933,"Ġwinners":8934,"Prof":8935,"Ġheating":8936,"Ġhate":8937,"ĠSmall":8938,"Ġlicensed":8939,"achusetts":8940,"minal":8941,"agen":8942,"adelphia":8943,"Ġphenomen":8944,"Ġheavily":8945,"ĠSa":8946,"Ġfif":8947,"Ġunexpected":8948,"stract":8949,"79":8950,"ourse":8951,"Ġanalyt":8952,"Ġminister":8953,"Ġdisplayed":8954,"Ġborrow":8955,"ĠAirport":8956,"Ġresidence":8957,"Ġtemporary":8958,"Ġmarks":8959,"Start":8960,"ĠHelp":8961,"Ġintense":8962,"lar":8963,"Ġskilled":8964,"Ġholidays":8965,"ĠMult":8966,"nie":8967,"ĠDid":8968,"ĠBrian":8969,"Ġresort":8970,"Ġdemocr":8971,"Ġfits":8972,"Ġ1988":8973,"itate":8974,"Ġweapons":8975,"ĠBattle":8976,"Ġu":8977,"adi":8978,"Ġparticipated":8979,"Ġproposal":8980,"lyn":8981,"Ġunderstood":8982,"Ġinstruction":8983,"Ġ65":8984,"Ġexpressed":8985,"Ġsop":8986,"Ġ33":8987,"ĠPsych":8988,"Ġwithdraw":8989,"ildren":8990,"Ġscope":8991,"Ġcombine":8992,"Ġextend":8993,"non":8994,"Ġcoaches":8995,"ĠBase":8996,"Sub":8997,"Replies":8998,"Ã§":8999,"EE":9000,"Ġattitude":9001,"ĠOregon":9002,"Ġtowns":9003,"ĠSilver":9004,"Ġequival":9005,"Ġequally":9006,"ĠShi":9007,"zed":9008,"Ðµ":9009,"Ġpounds":9010,"Ġestablishments":9011,"Ã³n":9012,"power":9013,"eels":9014,"Ġpermit":9015,"owa":9016,"Ġplane":9017,"Ġanniversary":9018,"Ġspray":9019,"Ġvert":9020,"Ġinn":9021,"Ġportra":9022,"ĠAk":9023,"Sw":9024,"OK":9025,"Ġfalls":9026,"ĠSU":9027,"ĠComment":9028,"Ġstruggling":9029,"Ġrefr":9030,"MC":9031,"hrop":9032,"ĠStudent":9033,"ĠHan":9034,"Early":9035,"Ġphotographer":9036,"Ġlect":9037,"Ġfootballers":9038,"Ġsought":9039,"tied":9040,"ĠPut":9041,"Ġconvinc":9042,"Ġlegislation":9043,"haust":9044,"eim":9045,"Ġheading":9046,"avirus":9047,"ervice":9048,"ĠGovernor":9049,"Ġenvironments":9050,"Ġseam":9051,"Ġindex":9052,"Ġscientists":9053,"ĠNote":9054,"Ġcolumn":9055,"Ġstrike":9056,"uer":9057,"Ġactively":9058,"Ġcompat":9059,"HA":9060,"ĠPakistan":9061,"ĠVillage":9062,"Ġextent":9063,"jo":9064,"ĠMagazine":9065,"erts":9066,"Ġsubmitted":9067,"Ġdivor":9068,"Ġ()":9069,"Ġrequirement":9070,"arsh":9071,"Ġgre":9072,"Free":9073,"Ġabsolute":9074,"ĠJess":9075,"iform":9076,"Ġvocal":9077,"ĠRyan":9078,"ĠYouth":9079,"Ġinstitution":9080,"Ġpeak":9081,"Ġimportantly":9082,"Great":9083,"asted":9084,"Dav":9085,"Ġediting":9086,"Ġavailability":9087,"ĠCer":9088,"Ġbehalf":9089,"Ġmovements":9090,"Ġexplan":9091,"Ġclock":9092,"Ġpilot":9093,"Ġgraphics":9094,"Ġol":9095,"oral":9096,"Ġyield":9097,"',":9098,"ĠDJ":9099,"onsi":9100,"Ġfinger":9101,"Ġneut":9102,"Red":9103,"ĠBridge":9104,"iffer":9105,"Ġunusual":9106,"Ġcultiv":9107,"wa":9108,"Ġgap":9109,"ĠFox":9110,"Ġmagn":9111,"Ġfunctionality":9112,"ĠTech":9113,"Ġdepression":9114,"ĠPrice":9115,"Ġladies":9116,"Ġrecipes":9117,"Ġconversations":9118,"ĠProper":9119,"erland":9120,"ĠArm":9121,"Ġphones":9122,"ĠBrad":9123,"Ġcatal":9124,"ĠAuto":9125,"ĠKorean":9126,"Ġbrothers":9127,"Ġbuck":9128,"Ġconcerning":9129,"Ġcompletion":9130,"ĠSound":9131,"Ġdebate":9132,"Ġterritory":9133,"Ġcabin":9134,"Ġensures":9135,"ruption":9136,"ĠAN":9137,"Ġcul":9138,"Ġattempts":9139,"Ġwondering":9140,"ĠElizabeth":9141,"Ġtap":9142,"raq":9143,"Ġresulted":9144,"rec":9145,"ĠSuch":9146,"Ġgenuine":9147,"ĠCloud":9148,"osis":9149,"Ġlayout":9150,"ĠContinue":9151,"El":9152,"atto":9153,"Ġcontinuous":9154,"former":9155,"Ġni":9156,"ĠInsurance":9157,"Twitter":9158,"Ġdefinition":9159,"Ġtent":9160,"Ġsquad":9161,"Ġbrilliant":9162,"Ġestablishment":9163,"Ġemotion":9164,"Keep":9165,"Ġow":9166,"Ġbooking":9167,"Ġadministrative":9168,"RL":9169,"ĠDemocratic":9170,"aws":9171,"ĠBarb":9172,"ĠWilson":9173,"Ġobserved":9174,"atal":9175,"Ġcontributions":9176,"Ġtex":9177,"Ġworkplace":9178,"Ġcomparison":9179,"ĠGreg":9180,"Ġuncertain":9181,"type":9182,"Ġbench":9183,"isconsi":9184,"chestra":9185,"utter":9186,"ĠSmart":9187,"Ġeverybody":9188,"Ġtox":9189,"Ġrend":9190,"Ġcoal":9191,"eve":9192,"tum":9193,"ĠLas":9194,"Ġcontrols":9195,"Ġhasn":9196,"ĠFOR":9197,"ĠMajor":9198,"Ġepisodes":9199,"trum":9200,"olly":9201,"isconsin":9202,"Ġcomposition":9203,"Ġcontaining":9204,"ĠTrail":9205,"Disc":9206,"irk":9207,"Ġdistingu":9208,"ĠCbd":9209,"ĠCorn":9210,"imb":9211,"ĠCou":9212,"ogether":9213,"Ġreligion":9214,"Ġhoney":9215,"Ġcontribution":9216,"Vis":9217,"Ġabroad":9218,"ĠDave":9219,"Ġchest":9220,"Ġformation":9221,"Ġdefine":9222,"ĠHD":9223,"Ġboss":9224,"Ġauthentic":9225,"ifted":9226,"2014":9227,"ĠBrother":9228,"Ġaer":9229,"Ġlayers":9230,"pool":9231,"Ġreception":9232,"ĠHay":9233,"etary":9234,"atile":9235,"Ġopens":9236,"ĠMinnesota":9237,"ĠDavis":9238,"Ġcinem":9239,"Ġfranch":9240,"ded":9241,"Ġconsistently":9242,"ĠUkraine":9243,"Ġexport":9244,"char":9245,"ilation":9246,"oding":9247,"Ġparticipating":9248,"Ġfilling":9249,"ĠPrinc":9250,"Ġmathem":9251,"ining":9252,"Ġheritage":9253,"Ġbold":9254,"Ġpacked":9255,"Ġstatistics":9256,"ĠMA":9257,"Ġtransaction":9258,"ĠEar":9259,"Ġlegisl":9260,"Ġweigh":9261,"Ġsurve":9262,"Ġpodcast":9263,"Ġsen":9264,"roduct":9265,"ĠLED":9266,"oni":9267,"Ġhoriz":9268,"ĠRome":9269,"toral":9270,"ĠLabor":9271,"ĠCP":9272,"ĠSearch":9273,"Ġshapes":9274,"onavirus":9275,"REE":9276,"eater":9277,"Ġboards":9278,"Ġtrim":9279,"ordinary":9280,"Ġengineer":9281,"Ġevaluation":9282,"ouri":9283,"Ġtemperatures":9284,"Ġyours":9285,"ĠLiving":9286,"Ġchampionship":9287,"including":9288,"ĠDog":9289,"ĠRest":9290,"yal":9291,"ĠMemorial":9292,"ĠMoon":9293,"Ġprivile":9294,"Ġgraphic":9295,"Ġresid":9296,"ĠInsp":9297,"Ġdeveloper":9298,"Ġraising":9299,"ĠSeason":9300,"spe":9301,"ĠEver":9302,"onia":9303,"proof":9304,"Ġassume":9305,"ira":9306,"ĠTax":9307,"Ġsurrounded":9308,"hu":9309,"Ġpopularity":9310,"Ġinjured":9311,"ĠAdam":9312,"Ġgotten":9313,"ĠEric":9314,"log":9315,"aga":9316,"ĠEdward":9317,"ĠMassachusetts":9318,"tension":9319,"Ġsurvive":9320,"ederation":9321,"Ġoverse":9322,"Ġtie":9323,"aqu":9324,"ez":9325,"Ġperiods":9326,"English":9327,"pson":9328,"ĠBrand":9329,"Ġbills":9330,"ĠHo":9331,"Ġpursue":9332,"Ġcircle":9333,"etherlands":9334,"ĠEmer":9335,"Ġobjectives":9336,"ĠDark":9337,"ĠFinancial":9338,"Ġexists":9339,"arring":9340,"parent":9341,"La":9342,"Ġemployed":9343,"Ty":9344,"track":9345,"Ste":9346,"Ġpepper":9347,"ĠâĢĻ":9348,"rog":9349,"Ġorange":9350,"ĠHouston":9351,"struc":9352,"Ġcontrovers":9353,"CS":9354,"Ġcotton":9355,"Ġcow":9356,"ĠSquare":9357,"assion":9358,"Ġokay":9359,"igious":9360,"Ġwake":9361,"idi":9362,"iginal":9363,"Ġcru":9364,"ĠLater":9365,"Ġscreens":9366,"300":9367,"omething":9368,"Ġoven":9369,"Ġsettled":9370,"ĠStock":9371,"orous":9372,"Ġputs":9373,"Ġcriteria":9374,"ĠAgency":9375,"hou":9376,"Ġproved":9377,"ĠGard":9378,"Ġoldest":9379,"FF":9380,"foot":9381,"Ġtransformation":9382,"lins":9383,"Ġmistakes":9384,"ova":9385,"ormal":9386,"ategorized":9387,"Ġhabits":9388,"Ġparish":9389,"Ġshr":9390,"Ġsmoke":9391,"Ġacquis":9392,"Ġhanging":9393,"Ġtoile":9394,"Ġmeaningful":9395,"aura":9396,"Ġgenerations":9397,"Ġimpression":9398,"ĠOlympic":9399,"ught":9400,"Ġprayer":9401,"ĠTan":9402,"Ġ1987":9403,"Ġmas":9404,"ĠBooks":9405,"Ġevolution":9406,"sen":9407,"ĠPit":9408,"Ġcouples":9409,"Ġdefend":9410,"ĠPers":9411,"Ġrailway":9412,"Ġunp":9413,"Ġworn":9414,"Ġhip":9415,"ĠOcean":9416,"Ġpoetry":9417,"left":9418,"esis":9419,"Ġcats":9420,"Ġcomputers":9421,"Ġmerely":9422,"Ġburn":9423,"ĠHollywood":9424,"Ġstrip":9425,"Ġreveal":9426,"Inc":9427,"Ġtransactions":9428,"Ġlyr":9429,"Ġentitled":9430,"aha":9431,"Ġlocally":9432,"itu":9433,"ĠAdministration":9434,"adition":9435,"Ð¸":9436,"Ġmyt":9437,"Ã±":9438,"ĠPrim":9439,"sm":9440,"Ġ<":9441,"tainment":9442,"Ġpermission":9443,"Ġtrusted":9444,"Ġovercome":9445,"ĠPartners":9446,"ĠSupreme":9447,"ĠSciences":9448,"Ġgolden":9449,"Ġrespectively":9450,"Ġperm":9451,"Ġsatisfied":9452,"Ġaged":9453,"ĠEP":9454,"Ġessentially":9455,"after":9456,"Link":9457,"Ġindicate":9458,"Ġartwork":9459,"Ġpowers":9460,"ĠEveryone":9461,"Ġministry":9462,"Ġ1986":9463,"ĠVice":9464,"Ġorganisations":9465,"ervative":9466,"Ġconnecting":9467,"boards":9468,"EX":9469,"aho":9470,"Ġdistributed":9471,"icide":9472,"Welcome":9473,"Ġsuppor":9474,"ĠBeaut":9475,"Ġopposed":9476,"Ġmakeup":9477,"Ġmeters":9478,"unate":9479,"iants":9480,"mont":9481,"quarters":9482,"Ġ1984":9483,"pur":9484,"Ġhighlights":9485,"Ġproductivity":9486,"isms":9487,"Ġvirtually":9488,"Ġdestroyed":9489,"Ġpocket":9490,"Ġhide":9491,"ĠSarah":9492,"2013":9493,"Ġvictims":9494,"Ġdispos":9495,"igue":9496,"ran":9497,"Ġinterviews":9498,"ĠGer":9499,"ĠClin":9500,"ĠOS":9501,"Ġacquire":9502,"otive":9503,"Ġnose":9504,"Ġwrap":9505,"ĠTony":9506,"Ġcam":9507,"Ġdesigning":9508,"BI":9509,"Ġcancell":9510,"Ġadmit":9511,"Ġuniversities":9512,"Ġsettlement":9513,"ĠFinally":9514,"ĠWars":9515,"writer":9516,"Ġenjoys":9517,"Ġdocumentary":9518,"ĠUnivers":9519,"Ġjazz":9520,"Ġsculpt":9521,"inity":9522,"ĠFA":9523,"eft":9524,"Ġtwist":9525,"netic":9526,"98":9527,"ĠDue":9528,"inch":9529,"\")":9530,"Ġenemy":9531,"Ġinitiatives":9532,"ĠMiami":9533,"ĠDiego":9534,"acular":9535,"Ġought":9536,"phones":9537,"Ġcompare":9538,"found":9539,"Â·":9540,"ĠCry":9541,"ĠOak":9542,"hed":9543,"aren":9544,"Ġspecialized":9545,"Ġchecked":9546,"Ġstro":9547,"Ġdocumentation":9548,"enda":9549,"ĠRepublican":9550,"ĠMind":9551,"nabis":9552,"Ġrarely":9553,"Ġindoor":9554,"Ġprovince":9555,"Ġdifficulty":9556,"books":9557,"Download":9558,"ĠAz":9559,"ĠHarry":9560,"Ġdefeated":9561,"Ġhappiness":9562,"GA":9563,"ii":9564,"Ġkeys":9565,"ĠIndustr":9566,"Ġstreaming":9567,"Ġtexture":9568,"ige":9569,"ĠCond":9570,"Ġtours":9571,"Ġ~":9572,"ĠPhiladelphia":9573,"ĠNatural":9574,"Ġdrain":9575,"ĠShort":9576,"onies":9577,"2000":9578,"Ġjewelry":9579,"ĠStephen":9580,"Ġclip":9581,"lude":9582,"Ġtransferred":9583,"Ġpets":9584,"ependent":9585,"Intern":9586,"avor":9587,"ĠOct":9588,"ĠFather":9589,"Ġneither":9590,"hour":9591,"Ġcompleting":9592,"obb":9593,"allas":9594,"Ġhydro":9595,"Ġresident":9596,"Ġpul":9597,"eem":9598,"ĠWebsite":9599,"tape":9600,"ĠProcess":9601,"Ġsink":9602,"Ġgrounds":9603,"Ġadequ":9604,"Ġweird":9605,"osa":9606,"Ġinfection":9607,"ERE":9608,"Ġpasses":9609,"Ġintellect":9610,"2012":9611,"Ġapparently":9612,"rite":9613,"ĠRepresent":9614,"Ġnavigate":9615,"Ġdescribes":9616,"engers":9617,"Ġcollections":9618,"ĠMachi":9619,"Ġentrepreneurs":9620,"Ġinventory":9621,"Ġoperational":9622,"Ġ(\"":9623,"osystem":9624,"Ġexhaust":9625,"Ġcopies":9626,"ĠMarc":9627,"abetes":9628,"ĠBuild":9629,"Ġbreaks":9630,"Ġelegant":9631,"Ġownership":9632,"ĠExp":9633,"Ġneighb":9634,"ĠVegas":9635,"ĠBan":9636,"Ġconsequences":9637,"Ġinvesting":9638,"oust":9639,"ĠKevin":9640,"ĠRub":9641,"Ġsed":9642,"BO":9643,"Ġ1985":9644,"ĠSolutions":9645,"arks":9646,"Ġplain":9647,"Ġfuck":9648,"Ġsigning":9649,"graduate":9650,"Ġmortgage":9651,"Ġlaptop":9652,"ĠCorporation":9653,"ĠVery":9654,"ĠLes":9655,"ĠOxford":9656,"Ġethn":9657,"Ġrefund":9658,"Ġconce":9659,"ĠMiller":9660,"Ġdurable":9661,"ĠIraq":9662,"ĠMobile":9663,"ĊĠĊ":9664,"Ġmistake":9665,"ĠDrive":9666,"Ġenjoyable":9667,"Ġsacr":9668,"rem":9669,"ervations":9670,"ĠSC":9671,"riving":9672,"ĠAustin":9673,"Ġranging":9674,"ibl":9675,"ĠRemember":9676,"ĠCR":9677,"drop":9678,"Ġpredict":9679,"Ġretr":9680,"Ġhyper":9681,"ART":9682,"ĠCapital":9683,"Ġminds":9684,"ME":9685,"Ġcompetitors":9686,"ĠWisconsin":9687,"Ġcomprom":9688,"Ġglobe":9689,"Ġsignature":9690,"eness":9691,"Dis":9692,"Ġgathering":9693,"Through":9694,"Ġjuice":9695,"Ġpolitician":9696,"ĠKh":9697,"ĠOt":9698,"Ġsamples":9699,"Ġcameras":9700,"unct":9701,"ĠPerhaps":9702,"Ġrelative":9703,"Ġportr":9704,"ĠPA":9705,"Ġtitled":9706,"Join":9707,"Ġcooperation":9708,"Ġtrem":9709,"Ġ34":9710,"ĠNetherlands":9711,"ĠRights":9712,"Ġsevent":9713,"ĠThings":9714,"ĠHistoric":9715,"Ġscar":9716,"aza":9717,"ĠStaff":9718,"ĠDur":9719,"Ġtons":9720,"ĠIndones":9721,"king":9722,"ATE":9723,"ching":9724,"mouth":9725,"Ġprime":9726,"Ġ37":9727,"Ġnerv":9728,"ultane":9729,"Ġpublishing":9730,"angers":9731,"ĠPoland":9732,"Ġbone":9733,"ĠKansas":9734,"Ġautomatic":9735,"Ġequivalent":9736,"estr":9737,"ghan":9738,"Ġcoat":9739,"Ġtissue":9740,"ĠMoreover":9741,"ĠScottish":9742,"Ġalter":9743,"igenous":9744,"Ġwider":9745,"Leave":9746,"oz":9747,"acles":9748,"xth":9749,"Ġdrag":9750,"Ġrhyt":9751,"ĠEvents":9752,"ĠTransport":9753,"Ġhaz":9754,"Ġquantity":9755,"Ġbomb":9756,"ĠMom":9757,"Further":9758,"Ġaccommodate":9759,"Ġpushed":9760,"Ġloose":9761,"Bel":9762,"ĠAlexander":9763,"Ġcurriculum":9764,"ĠLevel":9765,"Ġsour":9766,"Ġcertificate":9767,"Ġfrequency":9768,"ĠHawai":9769,"Ġletting":9770,"sec":9771,"Ġfrequent":9772,"ĠHa":9773,"atri":9774,"Ġholes":9775,"irtual":9776,"ĠCredit":9777,"ĠTurkey":9778,"ĠEstate":9779,"Ġsoccer":9780,"||":9781,"bul":9782,"Ġrequested":9783,"Ġprincipal":9784,"ycles":9785,"2011":9786,"named":9787,"don":9788,"Ġinvestments":9789,"Ġmanif":9790,"sex":9791,"Ġoccasions":9792,"Ġsmell":9793,"Life":9794,"Ġasks":9795,"look":9796,"Ġtape":9797,"ĠQueens":9798,"ĠMelbourne":9799,"Ġfinest":9800,"osh":9801,"makers":9802,"ĠCaptain":9803,"Ġcontracts":9804,"Ġshortly":9805,"ublished":9806,"Members":9807,"Ġreject":9808,"ials":9809,"Ġannounce":9810,"idae":9811,"Ġnuclear":9812,"General":9813,"print":9814,"hro":9815,"usive":9816,"ĠBBC":9817,"Ġcharity":9818,"Ġwalks":9819,"68":9820,"Ġrib":9821,"ashed":9822,"ĠTool":9823,"Notes":9824,"Ġstain":9825,"âĢ³":9826,"Ġsegment":9827,"Ġtied":9828,"ĠLeave":9829,"Ġloop":9830,"Ġvint":9831,"Ġcro":9832,"Ġvine":9833,"Ġpoliticians":9834,"ĠMarsh":9835,"acious":9836,"abling":9837,"rect":9838,"Ġlens":9839,"Ġformula":9840,"emet":9841,"agra":9842,"Ġcontainer":9843,"Ġrefuge":9844,"Ġharvest":9845,"Ġproduces":9846,"ols":9847,"Ġfundra":9848,"oting":9849,"Ġclassical":9850,"alian":9851,"ĠOwn":9852,"Ġcomplement":9853,"Ġrepresenting":9854,"Ġfollowers":9855,"Ġcher":9856,"ĠStone":9857,"Ġcelebrated":9858,"Ġarrested":9859,"ista":9860,"Cre":9861,"ĠChap":9862,"Ġfulfill":9863,"enth":9864,"anna":9865,"ĠMission":9866,"Ġopposition":9867,"Ġdancing":9868,"Ġhotels":9869,"Ġaimed":9870,"Ġcollective":9871,"Bet":9872,"ĠPS":9873,"Av":9874,"urse":9875,"Ġcrown":9876,"Ġphysically":9877,"uto":9878,"ĠProvince":9879,"ĠIndiana":9880,"Ġuniverse":9881,"Ġque":9882,"ĠWordPress":9883,"Ġinspection":9884,"Mod":9885,"Ġstability":9886,"elve":9887,"Ġengineers":9888,"rets":9889,"ĠEmploy":9890,"Ġoblig":9891,"orship":9892,"Ġtroops":9893,"unes":9894,"Ġsubsequent":9895,"ĠPDF":9896,"ĠMethod":9897,"Ġax":9898,"Ġhired":9899,"olid":9900,"Ġinstantly":9901,"forward":9902,"Ġalumin":9903,"itement":9904,"Ġsorry":9905,"Ġfolk":9906,"Ġmentor":9907,"ĠAdvis":9908,"iac":9909,"Ġinhab":9910,"Ġdeclared":9911,"ĠBir":9912,"ĠRoss":9913,"onder":9914,"Ġtennis":9915,"Ġabund":9916,"ĠAnton":9917,"oked":9918,"Ġscoring":9919,"ĠPain":9920,"Ġsan":9921,"Ġsleeping":9922,"ĠKi":9923,"Ġdiscussions":9924,"ĠHal":9925,"INE":9926,"ĠAge":9927,"ĠiP":9928,"Ġchronic":9929,"ĠâĤ¬":9930,"ĠFollowing":9931,"oda":9932,"ĠDI":9933,"iche":9934,"Ġefficiently":9935,"Ġvice":9936,"National":9937,"ĠSat":9938,"Ġcaptain":9939,"64":9940,"Ġpuzz":9941,"through":9942,"ncess":9943,"ĠCub":9944,"Ġbehaviour":9945,"72":9946,"ĠAction":9947,"ĠEsp":9948,"Ġargument":9949,"Ġmild":9950,"Ġhill":9951,"Ġpicking":9952,"ĠSeattle":9953,"quire":9954,"Ġperf":9955,"ĠPolit":9956,"Ġdipl":9957,"wer":9958,"ĠJava":9959,"Ġbrid":9960,"tees":9961,"Ġpointed":9962,"ĠDance":9963,"ĠCamer":9964,"Ġaccounting":9965,"LS":9966,"Ġmirror":9967,"ĠRaj":9968,"Ġpublish":9969,"udes":9970,"ĠRout":9971,"ologists":9972,"Ġpip":9973,"lix":9974,"Ġcuts":9975,"Ġdirt":9976,"Play":9977,"ĠEverything":9978,"Ġelder":9979,"Ġscrew":9980,"ĠJordan":9981,"Ġreleases":9982,"LO":9983,"Ġcookies":9984,"Ġcancel":9985,"Ġnutri":9986,"agan":9987,"ĠGrow":9988,"zech":9989,"Ġkilling":9990,"Ġproducers":9991,"ĠFle":9992,"Ġpadd":9993,"efits":9994,"ĠAPI":9995,"overty":9996,"iner":9997,"ĠJam":9998,"Ġpregnancy":9999,"PN":10000,"ĠNations":10001,"Ġsituated":10002,"Ġconvenience":10003,"Ġrefers":10004,"ĠAtlanta":10005,"Ġhockey":10006,"Ġnarrative":10007,"Ġfalse":10008,"icking":10009,"uctural":10010,"iate":10011,"Ġchurches":10012,"Ġbatt":10013,"iser":10014,"employ":10015,"Ġaccord":10016,"Ġrepresentation":10017,"Ġbaking":10018,"Ġleaf":10019,"Having":10020,"Ġerrors":10021,"ĠCastle":10022,"ĠFinal":10023,"ĠAtlantic":10024,"ĠMalays":10025,"heater":10026,"ĠResources":10027,"izz":10028,"ĠJay":10029,"Ġ1000":10030,"Ġreply":10031,"Ġventure":10032,"ĠIslands":10033,"amic":10034,"lan":10035,"abil":10036,"Ġalleged":10037,"ĠCS":10038,"Ġcodes":10039,"Ġhearts":10040,"Ġwaves":10041,"Ġsomehow":10042,"Ġhell":10043,"Ġfingers":10044,"sized":10045,"Ġworkout":10046,"mers":10047,"dam":10048,"Day":10049,"Ġlegit":10050,"Ġdanger":10051,"Ġsorts":10052,"GE":10053,"Ġeastern":10054,"Ġhosts":10055,"Ġspecialists":10056,"Ġcontributed":10057,"Ġreserve":10058,"Ġeliminate":10059,"ĠModern":10060,"ĠDaily":10061,"Ġpollut":10062,"Ġlanding":10063,"chain":10064,"ĠWhit":10065,"ĠName":10066,"ĠAmong":10067,"fish":10068,"Ġfewer":10069,"Ġprompt":10070,"ĠLewis":10071,"Ġsubstantial":10072,"ds":10073,"via":10074,"Ġ(@":10075,"Ġcontained":10076,"Time":10077,"Ġshirt":10078,"ĠLA":10079,"Act":10080,"Ġvulnerable":10081,"ewhere":10082,"ĠProm":10083,"gener":10084,"limited":10085,"Ġmechanical":10086,"Ġsurfaces":10087,"Ġconclusion":10088,"worth":10089,"ĠBuy":10090,"Christ":10091,"nish":10092,"Ġhomeown":10093,"Ġconventional":10094,"Ġbio":10095,"Ġimpressed":10096,"ncy":10097,"anti":10098,"olitan":10099,"ĠJane":10100,"Ġtries":10101,"Ġsubsequently":10102,"ĠJun":10103,"Ġhadn":10104,"Ġextraordinary":10105,"Business":10106,"Ġclicking":10107,"mates":10108,"lah":10109,"heim":10110,"Ġperce":10111,"Ġpubl":10112,"anches":10113,"Ġfloors":10114,"umental":10115,"Ġposting":10116,"ĠSoftware":10117,"Ġillegal":10118,"Ġevil":10119,"Ġworried":10120,"Ġcertification":10121,"Ġsophist":10122,"anged":10123,"ĠMaria":10124,"Ġedit":10125,"lusion":10126,"ĠCome":10127,"ika":10128,"ĠAdvent":10129,"ĠFC":10130,"nst":10131,"Ġrolling":10132,"gal":10133,"nessee":10134,"ĠPremier":10135,"Ġdefeat":10136,"Ġvintage":10137,"Ġsurge":10138,"ĠFurthermore":10139,"Ġpleasant":10140,"imination":10141,"Ġtoys":10142,"Ġtranslation":10143,"aware":10144,"ĠNFL":10145,"Ġenorm":10146,"Ġhunting":10147,"ĠAug":10148,"dis":10149,"Ġparalle":10150,"hier":10151,"Ġrou":10152,"Ġsectors":10153,"Advert":10154,"Ġtargeted":10155,"Ġ1983":10156,"Ġtower":10157,"ogen":10158,"Ġstrive":10159,"Ġgrocer":10160,"Ġemerging":10161,"theater":10162,"kes":10163,"ader":10164,"Ġdemonstrate":10165,"aux":10166,"Ġdestr":10167,"Ġparks":10168,"Ġordinary":10169,"Ġsanc":10170,"emetery":10171,"ĠHind":10172,"Spe":10173,"Ġrepeat":10174,"ĠRegional":10175,"cor":10176,"Ġware":10177,"father":10178,"Äĩ":10179,"Ġlegacy":10180,"Ġconversion":10181,"ĠExt":10182,"unity":10183,"tored":10184,"ĠFriends":10185,"Ġinspire":10186,"Par":10187,"App":10188,"ĠDead":10189,"Ġswing":10190,"Ġsuppliers":10191,"ĠExperience":10192,"ĠCoach":10193,"Ġoutfit":10194,"onze":10195,"Addition":10196,"Ġfruits":10197,"ĠHas":10198,"Ġaudiences":10199,"Source":10200,"Ġ1982":10201,"Men":10202,"Ġdonations":10203,"Ġacknowled":10204,"Ġoral":10205,"Ġdiscovery":10206,"Ġdrives":10207,"Ġfinancing":10208,"Lab":10209,"Ġwing":10210,"ĠManchester":10211,"ĠMexican":10212,"Log":10213,"isl":10214,"athon":10215,"Ġnervous":10216,"yes":10217,"Ġnotable":10218,"ĠCher":10219,"Personal":10220,"Ġgathered":10221,"Ġmaps":10222,"Pop":10223,"Ġpromoted":10224,"Ġ55":10225,"ea":10226,"Ġcenturies":10227,"nf":10228,"umer":10229,"Ġrelaxed":10230,"Ġuncom":10231,"ĠConsider":10232,"aith":10233,"Ġinch":10234,"ĠPlanning":10235,"ĠRegion":10236,"Ġdesignated":10237,"Ġcrafts":10238,"Ġsustainability":10239,"Ġwarning":10240,"Ġexcitement":10241,"ĠBaby":10242,"cend":10243,"Ġsurely":10244,"ĠDu":10245,"Ġlasting":10246,"Ġaccum":10247,"rat":10248,"Ġmoon":10249,"who":10250,"cine":10251,"ĠIowa":10252,"Ġdisplays":10253,"Ġsne":10254,"ĠVar":10255,"ĠCollection":10256,"Ġfraud":10257,"ĠHold":10258,"AND":10259,"GO":10260,"Ġaccompanied":10261,"ĠTowns":10262,"Ġstops":10263,"ĠIndustry":10264,"Ret":10265,"96":10266,"iot":10267,"Ġtargets":10268,"Ġobst":10269,"casts":10270,"Ġrum":10271,"Ġsimultane":10272,"Cal":10273,"Sports":10274,"Ġdecrease":10275,"lass":10276,"Ġgrace":10277,"Ġsid":10278,"mans":10279,"Ġprinciple":10280,"nance":10281,"oret":10282,"Ġrobust":10283,"Ġdeserve":10284,"ĠPersonal":10285,"Ġgenre":10286,"itting":10287,"ĠFlow":10288,"Ġlon":10289,"Ġecosystem":10290,"minute":10291,"Ġcustomized":10292,"ĠQuality":10293,"ĠPhD":10294,"ĠHills":10295,"Ġthoroughly":10296,"Ġske":10297,"iva":10298,"Ġconsulting":10299,"acent":10300,"Ġinduc":10301,"asion":10302,"ĠBry":10303,"ĠPrize":10304,"Ġsequence":10305,"ĠDO":10306,"Ġ1979":10307,"ĠTurk":10308,"month":10309,"Ġoutdoors":10310,"alia":10311,"ĠHur":10312,"ĠReply":10313,"Ġdonation":10314,"Ġprecious":10315,"Ġlosses":10316,".'":10317,"Ġcaring":10318,"ĠAsk":10319,"ceptions":10320,"Ġmunicipal":10321,"Ġtheater":10322,"Ġfitting":10323,"lects":10324,"piece":10325,"Ġcrack":10326,"Ġproductive":10327,"Ġcircuit":10328,"ĠPatrick":10329,"oub":10330,"Ġbacteria":10331,"ĠArgent":10332,"Ġlaser":10333,"Ġdirections":10334,"incol":10335,"Ġassembly":10336,"Ġmedication":10337,"run":10338,"Ġpione":10339,"Ġbub":10340,"world":10341,"Ġrebu":10342,"umbing":10343,"Ġconvert":10344,"Ġjunior":10345,"roit":10346,"Ġtoler":10347,"ĠEt":10348,"Ġnetworking":10349,"cribe":10350,"Ġcompensation":10351,"ĠInnov":10352,"MO":10353,"cho":10354,"Ġutilizing":10355,"Ġunlike":10356,"Ġdies":10357,"season":10358,"Ġresponses":10359,"Ġspan":10360,"ĠSite":10361,"Ġvotes":10362,"Black":10363,"ĠRoy":10364,"Ġwrest":10365,"ReplyDelete":10366,"ĠMORE":10367,"olt":10368,"David":10369,"ĠAnnual":10370,"South":10371,"chi":10372,"Ġduties":10373,"olk":10374,"fire":10375,"Ġmining":10376,"Ġguaranteed":10377,"Ġboot":10378,"Ġbelt":10379,"Ġtum":10380,"tune":10381,"Ġincent":10382,"Ġexpanding":10383,"Ġremoving":10384,"Ġpic":10385,"Ġangle":10386,"Ġremarkable":10387,"Ġnewest":10388,"Ġendless":10389,"ĠKids":10390,"comm":10391,"Ġrepresentatives":10392,"Ġdifficulties":10393,"Ġdil":10394,"Ġpublications":10395,"abri":10396,"Ġ250":10397,"Ġcurious":10398,"backs":10399,"Ġ:)":10400,"Ġbalanced":10401,"Ġappearances":10402,"ĠMs":10403,"Ġsteam":10404,"Ġintegrity":10405,"ĠDVD":10406,"ĠWy":10407,"Ġflip":10408,"Ġpractition":10409,"Ġlyrics":10410,"ĠTalk":10411,"Ġratio":10412,"scale":10413,"Ġdetect":10414,"ĠChange":10415,"DP":10416,"Ġthinks":10417,"].":10418,"Ġplacing":10419,"Ġstir":10420,"ĠDream":10421,"Ġscores":10422,"ĠCape":10423,"Ġcredits":10424,"CL":10425,"ĠSelf":10426,"2009":10427,"ĠPict":10428,"Ġlou":10429,"ĠBa":10430,"Key":10431,"Ġstruck":10432,"Ġincorporate":10433,"ĠJosh":10434,"Ġburning":10435,"Met":10436,"Ġwisdom":10437,"ĠExpress":10438,"ĠMap":10439,"Ġsubscription":10440,"Call":10441,"Ġproport":10442,"ĠProduct":10443,"ĠEc":10444,"only":10445,"nowned":10446,"Ġevaluate":10447,"ĠDor":10448,"Career":10449,"Ġviewing":10450,"Ġranked":10451,"Ġwildlife":10452,"UM":10453,"Ġmoisture":10454,"Ġ!":10455,"ĠJunior":10456,"Ġemployer":10457,"Ġwellness":10458,"Ġsomebody":10459,"ĠÂ·":10460,"ĠBed":10461,"Ġarrangements":10462,"Ġexterior":10463,"Using":10464,"Ġexplo":10465,"winning":10466,"Pres":10467,"Cor":10468,"Bi":10469,"Pal":10470,"break":10471,"ĠMissouri":10472,"itr":10473,"Pat":10474,"what":10475,"Ġnic":10476,"ĠEag":10477,"ESS":10478,"Ġappreciated":10479,"Ġ1930":10480,"Finally":10481,"grade":10482,"ĠKelly":10483,"ailing":10484,"Ġbes":10485,"Ġoccasionally":10486,"dri":10487,"Ġdirectors":10488,"lette":10489,"cm":10490,"charge":10491,"ĠEarly":10492,"ĠGolf":10493,"Ġgardens":10494,"ĠMaryland":10495,"Ġconfiguration":10496,"Ġrelation":10497,"ĠAllen":10498,"Ġbanking":10499,"tomach":10500,"Ġexplos":10501,"Ġ39":10502,"Ġ42":10503,"ĠAutom":10504,"ĠJason":10505,"Ġartificial":10506,"Ġtremend":10507,"Ġ120":10508,"Ġdash":10509,"ulator":10510,"Ġfiled":10511,"ĠType":10512,"Ġoverwhelming":10513,"Ġshell":10514,"Ġinvolvement":10515,"ĠGil":10516,"ĠGun":10517,"ĠMun":10518,"sk":10519,"Ġmolec":10520,"Ġdevelopments":10521,"Ġfascinating":10522,"Ġrestore":10523,"ĠHim":10524,"Åį":10525,"86":10526,"ĠMoney":10527,"Ġ64":10528,"ĠAssistant":10529,"73":10530,"Educ":10531,"ĠAnderson":10532,"Ġmath":10533,"izations":10534,"Ġfacilitate":10535,"Ġkeen":10536,"ĠRap":10537,"Ġarranged":10538,"ĠDownload":10539,"Ġoils":10540,"Ġhopefully":10541,"mma":10542,"Ġequity":10543,"jection":10544,"Ġaddresses":10545,"Ġdollar":10546,"Ġ1972":10547,"ĠRober":10548,"ĠSport":10549,"Bo":10550,"Ġvenues":10551,"Ġestimate":10552,"ĠFront":10553,"ailed":10554,"ĠNature":10555,"ĠLeon":10556,"Ġunn":10557,"Ġforum":10558,"74":10559,"ĠSimon":10560,"ĠAgr":10561,"uther":10562,"uates":10563,"IST":10564,"Ġcomic":10565,"ĠGrant":10566,"Ġchecks":10567,"Ġtension":10568,"Ġsmartphone":10569,"sole":10570,"World":10571,"Ġward":10572,"pot":10573,"Ġsentence":10574,"71":10575,"Ġguides":10576,"Ġgay":10577,"Ġtransmission":10578,"Ġpushing":10579,"raft":10580,"Ġwheels":10581,"Ġadmitted":10582,"Ġgummies":10583,"Ġ1981":10584,"Cho":10585,"Ġhorror":10586,"nyl":10587,"Ġexch":10588,"ĠTable":10589,"NS":10590,"ailand":10591,"2008":10592,"Ġroughly":10593,"dale":10594,"Ġopinions":10595,"Ġregards":10596,"elson":10597,"Ġtonight":10598,"Ġsubtle":10599,"Ġworker":10600,"Bar":10601,"Ġinfect":10602,"Ġchips":10603,"ĠPier":10604,"Ġwishes":10605,"ĠChen":10606,"____":10607,"Despite":10608,"Ġmemorable":10609,"bound":10610,"ĠDoctor":10611,"ĠSweden":10612,"Ġrescue":10613,"Ġemphasis":10614,"inations":10615,"Categories":10616,"ĠCasino":10617,"Ġho":10618,"Ġcarpet":10619,"Ġcultures":10620,"ĠIV":10621,"ceeds":10622,"Ġfranchise":10623,"ĠPolish":10624,"ĠCooper":10625,"Ġwrites":10626,"ĠMove":10627,"abama":10628,"ĠMarg":10629,"ÃĹ":10630,"ouver":10631,"ĠHous":10632,"Ġ{":10633,"abs":10634,"Ġstatements":10635,"Ġchef":10636,"ĠFinance":10637,"ĠObama":10638,"Ġchop":10639,"Ġvibrant":10640,"allow":10641,"roph":10642,"akh":10643,"Ġfindings":10644,"Ġanch":10645,"ĠConstruction":10646,"ĠTennessee":10647,"ĠHR":10648,"ĠDallas":10649,"Ġinfluenced":10650,"giving":10651,"adesh":10652,"Ġchemicals":10653,"ĠâĢĿ":10654,"Ġmodule":10655,"Ġfluid":10656,"Ġdramatic":10657,"Ġuncle":10658,"lahoma":10659,"Ġhistori":10660,"oa":10661,"ĠEnjoy":10662,"ĠMatthew":10663,"ĠAnne":10664,"Ġconj":10665,"Ġbid":10666,"Ġels":10667,"Ġfleet":10668,"ĠCulture":10669,"Ġrelaxing":10670,"ACT":10671,"ifier":10672,"ĠConn":10673,"ĠWorking":10674,"Ġdrove":10675,"Ġcounsel":10676,"Ġgreet":10677,"ĠHop":10678,"Ġ1940":10679,"asket":10680,"iler":10681,"intend":10682,"Description":10683,"Ġunh":10684,"ifferent":10685,"ĠHu":10686,"Ġ1976":10687,"pled":10688,"ĠAffairs":10689,"was":10690,"Ġretreat":10691,"Ġdialogue":10692,"Ġclinic":10693,"Ġfabulous":10694,"Ġpersonalized":10695,"Ġiconic":10696,"ĠNap":10697,"Ġwhereas":10698,"Ġresponsibilities":10699,"Ġrecon":10700,"Ġroyal":10701,"airy":10702,"Ġaddressed":10703,"Ġanswered":10704,"even":10705,"ĠMade":10706,"Ġwashing":10707,"Ġ1978":10708,"ĠProducts":10709,"ĠLaure":10710,"Ġmusician":10711,"ĠOR":10712,"ĠTips":10713,"Ġconservation":10714,"ĠModel":10715,"ĠWH":10716,"ĠTogether":10717,"igure":10718,"ĠUnc":10719,"Ġcosm":10720,"85":10721,"ĠHom":10722,"Ġoverview":10723,"ĠRevolution":10724,"Ġservers":10725,"Ġsket":10726,"Ġoperates":10727,"Ġviewed":10728,"Austr":10729,"DI":10730,"800":10731,"rett":10732,"Ġcurrency":10733,"tube":10734,"ĠiOS":10735,"Ġtrailer":10736,"lon":10737,"400":10738,"Ġimplic":10739,"ĠNic":10740,"Ġutility":10741,"Ġnations":10742,"Ġpregnant":10743,"ĠBody":10744,"ureau":10745,"DC":10746,"itzerland":10747,"Ġbind":10748,"ĠAthlet":10749,"Ġtermin":10750,"Ġresume":10751,"tox":10752,"azed":10753,"Ġ1920":10754,"Ġimpacts":10755,"WH":10756,"Ġvendors":10757,"Ġcontractor":10758,"Ġdesper":10759,"etheless":10760,"Ġenforcement":10761,"olds":10762,"Ġprotec":10763,"Ġmanip":10764,"ĠSchools":10765,"Ġtri":10766,"Ġbrick":10767,"Ġgovernments":10768,"avi":10769,"Ġmagical":10770,"Dep":10771,"ĠMonth":10772,"isely":10773,"Ġhorm":10774,"ĠClark":10775,"Following":10776,"Ġtelephone":10777,"vard":10778,"ĠHappy":10779,"ĠPRO":10780,"xygen":10781,"Set":10782,"Ġhandy":10783,"ĠSymp":10784,"arest":10785,"ĠNob":10786,"ĠGi":10787,"screen":10788,"ayed":10789,"hirty":10790,"Chan":10791,"ĠOK":10792,"uctive":10793,"afted":10794,"bean":10795,"Previous":10796,"Ġachieving":10797,"thirty":10798,"Writ":10799,"estone":10800,"azines":10801,"Ġgradually":10802,"Ġencouraging":10803,"Ġspare":10804,"ĠChannel":10805,"Ġgrey":10806,"ugged":10807,"ĠLLC":10808,"Ġemployers":10809,"amilton":10810,"Ġalike":10811,"Ġfantasy":10812,"Ġreferences":10813,"Ġadmin":10814,"Ġenabled":10815,"Ġboundaries":10816,"PP":10817,"Ġhybrid":10818,"urer":10819,"ĠFeb":10820,"Ġentrepreneur":10821,"Ġexamine":10822,"istent":10823,"Ġaccuracy":10824,"rist":10825,"Ġbreathing":10826,"%)":10827,"Ġinteractions":10828,"Ġassemb":10829,"uli":10830,"Ġspectacular":10831,"Ġdifferently":10832,"ĠPerformance":10833,"Ġagricultural":10834,"ĠArchitect":10835,"ĠGirls":10836,"Ġboats":10837,"Ġelsewhere":10838,"Ġaccomplished":10839,"onomy":10840,"uv":10841,"Ġ1968":10842,"Ġexecution":10843,"Ġmechanism":10844,"ĠChoose":10845,"Ġwinds":10846,"Ġmatching":10847,"ĠBlo":10848,"Ġconsiderable":10849,"Ġcountless":10850,"Ġsons":10851,"offs":10852,"ussion":10853,"ĠChat":10854,"ĠStadium":10855,"Ġterrible":10856,"Ġcourts":10857,"Ġ1975":10858,"Ġpassengers":10859,"tops":10860,"ĠDuke":10861,"Ġlip":10862,"ĠDNA":10863,"ĠUSB":10864,"ĠArk":10865,"Ġpunch":10866,"Ġodds":10867,"Ġprotest":10868,"ĠSH":10869,"ĠCambridge":10870,"iatric":10871,"writing":10872,"ancouver":10873,"Ġbic":10874,"NC":10875,"aughters":10876,"Ġannoy":10877,"Ġcompassion":10878,"ĠFuture":10879,"ĠWW":10880,"Ġrestoration":10881,"Ġpenal":10882,"Ġcaut":10883,"Year":10884,"Ġcompliment":10885,"Ġimpl":10886,"Ġcensus":10887,"Ġstomach":10888,"ĠHart":10889,"Ġexcellence":10890,"Ġroutes":10891,"Ġbeautifully":10892,"Ġdisaster":10893,"Ġcricket":10894,"omed":10895,"Sign":10896,"ognis":10897,"mother":10898,"ĠToy":10899,"ishment":10900,"Ġdepartments":10901,"ĠDer":10902,"Ġarrangement":10903,"Review":10904,"ĠGive":10905,"Ġdual":10906,"Ġbranches":10907,"Ġ49":10908,"Ġtourist":10909,"Ġweapon":10910,"Ġsuits":10911,"Ġtourism":10912,"Ġversus":10913,"ĠWolf":10914,"olves":10915,"Ġtackle":10916,"Ġdeleg":10917,"ĠTemple":10918,"Ġ44":10919,"Ġexamination":10920,"Ġmm":10921,"ĠNumber":10922,"ĠPrior":10923,"%,":10924,"Ġscenario":10925,"Ġconvey":10926,"ordon":10927,"Ġalarm":10928,"ĠProtection":10929,"Ġinters":10930,"ĠMas":10931,"ĠLiter":10932,"TP":10933,"Ġbuyer":10934,"Ġassociate":10935,"Ġmultip":10936,"Ġcaps":10937,"thro":10938,"aro":10939,"reach":10940,"enix":10941,"ĠBird":10942,"Def":10943,"function":10944,"Ġ1974":10945,"Ġceiling":10946,"ĠTree":10947,"Ġtrails":10948,"ĠLem":10949,"Ġtemple":10950,"Ġbabies":10951,"rowse":10952,"Ġpoverty":10953,"Search":10954,"Ġmeditation":10955,"ĠCorps":10956,"Ġqualities":10957,"pri":10958,"Ġrubber":10959,"ĠBot":10960,"arma":10961,"Ġprotecting":10962,"Ġbegun":10963,"ĠTrade":10964,"ĠChem":10965,"aria":10966,"Ġfemales":10967,"Ġcabinet":10968,"ĠLyn":10969,"Ġmarine":10970,"esting":10971,"ĠðŁĻ":10972,"Ġrefused":10973,"Ġindicated":10974,"Ġaccommodation":10975,"ĠKentucky":10976,"Ð½":10977,"2007":10978,"Ġimmers":10979,"Ġindependence":10980,"Ġprecise":10981,"Ġthirty":10982,"Ġseal":10983,"ĠRain":10984,"idt":10985,"Ġinspiring":10986,"Ġeager":10987,"ĠEntertainment":10988,"ĠLO":10989,"Ġmad":10990,"ĠChamber":10991,"ĠEsc":10992,"ĠAnthony":10993,"Ġexclusively":10994,"disc":10995,"rep":10996,"peror":10997,"Ġgrat":10998,"ias":10999,"Ġbother":11000,"iden":11001,"Ġburied":11002,"ĠAlong":11003,"pha":11004,"Ġdive":11005,"ĠOw":11006,"Ġeducated":11007,"Ġbull":11008,"mind":11009,"Ġje":11010,"Ġapplies":11011,"ĠHighway":11012,"Ġbarely":11013,"ĠIron":11014,"Ġbug":11015,"Ġresolve":11016,"Ġsin":11017,"ĠHeritage":11018,"ĠCompet":11019,"Ġintellectual":11020,"Ġhiking":11021,"nge":11022,"Ġoperators":11023,"ĠKit":11024,"Ġoptimal":11025,"ellite":11026,"fits":11027,"week":11028,"Ġhitting":11029,"TR":11030,"Ġcompetitions":11031,"VI":11032,"Ġconverted":11033,"Ġrewards":11034,"def":11035,"ĠSac":11036,"Ġsubstance":11037,"BM":11038,"Brit":11039,"Ġdecline":11040,"ĠShip":11041,"cow":11042,"agu":11043,"ĠStudy":11044,"ĠPhilippines":11045,"Ġgenerous":11046,"bot":11047,"Ġvillages":11048,"ilty":11049,"gie":11050,"erk":11051,"commerce":11052,"ĠMD":11053,"agger":11054,"Ġrespective":11055,"Ġedges":11056,"ĠSwedish":11057,"Ġintimate":11058,"ĠRol":11059,"ĠLincol":11060,"Ġacquisition":11061,"Ġabsence":11062,"Ġha":11063,"Ġcontacts":11064,"Ġdesktop":11065,"Ġislands":11066,"Ġdistricts":11067,"ĠYears":11068,"Ġimmune":11069,"ĠMix":11070,"angel":11071,"ĠRelations":11072,"Ġrust":11073,"iga":11074,"ĠSex":11075,"ĠPho":11076,"sts":11077,"Ġlowest":11078,"Ġnursing":11079,"Ġterminal":11080,"Ġoperator":11081,"Ġexpense":11082,"ĠHub":11083,"Ġende":11084,"Ġvertical":11085,"Ġ1977":11086,"Ġmotivation":11087,"Ġlocks":11088,"ĠDeath":11089,"upid":11090,"fulness":11091,"ĠPow":11092,"she":11093,"Ġgrip":11094,"Ġaesthetic":11095,"ĠTokyo":11096,"ĠBesides":11097,"ĠPor":11098,"Ġpizza":11099,"ĠEle":11100,"Ġtune":11101,"ĠCzech":11102,"Ġkiss":11103,"ĠCL":11104,"Ġvoices":11105,"ĠCateg":11106,"Ġattempted":11107,"Ġenhanced":11108,"Ġenormous":11109,"Author":11110,"Ġconcentration":11111,"ĠChallenge":11112,"Ġmyster":11113,"Ġappet":11114,"Ġstylish":11115,"Ġshade":11116,"door":11117,"flix":11118,"Ġinquir":11119,"Ġfiber":11120,"Ant":11121,"Ġpreced":11122,"ĠGreece":11123,"Ġ1973":11124,"mod":11125,"Ġgig":11126,"Ġtube":11127,"onut":11128,"Net":11129,"Ġindicates":11130,"Ġguns":11131,"Ġlawyers":11132,"ĠMov":11133,"olo":11134,"Ġshelter":11135,"Ġcannabis":11136,"ĠStandard":11137,"Ġabandoned":11138,"Ġguided":11139,"Ġsemin":11140,"Ġdelivers":11141,"Ġkeyboard":11142,"Ġheal":11143,"Ġprohib":11144,"Ġfought":11145,"Ġutilized":11146,"ĠNC":11147,"''":11148,"rix":11149,"ÑĢ":11150,"cycle":11151,"cribed":11152,"Ġ1969":11153,"Ġhospitals":11154,"oty":11155,"ĠLess":11156,"enter":11157,"ĠCON":11158,"ĠBuff":11159,"Ġbackup":11160,"enna":11161,"dated":11162,"ospel":11163,"ĠIde":11164,"ĠMuch":11165,"Ġgrows":11166,"Hello":11167,"Did":11168,"Ġnovels":11169,"Ġadvise":11170,"Ġtraditions":11171,"ĠIntegr":11172,"ipping":11173,"Ġpreserve":11174,"Ġhence":11175,"thod":11176,"esy":11177,"Ġclimb":11178,"ĠWould":11179,"maker":11180,"Ġsurvived":11181,"Ġgal":11182,"HL":11183,"fers":11184,"fortable":11185,"Ġtemplate":11186,"ĠPil":11187,"tong":11188,"Design":11189,"Ġsummary":11190,"ĠNik":11191,"ĠKal":11192,"Ġpour":11193,"Ġdiagnosis":11194,"Looking":11195,"ĠDonald":11196,"hill":11197,"Ġmodified":11198,"ĠRick":11199,"olas":11200,"Ġrecall":11201,"ĠBrew":11202,"Ġrehab":11203,"Ġhub":11204,"Ġdivorce":11205,"Ġaffects":11206,"tatto":11207,"Online":11208,"SW":11209,"zo":11210,"ĠSom":11211,"ĠMarine":11212,"ĠCreative":11213,"Ġknee":11214,"itual":11215,"eart":11216,"Ġorganize":11217,"Ġselecting":11218,"Ġphrase":11219,"Ġdismiss":11220,"ĠRound":11221,"ĠHarris":11222,"Ġwireless":11223,"ĠAlabama":11224,"rock":11225,"Ġlawn":11226,"FO":11227,"ĠFederation":11228,"Ġmart":11229,"Ġversatile":11230,"Ġlikewise":11231,"ĠPeace":11232,"89":11233,"ampton":11234,";\"":11235,"tender":11236,"ĠSri":11237,"ĠPed":11238,"Love":11239,"axy":11240,"ĠDom":11241,"ĠThailand":11242,"Ġsoup":11243,"University":11244,"Ġshowcase":11245,"Ġexplanation":11246,"Ġduration":11247,"ĠFive":11248,"Ġovernight":11249,"Ġexec":11250,"eyond":11251,"bet":11252,"Ġstakeholders":11253,"//":11254,"Ġautomated":11255,"mith":11256,"Ġannouncement":11257,"ieval":11258,"adays":11259,"pack":11260,"Ġprovinc":11261,"Ġ1971":11262,"Ġarchitectural":11263,"Ġwines":11264,"Ġsuspect":11265,"ashes":11266,"Ġassured":11267,"Ġchairs":11268,"ĠBear":11269,"tale":11270,"bass":11271,"nost":11272,"obe":11273,"Social":11274,"ĠMand":11275,"Paul":11276,"Ġcous":11277,"ntil":11278,"Ġemissions":11279,"ĠBreak":11280,"UST":11281,"wall":11282,"2006":11283,"Ġcheaper":11284,"Ġprofits":11285,"owship":11286,"Ġjur":11287,"Ag":11288,"Ġsecured":11289,"uum":11290,"Ġhardly":11291,"Ġears":11292,"ĠClean":11293,"ĠUtah":11294,"Ġangr":11295,"Blog":11296,"ippi":11297,"Ġembed":11298,"inf":11299,"avity":11300,"ĠOfficial":11301,"GBT":11302,"Ġfounding":11303,"Image":11304,"omas":11305,"nia":11306,"Ġvoted":11307,"ĠBus":11308,"lusive":11309,"ĠTel":11310,"ĠPod":11311,"ĠDean":11312,"ĠSwitzerland":11313,"called":11314,"ĠCustomer":11315,"Ġbulk":11316,"Ġtatto":11317,"Ġassault":11318,"Hey":11319,"pa":11320,"ateur":11321,"okes":11322,"ivities":11323,"Ġresponded":11324,"liest":11325,"lotte":11326,"ĠConti":11327,"Ġrhythm":11328,"Ġdensity":11329,"69":11330,"Ġtailored":11331,"Ġcooked":11332,"ĠPick":11333,"hot":11334,"card":11335,"Ġdiabetes":11336,"home":11337,"Ġobserve":11338,"Ġspir":11339,"Ġtang":11340,"Ġrounds":11341,"Ġconsultant":11342,"apper":11343,"Ġmystery":11344,"language":11345,"Ġimagination":11346,"Ġbottles":11347,"Public":11348,"Ġviewers":11349,"IVE":11350,"THE":11351,"Ġcharts":11352,"Ġspoken":11353,"atherine":11354,"Ġmature":11355,"Ġmit":11356,"Ġscholarship":11357,"Ġlean":11358,"Ġprest":11359,"Ġsophisticated":11360,"Pay":11361,"Ġnewsletter":11362,"Ġdys":11363,"Ġcha":11364,"Ġbeliefs":11365,"ĠAlliance":11366,"Ġboun":11367,"Fl":11368,"ÂŃ":11369,"ĠGall":11370,"cure":11371,"ĠKhan":11372,"TER":11373,"Ġballs":11374,"Ġdedication":11375,"ĠRot":11376,"bird":11377,"ĠAuthority":11378,"osure":11379,"Ġcharging":11380,"Ġentertaining":11381,"Ġsixth":11382,"Ġposit":11383,"ĠBh":11384,"UC":11385,"Ġlabels":11386,"ÑĤ":11387,"HP":11388,"Ġrenowned":11389,"Ġstructural":11390,"ĠOklahoma":11391,"Ġsits":11392,"esty":11393,"Ġcomposer":11394,"Ġincorporated":11395,"Ġreduces":11396,"ĠReviews":11397,"ĠBB":11398,"Ġcooling":11399,"Ġtimely":11400,"Ġlocate":11401,"itative":11402,"ĠCourse":11403,"Ġrocks":11404,"Open":11405,"Ġbeaches":11406,"Ġenhancement":11407,"ĠNaz":11408,"ĠAndre":11409,"Ġuniform":11410,"Ġconfused":11411,"Ġmanufactured":11412,"Ġfeeding":11413,"istol":11414,"Ġsurvival":11415,"Ġgonna":11416,"Ġvaried":11417,"ĠDick":11418,"Ġlemon":11419,"Å¡":11420,"Ġwhis":11421,"ialis":11422,"Ġprevention":11423,"Ġbeef":11424,"Ġkilomet":11425,"ĠIss":11426,"ĠCow":11427,"essional":11428,"Ġcups":11429,"Ġjournalist":11430,"ĠKind":11431,"ĠForeign":11432,"elfare":11433,"Ġdelighted":11434,"prises":11435,"ached":11436,"Ġwherever":11437,"Ġcontinuously":11438,"Video":11439,"Ġbreed":11440,"apolis":11441,"Ġcommunic":11442,"Ġath":11443,"CP":11444,"Ġinev":11445,"Ġsteep":11446,"tags":11447,"ĠPoly":11448,"Ġgang":11449,"Ġwise":11450,"Ġvacci":11451,"ropolitan":11452,"Ġfolder":11453,"Ġtender":11454,"ummy":11455,"Ġalternatives":11456,"ĠJews":11457,"Ġfake":11458,"Ġrealistic":11459,"ju":11460,"Ġscrap":11461,"bra":11462,"Star":11463,"ĠVers":11464,"eland":11465,"Ġcoronavirus":11466,"ĠMoore":11467,"ento":11468,"Ev":11469,"ĠPear":11470,"ĠDetroit":11471,"Ġtwelve":11472,"Ġhills":11473,"ĠEmail":11474,"hard":11475,"Ġliterary":11476,"Lo":11477,"ĠIll":11478,"Ġprocessed":11479,"Ġ($":11480,"Ġtrains":11481,"Ġpsychological":11482,"Ġautomation":11483,"Ġcollecting":11484,"Ġretro":11485,"Ġtrucks":11486,"Ġprints":11487,"Ġ1967":11488,"ĠMean":11489,"Ð²":11490,"Ġgrid":11491,"Ġpowered":11492,"mus":11493,"naments":11494,"Ġdefensive":11495,"ante":11496,"Ġreact":11497,"Ġneutral":11498,"ĠRh":11499,"Ġcontents":11500,"fe":11501,"ighters":11502,"Mo":11503,"ĠEdition":11504,"Ġarrange":11505,"Ġneighbour":11506,"ĠAfghan":11507,"edIn":11508,"ĠCount":11509,"Ġattain":11510,"Ġadventures":11511,"ĠPrint":11512,"ĠGrad":11513,"Ġportal":11514,"ĠDays":11515,"Ġstraightforward":11516,"Ġrecognis":11517,"issa":11518,"linary":11519,"imonial":11520,"Ġqualify":11521,"Ġembrace":11522,"ĠSpot":11523,"Ġshaped":11524,"Em":11525,"Ġadoption":11526,"Ġinstructor":11527,"ĠFREE":11528,"Ġcollaborative":11529,"Ġmotivated":11530,"ĠBased":11531,"aval":11532,"Ġaccompany":11533,"Ġreplacing":11534,"ĠEnt":11535,"ema":11536,"Ġdisorder":11537,"Ġvaccine":11538,"Ġbeds":11539,"ĠWriting":11540,"Ġexit":11541,"Ġsolely":11542,"Ġcompact":11543,"Ġsheets":11544,"ennifer":11545,"Ġolive":11546,"nett":11547,"vo":11548,"Ġdear":11549,"Ġcourage":11550,"nas":11551,"Ġworkforce":11552,"ĠBag":11553,"ĠSix":11554,"encer":11555,"ĠStew":11556,"nite":11557,"Ġdonated":11558,"Ġcareers":11559,"Ġgently":11560,"Ġspo":11561,"Ġloaded":11562,"istance":11563,"Ġshorter":11564,"likely":11565,"ĠBachelor":11566,"Ġwidt":11567,"Ġgarlic":11568,"Ġparallel":11569,"Exper":11570,"ĠChapter":11571,"Ġ99":11572,"Ġdiscl":11573,"Ġfault":11574,"eddings":11575,"ĠPa":11576,"Ġ1945":11577,"vens":11578,"ront":11579,"Ġsust":11580,"ĠHamilton":11581,"ĠMayor":11582,"ĠRailway":11583,"Ġblogs":11584,"ĠPlaces":11585,"Ġvoting":11586,"Ġimplementing":11587,"ECT":11588,"ĠBeck":11589,"ĠNAS":11590,"Ġadapted":11591,"ĠVancouver":11592,"Ġsynd":11593,"ĠAnna":11594,"Ġoverseas":11595,"Ġouter":11596,"ĠDomin":11597,"Ġneighbors":11598,"position":11599,"ĠCut":11600,"Ġaccused":11601,"ĠCore":11602,"Ġances":11603,"Ġpurchases":11604,"ĠSeveral":11605,"Ġdemonstrated":11606,"ĠFer":11607,"Ġparameters":11608,"Ġcapability":11609,"Ġhandled":11610,"Ġcompeting":11611,"western":11612,"tire":11613,"ĠBishop":11614,"ĠSnow":11615,"ĠAB":11616,"Ġ600":11617,"omination":11618,"kind":11619,"Ġvarieties":11620,"ĠNative":11621,"MI":11622,"tears":11623,"Ġbeloved":11624,"Ġspeaks":11625,"Ġsimultaneously":11626,"etry":11627,"Ġmeasured":11628,"Ġclimbing":11629,"KE":11630,"Ġcarries":11631,"Ġtong":11632,"PL":11633,"ĠLeadership":11634,"Ġrelating":11635,"ALL":11636,"eath":11637,"Ġcleans":11638,"Ġparad":11639,"Ġreveals":11640,"fly":11641,"Ġdrops":11642,"Ġfunded":11643,"esa":11644,"hrown":11645,"ĠLu":11646,"ĠMorgan":11647,"Ġfoster":11648,"antry":11649,"ĠNO":11650,"ashi":11651,"Ġranking":11652,"Ġbeans":11653,"ĠForum":11654,"thrown":11655,"Does":11656,"xid":11657,"Ġpipe":11658,"ĠJu":11659,"ilitation":11660,"ĠBowl":11661,"Ġexploration":11662,"Comments":11663,"Ġtourists":11664,"Ġanger":11665,"Ġsupporters":11666,"Ġvalley":11667,"oning":11668,"tast":11669,"Ġspectrum":11670,"rip":11671,"Ġextract":11672,"Ġnom":11673,"gium":11674,"guard":11675,"atching":11676,"Advertisement":11677,"Ġlung":11678,"afts":11679,"Ġdependent":11680,"ĠMcK":11681,"ĠRow":11682,"Ġcompatible":11683,"itects":11684,"Ġshowc":11685,"edral":11686,"ĠChairman":11687,"ĠSwiss":11688,"Ġhouseholds":11689,"Ġknowledgeable":11690,"Ġdozen":11691,"isure":11692,"West":11693,"inction":11694,"ãĥ":11695,"Ġstem":11696,"ĠHoward":11697,"Ġstones":11698,"Ġtears":11699,"ĠðŁĻĤ":11700,"actic":11701,"bally":11702,"Ġheadquarters":11703,"Ġseparated":11704,"International":11705,"Ġoxygen":11706,"Dem":11707,"Ġpassenger":11708,"ĠBetter":11709,"urious":11710,"ĠShare":11711,"imens":11712,"Ġwings":11713,"ĠBush":11714,"sea":11715,"ĠSab":11716,"Ġannually":11717,"Ġgran":11718,"Ġdisorders":11719,"ICE":11720,"ĠPortland":11721,"Ġtrauma":11722,"Ġshore":11723,"Ġpainful":11724,"Ġmoral":11725,"Class":11726,"Ġaggressive":11727,"Ġearning":11728,"rad":11729,"Ġphotograph":11730,"Ġattendance":11731,"gree":11732,"elli":11733,"Ġadequate":11734,"Ġpig":11735,"Ġsupplier":11736,"beat":11737,"iology":11738,"Ġbatteries":11739,"IGH":11740,"Ġthreats":11741,"eves":11742,"Ġprecisely":11743,"apse":11744,"ĠSD":11745,"Ġmales":11746,"tear":11747,"arc":11748,"Ġsupplied":11749,"Ġharmful":11750,"Ġunderlying":11751,"game":11752,"pling":11753,"Ġreviewed":11754,"Ġtast":11755,"Ġadvised":11756,"Ġmasks":11757,"Ġrefriger":11758,"ĠAlf":11759,"Ġtropical":11760,"auction":11761,"ĠUC":11762,"ĠLimited":11763,"Ã©e":11764,"Ñģ":11765,"Ġcm":11766,"ĠLic":11767,"ength":11768,"usal":11769,"Ġforgotten":11770,"Ġreverse":11771,"ĠUncategorized":11772,"bian":11773,"gets":11774,"ĠImm":11775,"Ġcoins":11776,"Ġ1964":11777,"Ġvariable":11778,"Ġcontractors":11779,"Music":11780,"Ġsweat":11781,"Ġbay":11782,"Ġtexts":11783,"ims":11784,"Ġaffairs":11785,"addy":11786,"Ġreflection":11787,"Ġtechnological":11788,"aco":11789,"Ġbuttons":11790,"Ġachievement":11791,"stan":11792,"Ġhealt":11793,"Ġrefresh":11794,"Ġ46":11795,"Ġslide":11796,"Ġdevoted":11797,"ĠRa":11798,"ludes":11799,"ĠAbb":11800,"Being":11801,"ĠPalest":11802,"Ġirrit":11803,"Ġcamping":11804,"ĠNE":11805,"ĠComputer":11806,"nationally":11807,"claim":11808,"Ġvib":11809,"Ġlightweight":11810,"isted":11811,"agine":11812,"Ġhighway":11813,"erted":11814,"Ġsupplements":11815,"Ġphysician":11816,"otherapy":11817,"redited":11818,"150":11819,"Ġfastest":11820,"Ġdigest":11821,"ĠSurvey":11822,"zens":11823,"Develop":11824,"apeut":11825,"Ġderived":11826,"ĠEnvironmental":11827,"ĠEX":11828,"Ġinstalling":11829,"MM":11830,"2005":11831,"Ġagriculture":11832,"loyd":11833,"Ġsalary":11834,"ĠArthur":11835,"TE":11836,"Ġacres":11837,"ĠBab":11838,"ĠBull":11839,"Ġwarranty":11840,"ĠClassic":11841,"Ġassignment":11842,"Ġfired":11843,"ĠMotor":11844,"lad":11845,"ĠKy":11846,"Ġtrials":11847,"Ġregarded":11848,"ĠCompan":11849,"Ġflooring":11850,"Ġscal":11851,"Ġgut":11852,"ĠMississ":11853,"Women":11854,"ĠAndy":11855,"ĠFalls":11856,"Ġnobody":11857,"topher":11858,"Ġlovers":11859,"Ġinternationally":11860,"ĠOrange":11861,"ĠPhill":11862,"RP":11863,"Ġexhibit":11864,"Ġsilent":11865,"Ġcogn":11866,"icut":11867,"owned":11868,"ibution":11869,"Ġcelebrating":11870,"United":11871,"ĠTs":11872,"ĠBlock":11873,"ĠNut":11874,"ensing":11875,"Ġauction":11876,"ĠIng":11877,"âĤ¬âĦ¢":11878,"jan":11879,"Ġsoap":11880,"ishes":11881,"ĠBitcoin":11882,"Main":11883,"note":11884,"Ġglow":11885,"Ġrival":11886,"Ġsyn":11887,"ĠEdi":11888,"OUR":11889,"ĠVo":11890,"Ġgaining":11891,"undry":11892,"onda":11893,"ecessary":11894,"ĠYoga":11895,"ĠNich":11896,"Ġdrum":11897,"Ġoffensive":11898,"ĠSteel":11899,"Both":11900,"Ġglasses":11901,"Ġsisters":11902,"Ġhack":11903,"Ġcompeted":11904,"ĠHans":11905,"ĠPrivate":11906,"ĠSure":11907,"Ġlocked":11908,"Ġprofiles":11909,"ĠLanguage":11910,"Ġ800":11911,"uisine":11912,"ishers":11913,"ockets":11914,"ĠSimply":11915,"Ġdess":11916,"Ġtravelling":11917,"Ġsymbols":11918,",âĢĻ":11919,"Ġframes":11920,"ĠAh":11921,"Ġclar":11922,"orient":11923,"Ġapplicable":11924,"Ġnominated":11925,"ĠCarib":11926,"ĠWithi":11927,"ĠWithin":11928,"Ġconcluded":11929,"ĠVeter":11930,"uri":11931,"Ġboots":11932,"Ġattempting":11933,"oween":11934,"ĠSuccess":11935,"Ġofferings":11936,"Ġdiscr":11937,"Ġtire":11938,"Ġvisibility":11939,"Ġinvestigate":11940,"ĠÎ":11941,"hydr":11942,"ĠMerc":11943,"Prov":11944,"Ġplacement":11945,"Ġsmoking":11946,"Ġdressed":11947,"jack":11948,"itutional":11949,"master":11950,"igo":11951,"ĠTherapy":11952,"Techn":11953,"Ġmixing":11954,"Ġangry":11955,"ĠVisit":11956,"Ġpron":11957,"ĠFollow":11958,"Ġguilty":11959,"Ġflags":11960,"Ġenabling":11961,"ĠMaine":11962,"Ġreceives":11963,"ĠSection":11964,"ÃĤ":11965,"ĠOm":11966,"ĠJoy":11967,"Ġdump":11968,"Ġtear":11969,"Ġgovernor":11970,"ĠZoom":11971,"Ġrobot":11972,"ĠQuick":11973,"Ġrecordings":11974,"Second":11975,"Ġknife":11976,"ĠSO":11977,"ĠColl":11978,"ĠContent":11979,"Ġbonuses":11980,"Ġink":11981,"Ġanimation":11982,"ĠÅ":11983,"ĠMeeting":11984,"Ġprovision":11985,"Ġloads":11986,"Ġtwe":11987,"Ġprogressive":11988,"iri":11989,"ĠMalaysia":11990,"Ġwelcoming":11991,"ĠDiet":11992,"tel":11993,"overed":11994,"Ġ1965":11995,"Ġtoilet":11996,"Ġdivers":11997,"Ġsteady":11998,"Ġestablishing":11999,"wick":12000,"gement":12001,"Ġpoem":12002,"Ġapple":12003,"liances":12004,"Ġcastle":12005,"itations":12006,"ĠMitch":12007,"Ġminim":12008,"hav":12009,"Ġstays":12010,"Ġregulatory":12011,"Ġresil":12012,"atus":12013,"Ġreflects":12014,"Ġcomplexity":12015,"ĠLincoln":12016,"Det":12017,"pin":12018,"idity":12019,"Ġfitted":12020,"Ġchip":12021,"uru":12022,"ĠDelhi":12023,"ĠURL":12024,"Ġbudd":12025,"ibli":12026,"Ġrings":12027,"Ġunfortunately":12028,"Ġstrain":12029,"Ġcorpor":12030,"TO":12031,"Ġmagazines":12032,"Ġsupportive":12033,"ĠPlant":12034,"Ġeffectiveness":12035,"emor":12036,"Ġgrain":12037,"Ġoccupied":12038,"Ġconvinced":12039,"ectives":12040,"ĠMoscow":12041,"Ġfarming":12042,"cements":12043,"Ġamen":12044,"ru":12045,"Ġbeneath":12046,"ĠNigeria":12047,"anne":12048,"Ġcolleges":12049,"ĠSE":12050,"Ġflights":12051,"Ġbarrel":12052,"ĠPaper":12053,"ĠAltern":12054,"Ġappreciation":12055,"Ġdough":12056,"Ã¸":12057,"Ġuniversal":12058,"ĠGP":12059,"epth":12060,"Ġblessed":12061,"Ġanalytics":12062,"?)":12063,"Ġnick":12064,"acht":12065,"aa":12066,"Ġshit":12067,"Ġplates":12068,"Ġthrown":12069,"ĠNorway":12070,"alg":12071,"leans":12072,"Hon":12073,"Ġpulling":12074,"Ġstriking":12075,"ĠALL":12076,"Ġtalents":12077,"urd":12078,"Ġintegrate":12079,"Ġstitch":12080,"Ġobl":12081,"ĠGlass":12082,"mate":12083,"Ġknit":12084,"aditional":12085,"ommy":12086,"uana":12087,"ĠĊĊ":12088,"ancers":12089,"umble":12090,"eni":12091,"ITY":12092,"Ġcig":12093,"Ġanalyze":12094,"ardless":12095,"annah":12096,"Ġremembered":12097,"ĠEasy":12098,"Ġbite":12099,"hana":12100,"Ġantib":12101,"Ġsandwich":12102,"Ġconstitu":12103,"Ġspecified":12104,"thy":12105,"Ġflows":12106,"Ġdescent":12107,"Ġtoy":12108,"Ġdiscipline":12109,"Ġsignals":12110,"Ġregulation":12111,"nut":12112,"ĠTR":12113,"ĠNash":12114,"VP":12115,"itarian":12116,"ĠEconomic":12117,"ĠTrack":12118,"Ġpromised":12119,"osc":12120,"Ã©s":12121,"ĠĠĠĠĠĠĠĠ":12122,"Ġexped":12123,"QL":12124,"67":12125,"Ġfemin":12126,"Ġsensor":12127,"Ġdowns":12128,"Ġencl":12129,"ĠIndonesia":12130,"ifi":12131,"Ġhandful":12132,"Ġdiscussing":12133,"Ġdrums":12134,"Ġexcessive":12135,"Ġsporting":12136,"rison":12137,"Ġidentical":12138,"Ġdaughters":12139,"ĠBrooklyn":12140,"aste":12141,"Ġstamp":12142,"Ġchairman":12143,"also":12144,"emies":12145,"ĠBureau":12146,"Ġfriendship":12147,"ĠDeep":12148,"Ġunderground":12149,"Ġinstances":12150,"Ġastr":12151,"Ġfrozen":12152,"Water":12153,"ĠUnlike":12154,"Ġaccordance":12155,"Ġtransparent":12156,"ĠBuck":12157,"Films":12158,"ĠUnit":12159,"Ġsuited":12160,"ablished":12161,"Ġpresentations":12162,"ĠBrig":12163,"ĠJi":12164,"Ġ09":12165,"Ġarmed":12166,"Ġunlock":12167,"ĠIce":12168,"Ġparliament":12169,"Health":12170,"ĠMedic":12171,"ĠLiver":12172,"ĠRey":12173,"Michael":12174,"North":12175,"Ġvoters":12176,"anean":12177,"Ġupset":12178,"ittle":12179,"Ġ1966":12180,"ĠEaster":12181,"ĠLie":12182,"ĠAy":12183,"die":12184,"ĠAlan":12185,"ĠUltim":12186,"Ġpreferences":12187,"children":12188,"SU":12189,"Ġslic":12190,"Ġtablet":12191,"ĠNBA":12192,"zi":12193,"Ġfilters":12194,"eon":12195,"Ġconferences":12196,"Ġadopt":12197,"ĠNothing":12198,"Ġaluminum":12199,"Ġcoating":12200,"Ġsteal":12201,"VA":12202,"Ġreplied":12203,"Ġcarp":12204,"Ġposter":12205,"atched":12206,"aman":12207,"Ġunlikely":12208,"nian":12209,"ĠPerson":12210,"amous":12211,"Ġtreats":12212,"Direc":12213,"ĠContin":12214,"ĠLane":12215,"orp":12216,"Ġheaven":12217,"utical":12218,"Ġanytime":12219,"Ġfence":12220,"Val":12221,"Ġinflamm":12222,"ĠMort":12223,"Custom":12224,"ĠPhilip":12225,"ĠDiam":12226,"âĨ":12227,"ĠOrganization":12228,"Ġdistinctive":12229,"Ġshield":12230,"quer":12231,"Ġharsh":12232,"Ġshed":12233,"Ġtremendous":12234,"Ġmouse":12235,"Ġtroubles":12236,"ĠCommand":12237,"Ġallerg":12238,"ĠThird":12239,"Ġedited":12240,"Published":12241,"rs":12242,"requ":12243,"tier":12244,"ĠDate":12245,"ĠBeat":12246,"Wi":12247,"missions":12248,"Ġpaths":12249,"Ġlimitations":12250,"GR":12251,"Ġadvocate":12252,"ĠNetflix":12253,"burn":12254,"ĠBE":12255,"Ġreven":12256,"Ġhumanity":12257,"Ġconsent":12258,"Ġvessels":12259,"raig":12260,"ĠKings":12261,"Ġsnap":12262,"ĠSprings":12263,"working":12264,"Ġreaches":12265,"Ġpants":12266,"Ġintelligent":12267,"Ġidentifying":12268,"ĠAntonio":12269,"Ġsuite":12270,"ardo":12271,"Ġsuperb":12272,"Ġjacket":12273,"glas":12274,"Ġpeaceful":12275,"Ġfallen":12276,"Ġoverlook":12277,"ĠExcell":12278,"isode":12279,"Ġvariations":12280,"Ġ95":12281,"Ġwidth":12282,"Ġaddiction":12283,"Ġagenda":12284,"Ġinvested":12285,"Ġsuck":12286,"Ġmedications":12287,"Ġritual":12288,"Ġdealer":12289,"Ġinhabit":12290,"Ġdelicate":12291,"Ġrelate":12292,"ĠAgricult":12293,"nic":12294,"inge":12295,"ainian":12296,"ĠPhotography":12297,"Ġhi":12298,"Ġvon":12299,"Ġflavors":12300,"ĠLam":12301,"parency":12302,"Ġlaboratory":12303,"Ġbits":12304,"Ġtempor":12305,"Ġcolorful":12306,"Ġreserved":12307,"Ġgrants":12308,"Ġsatisfy":12309,"ĠWalker":12310,"ĠBelow":12311,"ĠIslamic":12312,"ĠFlo":12313,"ĠBapt":12314,"ĠRO":12315,"Ġhanded":12316,"Bre":12317,"ibutor":12318,"Ġveteran":12319,"Special":12320,"Ġbund":12321,"ĠGary":12322,"Ġvel":12323,"Ġbatch":12324,"ĠValent":12325,"Ġremod":12326,"Ġdeadline":12327,"Ġexecuted":12328,"ĠDri":12329,"Ġcontributing":12330,"Ġscreening":12331,"Ġ43":12332,"Ġenrich":12333,"Ġshoe":12334,"iffs":12335,"party":12336,"ĠPosts":12337,"Ġpenalty":12338,"ĠMagic":12339,"ĠHalloween":12340,"ĠSide":12341,"ĠMilitary":12342,"wind":12343,"Ġteaches":12344,"ĠCrit":12345,"Ġthro":12346,"Ġessence":12347,"Ġmounted":12348,"elta":12349,"chem":12350,"idal":12351,"ĠSoul":12352,"2004":12353,"check":12354,"itutes":12355,"Ġhesitate":12356,"Ġpp":12357,"Ġmedic":12358,"Ġnurse":12359,"ĠNation":12360,"ĠCos":12361,"Ġgrocery":12362,"ographical":12363,"Ġshadow":12364,"rine":12365,"forming":12366,"Ġmatt":12367,"amsung":12368,"ĠBruce":12369,"Ġbones":12370,"ml":12371,"Donald":12372,"Ġfancy":12373,"Ġmobility":12374,"Ġsignificance":12375,"Ġsemester":12376,"atical":12377,"Ġfestivals":12378,"ĠJoin":12379,"such":12380,"Ġ08":12381,"ĠDenver":12382,"Ġbuff":12383,"Ġinterns":12384,"ĠLot":12385,"ĠConcer":12386,"asant":12387,"97":12388,"wegian":12389,"Ġretailers":12390,"ingle":12391,"Sy":12392,"Ġdose":12393,"Ġlabour":12394,"Ġtale":12395,"oto":12396,"Ġconfront":12397,"],":12398,"ĠMust":12399,"Buy":12400,"oustic":12401,"Ġattracted":12402,"Ġcarrier":12403,"Big":12404,"Ġ41":12405,"utenant":12406,"Ġcrossing":12407,"Follow":12408,"Ġdirty":12409,"Ġstopping":12410,"advant":12411,"Ġcombines":12412,"Ġdimensions":12413,"ĠReserve":12414,"Ġentries":12415,"250":12416,"Ġalert":12417,"Ġghost":12418,"Know":12419,"izable":12420,"Ġportrait":12421,"Ġtreating":12422,"Ġgene":12423,"tile":12424,"pring":12425,"Creat":12426,"ĠMachine":12427,"Full":12428,"Ġcyber":12429,"ĠRecord":12430,"manship":12431,"ĠLooking":12432,"ĠRoute":12433,"Ġevolved":12434,"Ġevident":12435,"ĠPalace":12436,"CON":12437,"comed":12438,"aceutical":12439,"Ġbout":12440,"ĺħ":12441,"Ġseemingly":12442,"ĠRoberts":12443,"Ġportable":12444,"Sometimes":12445,"iev":12446,"Ġtricks":12447,"Ġfigured":12448,"Ġbump":12449,"Ġcarto":12450,"ĠElement":12451,"omework":12452,"Ġaccidents":12453,"icked":12454,"ĠPitts":12455,"Ġexperimental":12456,"ĠCab":12457,"ĠTu":12458,"oca":12459,"600":12460,"usions":12461,"alling":12462,"ĠCase":12463,"Ġdried":12464,"Ġcruise":12465,"ĠHERE":12466,"ĠStudios":12467,"Ġleak":12468,"oths":12469,"Ġmerc":12470,"Ġtiming":12471,"Ġintervention":12472,"Ġlease":12473,"ĠVit":12474,"Ġforming":12475,"Air":12476,"Ġnutrients":12477,"Ġmunicipality":12478,"Ġshoulders":12479,"ĠPos":12480,"Ġarc":12481,"ĠFab":12482,"Ġovers":12483,"ĠFL":12484,"ĠBetween":12485,"ĠGene":12486,"pting":12487,"Ġbeings":12488,"Ġattacked":12489,"timore":12490,"Ġfreel":12491,"Ġcopper":12492,"Hz":12493,"ĠLouisiana":12494,"ĠLinux":12495,"ILL":12496,"ĠMasters":12497,"haw":12498,"ĠBrun":12499,"UD":12500,"Ġrestored":12501,"Ġcompanion":12502,"Ġbuilds":12503,"ĠTurkish":12504,"ijuana":12505,"Ġbronze":12506,"Ġpeer":12507,"Ġgenetic":12508,"ĠJazz":12509,"Ġtransformed":12510,"ulus":12511,"ĠPerfect":12512,"Ġ52":12513,"ividually":12514,"Ġdeciding":12515,"Ġtraveled":12516,"Ġrolled":12517,"Ġvinyl":12518,"ĠSource":12519,"aph":12520,"effective":12521,"ĠAut":12522,"Ġlips":12523,"atar":12524,"ĠIsraeli":12525,"ickets":12526,"Ġstepped":12527,"Ġpatience":12528,"emes":12529,"Ġweakness":12530,"ĠTrain":12531,"rupted":12532,"Ġdesert":12533,"Ġafterwards":12534,"Ġignore":12535,"ĠFine":12536,"Ġconsisting":12537,"ĠTower":12538,"----":12539,"Look":12540,"Cap":12541,"shine":12542,"SH":12543,"Ġfootage":12544,"ĠAns":12545,"Ġattractions":12546,"Ġties":12547,"Ġcaf":12548,"Ġhonestly":12549,"ĠSpeed":12550,"Ġcrossed":12551,"ĠCand":12552,"Ġexpecting":12553,"Ġcleaned":12554,"ĠLE":12555,"Ġbriefly":12556,"shop":12557,"orer":12558,"ĠPeak":12559,"Ġemerged":12560,"Ġpresidential":12561,"ĠFI":12562,"Ġconsecutive":12563,"Ġanybody":12564,"ĠCommunications":12565,"ĠAppro":12566,"ĠCharlie":12567,"ww":12568,"Ġrequiring":12569,"ĠCurrently":12570,"Ġpassage":12571,"tings":12572,"Ġwax":12573,"ĠArticle":12574,"ques":12575,"ĠAch":12576,"osi":12577,"Ġprofound":12578,"Ġgrades":12579,"Ġcreatures":12580,"Ġapproached":12581,"ĠIntellig":12582,"Ġcanvas":12583,"email":12584,"ĠVirtual":12585,"Ġcheer":12586,"Ġsponsored":12587,"Mil":12588,"Ġassumed":12589,"Ġdrawings":12590,"ĠComple":12591,"ĠUrban":12592,"Ġpresenting":12593,"ĠDak":12594,"Ġhal":12595,"ĠAqu":12596,"irable":12597,"Ġpracticing":12598,"celona":12599,"Ġrestricted":12600,"thesis":12601,"Ġrivers":12602,"hel":12603,"Ġwrapped":12604,"ĠBos":12605,"Ġhunt":12606,"trans":12607,"ĠED":12608,"abad":12609,"Ġpartnerships":12610,"Ġlying":12611,"ĠYOUR":12612,"PD":12613,"ĠAlways":12614,"together":12615,"Ġincom":12616,"ĠRestaur":12617,"isan":12618,"quet":12619,"SL":12620,"Ġuncomfortable":12621,"ĠGordon":12622,"Ġbranding":12623,"Ġranges":12624,"Ġok":12625,"Ġstadium":12626,"Ġinclusion":12627,"asi":12628,"iterr":12629,"Ġ360":12630,"neath":12631,"ĠTaiwan":12632,"Chris":12633,"Ġlogi":12634,"ython":12635,"elihood":12636,"eces":12637,"istical":12638,"Pol":12639,"Ġcord":12640,"Ġinterpre":12641,"Ġsacrif":12642,"Ġmetab":12643,"Ġalgorithm":12644,"Ġlogin":12645,"Jul":12646,"Ġlegendary":12647,"Ġdup":12648,"driven":12649,"Ġcycl":12650,"gments":12651,"ĠCaribbean":12652,"Ġdrew":12653,"Ġworkflow":12654,"Ġbacking":12655,"Ġvessel":12656,"lining":12657,"Sk":12658,"Ang":12659,"ĠKer":12660,"Ġshine":12661,"Ġfool":12662,"Create":12663,"Ġpromises":12664,"Ġadjacent":12665,"Ġprogrammes":12666,"ĠLib":12667,"Ġ01":12668,"ĠAdvanced":12669,"gate":12670,"ĠSelect":12671,"ensively":12672,"Ġmeasurement":12673,"Ġopponent":12674,"ews":12675,"ĠCharlotte":12676,"Ġinaug":12677,"uity":12678,"ĠCash":12679,"Ġbacked":12680,"Ġcommissioned":12681,"ĠBath":12682,"ennial":12683,"Ġappealing":12684,"imm":12685,"ĠObs":12686,"Ġdisappointed":12687,"Ġforecast":12688,"oded":12689,"Ġliability":12690,"63":12691,"omatic":12692,"ĠSM":12693,"Ġbasics":12694,"Ġidentification":12695,"Ġmetres":12696,"Ġinfluences":12697,"Phil":12698,"ĠSad":12699,"Ġhumor":12700,"omy":12701,"Ġrecipient":12702,"Hy":12703,"Ġador":12704,"ĠPrincip":12705,"Ġmakers":12706,"Ġadmission":12707,"Ġrated":12708,"Ġdemanding":12709,"anz":12710,"onomic":12711,"ĠInv":12712,"ĠHell":12713,"Ġnail":12714,"Ġhike":12715,"ĠUSD":12716,"ĠOrleans":12717,"iginally":12718,"Build":12719,"QU":12720,"92":12721,"ĠGro":12722,"ĠCole":12723,"arrass":12724,"urope":12725,"Ġdevast":12726,"Ġlover":12727,"ĠCancer":12728,"Ġlogic":12729,"ĠJacob":12730,"Ġbride":12731,"Ġenemies":12732,"ĠHarvard":12733,"opes":12734,"Ġseasonal":12735,"ĠStre":12736,"ĠInn":12737,"ĠNev":12738,"ĠHugh":12739,"?!":12740,"ĠSA":12741,"Ġthrowing":12742,"Ġdiameter":12743,"Ġdigit":12744,"around":12745,"Ġdozens":12746,"Ġdemo":12747,"62":12748,"Emp":12749,"sup":12750,"Ġmyth":12751,"Ġeasiest":12752,"icting":12753,"illery":12754,"ĠPractice":12755,"Ġspecialty":12756,"Ġappointments":12757,"Li":12758,"ĠProperty":12759,"Ġthesis":12760,"Ġmarketplace":12761,"ĠAdams":12762,"Ġmaximize":12763,"essed":12764,"Ã£":12765,"Ġampl":12766,"ĠSel":12767,"Ġspouse":12768,"iance":12769,"Ġcryptocur":12770,"Ġstainless":12771,"ĠDE":12772,"Priv":12773,"ordination":12774,"Ġepic":12775,"87":12776,"Ġbust":12777,"icon":12778,"Ġcoastal":12779,"Ġstartup":12780,"ĠKam":12781,"ĠGrace":12782,"pen":12783,"ÅĤ":12784,"omer":12785,"Ġcostly":12786,"ycled":12787,"Ġcontainers":12788,"arios":12789,"Ġfacial":12790,"Ġclarity":12791,"ĠPath":12792,"veland":12793,"ĠStop":12794,"Ġfoam":12795,"Ġfootballer":12796,"Ġcolored":12797,"ĠCommercial":12798,"pay":12799,"Ġstere":12800,"acc":12801,"Ġhomeless":12802,"rowing":12803,"ĠCa":12804,"ĠTam":12805,"Ġgraduation":12806,"vet":12807,"British":12808,"andra":12809,"ido":12810,"nishing":12811,"Ġ1963":12812,"Ġprospects":12813,"Ġorganised":12814,"Ġdying":12815,"ĠAlaska":12816,"ĠiPad":12817,"Ġinterpretation":12818,"ateral":12819,"Ġbin":12820,"ĠGate":12821,"ĠDad":12822,"UK":12823,"uins":12824,"Ġaffiliate":12825,"ĠLGBT":12826,"ste":12827,"ĠApplication":12828,"ĠThai":12829,"ĠMississippi":12830,"ĠFast":12831,"tends":12832,"Ġradical":12833,"ĠIndustrial":12834,"dem":12835,"Ġreflected":12836,"ĠConnecticut":12837,"ders":12838,"ĠCreate":12839,"ĠDublin":12840,"Sur":12841,"Ġsweep":12842,"ĠAustria":12843,"BL":12844,"Watch":12845,"Ġperception":12846,"Arch":12847,"ĠCC":12848,"Ġanimated":12849,"Ġpeers":12850,"Ġwelcomed":12851,"ĠFly":12852,"Ġreminder":12853,"Ġreminded":12854,"ĠEN":12855,"Ġaging":12856,"ĠStay":12857,"Ġspell":12858,"ĠDubai":12859,"Ġpossession":12860,"Ġscream":12861,"mediate":12862,"Ġrefres":12863,"ĠPhoenix":12864,"ĠExchange":12865,"Ġjudges":12866,"ĠDIY":12867,"Ġbets":12868,"gical":12869,"Ġmutual":12870,"FS":12871,"61":12872,"Rich":12873,"Ġromance":12874,"Ġpermitted":12875,"liver":12876,"Ġ(âĢľ":12877,"astics":12878,"lee":12879,"Ġscroll":12880,"Ġpriorit":12881,"Ġprizes":12882,"CAA":12883,"Head":12884,"Ġdesires":12885,"94":12886,"Ġ%":12887,"uese":12888,"Ġlighter":12889,"ĠHawaii":12890,"2003":12891,"ĠTro":12892,"ĠRab":12893,"ectors":12894,"mented":12895,"Ġ1944":12896,"ĠMaking":12897,"ĠTechnical":12898,"Ġintensity":12899,"Ġpurple":12900,"Ġcycling":12901,"Ġ1962":12902,"ĠCatal":12903,"Based":12904,"Ġ85":12905,"Ġsalad":12906,"Ġvolumes":12907,"ĠAnalysis":12908,"Ġcorresponding":12909,"ĠSimilar":12910,"Ġdentist":12911,"vals":12912,"think":12913,"eption":12914,"agi":12915,"iterranean":12916,"Ġprotective":12917,"ĠElectric":12918,"James":12919,"ois":12920,"Alex":12921,"hrive":12922,"Ġgenus":12923,"Ġargue":12924,"thrive":12925,"Ġmodules":12926,"Ġtends":12927,"Â»":12928,"mad":12929,"Ġlogistics":12930,"Ġsurviv":12931,"ĠWedding":12932,"Ġboring":12933,"82":12934,"core":12935,"ĠDefense":12936,"Family":12937,"Ġdestruction":12938,"Ġhealthier":12939,"ĠNa":12940,"Ġstrengths":12941,"Ġcriticism":12942,"ania":12943,"Ġearliest":12944,"Ġly":12945,"ountry":12946,"formed":12947,"Ġprecision":12948,"Ġlanded":12949,"Ġreadily":12950,"ĠPlayer":12951,"ĠBelgium":12952,"nished":12953,"Ġcamps":12954,"Ġdestinations":12955,"Ġhonored":12956,"about":12957,"Ġcritics":12958,"irs":12959,"Ġcalories":12960,"Ġchamber":12961,"Ġviolent":12962,"ĠFish":12963,"ĠLisa":12964,"Ġthrive":12965,"enery":12966,"gregation":12967,"Ġneat":12968,"Ġ47":12969,"Ġtwi":12970,"Ġclosest":12971,"bat":12972,"ĠImages":12973,"Ġgest":12974,"Ġts":12975,"Ġconcerts":12976,"Ġbell":12977,"Ġcab":12978,"91":12979,"Ġethnic":12980,"Ġvalued":12981,"Ġtrainer":12982,"blem":12983,"nen":12984,"Ġachievements":12985,"Ġstraw":12986,"Ġinnoc":12987,"Ġtranslated":12988,"Ġformerly":12989,"ĠCover":12990,"Ġindividually":12991,"Ġforests":12992,"ĠLank":12993,"Ġfet":12994,"Ġvegan":12995,"Ġbikes":12996,"Mag":12997,"ĠNep":12998,"rons":12999,"ĠFell":13000,"Ġtoss":13001,"Ġformats":13002,"ML":13003,"Ġdow":13004,"Ġpainter":13005,"ĠScient":13006,"Ġspecifications":13007,"Ġskip":13008,"Ġriders":13009,"Ġdenied":13010,"ĠMeet":13011,"Ġarise":13012,"Ġsuicide":13013,"Ġdetection":13014,"Ġtwin":13015,"TML":13016,"Ġreson":13017,"ĠRace":13018,"WS":13019,"Ġfavorites":13020,"ĠGas":13021,"isp":13022,"Ġcrystal":13023,"Ġmagnific":13024,"ĠBoys":13025,"Ġmainstream":13026,"good":13027,"oples":13028,"kee":13029,"DR":13030,"Ġdele":13031,"Ġworthy":13032,"ĠCentury":13033,"ĠMail":13034,"Ġpollution":13035,"Associ":13036,"apeutic":13037,"ĠGulf":13038,"eplay":13039,"Ġneuro":13040,"84":13041,"Ġacceptance":13042,"ĠCleveland":13043,"arms":13044,"ĠThompson":13045,"iel":13046,"Ġquit":13047,"Ġreceip":13048,"uds":13049,"ourt":13050,"isd":13051,"Ġles":13052,"Ġdict":13053,"ĠYan":13054,"Ġeducate":13055,"Ġgeomet":13056,"ĠBlood":13057,"Russ":13058,"Ġfed":13059,"Three":13060,"Ġdisag":13061,"Ġtiles":13062,"Ġinclusive":13063,"Cent":13064,"Ġessays":13065,"ĠHost":13066,"Ġpublicly":13067,"Ġshout":13068,"espread":13069,"Ġstupid":13070,"ĠMunicip":13071,"Ġnicely":13072,"Ġlocals":13073,"bitr":13074,"Ob":13075,"ĠLock":13076,"je":13077,"telling":13078,"Ġrejected":13079,"ĠAttorney":13080,"ĠLuck":13081,"Ġtravels":13082,"ĠCoffee":13083,"ĠFu":13084,"Ġpreventing":13085,"tage":13086,"ĠTownship":13087,"Ġinterf":13088,"ĠHonor":13089,"Ġfuneral":13090,"Ġprestigious":13091,"icop":13092,"Ġbasement":13093,"ĠLux":13094,"ĠOften":13095,"audi":13096,"ĠVent":13097,"Ä±":13098,"aneous":13099,"ĠUpon":13100,"Ġgross":13101,"iplinary":13102,"conf":13103,"Tom":13104,"Ġcurve":13105,"ulates":13106,"ĠOrchestra":13107,"Ġappliances":13108,"Ġworlds":13109,"Ġprospect":13110,"ocate":13111,"ĠHi":13112,"ambo":13113,"ĠLad":13114,"ĠJose":13115,"ĠBeth":13116,"ĠBirth":13117,"torneys":13118,"ĠRussell":13119,"Ġintegral":13120,"Ġconsciousness":13121,"bn":13122,"Ġsilence":13123,"ĠMic":13124,"Due":13125,"Ġstack":13126,"Ġstruggles":13127,"Ġlongest":13128,"Ġseating":13129,"Green":13130,"erick":13131,"Ġmul":13132,"Which":13133,"Data":13134,"Ġnurt":13135,"Those":13136,"Ġdonate":13137,"Ġblame":13138,"Ġreun":13139,"Ġavo":13140,"93":13141,"irates":13142,"ĠDa":13143,"Ġconditioning":13144,"ĠEV":13145,"ĠMcG":13146,"Ġdraws":13147,"Ġelectro":13148,"ĠStrateg":13149,"Ġescort":13150,"Ġvitamin":13151,"ĠSep":13152,"Cle":13153,"Ġoffense":13154,"ĠKo":13155,"Ġsolving":13156,"ĠBM":13157,"Ġtongue":13158,"ĠIndependent":13159,"Ġfunctioning":13160,"Ġseller":13161,"Ġcorners":13162,"Ġorganizing":13163,"ĠMars":13164,"Google":13165,"ĠLawrence":13166,"plant":13167,"ĠLegal":13168,"eted":13169,"immer":13170,"Ġbarriers":13171,"ĠWat":13172,"Ġprescription":13173,"vation":13174,"nburgh":13175,"phan":13176,"WA":13177,"Ġkeywords":13178,"Ġreliability":13179,"Ġhomeowners":13180,"Ġshame":13181,"Ġcrimes":13182,"ivia":13183,"ĠMetro":13184,"Ġunnecessary":13185,"Ġaddressing":13186,"Ġconfusion":13187,"Ġprofessionally":13188,"ĠPL":13189,"Ġmeasurements":13190,"Ġscatter":13191,"Ġdeliber":13192,"Ġduo":13193,"phy":13194,"Äį":13195,"ACK":13196,"ĠVinc":13197,"ĠMath":13198,"Ġpopulations":13199,"ĠCouns":13200,"Ġassists":13201,"Ġsatellite":13202,"Ġwoods":13203,"ermal":13204,"ĠHad":13205,"Ġregime":13206,"uerto":13207,"Ġpriest":13208,"shore":13209,"Ġdiscounts":13210,"ĠWard":13211,"ĠArtist":13212,"ĠDragon":13213,"ĠLegisl":13214,"ãģ":13215,"Ġchains":13216,"hrew":13217,"Ġcargo":13218,"Ġdirectory":13219,"ĠGM":13220,"Ġdiamond":13221,"achers":13222,"Ġdeparture":13223,"Ġgroom":13224,"Ã¡n":13225,"Ġshipped":13226,"Ġmeasuring":13227,"Ġmanages":13228,"Ġembarrass":13229,"Ġconsume":13230,"ĠDol":13231,"Ġthrilled":13232,"asis":13233,"ĠIC":13234,"Ġcub":13235,"Ġreactions":13236,"ĠNelson":13237,"Ġsmoothly":13238,"Ġpays":13239,"ĠFal":13240,"Ġlibraries":13241,"Organ":13242,"Ġrugby":13243,"ĠChel":13244,"ĠOri":13245,"Ġcontinually":13246,"Ġprosper":13247,"ĠCool":13248,"ĠFat":13249,"school":13250,"Ġjam":13251,"ĠSale":13252,"Ġabstract":13253,"ellers":13254,"threw":13255,"Ġmerchand":13256,"issance":13257,"Ġfortunate":13258,"Ġprofitable":13259,"Ġranks":13260,"Ġquotes":13261,"Ġhygi":13262,"post":13263,"ĠNurs":13264,"Ġrewarding":13265,"Ġdisability":13266,"Ġvisitor":13267,"ĠSquad":13268,"83":13269,"Port":13270,"Ġhood":13271,"ĠPap":13272,"ĠKate":13273,"adows":13274,"ĠThor":13275,"ĠRy":13276,"Support":13277,"ĠHair":13278,"Only":13279,"Ġathletic":13280,"Ġsurroundings":13281,"ĠKay":13282,"ĠTi":13283,"oubted":13284,"ĠBarbara":13285,"Ġbiological":13286,"Ġdamages":13287,"School":13288,"eastern":13289,"ĠMall":13290,"Ġathlete":13291,"Ġencourages":13292,"Ġacceptable":13293,"ĠQueensland":13294,"Ġneeding":13295,"nedy":13296,"Ġrecommendation":13297,"mg":13298,"Ġcuisine":13299,"amel":13300,"Ġinval":13301,"Ġ07":13302,"PG":13303,"ĠEditor":13304,"auge":13305,"Ġreign":13306,"ĠInstall":13307,"Ãº":13308,"ĠEns":13309,"URE":13310,"Enter":13311,"specific":13312,"Ġpoems":13313,"ĠTun":13314,"nan":13315,"Ġoptimization":13316,"Ġkingdom":13317,"Ġelderly":13318,"Ġopera":13319,"Ġloyalty":13320,"Ser":13321,"ĠWoman":13322,"Ġinfections":13323,"Ġsecretary":13324,"Ġunderneath":13325,"Ġmanually":13326,"Ġclay":13327,"Ġhydr":13328,"Ġordering":13329,"ĠShel":13330,"Ġassisted":13331,"ĠCN":13332,"ĠChristians":13333,"ĠVision":13334,"Ġpriorities":13335,"Ġtreas":13336,"inst":13337,"berries":13338,"Track":13339,"Ġcrush":13340,"ĠRoll":13341,"Ġfears":13342,"laimed":13343,"ĠDirectors":13344,"Ep":13345,"Ġstroke":13346,"uitive":13347,"ĠFant":13348,"ĠJob":13349,"ĠOperations":13350,"Ġtoxic":13351,"ORT":13352,"tails":13353,"Ġmindset":13354,"Ġminimize":13355,"Ġ1961":13356,"Ġspecially":13357,"ontal":13358,"ĠMarie":13359,"ĠDemocrats":13360,"ĠMountains":13361,"ĠCass":13362,"Ġrenovation":13363,"Ġundergraduate":13364,"VC":13365,"Ġ72":13366,"Ġbarrier":13367,"endment":13368,"Ġlately":13369,"holder":13370,"Ġnuts":13371,"Ġseeks":13372,"Ġroofing":13373,"Ġbesides":13374,"ĠInnovation":13375,"ĠChampion":13376,"Ġcompelling":13377,"space":13378,"ĠLiverpool":13379,"nell":13380,"ĠMeanwhile":13381,"Ġplumbing":13382,"Ġwellbeing":13383,"ibutors":13384,"ĠDist":13385,"acco":13386,"fund":13387,"building":13388,"ricane":13389,"ctic":13390,"ĠLaura":13391,"uy":13392,"Ġexperiments":13393,"Ġpond":13394,"ĠWeight":13395,"Ġconsolid":13396,"Ġhoped":13397,"2001":13398,"Ġenthusiasm":13399,"Ġreass":13400,"Ġmoderate":13401,"Ġexplicit":13402,"Location":13403,"ĠLang":13404,"depth":13405,"Ġeco":13406,"Ġpotatoes":13407,"Ġborders":13408,"Ġdisabled":13409,"awl":13410,"ĠHunter":13411,"ĠFame":13412,"Ġconducting":13413,"arin":13414,"Ġmissions":13415,"Ġgeneric":13416,"white":13417,"Ġencry":13418,"Ġoccasional":13419,"Ġwag":13420,"Ġpsychology":13421,"borough":13422,"ĠMedal":13423,"ĠDirect":13424,"Ġspa":13425,"Ġagreements":13426,"BR":13427,"Vol":13428,"ĠMaterial":13429,"Ġlaunching":13430,"ando":13431,"idy":13432,"Ġmattress":13433,"Ġwidespread":13434,"ĠTrop":13435,"arents":13436,"Ġmaker":13437,"Ġmanufacture":13438,"ĠLuke":13439,"Ter":13440,"Ġridic":13441,"wing":13442,"aik":13443,"Ġpromising":13444,"Ġcinema":13445,"Though":13446,"Ġaccepting":13447,"Sam":13448,"umbers":13449,"Ġmarry":13450,"hink":13451,"2002":13452,"Ġcharm":13453,"ĠBright":13454,"ĠWant":13455,"Ġhighlighted":13456,"ĠBrothers":13457,"mingham":13458,"ĠFashion":13459,"Ġunderstands":13460,"Ġamenities":13461,"Ġmg":13462,"ervices":13463,"ĠBarcelona":13464,"Ġimmigration":13465,"Web":13466,"Ġhass":13467,"!!!!":13468,"Ġpreference":13469,"plan":13470,"taining":13471,"uh":13472,"plus":13473,"Ġast":13474,"ĠWalter":13475,"Ġbom":13476,"ĠIan":13477,"ounced":13478,"Ġtherapist":13479,"Education":13480,"ĠTrue":13481,"Ġburden":13482,"Ġstarring":13483,"ĠCertified":13484,"Ġreads":13485,"Ġrides":13486,"tanks":13487,"Ġinstrumental":13488,"downs":13489,"ĠFeatures":13490,"ĠWayne":13491,"Ġbroker":13492,"ï¼":13493,"!).":13494,"oubtedly":13495,"Ġproposals":13496,"Ġgray":13497,"Ġsafer":13498,"Ġ1948":13499,"Ġjail":13500,"amins":13501,"Ġentity":13502,"Ġcoin":13503,"ĠNord":13504,"ĠML":13505,"Ġniche":13506,"ĠDetails":13507,"isting":13508,"Ġverify":13509,"Ġsuspended":13510,"Ġjudgment":13511,"Ġintrig":13512,"Ġisolated":13513,"ĠOcc":13514,"wealth":13515,"Ġconsistency":13516,"ĠScholars":13517,"ĠDouglas":13518,"Ġcave":13519,"ĠStars":13520,"Ġft":13521,"ĠKitchen":13522,"Ġnam":13523,"ingo":13524,"Ġ1942":13525,"tering":13526,"Ġvacuum":13527,"Ġpairs":13528,"ĠGran":13529,"bris":13530,"Ġgrind":13531,"ĠQuestions":13532,"umph":13533,"ĠGetting":13534,"Ġmayor":13535,"Ġsnacks":13536,"Ġsubstitute":13537,"Ġthrew":13538,"marks":13539,"Di":13540,"ĠWine":13541,"Ġwarehouse":13542,"Ġcitizen":13543,"Ġregret":13544,"ĠJusti":13545,"Ġintake":13546,"Ġpine":13547,"Ġcoconut":13548,"Ġelectronics":13549,"Ġfragr":13550,"ĠISO":13551,"Ġconnects":13552,"ibuted":13553,"ifle":13554,"ĠRi":13555,"Ġplanted":13556,"ANT":13557,"andal":13558,"Ġdiagnosed":13559,"Ġattendees":13560,"entials":13561,"Ġrecycling":13562,"lav":13563,"Ġcomplaints":13564,"hum":13565,"Ġintroducing":13566,"Ġmush":13567,"ĠMini":13568,"Ġbooked":13569,"Ġappearing":13570,"Ġclever":13571,"Ġelite":13572,"df":13573,"ĠSched":13574,"PE":13575,"Ġemplo":13576,"houses":13577,"ĠStrategy":13578,"othy":13579,"Ġexecute":13580,"onel":13581,"Sch":13582,"oline":13583,"Ã¼r":13584,"ĠSusan":13585,"sterdam":13586,"ĠBeng":13587,"Stre":13588,"shirt":13589,"ulu":13590,"Ġphysics":13591,"Ġbackgrounds":13592,"Ġobtaining":13593,"ĠTurn":13594,"Ġglobally":13595,"ĠImage":13596,"ĠSin":13597,"Ġtile":13598,"Ġshades":13599,"Ġunemploy":13600,"CR":13601,"ĠBaltimore":13602,"ograph":13603,"81":13604,"Ġpersu":13605,"ĠJohan":13606,"cal":13607,"green":13608,"eoret":13609,"Ġfreely":13610,"Ġsquee":13611,"asketball":13612,"ĠBrazilian":13613,"Ġfundraising":13614,"Ġtanks":13615,"Ġapartments":13616,"heoret":13617,"Ġwore":13618,"Ġvig":13619,"Ġattributes":13620,"Ġimproves":13621,"ĠYeah":13622,"Ġrunner":13623,"Final":13624,"ĠLif":13625,"ĠCart":13626,"ĠConc":13627,"theoret":13628,"brand":13629,"Ġaccurately":13630,"Ġvendor":13631,"Ġstreams":13632,"Ġgraduating":13633,"Ġplugi":13634,"Ġplugin":13635,"Ġearnings":13636,"tech":13637,"scar":13638,"unday":13639,"Tim":13640,"Ġluxurious":13641,"Polit":13642,"ĠPortugal":13643,"shaped":13644,"GS":13645,"Ġconservative":13646,"ĠTheater":13647,"oriented":13648,"Ġunre":13649,"Ġgirlfriend":13650,"Ġtechnicians":13651,"Ġpenetr":13652,"ĠJimmy":13653,"Ġrespected":13654,"sky":13655,"Har":13656,"...]":13657,"urring":13658,"Ġexisted":13659,"Ġconstruct":13660,"âĢ¦âĢ¦":13661,"ĠAle":13662,"Ġsucceeded":13663,"Â©":13664,"Ġhonour":13665,"ĠNear":13666,"ĠAren":13667,"reement":13668,"ĠSay":13669,"Ġpoison":13670,"Ġresponsive":13671,"ĠAvailable":13672,"ĠAmy":13673,"Ġopponents":13674,"Ġcorporations":13675,"Long":13676,"Ġsensit":13677,"Ġhospitality":13678,"Ġwebin":13679,"eor":13680,"ĠAthen":13681,"Ġhandles":13682,"Ġ51":13683,"Ġabort":13684,"agrap":13685,"Ġcreator":13686,"ĠJonathan":13687,"ĠFaculty":13688,"Ġscenarios":13689,"Ġchemistry":13690,"Ġsensors":13691,"ĠAbd":13692,"Ġshelf":13693,"Ġunlimited":13694,"emporary":13695,"Ġhomework":13696,"Ġgenerating":13697,"Ġ1956":13698,"compass":13699,"Ġcatalog":13700,"Ġpremises":13701,"ĠAbr":13702,"ĠPittsburgh":13703,"ĠAlb":13704,"Shop":13705,"chair":13706,"Ġrecruitment":13707,"Ġestimates":13708,"Real":13709,"Ġdeem":13710,"Ġbuzz":13711,"Ġconfirmation":13712,"ĠConvention":13713,"End":13714,"Ġcontacted":13715,"ĠManufact":13716,"ĠHence":13717,"ascular":13718,"ĠAssess":13719,"icular":13720,"Conclusion":13721,"ĠSalt":13722,"Ġfinishes":13723,"ĠCommerce":13724,"pired":13725,"Ġreh":13726,"Ġprinter":13727,"Ġstating":13728,"Ġconvention":13729,"BE":13730,"Students":13731,"Tech":13732,"ĠChile":13733,"Ġgains":13734,"illo":13735,"Ġtires":13736,"ĠCelebr":13737,"ĠStories":13738,"Ġresistant":13739,"Ġcourtesy":13740,"brew":13741,"ï»":13742,"reck":13743,"Ġcleaner":13744,"LD":13745,"ĠPic":13746,"iscal":13747,"ĠOpera":13748,"Ġserial":13749,"uki":13750,"ĠBaseball":13751,"robe":13752,"avan":13753,"overnment":13754,"ĠCampbell":13755,"ĠBegin":13756,"ipment":13757,"Ġherbs":13758,"Ġstocks":13759,"service":13760,"Ġsized":13761,"Ġattraction":13762,"Ġcomed":13763,"Ġhabitat":13764,"Ġsexy":13765,"Ġcharming":13766,"Ġrod":13767,"Ġsubmission":13768,"ĠRoger":13769,"Mc":13770,"Getting":13771,"Power":13772,"Ġups":13773,"Ġrack":13774,"ĠWright":13775,"Ġstructured":13776,"pop":13777,"humb":13778,"ĠStewart":13779,"Ġarriving":13780,"shot":13781,"ountain":13782,"Ġdisadvant":13783,"Ġracial":13784,"Ġruled":13785,"ĠCold":13786,"span":13787,"Born":13788,"Ġtan":13789,"Research":13790,"rise":13791,"ĠMediterranean":13792,"ĠVerm":13793,"elivery":13794,"ĠDenmark":13795,"Works":13796,"inging":13797,"Ġadvanc":13798,"kers":13799,"ĠSustain":13800,"ioned":13801,"walk":13802,"ĠLabour":13803,"Ġflaw":13804,"ĠChristopher":13805,"Ġbugs":13806,"Ġoptional":13807,"Ġamid":13808,"Ġsuspension":13809,"Japan":13810,"Ġ1959":13811,"Meet":13812,"ĠToo":13813,"there":13814,"Ġdropping":13815,"ergy":13816,"ĠPad":13817,"hattan":13818,"Ġcustomize":13819,"Ġspeeds":13820,"emade":13821,"ï»¿":13822,"Ġresemb":13823,"ĠDental":13824,"Ġfloating":13825,"ĠLeader":13826,"Tur":13827,"Ġpraise":13828,"Ġtouched":13829,"erth":13830,"ĠBou":13831,"ĠNYC":13832,"Ġpermits":13833,"urities":13834,"Ġvariables":13835,"efe":13836,"Ġsinc":13837,"Ġcure":13838,"ĠRather":13839,"Ġlever":13840,"Ġnest":13841,"Ġmos":13842,"ĠWords":13843,"Ġassociations":13844,"Ġpremier":13845,"Ġscary":13846,"Ġtags":13847,"Min":13848,"Ġloading":13849,"Ã£o":13850,"Ġash":13851,"ĠSingh":13852,"Ġ1958":13853,"hole":13854,"Ġzoom":13855,"Ġlaundry":13856,"ĠColomb":13857,"leton":13858,"Ġwelfare":13859,"Ġbeating":13860,"Ġliver":13861,"ĠJustin":13862,"Ġfarms":13863,"ĠUser":13864,"ĠHend":13865,"pically":13866,"Ġmargin":13867,"Ġcombining":13868,"ĠLands":13869,"Name":13870,"inth":13871,"gence":13872,"rolog":13873,"Ġyeah":13874,"Ġbelonging":13875,"Ġthereby":13876,"insula":13877,"ĠImper":13878,"ĠPeters":13879,"ĠYellow":13880,"ivic":13881,"Ġtribute":13882,"ĠUkrainian":13883,"ĠEC":13884,"ĠAst":13885,"ĠBaptist":13886,"Ġwallet":13887,"Ġrefreshing":13888,"ĠGuy":13889,"ĠRs":13890,"ĠEdinburgh":13891,"ĠFM":13892,"Ġprivilege":13893,"Ġmuseums":13894,"ĠABC":13895,"Ġmaj":13896,"ĠLoading":13897,"HD":13898,"ĠAlice":13899,"Ġtransparency":13900,"Ġfailing":13901,"Ġgovernance":13902,"ĠCarter":13903,"Ġpuppy":13904,"Ġdelete":13905,"Ġdetermination":13906,"Ġtastes":13907,"Ġwaist":13908,"Ġbol":13909,"Ġnewspapers":13910,"Ġpacking":13911,"ĠZone":13912,"Ġmigration":13913,"Ġaffecting":13914,"background":13915,"Matt":13916,"San":13917,"Ġ1941":13918,"Ġleisure":13919,"ĠRV":13920,"Ġperspectives":13921,"Lead":13922,"Ġcandy":13923,"Ġstruggled":13924,"Ġvarying":13925,"ĠOthers":13926,"Ġmemorial":13927,"rik":13928,"Ġultra":13929,"ĠGraham":13930,"Ġzip":13931,"ĠCrown":13932,"Ġconsole":13933,"Ġdemol":13934,"eta":13935,"ĠBaker":13936,"French":13937,"Ġexplaining":13938,"eps":13939,"Ġcrafted":13940,"Ġargued":13941,"Ġsculpture":13942,"Ġes":13943,"worthy":13944,"ĠBenefits":13945,"imonials":13946,"Ġcrops":13947,"Ġwool":13948,"Ġscared":13949,"Ġ00":13950,"ĠNevertheless":13951,"LP":13952,"iah":13953,"Ġaccordingly":13954,"Remember":13955,"Ġrip":13956,"Ġweekends":13957,"bably":13958,"Ġ54":13959,"thumb":13960,"ĠFel":13961,"Ġappetite":13962,"ĠSoon":13963,"ĠStage":13964,"ĠMadrid":13965,"Ġindependently":13966,"Ġenerg":13967,"open":13968,"ĠKnight":13969,"ĠVac":13970,"Show":13971,"ĠKennedy":13972,"Ġtorn":13973,"ĠNag":13974,"ĠText":13975,"Ġstressful":13976,"Ġtrace":13977,"forced":13978,"amine":13979,"Ġdecorated":13980,"1990":13981,"Ġclassified":13982,"Ġcoinc":13983,"Ġcompound":13984,"Ġsuppose":13985,"Ġmysterious":13986,"Ġlockdown":13987,"OUT":13988,"Ġseniors":13989,"Ġanticipated":13990,"stick":13991,"Ġmechanisms":13992,"ĠWhatever":13993,"Ġbacks":13994,"lington":13995,"Ġpose":13996,"Select":13997,"emen":13998,"ĠIdent":13999,"ĠCT":14000,"ĠCommunication":14001,"Ġexpatri":14002,"lace":14003,"tooth":14004,"ĠNevada":14005,"Ġseparately":14006,"ĠAG":14007,"Doc":14008,"Script":14009,"Ġintend":14010,"Ġtheoret":14011,"Ġbattles":14012,"ĠClinton":14013,"Tele":14014,"isor":14015,"ĠBio":14016,"Ġethical":14017,"Ġparticipant":14018,"Ġvariation":14019,"iosity":14020,"umns":14021,"Ġhungry":14022,"Ġ02":14023,"stage":14024,"breaking":14025,"âĢĶâĢĶ":14026,"produc":14027,"Ġkits":14028,"ammar":14029,"Ġmanus":14030,"Ġvegetable":14031,"Ġhazard":14032,"Expl":14033,"ĠGib":14034,"ĠAfghanistan":14035,"Ġperpet":14036,"andi":14037,"Ġinvitation":14038,"Ġquar":14039,"archy":14040,"Ġreleasing":14041,"Ġmothers":14042,"Ġblocked":14043,"Ġleverage":14044,"ĠFreedom":14045,"acies":14046,"ĠImport":14047,"Ġpursuing":14048,"ĠAnim":14049,"Ġtattoo":14050,"ĠCompanies":14051,"Ġfails":14052,"ĠGreater":14053,"ĠGrade":14054,"Ġ04":14055,"Ġfirew":14056,"ĠSop":14057,"Plan":14058,"iker":14059,"Ġassignments":14060,"isb":14061,"Ġpound":14062,"Ġ1943":14063,"ĠSamsung":14064,"ĠEnc":14065,"Ġwarmt":14066,"ĠRobinson":14067,"Ġwarmth":14068,"Ġjumping":14069,"Ġrenamed":14070,"ĠDeputy":14071,"Ġrelaxation":14072,"Ġpenis":14073,"Mart":14074,"ĠFerr":14075,"ĠLoss":14076,"Ġjournalists":14077,"ongs":14078,"ĠCroat":14079,"ĠBilly":14080,"first":14081,"Ġpupils":14082,"Ġadvisor":14083,"Ġdealt":14084,"ĠProduction":14085,"ĠPrincess":14086,"Mean":14087,"ĠðŁĺ":14088,"Ġports":14089,"titude":14090,"ĠSleep":14091,"ĠFur":14092,"speed":14093,"idth":14094,"Ġstolen":14095,"Ġgrandmother":14096,"riors":14097,"Ġstroll":14098,"Ġthreatened":14099,"Local":14100,"Ġparticles":14101,"talion":14102,"hibition":14103,"Ġcirculation":14104,"Ġaudit":14105,"Ġ1957":14106,"asive":14107,"tral":14108,"opyright":14109,"mination":14110,"keeper":14111,"ĠME":14112,"Visit":14113,"Ġelabor":14114,"ĠCosta":14115,"ĠTerri":14116,"ĠPrimary":14117,"Ġcopyright":14118,"Working":14119,"nterest":14120,"SO":14121,"Ġdub":14122,"Ġ1939":14123,"ĠTagged":14124,"ixed":14125,"Cast":14126,"Ġpad":14127,"Ġdiving":14128,"elong":14129,"Ġdece":14130,"Ġtactics":14131,"Ġaccent":14132,"ĠArkansas":14133,"ĠKaz":14134,"Ġsponsor":14135,"Ann":14136,"Rob":14137,"Ġauthorized":14138,"ĠLar":14139,"ĠJudge":14140,"ĠCultural":14141,"ĠEye":14142,"ĠWE":14143,"Ġencountered":14144,"ĠMontreal":14145,"Ġcomputing":14146,"Ġtemplates":14147,"Ġchallenged":14148,"Ġenterprises":14149,"Gen":14150,"ĠSweet":14151,"ĠStyle":14152,"tasty":14153,"ĠMC":14154,"Friday":14155,"Ġclaiming":14156,"Ġseventh":14157,"normal":14158,"Ġuncertainty":14159,"Ġsooner":14160,"ĠWA":14161,"ampa":14162,"bus":14163,"Ġ1946":14164,"ĠLower":14165,"Ġbrowse":14166,"ĠPresent":14167,"ĠNorwegian":14168,"ĠSafe":14169,"ijing":14170,"ecurity":14171,"Ġapproaching":14172,"Nov":14173,"ture":14174,"Ġcounts":14175,"ĠSave":14176,"OME":14177,"Ġburst":14178,"Ġcollaborate":14179,"ĠDal":14180,"Ġprospective":14181,"Ġpicks":14182,"Ġacknowledge":14183,"ĠMorris":14184,"Ġarrives":14185,"Ġ1947":14186,"ĠRio":14187,"Ġtrash":14188,"Ġendors":14189,"Ġexhibitions":14190,"ITH":14191,"Ġlegitimate":14192,"âĺħ":14193,"hibi":14194,"ĠFocus":14195,"ĠPuerto":14196,"ĠCemetery":14197,"Ġmasc":14198,"Ġavoiding":14199,"Ġblade":14200,"Ġdimension":14201,"cies":14202,"Ġcomplaint":14203,"Ġdairy":14204,"Ġfabrics":14205,"Ġzones":14206,"Ġpockets":14207,"ĠGO":14208,"Ġruling":14209,"Ġbankrupt":14210,"German":14211,"Ġjet":14212,"Ġbeside":14213,"Ġincidents":14214,"Ġrevers":14215,"Ġrunners":14216,"Ġdated":14217,"ĠNam":14218,"Ġ03":14219,"enz":14220,"Ġadvertis":14221,"Ġpressing":14222,"rated":14223,"Ġinfluential":14224,"Ġramp":14225,"Ġcancelled":14226,"Ġweddings":14227,"Ġod":14228,"Ġ\\":14229,"Ġsurgical":14230,"enez":14231,"Ġrecovered":14232,"Ġgrandfather":14233,"Ġorg":14234,"uda":14235,"Ġinformative":14236,"ĠFriend":14237,"Ġfertil":14238,"covery":14239,"Ġtasty":14240,"apor":14241,"Ġviagra":14242,"ICK":14243,"rogen":14244,"getic":14245,"hang":14246,"Max":14247,"Ġcentres":14248,"ĠGlo":14249,"Ġpaste":14250,"ĠAw":14251,"Ġentities":14252,"ĠMul":14253,"Ġpipes":14254,"Ġvisa":14255,"Try":14256,"Ġgad":14257,"ĠBrid":14258,"Ġobstacles":14259,"ĠRepair":14260,".[":14261,"Ġnearest":14262,"ĠIntelligence":14263,"ĠParker":14264,"Ġphenomenon":14265,"Ġpromotional":14266,"Ġreconstr":14267,"Ġjurisd":14268,"aunting":14269,"abul":14270,"ĠPortuguese":14271,"ĠArgentina":14272,"ĠBeauty":14273,"Ġhobby":14274,"ĠMason":14275,"Ġteens":14276,"ĠTob":14277,"Ġsponsors":14278,"ĠGrey":14279,"ottage":14280,"ĠGPS":14281,"âĢĿ)":14282,"Ġnonprofit":14283,"Ġ06":14284,"Ġdemocracy":14285,"elsh":14286,
[...]
